#version: 0.2 - Trained by `huggingface/tokenizers`
d e
Ġ de
e n
Ġ "
o s
e s
e r
Ġ l
c i
o n
Ġ p
a r
Ġ a
Ġ c
Ġl a
o r
č Ċ
a n
Ġ m
a l
i n
Ġ e
Ġ s
Ã ³
Ġ y
a d
r e
u e
Ġ en
a s
Ġe l
i c
Ġ C
a m
u n
a ci
a t
t r
Ġc on
Ã³ n
Ã Ń
Ã ¡
t o
t e
Ġ n
Ã ©
ci a
Ġ es
Ġp r
i s
Ġ M
q ue
o m
t i
Ġ h
en cia
Ġde l
u t
i d
in a
f er
Ġ que
fer encia
on ferencia
Ġl os
d o
Ġ g
Ġm at
Ġ P
Ġmat ut
Ġmatut ina
b l
Ġ v
Ġ f
t a
Ġde s
Ġ d
am os
Ġ re
o l
Ġp ar
i m
Ġ un
Ġs e
ĠC onferencia
Ġ E
aci Ã³n
Ġ S
o b
Ġ A
u r
e m
i l
r es
i en
ic o
Ġ in
Ġc om
Ġ N
Ġpar a
t ar
Ġdes de
a c
Ġ T
a b
Ġp or
i a
en s
i r
e c
u s
Ġ b
Ġ L
i o
Ã ±
Ġ tr
aci on
Ġa l
e l
Ġla s
ÃŃ a
ens a
ic a
u l
er n
i ci
Ġn o
u c
ad o
x ico
ĠM Ã©
Ġ G
Ġm e
Ġ Ċ
ĠMÃ© xico
o y
i t
i v
Ġ R
de n
u d
i g
Ġp ue
er o
Ġ B
o c
u es
a j
acion al
Ġpr ensa
Ã¡ n
r a
Ã º
id ad
ci Ã³n
q u
Ġpue bl
f or
ad or
Ġ J
Ġ to
a y
s t
u m
Ġ D
Ã¡ s
Ġes t
ĠN acional
an do
Ġ t
u er
l o
Ġ V
Ġ I
e g
Ġs u
er s
Ġpr o
Ġ H
Ġ j
t os
Ġun a
t es
for m
r u
em os
Ġ o
l a
Ġa c
tr o
Ġpr es
Ġl o
Ġp a
Ġcom p
en te
on es
c o
i den
Ġpuebl o
g r
Ġg ob
i Ã³n
or a
r o
ĠP al
p e
al es
id a
l e
g o
r an
re c
aci o
im os
Ġ 1
Ġm Ã¡s
ad os
d a
Ġn ues
Ġ F
t er
de s
Ġa p
Ġ res
ad a
an a
Ġ 2
ĠPal acio
a Ã±
is t
Ġa m
m os
i os
i z
p er
tr a
p res
Ġcon s
E n
d os
ÃŃ s
C onferencia
z a
de r
Ġd i
en t
. "
Ġ O
Ġe m
Ġpres iden
ien es
Ġcom o
E l
m o
L a
h o
Ġs er
t u
i b
ab aj
Ġc am
Ġe x
Ġ im
i ern
ĠE st
c on
an te
er a
Ġn os
Ġpa ÃŃs
ĠC h
er m
Ġm il
ienes tar
Ġen t
t or
an os
i er
t en
Ġ ti
Ġtr abaj
Ãº bl
Ġ U
ĠE s
d ad
Ġc or
Ġ ci
Ġ qu
o ci
Ġ r
Ġs al
ien to
Ġim p
iern o
g u
Ġp o
Ġpresiden te
u en
ud ad
a p
ru p
v o
ador es
Ġto dos
Ġent re
ar io
Ġs ob
em p
or t
h u
tr os
ar r
an s
us ti
m a
t ica
u g
ĠI n
Ã© n
l an
gr am
x ic
ĠM ar
bl e
ĠR e
t ur
on s
Ġv iv
v is
Ġ2 0
H oy
v en
an o
Ġtr ans
Ġc u
Ġgob ern
Ġp ero
Ġre un
ĠE l
form aciÃ³n
i to
Ġ Â
Ġ ob
Ġre c
acion es
Ġ #
ar emos
ĠM e
id o
Ġa n
Ġm i
Ġs in
uc h
p l
Ġde m
ĠL a
Ġgob ierno
Ġcomp r
ĠS an
Ġa Ã±
Ġm an
b r
c a
e z
n a
Ġde rec
ol ÃŃ
usti cia
1 9
ic os
ĠT r
ida des
0 0
Ġcor rup
i udad
or d
Ġg ente
Ġsob re
Ġl l
Ġa s
re tar
Ġse c
b re
r aci
v a
ci p
ĠC iudad
Ġn i
Ã© s
ru z
i tar
r Ã¡
Ġl e
f ici
p aÃ±
v ers
en e
Ġp olÃŃ
ar Ã¡
Ġes ta
Ġnues tro
Ġap oy
a v
Ġp Ãºbl
un d
is mo
u v
ar on
Ġs ol
ĠA l
C on
u ar
or es
an tes
Ġme d
iv ers
u y
en d
Ġf r
Ġj usticia
" "
i de
ÃŃ as
Ġh ac
Ġcomp ar
ĠU n
Ġ Y
Ġ te
at o
Ġh a
ĠE n
ĠV er
Ġcompr om
Ġp re
Ġh ay
Ġest Ã¡
Ġres pe
a f
ĠS al
ĠB ienestar
ug ur
E s
Ġ Z
en er
Ġ" "
ar ios
V I
j e
ar an
Ġs i
Ġme xic
ue l
Ġpr im
Ġd is
Ġme j
Ġpuebl os
Ġto do
Ġem pres
Ġcorrup ciÃ³n
R e
d uc
j o
Ġc re
Ġs us
Ġs oci
ĠA n
arr ol
Ġdem oc
O VI
b i
Ġpar ti
ac a
ac ruz
OVI D
z ar
Ġc ar
an d
Ġen c
id os
Ġ or
Ġe con
re z
ÃŃ n
Ġn ue
Ġdi rec
arrol lo
C OVID
i e
t as
Ġsal ud
ĠVer acruz
l os
ci b
Ã³ m
Ġgobern ador
Ġderec ho
E st
p ec
ar a
Ġh ist
Ġre g
erm in
c h
Ġl ib
Ġm un
hu a
N o
Ġc o
ĠpolÃŃ tica
aran ti
a x
Ġa ut
Ġcons tr
Ġcompar to
Ġ ar
en to
on al
ĠC al
Ġg ran
Ġes te
Ġv is
Ġb uen
ĠR o
gram a
i al
â Ģ
ĠJ u
Ġviv o
Ġmej or
i ta
z o
Ã© r
is o
Ġsec retar
de m
Ġa ten
an za
Ġcon tra
M e
or ia
Ġb ien
t in
at e
Ġdes arrollo
Ġb ienestar
Ġpro p
i f
l ar
t ad
Ġ Q
ci ones
Ġp ers
ĠS on
Ġcom un
ul tur
Ãº n
ĠEst ado
f r
p as
Ġp as
Ġa y
Ġs on
am bi
ĠM or
ax aca
ic as
ĠC ar
un tos
om o
ir a
Ġde j
en do
en tar
re mos
te gr
ti r
ti v
Ġmil l
ĠaÃ± os
raci a
uv imos
c al
h ora
i as
o a
ĠC ons
am il
Ġg aranti
ĠG u
uer to
ĠO axaca
ugur aciÃ³n
Ġmexic anos
Ġp er
al idad
ener al
g en
i ar
m iento
Ġm a
Ġel ec
ti l
Ġf ue
Ġin form
per vis
ĠSon ora
tr as
Ġf al
Ġf amil
ay a
aÃ± ana
Ġam ig
ĠÂ ¡
ambi Ã©n
I na
c e
i Ã³
Ġde b
er os
ĠL e
Ġnues tros
Ġapoy o
Ġes c
Ġh um
Ġse g
ĠN o
emp re
Ġcomprom iso
Ġa b
as co
Ġh oy
Ġse gu
ien do
Ġin v
Ġimp ort
Ġ 3
Ġc ultur
Ġd os
ac un
Ġpor que
Ġtrans formaciÃ³n
L es
b ol
g a
i p
at iv
im o
ĠA r
ĠG uer
Ġnues tra
ivers ario
Ġrespe to
r ero
in o
Ġf in
paÃ± a
Ġdemoc racia
d as
h e
l ic
Ġ '
Ġp ob
Ġa d
Ã³ r
ti tu
Ġh ora
Ġv er
Ġre l
ur s
Ġin ter
el ici
ist as
Ġhac er
Â »
Ã ģ
ci s
ci al
on a
Ġm o
Ġm ay
Ġh ab
il la
ir m
ues ta
ĠEst ados
Ġti ene
Ġparti cip
Ġecon Ã³m
Ġdirec tor
Ina uguraciÃ³n
ĠGuer rero
e d
v an
Ġe j
Ã¡ rez
Ã© d
is ta
Ġh ones
uc ciÃ³n
ĠUn idos
Ġmill ones
e x
t ern
in g
as ta
am ente
Ġcon f
Ġre pres
ĠT ab
lo go
Ġpa z
gram as
p it
Ġde f
os a
er g
Ġp erm
Ġm ar
Ġy a
Ã¡ r
Ġg ira
ĠS e
ac Ã¡n
ec es
ĠL u
Ġo p
cib ÃŃ
n ia
Ġ (
Ġl es
on ter
Ġc as
am iento
Ġd ÃŃa
ĠA c
ĠL os
ĠCh ia
Ãºbl ica
Ġpo der
Ġlib er
Ġimport ante
ĠTab asco
d r
os pit
ad as
at r
ur idad
Ġin d
ĠG ob
aj a
Ġem b
Ġsi empre
ĠJu Ã¡rez
ĠChia pas
P ro
g an
i for
t ico
v al
Ġ 4
er r
Ġv acun
Ġin ici
ul ar
per aciÃ³n
Ġtrabaj o
Ġsecretar io
e t
n os
p a
s e
u al
Ġ 5
Ġ 8
Ġ do
er v
ci as
Ġs ig
Ã¡ logo
Ã© c
ti vo
Ġt en
Ġpro grama
Ġti emp
Ġob ra
ĠCal ifor
ĠCalifor nia
N A
c ÃŃa
g ra
i j
i ones
en tro
ci o
Ġp e
in t
Ġe qu
ĠC on
Ġcon v
ÃŃ o
Ġes p
Ã± a
Ġest ado
eg u
Ġser v
ĠÂ «
ĠpÃºbl ica
Ġempres arios
Ġaut or
dem Ã¡s
I n
N os
S e
e f
g res
h os
Ġ 7
de p
or te
Ġs en
ĠC om
ti m
Ġg eneral
Ġv ida
ĠS in
ĠL es
um pl
Ġest Ã¡n
Ġres p
Ġcam paÃ±a
ĠRe p
Ġsol o
Ġhist oria
Ġ Ãģ
os o
ci on
Ġc a
Ġd ÃŃas
ol v
il idad
ĠB aja
ĠH oy
ĠF ran
Ġconstr ucciÃ³n
ĠLu is
b a
l as
Ġm uy
ĠC u
ĠC an
bl es
ien te
ĠN ay
Ã± o
Ġtr es
ensa je
Ġto das
Ġt ermin
uer do
ier on
Ġcu ando
Ġreun imos
ĠAn iversario
Est amos
Ġmun do
if ic
a de
d u
p ar
v e
en tes
ci r
on de
Ġp lan
ar it
Ġm uch
in os
ĠM aya
ĠA m
ur a
ĠB an
Ġcam b
ĠaÃ± o
and id
Ġay ud
Ġemb aj
ĠRep Ãºblica
R E
c l
en a
Ã³ ven
ĠC am
Ġn eces
om paÃ±
Ġh om
Ġv amos
el e
Ġest amos
uen tro
ort al
ĠTr en
Ġsoci al
ĠQ u
Ġgaranti zar
Ã³ven es
e jo
l es
t on
Ġc r
Ġc umpl
ue bl
at a
to y
ti dad
Ġg an
ĠP uebl
ir en
Ġb ene
Ã± os
ĠJ os
Ġac tu
Ġ1 9
Ġser Ã¡
ĠCh i
Ġqu ien
gu a
ord in
Ġll eg
Ġfamil iar
Ġsegu ir
e p
f ec
i que
i ol
Ġ 6
Ġ" Â
ci miento
Ġa hora
Ġc os
in e
tr ol
im a
ero p
Ġap lic
Ġnue vo
hua hua
Ġma es
gra de
ĠNay arit
ĠChi huahua
Ġfamiliar es
O RE
g ar
r as
Ġp es
in as
Ġs ab
ĠC o
Ġh aci
Ġh asta
Ġg as
ĠP ro
Ġd ir
Ġre f
Ġin tegr
ĠT la
Ãº s
Ġci udad
Ġ20 1
ĠMe xic
âĢ Ķ
Ġrepres ent
Ġbene fici
ORE NA
p o
v ar
Ġp l
un ca
is bol
id ar
id as
ur al
ici o
ici p
oy ec
den cia
qu ÃŃ
um p
Ġem p
Ġex pres
Ġtrabaj adores
raci as
ĠeconÃ³m ica
erop uerto
Y a
d ia
en tos
Ġm ig
al oa
in cip
ĠC ol
ĠP r
Ġv o
Ġv iol
Ġf ortal
ĠA s
ur o
il a
ĠN ue
it amos
Ġt ambiÃ©n
Ġj untos
form a
ran s
tur a
Ġll am
Ġmun icip
Ġbuen a
pervis iÃ³n
Ġpob res
ĠQu int
2 0
e der
i anza
u ciÃ³n
Ġ ig
Ġl le
Ġl uch
on as
Ġa de
Ġc ab
Ġc andid
Ġm es
al a
Ġs uc
Ġen v
ic e
ic ar
un idad
Ġes tar
ĠM ORENA
Ġv en
em bre
Ġin s
Ġcom b
ici Ã³n
ĠV al
ĠCar los
ĠGob ierno
ĠSin aloa
g el
i on
i or
o peraciÃ³n
z amos
Ġ K
er ÃŃa
Ġm aÃ±ana
Ġen fr
un to
un que
Ġes pe
Ġh an
ĠP or
Ġv ol
Ġf or
Ġf uer
Ġf und
ĠJ al
Ġpro duc
Ġac ompaÃ±
Ġreun ÃŃ
ĠMor el
Ġamig os
Ġdeb e
Ġhones tidad
e o
p u
u p
Ġ W
Ġc entro
Ġe duc
Ġpr incip
is te
is co
Ġv a
Ġin f
ĠT rans
Ġo tras
Ġman era
"" .
Re cibÃŃ
Ġco operaciÃ³n
ĠPuebl a
' ,
P lan
f o
i un
Ġ ide
Ġl oc
Ġp os
Ġp an
Ġc an
Ġm Ã©d
al iz
in is
Ã³ s
ic ho
at ern
Ġh ospit
Ġre con
Ġpar te
em br
ul a
uc ho
da des
Ġam or
Ġtrans form
und ial
Ġhist Ã³r
Ġmay or
Ġtiemp o
Ġviol encia
Ġespe cial
A N
D es
V amos
h a
i el
t Ã³
u to
en os
Ġa fec
ic aciÃ³n
tr at
Ġcon vers
ÃŃ c
om ÃŃa
Ġre alidad
il lo
Ġcom er
oc er
Ġpro f
Ġj Ã³venes
Ġcons erv
vis ta
uar dia
Ġfr onter
Ġprim ero
ĠRo o
Ã©r ica
Ġref in
ĠQuint ana
Ġvol un
ĠTrans formaciÃ³n
P or
e za
i remos
m e
u j
v ol
Ġ z
en o
en dencia
er c
er mos
Ġp ens
Ġc al
Ġm al
Ġen erg
Ã© isbol
Ġpr Ã³
Ġpr iv
Ġh ec
id al
Ġg r
Ġf un
ec er
ec as
ec retar
ĠL o
Ãº l
ĠJ es
Ġo fici
Ġsob er
ĠIn tern
Ġreun iÃ³n
Ġfr atern
Ġdemoc rÃ¡
Ġenc uentro
val u
dep endencia
ĠBan co
Ġcamb io
Ġdir ig
Ġig ual
ĠJal isco
g os
m en
t ados
de z
Ġm is
Ġm ucho
Ġs ur
ÃŃ f
Ġn aciÃ³n
Ġpr oyec
ti va
ĠP R
ĠP e
ĠP o
ĠP res
Ġf av
Ġd onde
im iento
ĠT o
us to
Ġtr iun
ĠG ar
ĠG uardia
Ġpue de
ues to
ador a
ĠD es
ĠD ur
Ġap r
Ġrec ord
Con vers
Ġconf ianza
Ġperm i
Ġequ ip
Ġca us
ĠFran cis
ĠJes Ãºs
M E
g un
Ġ /
ĠC uar
un es
at Ã¡n
Ġes o
ĠM an
Ġf elici
ac h
iv a
ĠTr ump
Ġsec tor
Ġhac e
ĠY uc
Ġdis c
ermin amos
Ġesc r
Ġhum an
ativ a
Ġej emp
Pro gramas
Ġautor idades
ĠJos Ã©
Ġhaci a
Ġbenefici o
ĠMorel os
Ġtransform ar
ĠFrancis co
L os
S i
Ġ X
Ġ ina
Ġ us
Ġde d
Ġp on
Ġa us
an go
Ġm ensaje
Ġe p
am a
te l
Ġes e
ĠM on
Ġse m
ul ta
ul io
Ġto da
ĠH idal
ent al
ĠIn tegr
Ġsin o
pec he
Ġaten der
ĠLe Ã³n
Ġseg uridad
ĠCam peche
Ġ201 8
Ġemp le
ĠCuar ta
ĠYuc atÃ¡n
ĠHidal go
A n
S u
a u
e atr
i Ã¡logo
r c
u b
Ġl eg
ci l
ar d
Ġa van
Ġc h
ad ie
un do
te pec
ĠM icho
Ġun o
ĠA y
Ġin formaciÃ³n
Ġb Ã©isbol
ĠL uc
ul s
it or
ĠJ o
Ġo tros
Ġlo gr
Ġdi f
Ġtrabaj ar
Ġci rc
Ġpo bl
ap ul
Ġentre vista
ĠMar ÃŃa
Ġrec u
Ġmed ios
Ġprim er
Ġor g
Ġecon omÃŃa
Ġreg res
tiv os
Ġamig o
Ġcultur a
Ġinter Ã©s
Ġliber tad
gres o
Ġresp ons
ĠTla x
Ġcab o
Ġloc al
ĠGar cÃŃa
ME C
eatr iz
S egu
c es
e ci
e ti
o t
z as
Ġ oc
Ġ Ãºl
en emos
or r
Ġe v
Ġcon ocer
Ġn om
Ġn acional
ĠM ig
Ġg uer
ĠP em
bl em
ur ante
ien tos
ab ine
aj e
Ġest uvimos
Ġac uerdo
tu oso
Ġqu ienes
ĠAl f
Ġha bl
Ġsoci ales
titu ciÃ³n
Â» .
ĠAm Ã©rica
ĠprÃ³ x
Ġfav or
ĠMicho acÃ¡n
ĠPem ex
abine te
L am
a ble
b ra
b ano
l ante
m em
n ific
Ġ 9
Ġ Ã©
Ġde p
es te
er on
ar Ã¡n
Ġc Ã³
an cia
Ġm af
ue go
om os
Ġmat er
ĠP ar
Ġd ist
Ġre cib
ĠS eg
us tr
el o
oc o
Ġcomp aÃ±
ier ra
Ġimp unidad
ĠSan ta
Ġderec hos
ĠpÃºbl icos
Ġhay a
af irm
ĠSal ud
Ġnue va
ĠCons ejo
ĠÃģ n
du cir
Ġ"Â ¡
grade c
Ġrepresent antes
ĠNue vo
Ġeduc aciÃ³n
Ġorg ul
ĠÃºl ti
ĠMig uel
Ġguer ra
Ġmaf ia
. .
Q u
S S
U n
l Ã¡n
de ra
Ġp al
ar ia
Ġc ol
Ã³ g
ic h
un iÃ³n
tr ib
Ġes per
Ġpr oc
ĠM ade
id ores
ĠP a
Ġd ig
Ġse a
ab or
Ġb el
ĠD e
ĠD el
Ġt an
Ġsu b
Ġpro te
Ġac to
Ġgob iern
Ġres c
Ġam b
ĠO r
Ġex tr
Ġentre g
ĠMar ina
Ġ20 2
Ġan te
Ġle y
ĠpÃºbl ico
Ġsol idar
ĠJu an
dem ia
Ġprop Ã³s
Ġcomun icaciÃ³n
Ġdo c
Ġgas ol
ĠCol ima
Ġade lante
Ġfund am
uj er
ĠIntegr ales
ĠMade ro
A c
D ÃŃa
o g
p os
t an
t la
u ir
Ġde cis
en da
Ġa eropuerto
Ġa unque
or n
Ġpr on
is l
is iÃ³n
om in
ĠP lan
ol Ã³g
ien tes
us c
ern Ã¡n
ĠB eatriz
ĠV amos
ĠV ida
ĠV illa
la ud
ten er
Ġqu er
rup o
ĠIn dependencia
Ġgobern adores
uy endo
ĠZ ac
Re uniÃ³n
Ġenc uesta
Est uvimos
Ġvis itar
Ġaten ciÃ³n
Ġpers onal
Ġfal le
elici dades
Ġhab rÃ¡
Ġcandid ato
Ġmes es
Ġpan demia
embr ando
Ġfronter a
Ġrefin erÃŃa
Ġfun cion
ĠPR I
Ġded ic
ĠÃģn gel
ĠpropÃ³s ito
ernÃ¡n dez
A l
M SS
P N
T enemos
V iva
c os
e a
e an
g e
g ue
i ble
j a
t Ã©
t amos
z Ã³n
z Ã¡
Ġ tar
Ġ era
Ġ olv
de mos
ci d
ci ales
ar Ã©
Ġc ap
an ÃŃa
ad Ã¡
Ġen tr
as h
ĠC or
ĠC oa
am e
am nific
Ġcon tin
Ġn at
Ġn adie
is is
ĠM aÃ±ana
ti do
Ġh erm
Ġv ide
Ġd urante
Ġre p
Ġun ivers
ĠE x
ĠS ur
il eg
ĠN os
ac o
ab ilidad
ul i
aj o
Ġest ud
ĠI MSS
eg r
ter a
ter idad
Ġres ul
iz o
Ġcam inos
Ġqu ier
hu ila
Ġob ras
Ġman d
ĠTr at
Ġte m
Ġdej ar
cal a
ĠCons tituciÃ³n
Ġver dad
Ġenfr entar
Ġvolun tad
Ġenerg Ã©
Ġigual dad
ĠPres iden
ĠDur ango
Ġpobl aciÃ³n
Ġnom bre
ĠcÃ³ mo
ĠCoa huila
amnific ados
D e
e dad
i aciÃ³n
l Ã¡
m ia
m ente
t ens
en en
en ta
er to
er em
er ra
Ġp atr
Ġa gua
Ġm ismo
Ġm enos
Ġs ÃŃ
ĠC as
at os
at ar
tr Ã³
Ġh on
Ġh izo
ĠP uerto
Ġv al
Ġre aliz
ĠE m
ĠA demÃ¡s
ab a
el i
it os
Ġto m
ĠD ÃŃa
form e
Ġac tiv
Ġ1 5
Ġ1 00
Ġdi Ã¡logo
Ġpresiden tes
ĠU r
Ġimp uls
ĠMar t
ĠRe forma
Ġcu al
Ġan tes
Ġas ÃŃ
Ġas unto
uv e
ide mia
ĠZ ap
Ġprim era
Ġpers onas
Ġay er
urs o
tim as
Ġembaj ador
Ġpes os
Ġciudad anos
up uesto
Ġaus teridad
Ġep idemia
Ġsem ana
Ġleg isl
ĠTlax cala
Lam ento
mem or
Ġsolidar idad
1 0
T r
T erminamos
V is
b ar
l am
o d
o tros
r ique
t al
u ana
v er
Ġ âĢĶ
Ġde cÃŃa
er tir
ci Ã³
on d
on ia
on av
Ġp la
Ġa um
Ġa demÃ¡s
Ġm inis
Ġm ujer
ĠC os
ĠC omo
at ecas
tr uc
is mos
ĠM i
ut uro
Ġv ÃŃc
Ġf on
Ġf irm
Ġd ici
Ġd amnificados
Ġin vers
ac ÃŃf
ĠG on
it as
den as
ĠB en
st al
ĠD onal
ĠI s
Ġj ef
Ġ1 0
der Ã³n
ent amos
Ġcam ino
ĠpaÃŃs es
Ġti erra
ap a
Ġempres a
Ġcar re
Ġcomun idades
Ġcultur al
Ġpob re
ing ton
Ã©c n
Ġembaj adores
ele br
Ġlle v
Ġluch a
Ġsuc urs
ĠW ash
vol uciÃ³n
ĠIntern acional
Ġapr ob
Ġcaus as
Ġina ugur
Su pervisiÃ³n
Ġev itar
gue z
eli pe
ĠWash ington
A y
D iÃ¡logo
a bl
g in
p an
u x
en que
en cias
ci onal
an j
in ar
Ġe valu
Ġs ido
ad al
Ġen ci
ĠC Ã¡r
ĠC laud
Ã¡ m
Ġn ada
Ġn ing
Ġes toy
Ġpr omo
ĠM a
ĠM undial
ta des
im p
ĠE d
ĠS embrando
Ġin tel
Ġin tens
ĠT e
ĠT ij
ir ma
Ġtr a
oc h
aj u
qu Ã©
Ġt ur
Ġt Ã©cn
Ġsu cia
Ġsu pervis
Ġpres upuesto
Ġpa is
ĠPal enque
pe z
ist ad
Ġam istad
iz aciÃ³n
Ġcons um
Ġnos otros
ĠEs c
Ġcomprom eti
Ġsoci edad
ch e
Ġco ordin
Ġaut Ã©n
Ġar que
ĠCal derÃ³n
Ġgaranti z
Ġper io
Ġrel aciones
Ġmo v
Ġvacun as
Ġintegr antes
pu Ã©s
Ġgobiern os
Ġextr anj
ĠZac atecas
erem onia
ĠvÃŃc timas
Ġdici embre
ĠDonal d
ĠCÃ¡r denas
ĠTij uana
C u
g ers
m ir
n o
p ular
r im
t re
t ud
t icos
u de
z os
Ġ ra
Ġde cir
er ic
Ġl ug
Ġa uto
Ġc ora
an aju
al Ã¡
as e
at i
Ġcon trol
ÃŃ gen
Ġn unca
Ġv ez
Ġf ra
Ġf eder
Ġre cibÃŃ
ĠE E
ĠE p
ĠS ecretar
ĠA hora
il es
Ġin stal
ir us
ec e
ĠG eneral
ĠD od
Ġsu pervisiÃ³n
Ġpro blem
le z
ran tes
ĠF elipe
ĠO l
ĠEst amos
tor al
Ġci n
Ġob je
Ġas es
Ġni Ã±os
Ã©s ame
ĠY unes
Ġor gan
ĠRo dr
ĠGu anaju
Ġper d
til iz
ce p
Ġver da
ĠCan adÃ¡
Ġcr isis
Ġmaes tra
Ġmig rantes
ĠVal le
Ġinf l
ĠhistÃ³r ico
Ġconserv adores
Ġsur este
ĠPe Ã±a
Ġequip o
Ġejemp lo
Ġemple os
Ġregres o
Ġdist in
Ġorgul lo
Ġesper anza
zÃ¡ lez
Tr abaj
onav irus
ĠGon zÃ¡lez
ĠBen ito
Ġsucurs al
Ġenci ma
Ġlug ar
ĠDod gers
ĠGuanaju ato
' .
F elicidades
G racias
M ensaje
M iren
N ues
c u
e ta
i ado
j alÃ¡
t aciÃ³n
v i
v ador
Ġ k
Ġ ir
de ro
en de
er al
Ġp Ã©same
Ġa quÃŃ
an qu
Ġm or
Ġs omos
Ã³ pez
ĠC ab
ĠC ruz
am ble
un a
at or
ÃŃ an
Ã¡ b
ĠM iren
Ġh ici
Ġg ener
Ġg usto
Ġf e
Ġf el
Ġd ar
Ġd io
ĠA p
Ġin c
ac e
ec h
us ta
ĠL Ã³pez
ici ones
it er
it Ã©
ĠR am
ig men
qu ier
ay un
Ġt end
ĠV ic
ĠI bar
ĠH ay
ĠH ospit
Ġj ulio
Ġex p
oci miento
Ġr ob
Ġentre ga
Ġ20 19
ven ciÃ³n
Ġtrans m
Ġmed io
Ġnue v
Ġreg iÃ³n
ch a
Ġlib re
âĢ ľ
ĠQ uer
ĠGu adal
ĠAr m
Ġop ort
Ã©c tr
Ġpe trol
Ġconv ic
Ġmuch a
Ġmuch os
ĠMexic ana
Ġmig r
Ġfortal ecer
icar do
Ġhospit ales
Ġz ona
Ġpriv ileg
Ġsober anÃŃa
Ġtriun fo
Ġrespons abilidad
ĠprÃ³x imo
ĠSeg uridad
Ġfundam ental
Ġdecis iÃ³n
Ġactiv idades
Ġinvers iÃ³n
ĠClaud ia
Ġarque olÃ³g
ÃŃgen as
ĠEp igmen
ĠSecretar ÃŃa
Ġinstal aciones
Trabaj amos
ĠIbar ra
ĠEpigmen io
C as
C omo
L o
Q ue
U U
g er
h n
h ab
i es
i ato
o to
u imos
en der
en aje
on g
on er
ar go
Ġa br
Ġc elebr
Ġm uer
Ġs os
Ã³ cal
Ġel abor
at u
at em
Ã³n ica
ÃŃ st
ÃŃ rez
Ġn aciones
Ã© f
Ã© g
Ã© tar
Ã© xico
Ġpr ior
que z
ut la
ĠP ara
bl ic
ta pa
Ġre ci
Ġre afirm
ĠE PN
ĠS a
ĠS i
ĠA M
ĠA z
ĠA le
ĠA eropuerto
Ġin cl
ec u
Ġb usc
Ġtr at
it u
ĠR ec
ĠR ÃŃo
st mo
ĠD ef
ĠI stmo
eg ia
ĠH ermos
le o
ter ior
Ġam pl
ent en
tu v
Ġti enen
Ġtrabaj ando
Ġqu Ã©
Ġpo pular
ĠRe voluciÃ³n
ons o
ven ir
Ġman tener
ĠUn ivers
ĠEn rique
Ġdirec tivos
Ġgobernador a
Ġsecretar ia
Ġhum anos
ativ o
Ġrel aciÃ³n
Ġdef ensa
Ġcas a
ĠAc apul
Ġind ÃŃgenas
Ġten emos
Ġtiemp os
dep end
Ġayud a
ĠMexic ano
20 2
Ġprincip al
ĠmÃ©d icos
trat egia
Ġhec ho
ĠPo tos
Convers amos
Ġdisc urso
Ġcirc ular
Ġrecu per
gradec ÃŃ
ĠÃģngel es
Ġnat ural
ĠenergÃ© tica
Ġpatr ia
Ġmov imiento
Ġcora zÃ³n
ĠRam ÃŃrez
ĠHospit al
ĠQuer Ã©tar
hab il
Ã³cal o
ĠDef ensa
ĠHermos illo
ĠAcapul co
ĠQuerÃ©tar o
A s
A van
I I
M Ã©xico
c an
c Ãºn
g n
i te
i eg
i jo
i onal
u do
v es
Ġde mos
en tir
Ġa gr
Ġc ada
an ci
Ġm undial
Ġs an
re m
ue la
Ġen con
ic amos
am o
am p
at al
at iz
Ġcon ferencia
Ġcon ven
ÃŃ guez
Ġn orte
om b
Ġh or
ut ados
Ġdes puÃ©s
Ġd omin
Ġre des
Ġre habil
Ġse Ã±
ĠS er
Ġin gen
ĠT ambiÃ©n
ĠT ep
ens iÃ³n
Ġb an
Ã± as
Ġtr en
ul tos
ici on
Ġno ti
Ġno che
ĠG r
ĠG ran
ĠG abinete
it aciÃ³n
ĠR icardo
ĠB oc
eg oci
Ġo f
Ġac ab
Ġcons ulta
En Cas
Ġex tra
Ġviv ir
Ġ20 0
Ġmed idas
Ġte l
Ġte le
Es te
Ġcre den
Ġvis itamos
Ġaten d
ate EnCas
Ġcomun idad
Ġpas o
Ġelec to
Ġelec ciÃ³n
Ġelec ciones
til lo
Ġesc uch
Ġ3 0
Ã©d ateEnCas
Ġperm an
Ġind ustr
ĠGob ern
Pro grama
Ġserv icio
Ġserv idores
ĠÃģ l
Ġhom bre
ĠPro grama
ĠAs ÃŃ
Ġllam ado
Ġfor m
Ġfor ma
Ġproduc ciÃ³n
Ġprof es
ermos a
Ġofici al
ĠdemocrÃ¡ tico
Convers Ã©
ĠMan uel
Ġhuman ismo
ub o
ĠLuc tuoso
ĠJo hn
Ġlogr ar
Segu iremos
Ġmater ia
Qu Ã©dateEnCas
Ġamb iente
orn ada
Ġtar de
Ġresul tados
Ġlegisl adores
Ġminis tro
Ġcarre tera
Ay er
ĠRodr ÃŃguez
tuv imos
Ġencon tr
QuÃ©dateEnCas a
A p
C eremonia
N E
P l
T o
b or
b res
d rÃ¡
f ir
h ermosa
i ano
i ores
j and
m p
n idad
p or
s ecretar
t ero
t Ã¡n
t ando
v ÃŃa
z co
Ġ ur
Ġ âĢľ
es ti
er as
Ġl uego
ci do
Ġp rec
Ġp acÃŃf
ar nos
Ġa v
or ge
Ġm on
Ġm ÃŃ
Ġs oy
ad re
ad res
ad io
re as
re do
ĠC Ã¡m
un da
tr al
Ġh ij
Ġg rupo
Ġf ran
Ġdes eo
ĠA d
ĠA quÃŃ
ĠA bra
il l
Ġin depend
ĠL at
Ġtr anqu
ĠG racias
it al
ĠR os
den te
ud a
ĠB ar
ĠJ orge
um bre
Ġest ados
Ġpro gramas
Ġpro greso
ĠH u
ru de
Ġ1 8
ĠF ernÃ¡ndez
Ġmil itar
Ġrec urs
Ġas amble
ĠSal inas
ĠSal vador
ĠZ Ã³calo
Ġdis trib
Ġcre aciÃ³n
Ġor den
Ġgran des
Ġvis ita
âĢ Ŀ
Ġad ultos
Ġparticip ar
Ġparticip aciÃ³n
Ġesp osa
Ġhom enaje
Ġcumpl ir
Ġactu ar
Ġmaes tro
Ġvo to
Ġhospit al
Ġmayor ÃŃa
Ġgr atu
ĠdemocrÃ¡ tica
Ġproyec to
Ġproyec tos
Ġtriun f
Ġdif ÃŃ
ĠÃ© l
Ġpal ab
Ġsub secretar
Ġfalle cimiento
ĠPRI AN
Ġvide o
ĠMart ÃŃn
ĠCos ta
truc tura
Ġfra ude
Ġases in
ĠAle jand
enten ario
ĠPotos ÃŃ
Ġextra ordin
ĠpacÃŃf ica
Ġrecurs os
ĠAlejand ro
C om
G aranti
L as
N unca
T ambiÃ©n
b an
c el
c ciÃ³n
c ho
d ida
i an
i ti
p ti
t icas
v oc
Ġ u
Ġde r
Ġ" '
es o
es tructura
ci to
on o
ar e
Ġc er
Ġm om
al apa
Ġs ismos
re y
Ġel los
aci enda
Ġcon memor
Ã¡ c
te ca
que l
ti cip
Ġh e
Ġh ijo
Ġque d
ĠP AN
Ġv uel
Ġf l
Ġdes tin
Ġre ducir
im en
ĠE j
ĠS he
il e
Ġin m
Ġin und
ĠT ama
ĠT ux
ab r
ĠL ig
Ġtr ad
Ġtr av
ĠMÃ© r
it ados
ues tas
ra zo
ra estructura
qu is
um o
Ġpro ducir
ĠH acienda
Ġ1 6
Ġnues tras
ter iores
Ġap ar
Ġpresiden cial
ib a
Ġcam po
tor es
ĠEs ta
Ġci ento
Ġsal ir
Ġrec om
Ġcompr ar
Ġni Ã±as
Ġapoy ar
ĠY a
Ġmexic ano
Ġmej ores
Ġparti do
Ġcar tas
Ġconstr uir
ĠGu atem
Ġelec toral
Ġinform e
Ġfamil ia
Ġinv ito
Ġmay ores
ĠeconÃ³m ico
Ġmar gin
ĠAc uerdo
Ġliber tades
Ġinici amos
Ġpe trÃ³
Ġsen tim
ĠCan cÃºn
cl us
Ġgan ar
Ġcos as
Ġaplic aciÃ³n
ĠNue va
Ġmunicip io
Ġmunicip ios
Ġfuer za
Ġprincip ios
Ġrecon ocimiento
Des de
Ġz onas
Ġfratern idad
ĠDes arrollo
Ġfelici dad
ĠÃºlti mo
Ġgasol inas
Ġpron to
ĠVilla hermosa
Ġunivers al
Ġquier e
Ġfon do
Ġintel ig
Ġpais anos
Cu ando
Ġcin co
202 4
ieg o
ĠTep ic
Ġcreden ciales
ĠGobern aciÃ³n
ĠCÃ¡m ara
ĠGuatem ala
ĠpetrÃ³ leo
Ġsentim ientos
C ons
F E
H abl
P res
P ara
U na
b erto
c r
c or
c uentro
c elo
d remos
f ina
i ales
j or
k a
l im
l ica
o x
r oc
r eros
s a
v io
de res
Ġde cid
ci os
ci endo
ar g
ar ias
Ġa tr
Ġc ens
Ġc las
Ġla bor
or re
Ġm in
in ba
Ġe tapa
ĠC arr
ĠC uli
am entos
un st
Ġcon c
Ġcon st
ÃŃ os
Ã¡ zar
Ã¡ reas
Ġes trategia
is os
ĠM il
ĠM onter
Ġh emos
Ġh ubo
ut u
do l
Ġg ra
Ġg abinete
ĠP l
ĠP er
ĠP ed
Ġv ir
Ġv oy
Ġv idas
Ġf oto
ta g
Ġdes af
Ġd im
Ġre pu
ol a
ol iv
ol og
ur acÃ¡n
Ġin tern
tar on
ĠT ex
ĠT rude
Ġpor venir
ec a
Ġb aj
Ġb Ã¡s
ici amos
ĠR u
Ã¡n d
ĠJ a
um ento
ĠD os
ĠD an
Ġt u
ĠI NE
Ġo tro
Ġo per
Ġac tos
Ġpres a
Ġ1 4
ĠF r
ĠF ue
ĠF eder
Ġ2 1
Ġcons titu
Ġdi p
ib e
Ġex pl
Ġex cep
Ġr en
ĠIn d
ĠIn s
ĠMar celo
Ġrec orr
ĠMe ade
Ġan ti
ord amos
Ġas untos
Ġte ma
Es toy
Ġdis entir
Ġcar ta
Ġenc ab
Ġar te
Ġgran de
Ġvis it
Ġbuen as
tin u
Ġfal ta
Ġab as
Ġab razo
Ġad vers
Ġinter es
Ġvacun a
Ġinici o
Ġten go
Ġconv ertir
In forme
Ġsen tido
olv er
Ġactu al
Ġlleg ar
Ġpes ar
ĠPro gramas
Ġcomb usti
Ġdirig entes
ĠTo dos
Ġejemp lar
itor io
Ġcirc unst
Ġrecu peraciÃ³n
ĠAlf redo
Ġhabl amos
Ġdep orte
.. .
Ġdig nidad
ĠDel fina
Ġentreg Ã³
Ġgasol ina
ĠPresiden cia
ĠZap ata
Ġpobre za
ĠtÃ©cn icos
Ġproblem a
Ġoport un
Ġpetrol era
Ġnatural eza
Ġhor as
Ġtele f
ĠShe inba
Ġtrav Ã©s
ĠMÃ©r ida
ĠCuli acÃ¡n
ĠMonter rey
Ġrepu blic
ĠTrude au
ĠSheinba um
) ,
1 7
A m
E valu
H ay
N ada
S in
S eg
b ro
c ar
d ico
d ido
e j
f uer
i ero
i era
i Ã±o
k e
l er
m inis
n if
n imo
r is
t ado
t ora
t ada
v il
z an
Ġ fer
Ġ Ãºn
Ġde ten
Ġl ÃŃ
on os
Ġp u
Ġp oco
Ġa grade
Ġa gradecÃŃ
or m
Ġm em
Ġm utu
in cid
Ġs iste
Ġy o
re a
re g
re al
Ġel em
ic al
ĠC FE
un ci
at it
at lÃ¡n
Ġcon d
Ġn e
Ġes a
Ġes fuer
Ġh er
Ġh aremos
ut a
Ġg l
ĠP on
ĠP as
Ġv e
Ġv oc
Ġv ice
ta Ã±a
Ġdes ayun
Ġd a
Ġd ic
Ġre co
Ġre forma
ĠE con
ĠE br
ĠS u
ĠS il
ĠS ierra
ob ern
res p
Ġin con
ĠN i
ĠN orte
ab an
us tin
us ias
ĠL Ã¡zar
Ġal im
Ġal egr
uc a
oy o
ĠR af
ues tos
ues tra
aj ara
ĠI z
ĠI gn
ĠH o
Ġac ciones
Ġac ep
ĠF in
ĠF uer
pres iden
Ġcons egu
En tre
ÃŃs o
ent ÃŃf
Ġem pe
Ġex terior
ĠCh ong
Ġent usias
Ġcor onavirus
Ġcor resp
Ġci entÃŃf
Ġpo demos
ap ar
ap an
Ġentre v
Ġviv ien
Ġcu ar
ĠMe jor
Ġan iversario
pl Ã©n
Ġll ena
ĠpolÃŃ tico
Ġesta ble
Ġmed i
Ġcomprom isos
ĠSal a
Ġdis p
Ġempres as
Ġcre ar
Ġor ig
ÃŃn imo
ie to
Ġconstr uyendo
Ġar t
Ġbuen os
Ġpas ado
ĠMor eno
ĠCar ibe
Ġfal lar
Ġfamil ias
Ġhum il
Ġcultur as
Ãģ nimo
Ġhab er
err amos
Ġsig nif
ĠCon greso
Ġplan tas
Ġgan Ã³
Ġhaci endo
var ez
Ġvo tos
Ġlle var
Ġcomb ate
Ġfuer on
ĠacompaÃ± aron
Ġide ales
ĠmÃ©d ico
ÃŃc ul
erc er
erc era
Ġpens iÃ³n
ĠIntern et
Ġfratern a
Ġpermi te
Ġpermi tir
ĠMon taÃ±a
Ġavan ce
ĠLuc ÃŃa
Segu imos
ot z
ĠAlf onso
ĠcompaÃ± ero
ĠPa z
Ġresc ate
uli pas
ĠTrat ado
Ġtem as
Ġimpuls ar
Ġcual quier
Ġextranj ero
ati quÃ©
Ġcontrol ar
Nues tro
Ġk il
ator io
Ġfel iz
Ġrob ar
Ã©ctr ica
Ġdemos tr
Ġrehabil itaciÃ³n
Ġnoti cia
ĠBoc as
Ġtel Ã©f
Ġindustr ia
Ġprofes ional
Ġur bano
Ġtranqu ilidad
Ġasamble a
Ġdistrib uciÃ³n
ĠMartÃŃn ez
pti embre
ĠTama ulipas
abr iel
Ġabas to
minis tr
ĠEbr ard
ĠLÃ¡zar o
ĠIgn acio
) .
M i
M an
N U
P rim
S ig
a el
a it
a gr
d p
d an
f ic
g Ã³n
g amos
i antes
p es
r ar
t am
u fici
Ġ arr
Ġ Ã¡r
en z
en ado
en cio
os ufici
er ÃŃas
ci pl
Ġa quel
Ġc ero
an cias
al co
in c
in d
Ġe t
Ġs ac
Ġs um
Ġs iendo
Ġs itu
Ã³ p
Ã³ cr
ue gos
Ġen fer
Ġel lo
ic amentos
un cia
un iden
aci a
aci dad
at ro
tr ucciÃ³n
tr uyendo
Ġn aci
Ġes plÃ©n
is cal
ĠM o
ĠM in
ĠM ac
ĠM Ã¡r
om ex
ti mos
ti rÃ¡
Ġh uracÃ¡n
Ġdel eg
fer encias
Ġg u
ĠP T
ĠP el
Ġv an
Ġv ÃŃa
Ġf uturo
ta p
Ġdes c
Ġd aÃ±
Ġd aremos
ol o
ol ib
im e
Ġse is
ĠS am
ĠS egu
ur os
ur as
em oc
il iano
ĠT el
ĠT erminamos
ĠT orre
Ġb e
Ġb ar
Ġb ajo
Ġtr o
Ġtr as
Ġal to
Ġal gun
el l
ici os
ĠG rupo
iv el
ĠR ica
ĠR omo
ĠR ural
Ġpue den
ĠB lan
ĠB oliv
Ãº a
ĠJ usticia
ĠJ ulio
ĠJ ustin
Ġest os
uer tos
uer dos
ĠV acun
ĠI x
Ġpro voc
ĠH ernÃ¡ndez
Ġo tra
Ġcomp ra
Ġcomp le
ro v
Ġ1 2
Ġ1 3
ĠF uturo
ent Ã³
Ġpresiden ta
Ġser Ã¡n
Ġim a
ĠEs p
Ġr Ã©g
Ġsal ario
gu as
hu ac
ĠIn forme
ĠMar ÃŃas
tur o
Ġ20 20
ven ida
ĠEl ec
ĠÂ ¿
Ġmi embr
Ġdem Ã¡s
Ġcorrup to
Ġcorrup tos
av ier
Con tinu
Ġmed icamentos
uy Ã³
"" ,
Ġpre ferencia
Ġpre cio
Ġpre par
Ġrespe tar
Ġdis cipl
Ġcre cimiento
ĠAn ton
Ġcar iÃ±o
Ġreg al
Ġreg is
ch er
Ġaut osufici
ĠRo gel
Ġmejor ar
Ã©r cito
Ġprop uesta
tad as
entar Ã¡
Ġmill Ã³n
Ġper iÃ³
Ġseg undo
ĠAr turo
Ġfin anci
lic er
titu to
Ġmo tivo
Ġhab ÃŃa
Ġdef ender
Ġop in
Ġcas i
dr Ã©s
Ġsig u
Ġestado uniden
ĠCu au
Ġtermin ar
Ġneces ario
Ġhom bres
Ġlleg amos
Ġade lan
Ġcandid atos
Ġsuc ul
Ġins titu
ĠacompaÃ± Ã³
Ġinf raestructura
Ġide al
Ġpos ible
Ġcan ciÃ³n
Ġespecial istas
Ġconvers amos
Ġconvers aciÃ³n
Ġhec hos
Ġus o
Ġavan z
ĠcompaÃ± ÃŃa
Ġbel le
Ġ202 2
Ac ciones
Ġquer emos
Ġcap ital
ĠTrat amos
lÃ¡ huac
Vis itamos
Ġpla za
Ġmujer es
ĠIs las
Ġning Ãºn
ĠEd omex
Ġtra icion
ĠautÃ©n tico
Ġperio d
Ġperio do
Ġorgan iz
Ġhici eron
ĠVic ente
Ġnuev as
ĠGuadal ajara
Ġmigr atorio
Ġprivileg ios
ÃŃst ico
ecu tivo
ĠUnivers idad
ĠSer ie
ĠÃģl varez
Pl atiquÃ©
Ġasesin ato
Ġu tiliz
Habl Ã©
Ġdim ensiÃ³n
olog ÃŃa
ĠDan iel
ĠIns tituto
Ġencab ez
Ġcircunst ancias
Ġrepublic ana
Evalu aciÃ³n
incid imos
Ġelem entos
Ġcond iciones
Ġne olib
Ġvice presiden
Ġalegr ÃŃa
ĠRaf ael
Ġconsegu ir
Ġentrev ist
ĠSala zar
ĠtelÃ©f ono
ĠÃ¡r bol
ĠMÃ¡r quez
ĠBoliv ia
ĠVacun aciÃ³n
ĠrÃ©g imen
Ġmiembr os
ĠRogel io
Ġneolib eral
% ,
A ten
A hora
C an
C erramos
H ace
O jalÃ¡
Q uer
c er
e cimiento
g ent
h t
j es
m as
q ues
r on
t ÃŃa
u pe
v amos
Ġ er
de b
Ġde c
Ġde n
en as
er re
Ġl imp
ci mos
Ġp aci
Ġp untos
Ġp adres
ar do
ar ÃŃa
ar los
ar ial
Ġa h
Ġa Ãºn
Ġa gen
Ġc rec
or k
an as
an ca
Ġm ÃŃnimo
Ġm dp
Ġs ue
Ġs im
Ġel Ã©ctrica
ic es
ic Ã³p
ĠC ultur
ĠC umbre
am ala
am ientos
am eric
un cio
at ura
Ġcon g
Ġcon oci
Ġn egoci
is c
is p
is tos
om p
om iso
Ġh o
Ġh el
Ġh arÃ¡
Ġh ip
ina pa
Ġg en
Ġg rup
Ġg racias
ĠP ero
Ġf om
ta c
ta ble
Ġd on
Ġre ac
ol es
Ġse ptiembre
ĠE U
ĠS ig
ĠS Ã¡n
ĠS oci
ĠS enado
ĠA gua
ur r
il at
Ġin j
Ġin dependencia
ĠN unca
ĠT ul
ab rÃ¡
us e
Ġb ate
Ġb ecas
Ġtr amo
Ġal ma
Ġal lÃ¡
Ġal can
el aciones
ĠG Ã³m
ĠG abriel
it lÃ¡huac
iv o
ĠR elaciones
ĠB iden
Ãº an
ĠJ im
ĠJ avier
um ental
ĠD uar
ĠD iÃ¡logo
ĠD iego
ĠD emoc
Ġt err
Ġt uve
ĠV el
ĠI gu
Ġsu p
ĠH arr
Ġj us
Ġj usta
Ġj ornada
Ġac ciÃ³n
Ġpres entamos
Ġpa de
ro p
Ġ1 1
Ġ1 7
ĠF ern
Ġap os
der n
Ġdi je
ent an
ent aciÃ³n
ĠO NU
ib r
Ġcam pes
ĠEst uvimos
ĠCh apul
ĠEs te
ĠEs paÃ±a
ĠEs toy
Ġr ique
Ġob reros
ĠLa gun
ĠTr abaj
itar ia
ĠAl berto
uy e
Ġfr ut
ĠEn erg
Ġpre gun
ĠSal ina
Ġmexic ana
ĠAn aya
bi Ã³
Ġparti r
ch ez
Ġar tes
Ġbien venida
lar es
ĠQ ue
Ġpers ona
Ġpas amos
Ġpas iÃ³n
Ġdej aremos
ĠCons ulta
ĠCons truyendo
til la
Ġinform ar
Ġab ajo
Ġinv ertir
Ġfin ales
Ġad mir
Ġrel ig
Â» ,
Ġej er
Ġdef in
Ġmar zo
Ġmar cha
Ġvacun aciÃ³n
Ġ5 0
Ġ5 00
Ġsig ue
Ġserv ir
Ġautor itar
ĠCu itlÃ¡huac
Ġtermin amos
Ġcamb ia
ele bro
Ġcumpl iÃ³
Ġactu ando
Ġ"Â «
Ġsab er
ĠCo ordin
Ġintegr al
Ġpl ur
Ġllam ada
Ġmunicip ales
Ġenv iÃ³
ĠK amala
Ġprof undo
Ġdirig ente
ĠDes de
Ġrecord ar
Ġrecord amos
Ġina uguraciÃ³n
Ġus te
Ġpon er
Ġtoda vÃŃa
Ġemple o
cil iaciÃ³n
ĠAy otz
ĠÃºlti ma
Ġtan to
Ġresc atar
Ġdoc umental
Ġdedic ado
Ġcontin uar
Ġherm anos
ĠEx teriores
Ġestud iantes
egr am
Ġquier en
Ġmand ato
ĠPresiden te
ĠCas tillo
ĠEm iliano
ĠUr bano
Ġaum entar
Ġjef a
Ġevalu aciÃ³n
Ġning una
Ġgarantiz ado
Ġfeder al
Ġobje tivo
Ġverda dero
Ġtend rÃ¡
Ġconvic ciÃ³n
Ġconvic ciones
Ġabr il
Ġmuer te
Ġelabor ar
Ġprior idad
ĠPara ÃŃso
As ÃŃ
Avan zamos
Ġacab ar
Ġatend iendo
Ġperman ente
Ġhij os
ĠAbra zo
Ġpalab ras
Ġsubsecretar io
Garanti zamos
ĠTux tla
Ġintelig ente
Ġatr Ã¡s
Ġclas es
Ġgra ve
ĠJa ime
ĠFr onter
Ġinteres es
Ġcombusti bles
Ġoportun idades
ĠlÃŃ der
Ġmem oria
Ġsiste ma
atit lÃ¡n
Ġincon clus
ĠMejor amiento
Ġsignif ica
Ġsitu aciÃ³n
ĠMin atitlÃ¡n
ĠPel licer
ĠTel egram
ĠAnton io
Ġautosufici encia
ĠperiÃ³ dico
ĠCuau h
Ġvicepresiden ta
Quer emos
Ġagen da
americ anos
Ġhel icÃ³p
Ġgrup os
ĠSÃ¡n chez
ĠGÃ³m ez
ĠDuar te
ĠHarr is
Ġcampes inos
ĠChapul tepec
Ġrique za
ĠAyotz inapa
1 1
3 0
5 0
8 5
: "
A demÃ¡s
A unque
C E
E P
F ue
I mp
L e
M aÃ±ana
N i
R ec
S al
V A
a utla
b as
c n
d i
e amos
e tros
f ile
g m
g aciÃ³n
g ado
h ib
i x
i am
i Ã©
i cia
l or
l eg
m oc
m ula
p ul
r os
r ist
r oso
s un
s mo
t ic
v Ã¡n
Ã ¼
Ġ bl
Ġ Ã³r
de l
en Ã³m
es iÃ³n
er cio
Ġl u
Ġl unes
on ÃŃa
Ġp in
Ġp oc
Ġp Ã©r
Ġp uerto
ar p
ar se
Ġa ti
Ġa tra
Ġc at
Ġc ues
or o
an da
Ġm ensa
Ġm iren
al d
al l
al o
in aciÃ³n
Ġs ierra
Ã³ l
Ã³ lo
Ã³ lares
ad amente
re to
ic aciones
ic entro
ic omiso
am Ã¡s
aci os
aci smo
at z
at icamos
Ġcon trat
Ġcon tag
ÃŃ da
Ġn ivel
Ã© ro
Ã© rez
Ã© rea
Ġpr Ã¡c
ti a
ti z
ti tud
Ġh am
ut h
Ġg uar
Ġg aran
ĠP Ã©rez
Ġv ia
Ġv arios
Ġv eces
Ġf il
Ġf ru
Ġf enÃ³m
Ġdes p
Ġdes apar
Ġd imos
Ġd ice
Ġd Ã³lares
Ġre al
Ġre tr
Ġun os
Ġun idad
ĠE r
ĠE duc
ĠS ando
ĠA g
ĠA h
il o
il pan
ien tras
Ġin ten
ĠN aciÃ³n
ĠN atal
ĠN ieto
tar Ã¡
ĠT ierra
us ton
us eo
Ġb end
Ġb ase
Ġb ilat
ĠL as
Ġtr ata
Ġal um
Ġal go
ici mos
ici dad
Ġno vi
it en
it antes
ĠR ob
den es
Ġpue des
ĠB a
ĠB ern
oc he
Ġto ma
ay o
Ġt or
Ġt ener
eg a
Ġsu per
Ġpro tes
Ġpro du
ĠH el
ĠH abl
ĠH arp
ĠH icimos
Ġj unto
Ġo tor
Ġac uerdos
iden te
pe d
rec ht
ter os
Ġ2 4
Ġam istos
iz ar
En cuentro
Ġdi Ã©s
ent ando
ĠEst Ã¡n
con dido
ante pec
ten emos
ĠU na
ĠEs condido
Ġci encia
Ġr ÃŃo
Ġr acismo
Ġimp os
Ġpo eta
uen a
arr iles
ĠIn f
Ġcu id
Ġcu atro
Ġman if
Ġman ejo
ĠpolÃŃ ticas
Ġesta bl
ĠpÃºbl icas
und ir
Ġsol d
ĠAl em
Ġfr ente
ide icomiso
ĠY ork
Ġte cn
Ġpre fer
Ġpre cios
Es ta
uel as
Ġprim eros
duc ciÃ³n
Ġparti dos
Ġcar go
Ã³m etros
Ġlib res
Ġpers e
ĠCar men
Ġinform Ã³
Ġinform ando
pervis amos
Ina ugur
Ġdeb er
Ġdeb emos
Ġseg Ãºn
Ġseg unda
Ġab ier
Ġdos is
Ã³r mula
Ġrel aj
Ġinter venciÃ³n
Ġhones to
Ġhones tos
Ġdef ens
Ġop ciÃ³n
Ġcas o
Ġcas ti
Ġdo ble
Ġequ il
In icio
gres os
Ġsen ador
ĠCom ercio
Ġresp uesta
ĠFran cia
ĠCu ba
Ġplan ta
Ġmuch as
Ġneces itados
Ġcr ÃŃ
Ġgan aremos
Ġseguir Ã¡
Ġ6 0
Ġ"Â ¿
Ġcos ta
Ġaplic ar
ĠCo incidimos
ĠPro te
Ġ201 7
Ġexpres Ã³
ĠPr oyec
Ġfortal ecimiento
ĠAs tros
Ġenv iado
Ġestar Ã¡
Ġven ta
ion ado
Ġrecon ciliaciÃ³n
ĠhistÃ³r ica
Ġafec to
Ġafec tados
Ġrefin erÃŃas
Ġcal ific
Ġenerg ÃŃa
Ġofici na
ĠTo do
Ġequip os
Ġcaus a
ĠMan zan
Ġescr it
Ġescr ib
Ġpon e
Ġep icentro
ĠMon real
An te
ĠAy er
Ġdif undir
blem ente
Ġdist ancia
afirm amos
gradec emos
Ġorgul los
Ġcol on
Ġdoc tor
pos iciÃ³n
Ġquer ido
tÃ© moc
Ġrep orte
Ġestud io
Ġhon or
Ġval er
ĠDÃŃa z
ĠZap o
Ġembajador as
Vis ita
Ġjef e
Ġaprob Ã³
Ġinaugur ar
Ġevalu amos
Ġpromo v
Ġsupervis amos
mir ante
Ġfeder ales
Ġmor al
Ġhici mos
Ġgener aciÃ³n
Ġnuev os
ĠGuadal upe
ĠArm ada
ĠarqueolÃ³g icas
Ġtrat amos
rem io
atal la
Ġdomin go
Ġprec andid
ĠAd Ã¡n
Ġindepend ientes
ĠLat ina
ĠBar b
Ġmilitar es
ĠdifÃŃ cil
Ġextraordin aria
Ġmom ento
ĠEj Ã©rcito
Ġinund aciones
Ġrecom end
ĠCarr illo
ĠPed ro
ĠbÃ¡s icos
ĠRu iz
Ġdip utados
ĠHo uston
Ġentusias mo
Ġorig in
Ġkil Ã³metros
Ġarr iba
Ġet c
ĠSam sun
Ġbe isbol
Ġalgun os
Continu amos
Ġbelle za
ĠÃ¡rbol es
deb recht
Ġreac tiv
Ġjus tas
ĠFern ando
ĠLagun a
ĠTrabaj o
ĠEnerg ÃŃa
Ġautoritar ismo
Ġplur alidad
ĠFronter a
ĠCuauh tÃ©moc
ĠÃ³r denes
Ġmensa jes
Ġfru to
ĠSando val
ĠNatal icio
Ġnovi embre
ĠdiÃ©s el
ĠSamsun g
2 5
C A
C elebro
E PN
G obern
L O
P R
P ar
P as
S os
S omos
T ermin
a bles
c oco
d io
d ial
f icar
h am
i der
i Ã©n
i ez
j ar
m ul
m ada
n i
n as
p ir
p ara
s en
s umo
s ka
t Ã³n
t aciones
t Ã¡reas
u Ã±o
v el
v ez
y a
y n
y o
z qu
z ones
Ã ī
Ġ" ""
es p
es ta
Ġl ig
Ġl argo
ci den
ci dos
ci les
Ġp en
Ġp end
Ġp ed
Ġp elo
Ġp uertos
ar me
Ġc en
Ġc ÃŃ
Ġc err
an ia
an ÃŃas
Ġm os
al c
al da
al tad
al cos
Ġs ana
Ġs ismo
Ġs imp
Ã³ st
re d
re l
ue v
Ġen ero
Ġen se
Ġel la
ic antes
ic entenario
ĠC l
ĠC iv
ĠC ona
ĠC entro
am Ã©rica
un icaciones
at oria
Ġcon ci
Ġcon trib
Ã³n imo
ÃŃ z
ÃŃ mp
Ã¡ l
Ã¡ tico
te les
Ġn erv
Ġes to
Ġpr ob
ĠM at
ĠM oc
om ul
om Ã¡n
ti Ã³
ti Ã©r
ti endo
Ġh u
Ġh ice
Ġh Ã¡b
id or
ĠP an
ĠP ie
ĠP Ãºblica
ĠP acÃŃf
Ġv olv
Ġv ean
Ġf irma
Ġf Ã³rmula
Ġdes tac
Ġd ue
Ġd om
Ġd arÃ¡
Ġre vis
Ġre vol
ol e
ĠS te
ĠS ol
ĠS lim
ĠA ug
ĠA Ã±o
em a
Ġcom is
Ġcom ida
ĠN uÃ±o
ac k
ac t
ac ul
ĠT ec
ĠT Ãº
ĠT ula
ĠT ati
Ġpor fir
ir Ã¡
ir nos
ir tiendo
ec tu
ec hos
Ġb en
Ġb us
Ġb arriles
ĠL ÃŃ
ĠL ib
ĠL inar
ĠL are
Ġtr af
Ġal mirante
it an
it ero
ĠB on
ĠB el
idad os
ĠJ ornada
ĠD N
ĠD om
Ġt uvimos
Ġt ercera
ĠV en
ĠV ir
ĠV ean
eg uridad
Ġsu fici
Ġsu fr
ers e
ĠH ue
ĠH ist
ĠH ond
ĠH abrÃ¡
Ġj o
Ġj un
Ġj ug
Ġj ard
form as
tro p
Ġpres um
le vamos
ĠF elicidades
ĠF ox
ter as
Ġres is
Ġres olver
iz a
iz ado
per a
Ġcons ci
Ġdi ez
ent ado
ĠO ro
ĠO jalÃ¡
ĠO debrecht
Ġser ÃŃa
tu al
ib ilidad
Ġcam pe
Ġex per
ĠEst adio
con sumo
tor ia
ier os
Ġtrabaj os
ĠU NA
ĠEs to
Ġcor dial
Ġr at
Ġr um
Ġr ies
Ġsal iendo
Ġimp oner
Ġimp uestos
Ġpo dr
Ġentre gar
hu antepec
ans e
ĠRe v
ĠRe ino
Ġviv a
Ġviv en
Ġtrans par
Ġgobern ar
Ġreun iones
Ġsin c
pl om
pl ica
br ero
ord Ã©
ĠpolÃŃ ticos
Ġesta ba
Ġapoy a
Ġapoy os
Ġapoy ando
Ġsol ici
Con memor
Ġmed al
Ġmed ia
Ġmed ici
Ġcompar tir
ĠUn idad
ĠY o
Ġrespe tuoso
af Ã©
Es to
ĠZ ona
Ġsi ti
Re cib
ĠAn tes
Ġenc ar
Ġenc uestas
ÃŃn ea
Ġco in
Ġar ro
Ġmejor amiento
fr ut
ĠMor ena
Ġdej a
ĠGu tiÃ©r
Ġma g
Ġdeb ate
Ġesc uelas
Ġseg uro
Ġsegu iremos
Ġinv esti
ip utados
ativ os
ativ as
ĠAr gent
Ġfin al
Ġad ministr
Ġmay o
Ġya quis
Ġind isp
err y
Ġinici Ã³
Ġ8 0
Ġdo y
Ġten gan
Ġpe que
Ġconv ier
Ġesp acios
Ġesp alda
In iciamos
Ġsen adores
ĠCom unidad
Ġca ÃŃda
Ġcos t
Ġaplic arÃ¡
Ġmaes tros
ĠCo atz
Ġintegr aciÃ³n
ĠTla pa
Ġpl ante
Ġexpres iÃ³n
Ġvo tar
Ġfortal eza
Ġenv iar
Ġins eguridad
Ġcomb at
ĠK erry
Ġenfr entando
Ġproduc tiva
ĠMorel ia
Ġeduc ativa
Ġide as
Ġpos tura
ĠhistÃ³r icas
Des ayun
uto p
Ġconvers ar
Ġvolun tades
Ġpens iones
Ġcal um
Ġhec tÃ¡reas
Ġfratern o
Ġdirig ido
ĠPR D
Ġescr itor
Ġsem br
An tes
Su pervisamos
Ġoc urr
Ġhabl Ã©
Ġmater ial
Ġrecib ieron
Ġcol ec
Ġprote ger
Ġprote cciÃ³n
ĠOr tiz
Ġ202 1
Ġ202 3
Ġolv idar
Ġolv idados
Ġentr aÃ±
Ġherm an
Ġunivers idades
aco alcos
ĠenergÃ© tico
Ġtom ar
lam amos
gin en
ĠMa zo
Ġintel ectu
ĠTe pe
Ġconsum imos
Ġcomprometi dos
Ġcoordin aciÃ³n
Ġextranj era
Ġproblem as
ĠOl ga
Ġinfl aciÃ³n
Nues tra
Ġk m
Ã¡b ado
Ġfe brero
Ġtend remos
Ã©ctr icas
Ġmigr aciÃ³n
Ġprivileg io
Ġcelebr amos
Ġelabor aciÃ³n
ĠSi empre
II I
Ġingen ieros
Ġban dera
Ġtren es
ĠGr ito
ĠGran des
Ġof rec
Ġescuch ar
Ġindepend iente
ĠLat ino
ĠRos ario
âĢĿ .
Ġgratu ita
ĠdifÃŃ ciles
Ġcer ca
ĠLig as
Ġmargin adas
cor onavirus
dol fo
Ġvir tud
ĠTex coco
Ã¡nd onos
ĠFeder al
Ġconstitu cional
Ġexcep cional
Ġvisit Ã³
Ġadvers idades
Am or
ĠÃºn ico
Ġdeten drÃ¡
ĠPas o
Ġreco ger
ĠIz tap
Ġcorresp onde
ĠcientÃŃf icos
Ġvivien da
Ġestable cido
ÃŃcul o
Ġprofesional ismo
Sig ue
ĠdaÃ± os
rov ech
Ġima gen
Ġdiscipl ina
Ġregal aron
Ġden uncia
Ġcong ru
ĠSoci al
ĠTul um
ĠDemoc racia
ibr io
Ġuste des
ĠhelicÃ³p tero
Imp uls
ĠpÃ©r dida
Ã©ro es
ĠfenÃ³m eno
Ġbilat eral
ĠHabl amos
Ġmanif es
Ġsold ados
Ġperse ver
Inaugur amos
Ġequil ibrio
ĠProte cciÃ³n
ĠManzan illo
Par ticip
ĠcÃŃ v
ĠCiv il
Ġnerv ios
ĠhÃ¡b ito
ĠPacÃŃf ico
ĠAug usto
ĠTati ana
ĠLinar es
ĠLare do
Ġtraf icantes
ĠHond uras
Ġjard ÃŃn
ĠUNA M
ĠGutiÃ©r rez
ĠArgent ina
Ġindisp ensa
ĠCoatz acoalcos
Ġintelectu ales
ĠIztap alapa
. ,
1 5
2 00
4 8
5 00
A gradecemos
C umpl
E m
F al
F ortal
F irma
H emos
J untos
J Ã³venes
J orn
L levamos
M ientras
R eg
T uvimos
T uve
b e
b o
b erg
c lo
d amos
f t
g re
g as
g anza
h uel
i encia
i aco
l ad
m y
m bre
m bol
n es
p re
p ia
p ana
r i
s es
s ol
t l
t ÃŃn
t amente
u i
u cion
v iv
v iles
w ska
x to
Ġ ĠĊ
Ġ Ã¡n
Ġ ran
Ġ Ã¡reas
Ġ Ãī
en io
en ita
es os
es per
es tim
er t
er ia
Ġl uc
Ġl uj
ci cio
ci dente
on do
Ġp el
Ġp ud
Ġp ie
ar o
Ġa f
Ġa t
Ġa gos
Ġc e
Ġc ay
Ġc lar
Ġc alidad
Ġc osa
Ġc eremonia
Ġc afÃ©
or ado
an es
an zas
Ġm en
Ġm ir
Ġm aya
Ġm uestra
al in
in ero
Ġe fic
Ġs at
Ġs om
Ġs Ãº
Ġs ent
Ġs iento
Ġs agr
Ġs Ã³lo
Ġs Ã¡bado
re ve
ue lo
ic en
ĠC lo
am or
am in
am anca
tr ina
Ġcon tr
Ġcon tar
Ġcon tes
Ġcon ten
Ġcon cl
Ã¡ gen
Ã¡ vez
to l
Ġpr ue
Ġpr isiÃ³n
ĠM er
ĠM ario
ĠM useo
om a
ti t
ti ma
ti ene
Ġh id
Ġdel ante
Ġg es
Ġg us
ĠP re
ĠP ino
bl ig
Ġv emos
Ġf ar
Ġf Ã¡
Ġdes esper
Ġd uc
Ġd iv
Ġd ando
Ġd icho
Ġd atos
Ġd inero
Ġre for
Ġre pe
Ġre par
Ġre formas
Ġpar aron
Ġpar ece
Ġun e
Ġse d
Ġse x
Ġse par
ĠS ab
ĠS erv
ĠA ma
ĠA unque
ĠA guas
ĠA Ã©rea
ĠA dolfo
ur ales
ur ismo
il ar
il co
ien en
ĠN ada
ĠN av
ĠN egoci
ĠN orm
tar ia
ac es
ĠT ap
ĠT ele
ens e
ir se
ec ho
us pana
Ġb r
Ġb as
Ġb aja
Ġb atalla
Ġtr atar
Ġal tern
el Ã©ctricas
ern av
Ġno ta
uc o
ĠG al
ĠG ol
it Ã¡n
ĠR en
ĠR eg
ig o
ig na
ero esp
ĠB icentenario
oc a
oc eso
aj es
ra dez
qu i
ador as
ĠJ ud
ĠJ ef
ĠJ Ã³venes
ĠJ uegos
ĠD r
ĠD ec
ĠD av
ĠD iputados
Ġt era
Ġt estim
uer a
ĠV il
ĠI r
Ġj uego
Ġo blig
Ġac t
Ġac ero
Ġac ces
Ġac ordamos
Ġac titud
Ġac cidente
Ġpa g
Ġpa ga
Ġcomp l
ora bles
da vÃŃa
ĠF iscal
Ġap rovech
Ġ2 5
ist ÃŃ
ist encia
Ġam eric
Ġcons ide
dos e
Ġdi arios
Ġdi jo
Ġdi eron
ent as
ent alidad
ĠO br
ĠO bre
ĠO je
ĠO cho
Ġpresiden cia
tu ve
Ġcam in
Ġcam bi
Ġex ista
Ġex iste
Ġim pres
Ġim Ã¡gen
ĠEst Ã¡
ĠCh ica
ĠCh ile
ĠCh alco
ĠCh Ã¡vez
Ġti mbre
Ġtrabaj an
Ġtrabaj amos
Ġci uda
Ġci erre
Ġqu in
Ġqu is
Ġr end
Ġsal var
Ġsal udo
Ġsal dremos
Ġimp lica
gu ar
Ġpo drÃ¡
Ġpo deres
hu aca
tur as
ons trucciÃ³n
vis a
Ġcu idar
ĠEl ena
Ġob is
ĠMe zqu
Ġan aliz
uch are
Ġdem and
ĠSan tia
Ġll en
Ġll uv
itar io
itar ios
Ġle van
uv ieron
ĠAl c
ĠAl ta
Con f
Con tra
end io
Ġfr ase
"" ."
Ġhac en
Ġha go
ĠEn sen
ĠVer Ã³nica
Ġcomprom et
Ġpre d
Ġpre venciÃ³n
Ġrespe ta
Ġrespe tu
ĠSal amanca
Ġdis frut
Ġempres ario
Re itero
ĠAn drÃ©s
Ġcar gos
Ġor o
ÃŃn guez
Ġdirec tora
Est Ã¡
Ġreg ular
ch il
Ġbuen o
Ġprop io
Ġprop ie
lar aciÃ³n
Ġcomun icar
Ãºn el
fr end
ĠMor al
ĠMor ales
Ġdej amos
Ġdej arÃ¡
tiv idad
cal co
cal ientes
Ġma dera
Ġinform amos
Ġinform aron
Ġsegu imos
Ġinv irtiendo
Ġmo do
Ġmo dern
Ġparticip an
ed iato
Ġej ecutivo
Ġhones ta
tern o
Ġconf iar
Ġconf lic
ĠSe ade
Ġop os
Ġliber ales
Ġind ica
Ġemb argo
gan izaciÃ³n
Ġ4 00
Ġsig a
Ġpe ti
Ġconv iv
Ġconv oc
Ġesp ir
Ġserv icios
Ġsen adora
ĠCom isiÃ³n
cion ales
ĠCu ando
ĠCu ernav
ĠBan dera
Ġayud Ã³
Ġayud arÃ¡
ĠCam po
Ġcumpl en
Ġgan amos
ĠJos ef
ĠJos ep
Ġ19 7
grade zco
Ġsab en
Ġdir ÃŃa
ĠTla huel
Ġciudad ano
ĠCol omb
ĠCol orado
ĠPr im
Ġfortal ece
Ġluch ar
Ġluch ando
Ġsuc ed
Ġestar Ã©
Ġestar emos
Ġven ganza
Ġins tr
ĠVal enz
ion ales
Ġfuer te
Ġproduc tores
up aciÃ³n
Ġpos ibilidad
ĠmÃ©d ica
aliz aciÃ³n
Ġafec tadas
trat Ã©g
Ġconvers Ã©
Ġprof und
Ġfronter as
Ġpens amiento
Ġgr ab
Ġsober ana
Ġsober anÃŃas
ĠPo der
ĠPres a
ĠDur Ã¡n
Ġapr end
Ġpermi tirÃ¡
Si empre
Ġaus tero
Ġatender Ã¡
Ġch oc
Ġregres ar
Ġrespons able
Ġrespons ables
ĠTlax iaco
eci Ã³
Ġoc as
ĠprÃ³x ima
Ġdep or
ĠPar ticip
Ġrecib ir
Ġrecib ido
Qu Ã©
Ġproc eso
Ġdig o
Ġbel la
ĠOr ganizaciÃ³n
Ġdoc trina
Ġfuncion arios
Ġdedic ados
Al f
Ġcontin u
Ġherm ano
ĠEx p
ĠCas a
Ġhon r
Ġhon radez
Ġval ores
Ġrealiz ado
ĠEm pres
Ġtom amos
Ġ15 0
Ġpla zas
Ġfirm Ã³
Ġfirm amos
Ġllev aremos
Ġllev arÃ¡
Ġpromo ver
Ġintens o
ĠTe huantepec
Ġtur ismo
Ġsupervis ar
Ġconsum ar
Ġcomprometi mos
Ġra zÃ³n
Ġauto consumo
Ġperd Ã³n
tiliz antes
Ġverda dera
ĠCab os
ĠVic toria
Ġtransm iti
Ġoport unidad
ĠarqueolÃ³g ica
iato wska
Ġcelebr ar
Ã©f ico
ĠAz teca
Ġbusc ar
ĠRec ordÃ©
ĠRec onstrucciÃ³n
As istÃŃ
ĠseÃ± al
Ġingen iero
Ap oy
To dos
Ġpalab ra
Ġder roc
Ġconmemor amos
Ġvuel ta
Ġinm ediato
Ġcens ura
Ġconst at
ĠMil itar
ĠPer Ãº
Ġdesaf ÃŃo
Ġrecorr ido
Ġgrande za
Ġtelef Ã³nica
Seg Ãºn
ris to
Ġagrade cimos
Ġmutu a
Ġesfuer zo
Ġesfuer zos
Ġgl ob
Ġgl oria
ĠPon iatowska
Ġvoc aciÃ³n
Ġvoc eros
Ġdic ha
ĠSil va
ĠSil vio
Ġcuar ta
Ġmedi ante
Ġart ÃŃculo
Ġsac ar
Ġenfer mos
ĠMac uspana
Ġdeleg aciÃ³n
ĠSegu imos
ĠTorre Ã³n
Ġtro p
ĠBlan ca
Ġopin iones
Ġestadouniden se
Ġsucul enta
Ġinstitu ciones
Ġperiod istas
Ġentrevist Ã©
Ġer es
Ġcrec er
ĠEU A
ĠSig amos
Ġinj usti
Ġterr itorio
ĠVel asco
ĠIgu ala
rop iaciÃ³n
Ġfrut ales
Ġejer cicio
ĠCoordin ador
Ġatra ves
Ġcat Ã³l
ĠprÃ¡c tica
Ġham bre
uth ier
Ġgaran tÃŃa
ĠEduc aciÃ³n
Ġbend itas
ĠBern ardo
Ġotor gar
Ġestabl ecer
Ġtecn ologÃŃa
Ġprefer ente
ĠProyec to
Ġcolon ias
PR D
Sos tuvimos
ciden cias
Ġsimp atiz
Ã³st ico
Ġense Ã±
Ġrevol ucion
Ġcomis ionado
Ġben Ã©fico
ĠLÃŃ deres
ĠLib re
ĠDom ÃŃnguez
Ġsufici entes
Ġjo ven
Ġjun io
Ġconsci ente
Ġrat ific
Ġries go
Ġtranspar encia
Conmemor aciÃ³n
Recib imos
Ġcoin cidencias
Ġcolec tiva
ĠentraÃ± able
Ġherman dad
Impuls amos
Jorn adas
ĠÃ¡n imo
Ġluj os
Ġagos to
ĠClo uthier
ĠAguas calientes
ĠNegoci os
ĠTele visa
eroesp aci
ĠDav id
Ġtestim on
Ġacces o
ĠObr ador
ĠObre gÃ³n
ĠOje da
ĠOcho a
ĠimÃ¡gen es
Ġciuda des
uchare ada
ĠSantia go
ĠEnsen ada
Ġmadera bles
ĠCuernav aca
ĠJosep h
ĠTlahuel ilpan
ĠColomb ia
ĠValenz uela
! "
3 8
9 4
? "
A quÃŃ
A gradezco
B eatriz
B usc
E x
F el
F elici
F irm
H L
H a
I ma
L leg
L lamamos
M uy
P r
R es
R oc
S M
S R
S embrando
T E
T e
T om
T ercera
V iv
a k
b io
b el
b ilidad
c ambi
d ar
d ios
e te
e ira
e ja
f ÃŃa
g ica
g ales
g Ãºn
g obern
h an
h ue
i Ã¡n
i amente
j as
j utla
k i
l u
l en
l al
l ÃŃ
l era
l aremos
l ores
m an
m ac
m ica
m it
m ed
m eca
n to
r era
r itu
s on
s um
s ula
t un
t zÃ¡
u vo
u ido
v ÃŃo
y en
z on
z al
z ula
Â °
Ġ &
Ġ iz
Ġ ÃŃn
Ġ zo
Ġ err
Ġ ileg
Ġ utop
de d
de lo
de la
de lar
de remos
en ia
en zamos
os t
er ta
er ca
er va
er echos
Ġl en
ci da
on to
on istas
on ces
on tal
on tÃ¡n
Ġp id
Ġp ol
Ġp ena
Ġp ele
Ġp udo
Ġp adre
Ġp iez
ar de
ar ro
ar ga
Ġa j
Ġa z
Ġc ob
Ġc arr
Ġc ump
Ġc erc
Ġc uchareada
Ġla do
Ġla tin
or e
or g
or ta
or nos
an que
Ġm as
Ġm ina
Ġm ac
Ġm aÃ±
Ġm anos
Ġm ano
Ġm Ãºs
Ġm ural
Ġm erc
Ġm adre
Ġm adres
Ġm ajes
Ġm entalidad
al i
al calco
in ado
in go
in cu
in iciamos
Ġe d
Ġe val
Ġe fec
Ġe terno
Ġs il
Ġs ir
Ġs usti
Ã³ vil
ad ura
ad urismo
re o
as teca
ĠC a
ĠC er
ĠC res
ĠC ien
ĠC ho
ĠC orr
ĠC entenario
ĠC risto
un ta
aci miento
at arios
Ġcon j
Ġcon ec
Ġcon oc
Ġcon tro
Ġcon mem
Ġcon dol
ÃŃ amos
ÃŃ ritu
te m
Ġn Ãº
Ġn orm
Ġn uncio
Ã© l
Ã© plica
Ġes ti
Ġes truc
is a
ĠM ic
ĠM it
ĠM uch
ĠM ujer
ĠM Ã³nica
ĠM adre
om unicaciones
ti eron
ti enen
Ġh in
Ġdel incu
Ġg er
Ġg ig
Ġg usta
Ġg esti
ĠP in
ĠP olÃŃ
ĠP av
ĠP remio
Ġv ul
Ġv ÃŃs
Ġv end
Ġv eci
Ġv arias
Ġf ÃŃs
Ġf Ã©r
Ġf ies
Ġf uimos
Ġf iscal
Ġf ui
ta ba
ta urante
Ġdes gr
Ġdes ter
Ġd ro
Ġd ivers
Ġd Ã©c
ol ate
Ġse l
ĠE vo
ĠS h
ĠS t
ĠS im
ĠS af
ĠS cher
ob ia
ĠA b
ĠA Ã±os
ĠA ustr
ur i
ur ar
ur ado
ur iÃ³
em e
em o
em bra
il las
res ÃŃa
ien e
Ġin gres
Ġin icia
Ġcom itÃ©
ĠN e
ĠN ues
ĠN aciones
ĠN eza
tar emos
ac er
ac ter
ac oa
ĠT a
ĠT en
ĠT em
ĠT he
ĠT enos
ĠT enemos
ĠT lal
ab e
ab o
ir Ã©
ec emos
ec cion
ec tura
ec omunicaciones
us a
us o
us os
us imos
us tÃŃn
Ġb on
Ġb omb
Ġb ola
Ġb reve
Ġtr iste
Ġal ianza
Ġal berg
ul e
ul es
ul aciÃ³n
uc k
ĠG ra
ĠG erm
ĠG uel
iv id
ĠR om
ĠR iv
ĠR osa
Ġpue do
ĠB l
ĠB Ã©isbol
ĠB ach
oc resÃŃa
qu ÃŃn
qu iera
ĠJ ap
ĠJ untos
ĠJ oa
ĠJ ean
Ġto c
ay as
um a
um anos
ĠD i
ĠD ura
ĠD ep
ĠD omin
ĠD erechos
Ġest as
Ġt am
Ġt Ã©r
Ġt Ãºnel
uer te
lo v
ĠV an
ĠV is
ĠV arg
ĠI ma
ĠI VA
ĠI SR
ĠI tzÃ¡
Ġpro tag
Ġpro hib
ĠH a
ĠH asta
ĠH err
ĠH umanos
Ġj u
Ġj ue
Ġj usto
la za
Ġac ord
Ġpres entar
Ġpres entÃ³
Ġpres entarÃ¡
Ġpa p
Ġpa pa
ro elÃ©ctricas
ĠPal m
pe hu
le x
le ciÃ³
ran o
ĠF oro
ĠF ideicomiso
ĠF acul
Ġap as
Ġap ort
Ġres taurante
Ġ2 6
Ġ2 7
aÃ± a
Ġam par
per tura
Ġcons ul
Ġcons ecu
Ġcons ej
Ġcons ider
ÃŃs imo
Ġdi plom
ent ales
ent ada
ĠO c
ĠO fici
ĠO cos
Ġem o
ib un
Ġex ig
Ġex posiciÃ³n
Ġex gobern
Ġim ped
ĠCh ich
Ġent end
Ġent onces
Ġtrabaj a
Ãºbl icas
Ġci elo
Ġci viles
Ġqu iero
Ġr ad
Ġr adio
Ġr Ã©plica
gu Ã©
Ġpo ema
uen cias
ap acidad
Ã©n ez
ĠMar cha
ĠRe des
ĠRe afirmamos
Ġviv e
vis pe
Ġcu ida
ĠEl enita
Ġob tener
Ġrec re
Ġrec tor
ĠMe d
Ġan teriores
Ġan unci
Ġan Ã¡l
Ġsin Ã³nimo
uch amos
Ġdem uestra
Ġdem anda
ĠLa ura
Ġman da
Ġman ten
Ġman ip
ez uela
Ġderec ha
Ġsobre vol
Ġni e
Ġle al
Ġesta ban
Ġesta bilidad
ĠAl var
ĠAl tÃ¡n
Con cl
Ġfr ij
Ġcompar timos
ĠUn idas
Ġte xto
Ġte pehu
Ġha gan
Ġpre oc
Ġpre ven
Ġpre venir
Ġsi ete
Ġsi embra
Ġcre o
Ġcar ic
Ġcar acter
and Ã³n
Ġenc arg
Ġor illa
ÃŃn sula
Ġnue ve
Ġdirec to
Est Ã¡n
pec tiva
Ġreg iones
ch on
Ġco ti
Ġconstr uc
Ġar m
ĠRo ja
Ġsecretar ios
Ġsecretar ÃŃas
Ġprop uestas
Ġprop use
Ġprop usimos
lar ta
fr enda
Ġpas e
ĠMor eira
ĠCar den
Ġdej en
Ġdej Ã³
Ġdej aron
tiv as
Ġper der
Ġma ÃŃz
Ġelec tos
til io
til adores
Ġfue go
Ġfal tan
Ġfal laremos
ĠLe altad
ĠNo gales
Ġab sol
Ġsegu idores
Ġinv itar
Ġinv itados
Ġimport antes
ĠAr ce
Ġrel acion
Ġparticip aron
Ġparticip ativa
Ã©d ito
Ġconf irma
Ġrepres entar
Ġdef end
Ġmar inos
Ġop ciones
Ġop tim
Ġcas illa
ĠAc ordamos
Ġind ivid
Ġ4 5
Ġinici ar
Ġinici ativa
et ti
Ġ5 7
Ġdo Ã±a
Ġdo lor
Ġsig lo
ĠCon ven
Ġesp ontÃ¡n
Ġserv idor
Ġautor idad
Ġautor iz
In v
ĠCom itÃ©
ĠCom alcalco
Ġresp ond
Ġca er
ĠFran co
ĠLuis a
ĠCu autla
ĠCan delar
ific ar
du jo
Ġcamb ios
Ġayud ar
Ġayud ando
Ġneces idad
Ġneces idades
Ġneces ita
Ġneces itamos
Ġneces itan
Ġcr iter
ata o
ĠPuebl o
Ġ19 17
Ġ19 85
Ġlleg a
Ġlleg Ã³
Ġlleg ado
trol era
Ġpes o
Ġsab e
Ġsab rÃ¡
ĠCo p
ĠPro ducciÃ³n
ĠMexic ali
Ġrepresent ante
Ġbenefici os
Ġexpres Ã©
Ġexpres iden
ĠPr onto
Ġllam a
Ġmunicip al
Ġcandid ata
Ġenv iÃ©
Ġven tiladores
ĠVal larta
ion ante
ĠacompaÃ± an
iste ce
Ġpos esiÃ³n
Ã³s tol
Ġrecon oci
Des file
Ġconserv adurismo
Ġvolun taria
me j
Ġpriv ado
Ġpriv atiz
Ġfun ciÃ³n
Ġsober ano
ĠPe trolera
Ġapr ender
Ġfelici tar
ach ula
Ġsector es
Ġdisc rim
Ġescr itorio
ĠX och
ĠX alapa
Ġpon ch
Ġpon iendo
ĠMon umento
ĠIntegr al
An iversario
An drÃ©s
ĠJo e
Ġlogr Ã³
Ġlogr amos
eci dos
ĠAlf aro
Lam enta
ĠÃ© p
ĠÃ© tica
Ġdep ende
Ġmater iales
ĠcompaÃ± eros
ĠÃºlti mos
Ġproc es
Ġdig no
ĠDel gado
Ġprote g
Ġgobiern a
Ġresc at
Ġley es
Ġfundam entales
og amos
tla huaca
Ġdecis iones
Ġpron Ã³stico
olÃ³g ica
Ġfalle ciÃ³
Ġfuncion ario
Ġdedic amos
Ġdedic ada
Ġolv id
Ġcap aci
Ġcap acidad
Ġentr istece
ĠCor zo
ĠCor dero
Ġvide os
Ġrep rim
Ġrep ite
Ġestud ios
Ġmand Ã³
ĠsÃŃ mbol
Ġrealiz ada
ĠUr ÃŃas
ĠMart ÃŃ
lam entar
Ġpla zo
Ġminis tros
ĠMi ke
Ġfon dos
Ġjef es
Ġcarre teras
elebr amos
Ġinaugur amos
ĠMa ur
Ġintens iva
Ġtur ÃŃst
Ġtur ÃŃstico
Ġpais ano
ĠEsc uela
ĠEsc andÃ³n
Ġcomprometi da
ĠautÃ©n tica
Ġra zones
Ġfra gm
ĠEE UU
Ġobje tivos
Ġobje tividad
Ġperd ido
Ġperd ieron
Ġverda der
Ġinfl uy
Ġinfl uencias
Ġdistin ciÃ³n
Ġdistin tivo
vi amente
Ġmor ales
ĠCab rera
Ġinc endio
iter amos
quier da
Ġrob o
ĠArm adas
Ġmuer tos
Ġsos tuve
Ġreci ente
Ġreci biÃ³
Ġreafirm Ã©
Ġreafirm amos
Ġincl uye
Ġampl iaciÃ³n
Ġrecuper ando
Avan ces
Ġagr o
Ġagr ado
Ġdomin ical
Ġrehabil itar
ĠseÃ± or
ĠseÃ± ora
Ġban co
ĠBoc a
Ġof re
ĠÃģl amos
Ġform ar
Ġencontr ar
Ap oyo
Pl aticamos
To do
Ġav iÃ³n
Ġav anza
ĠAd ministr
ĠHu asteca
Ġgratu itos
Ġextraordin ario
Ġqued Ã³
Ġfl ores
ĠEj ecutivo
ĠLig a
Ġtrad iciÃ³n
Ġintelig entes
Pres entaciÃ³n
Pres idente
lim Ã¡tico
Ġconc reto
Ġconst ancia
ĠPl aya
Ġintern acional
Ġintern et
ĠTex as
ĠRu tilio
Ġoper aciones
Ġdip ut
ĠInd ustr
Ġvisit ando
Ġconvertir se
Seg undo
Ġfer tilizantes
Ġpu blic
Ġdesayun ar
ĠEcon omÃŃa
ĠSu Ã¡rez
Ġalim entos
Ġacep tÃ³
ĠFuer zas
Entre ga
Ġvivien das
Ġdisp on
Ġart istas
ĠCaribe Ã±os
Ġfallar le
Ġhumil de
Ġhumil des
ÃŃcul os
Ġdemostr ado
Man tenemos
Prim er
Prim era
tam in
Ġaquel lo
Ġsum ar
Ġnaci Ã³
ĠesplÃ©n dida
ĠBlan co
Ġcomple ta
ĠElec tr
ĠElec toral
Ġregis tro
Ġopin iÃ³n
Ġsigu iente
Ġsigu ientes
Ġestadouniden ses
Ġadelan to
Ġavanz ando
Ġtraicion aremos
Ġorganiz aciones
Ġpaci ficar
Ġah orr
Ġsue Ã±os
isc urso
Ġho tel
Ġhip Ã³cr
Ġhip ocresÃŃa
Ġfom ento
Ġalcan zar
ĠJim my
ĠJim Ã©nez
Ġpregun tas
Ġartes anos
Ġrelig ios
ix Ã¡r
rist Ã³
Ġpoc os
Ġcues ti
Ġdesapar ecidos
ĠEr nes
ĠAg ustÃŃn
ĠAh ÃŃ
Ġalum nos
ĠRob erto
ĠBa vispe
Ġprotes ta
ĠHel Ãº
Ġamistos a
Ġimpos ible
Ġcuid ado
ĠAlem ania
Ġrelaj emos
Ġdefens or
Ġcasti gar
ĠcrÃŃ tica
Ġescrit ora
Ġorgullos o
ĠZapo tillo
ĠBarb osa
Gobern amos
Pas amos
Ġlig as
Ġpend iente
ĠCl ima
Ġconci encia
ÃŃmp icos
Ġprob able
omul gaciÃ³n
Ġvolv imos
Ġrevis ar
Ġbus ca
ĠBon illa
ĠVen ezuela
ĠOro zco
Ġcampe Ã³n
Ġsolici tud
Ġmedal las
Ġcompartir Ã©
Ġmag is
Ġpeque Ã±os
Ġcombat ir
Desayun Ã©
Ġocurr ido
Ġolvidar Ã©
Ġkm s
ĠLatino americanos
Ġcongru encia
Particip amos
Ġindispensa ble
Reg res
ĠsÃº per
Ġhid roelÃ©ctricas
Ġsex enio
ĠSab inas
ĠTap achula
ĠGal vÃ¡n
ĠRen Ã©
Ġtera pia
Ġquis ieron
ĠAlc ocer
Ġcompromet ÃŃ
Ġregular izar
Ġpeti ciones
ĠPrim er
Ġsuced ido
Ġchoc olate
ĠExp ropiaciÃ³n
ĠEmpres arial
Ġtrop ical
Ġinjusti cias
Ġsimpatiz antes
ĠenseÃ± anza
eroespaci al
Ġtestimon ios
Fel iz
Roc k
Ġiz quierda
Ġzo p
Ġutop ÃŃa
Ġpiez as
Ġcarr era
Ġeval uar
Ġsil encio
Ġsusti tu
ĠCorr al
Ġconmem ora
Ġcondol encias
ĠnÃº m
Ġdelincu encia
Ġvul n
Ġdester rar
Ġdro gas
ĠdÃ©c adas
ĠSaf ran
ĠScher er
ĠTenos ique
ĠGerm Ã¡n
ĠGuel atao
ĠJap Ã³n
ĠJoa quÃŃn
ĠtÃ©r m
ĠVarg as
ĠFacul tad
ĠOfici na
ĠOcos ingo
Ġexgobern ador
ĠChich Ã©n
ĠanÃ¡l isis
Ġmanip ulaciÃ³n
ĠAlvar ado
ĠCandelar ia
Ġfragm ento
ĠAdministr aciÃ³n
ĠErnes to
% .
% ;
1 4
1 00
3 5
4 5
8 8
A M
A pl
A cep
A gradecÃŃ
B C
C ero
C ada
C iudad
C amin
C elebramos
D os
D eci
D iscurso
E S
F r
F uimos
G R
G u
I z
L uego
M o
M em
M ORENA
M uros
N eces
N adie
O tra
O axaca
P er
P ero
P AN
P remio
R A
R I
S on
S BC
T en
T rans
T ercer
V ean
W al
Y o
a g
a z
a que
a una
a guar
a pertura
b al
b il
b emos
c en
c ran
c aria
c ega
d d
d ÃŃa
d ra
d onde
d idas
e v
e as
e da
e fici
e org
f a
f f
f as
f il
f ica
f icaciÃ³n
f uegos
f obia
g l
g Ã©n
g arit
h er
h ÃŃculos
i u
i Ã¡
i amos
i Ã±
i qu
i arios
i tivo
i Ã±a
i ka
j en
j os
j ada
j imo
k io
l ico
m at
m Ã¡n
n e
n Ã¡
n ta
n aciÃ³n
o Ã©
o ul
p r
p ista
p Ãºl
p ola
p rano
r ic
r ÃŃ
r amos
r um
r Ã©dito
s o
s ules
t ÃŃ
t encia
t ensa
t ales
t amo
t entada
u tr
u que
u encia
u ero
u idos
v ios
w ixÃ¡r
x teca
y entes
z c
z aremos
z aron
z int
z quez
z uma
z aÃ±a
z mÃ¡n
z nÃ¡
Ã ¨
Ġ ida
Ġ za
Ġ wixÃ¡r
de ud
Ġde jo
Ġde tener
Ġde tal
Ġde uda
en c
en amiento
Ġ" (
os os
es a
es or
er i
er do
er ales
Ġl ici
Ġl ine
Ġl iter
Ġl ÃŃnea
ci n
ci remos
ci ona
on dr
on taciÃ³n
Ġp ien
Ġp it
Ġp iso
Ġp int
ar ca
ar iales
ar reg
Ġa do
Ġa ta
Ġa fici
Ġa gra
Ġc Ã³n
Ġc la
Ġc oci
Ġc uen
Ġc uesta
Ġla ico
Ġla dos
Ġla gar
Ġla gun
or i
or ar
or tar
or io
or ito
or me
or Ã¡nd
an c
an e
an ti
an eros
an tla
Ġm ue
Ġm ando
Ġm uro
Ġm entir
Ġm amÃ¡s
Ġm uriÃ³
al do
al ia
al la
al va
al iciÃ³n
al mente
al ÃŃmpicos
in ita
in me
in aria
Ġe c
Ġs Ã©
Ġs ÃŃn
Ġs uerte
Ã³ logo
re ded
ue le
ue mos
ue vo
ue va
Ġen ter
Ġen rique
Ġen deud
Ġen orme
as o
as av
as tepec
Ġel im
Ġel eg
ic ol
ic ano
ic ara
ic amente
ĠC A
ĠC re
ĠC at
ĠC ob
ĠC aj
ĠC aÃ±
ĠC ent
ĠC OVID
ĠC Ã³r
ĠC erv
ĠC uev
ĠC limÃ¡tico
ĠC ristÃ³
am es
am idades
am po
am iÃ¡n
un o
un icaciÃ³n
aci nta
at el
at ales
at ino
at ha
at icano
tr en
tr uir
Ġcon form
Ġcon fr
Ġcon tun
Ġcon tamin
ÃŃ e
ÃŃ var
Ã¡ p
Ã¡ zquez
te i
te mos
te zuma
Ġn eg
Ġn eo
Ġn ub
Ġn utr
Ã© ut
Ã© tera
Ġes paÃ±
Ġes tratÃ©g
Ġpr u
Ġpr om
Ġpr act
ĠM al
ĠM is
ĠM ur
ĠM ay
ĠM ap
ĠM ate
ĠM ira
ĠM ach
ĠM undo
ĠM och
ĠM oto
ĠM esa
que te
que da
que za
om pe
om ÃŃas
ti ta
ti ra
ti ciÃ³n
ti remos
ti tÃ¡n
Ġh as
Ġh it
Ġh arÃ©
Ġh Ã©roes
Ġdel ito
Ġdel itos
ut in
do le
do ba
Ġg ol
Ġg ana
Ġg Ã©n
ĠP Ã¡n
ĠP ay
ĠP ers
ĠP ap
ĠP atr
ĠP inos
ĠP ilar
ĠP laza
ĠP GR
bl o
Ġv ig
Ġv iern
Ġv ÃŃas
Ġf ut
Ġf ara
Ġf if
Ġf ideicomiso
Ġf auna
ta br
Ġdes e
Ġdes ig
Ġdes per
Ġdes arrol
Ġdes file
Ġd or
Ġd an
Ġd Ã©
Ġd ado
Ġre el
Ġre ducciÃ³n
Ġre bel
Ġre iniciamos
Ġre dujo
ol ar
ol as
ol uca
Ġpar tes
Ġpar eci
Ġpar tic
im es
im ir
im ilco
Ġun as
Ġun irnos
Ġse an
Ġse pul
ĠE ug
ĠE uro
ĠE cu
ĠE gresos
ĠS C
ĠS un
ĠS ÃŃ
ĠS ob
ĠS ud
ĠS erg
ĠS up
ĠA T
ĠA ten
ĠA na
ĠA tl
ur aciÃ³n
ien za
ien tal
Ġin Ãº
Ġin greso
Ġin mej
Ġcom Ãºn
Ġcom isiÃ³n
Ġcom enz
Ġcom ienza
ĠN es
ĠN ig
ĠN eg
ĠN oso
ac al
ac ora
ac apul
ĠT V
ĠT u
ĠT er
ĠT an
ĠT al
ĠT am
ĠT om
ĠT ur
ĠT res
ĠT ermin
ĠT err
ĠT orr
ĠT amp
ĠT ercer
ĠT oluca
ens o
ir o
ec en
ec ciÃ³n
us an
us ieron
Ġb in
Ġb ol
Ġb Ãºs
Ġb ron
ĠL l
ĠL ona
ĠL abor
ĠL iÃ©
ĠL leg
ĠL ÃŃnea
ĠL ectura
ĠL erdo
Ã± ado
Ã± ez
Ġal tos
Ġal tas
Ġal ej
Ġal reded
el er
el la
ul o
ul pas
ici l
ici al
ici Ã³
Ġno ble
uc an
ĠMÃ© len
ĠG o
ĠG er
ĠG ait
ĠG iam
ĠG esta
ĠG eorg
it ic
it ud
it ores
it ual
it ativa
ĠR a
ĠR amos
ĠR oc
ĠR ay
ĠR um
ĠR ich
ĠR ÃŃos
den nos
ig os
Ġpue da
ero ica
ĠB o
ĠB as
ĠB ras
ĠB ot
ĠB ase
ĠB Ã©l
oc ÃŃ
oc emos
Ã¡n ta
Ã¡n ico
Ã¡n dose
Ãº car
Ãº chil
Ãº dennos
qu iz
qu ito
for zamos
ĠJ er
ĠJ ames
Ġto lera
ay mas
ay ucan
um al
um bres
ĠD amiÃ¡n
Ġest Ã©n
Ġest uve
Ġest adio
Ġest uvo
Ġest atales
Ġt re
Ġt erm
Ġt ub
Ġt rem
Ġt erre
uer ta
ĠV a
ĠV ide
ĠV ila
ĠV ill
ĠV ega
ĠV lad
ĠV aticano
ĠI l
ĠI m
ĠI vÃ¡n
eg as
Ġsu biÃ³
ĠH e
ĠH aremos
ĠH ait
ĠH Ã©roes
ĠH SBC
ĠH eroica
Ġj ur
Ġj usti
Ġj aguar
Ġo peraciÃ³n
Ġo dios
Ġac lar
Ġac tiva
Ġac erca
tro quÃŃ
Ġpres encia
Ġcomp ort
Ġcomp et
iden cia
ĠF ra
ĠF lores
ter m
ter io
ter cambi
Ġap eg
Ġres uel
Ġres pec
Ġres iste
Ġres erva
Ġ2 3
Ġ2 10
ist en
Ġam o
Ġam ena
iz aco
Ġcons agr
Ġcons igna
En c
En fr
Ġdi al
Ġdi ferencias
Ġdi alo
ent Ã©
ĠO b
ĠO s
ĠO me
Ġem erg
Ġpresiden ciales
mo to
Ġser i
Ġser es
Ġser ie
tu des
tu vo
tu ario
tu bre
Ġcam ion
Ġcam inar
Ġex hib
Ġim per
Ġim pera
ĠCh ina
ĠCh et
ĠCh rist
Ġmil itantes
ier to
ten go
Ġti t
Ġti err
Ġtrabaj ador
ĠU ru
ĠU SM
ĠU sum
ĠU cran
ĠEs e
ĠEs trategia
Ġcor r
Ġcor as
Ġci erto
Ġci vil
Ġci clo
Ġqu itar
Ġqu iÃ©n
oci aciÃ³n
Ġr Ã©c
Ġr ural
Ġr eno
Ġr enta
Ġr uta
Ġr Ã¡p
Ġsal va
Ġimp orta
gu o
gu is
Ġpo damos
Ġpo tencia
uen tes
Ġsob ornos
ort istas
hu at
arr il
ĠMar te
ĠMar co
ĠMar tin
ĠMar gar
ĠMar cos
ĠMar garit
ble do
ĠRe f
ĠRe ina
ĠRe pres
ĠRe frend
Ġcu b
Ġcu entan
Ġgobern antes
Ġob viamente
Ġrec uerdo
Ġan h
Ġdem Ã³cr
ĠSan to
ĠSan tan
Ġman eras
ĠTr iun
ĠTr ibun
ord ar
ord ina
Ġll enos
Ġle tra
Ġapoy an
Ġsol id
ĠAl b
ĠAl d
ĠAl to
ĠAl tos
ĠAl ator
Con clus
uar o
uar do
uy en
Ġfr ac
Ġhac emos
ĠUn iÃ³n
ĠUn ido
Ġha ga
Ġha zaÃ±a
ĠEn cuentro
Ġpre m
Ġpre ci
Ġrespe tamos
ĠSal Ã³n
ĠSal dremos
ĠSal gado
ĠZ a
ĠZ ald
ĠZ oÃ©
ener aciÃ³n
Ġsi quiera
uel tas
uel Presidente
Ġdis f
Ġdis posiciÃ³n
Ġempres arial
Ġempres ariales
Re afirmamos
Re forzamos
Ġcre ador
Ġcre ciÃ³
Ġcre ciendo
Ġcre yentes
Ġsus tentada
ĠAn d
Ġcar den
and ard
and ros
Ġenc argo
Ġor ien
Ġdirec ta
ie t
Ã³m ico
Est uve
Ġreg ional
Ġreg ionales
ch etti
Ġco aliciÃ³n
Ġco quiz
Ġco ordina
Ġar g
Ġar reg
ĠCal ak
Ġvis to
ĠRo bledo
ial ogamos
âĢ ĵ
âĢ Ļ
Ã©r ito
Ġaten demos
ate pec
Ġprop a
lar o
ĠQ ues
Ġpers pectiva
Ġpas ar
Ġpas Ã³
Ġay u
Ġdej emos
entar ia
Ġmill on
Ġgaranti za
Ġgaranti zamos
ĠGu zmÃ¡n
ĠGu asav
ĠGu aymas
Ġper vers
Ġper fec
iar ia
Ġelec ta
Ġinform a
Ġinform ativa
Ġinform arÃ©
Ġfal sa
ĠLe e
Ġesc olar
Ġhum ana
Ġinv it
Ġinv itÃ©
Ġimport ancia
Ġ3 6
Ġ3 00
Ġcultur ales
ĠAr iz
Ġfin anzas
Ġad quis
Ã³r ico
Ġver acruz
Â» ."
Ġmo d
Ġmo tor
Ġmo delo
Ġmay as
Ġhab itantes
irm e
Ġparticip a
Ġparticip Ã³
Ġparticip amos
Ġparticip ado
ĠeconÃ³m icas
ed ia
ed ro
Ġej ercer
Ã©d itos
ex o
Ġconf i
Ġrepres entarÃ¡
Ġmar tes
Ġmar gen
Ã¡r cega
ĠSe pÃºl
ĠAc ayucan
Ġpoder osa
Ġliber al
Pro p
val eciÃ³
Ġ4 0
Ġ4 2
Ġ4 7
Ġvacun ar
et h
et ta
Ġ5 8
Ġsig los
Ġsig nific
Ã©c tor
Ġten ga
gra fÃŃa
Ġpe troquÃŃ
Ġequ ivo
Ġequ itativa
ĠCon venciÃ³n
Ġconv er
Ġesp ÃŃritu
Ġ7 5
ĠCom unicaciÃ³n
Ġresp aldo
ĠFran k
ĠCan tabr
ĠNay ar
Ġtermin Ã³
Ġtermin ado
Ġtermin ando
Ġtermin aremos
Ġtermin arÃ¡
ific aciÃ³n
par to
ve da
Ġplan es
ĠAm Ã©r
ĠAm eric
ĠBan caria
ĠCam bio
ompaÃ± Ã©
Ġcr Ã©ditos
Ġcumpl imos
Ġcumpl ido
Ġcumpl iendo
Ġcumpl imiento
Ġgan arÃ¡
ĠPuebl os
Ġactu alidad
Ġ19 10
Ġlleg arÃ¡
Ġseguir Ã¡n
Ġ6 8
Ġcos to
Ġcos tas
Ġaplic ando
Ġmaes tras
ĠCo atlÃ¡n
ĠCo alc
Ġref ug
Ġciudad ana
âĢĶ ,
Ġrepresent aciÃ³n
Ġpl ena
Ġpl ural
Ġpl enas
Ġpl ayas
Ġexpres ar
Ġexpres amos
Ġexpres aron
Ġexpres idente
ĠPr incip
ĠPr ieto
ĠPr omulgaciÃ³n
ĠAs amble
ĠAs ociaciÃ³n
Ġllam amos
ĠQuint ÃŃn
Ġig les
Ġlle va
Ġade cu
Ġcab al
Ġenv ÃŃo
Ġven cer
Ġins ta
Ġins pir
Ġcomb inado
ĠVal d
ion ada
ĠK en
Ġfor jada
Ġfuer zas
Ġfund aciÃ³n
ĠJal apa
Ġprincip io
Ġprincip ales
Ġide a
Ġloc ales
Ġpos i
Ġcan al
Ġcan cil
Ġcan cel
ha gÃºn
iel a
iel es
tÃ³ lico
Ġafec tada
Ġcomer ci
Ġcomer cial
Ġcomer cio
Ġprof unda
Ġconserv aciÃ³n
Ġconserv ador
Ġconserv adora
Ġpens ar
Ġpens ando
Ġcal l
Ġcal or
Ġcal amidades
Ġmal andros
ĠprÃ³ jimo
Ġpriv ados
Ġpriv ada
ĠLo z
Ġofici o
Ġmis iÃ³n
Ġmis ma
ĠPe Ã±
ĠPo or
ĠTo davÃŃa
ĠTo kio
Ġrecord ando
Ġ/ /
ĠMan dela
Ġfelici taciÃ³n
Ġfelici taciones
ach uca
Ġdisc apacidad
Ġdisc ulpas
Ġhuman as
Ġhuman ista
Ġavan ces
Ġch ica
ĠAy ala
itor ial
ĠJo jutla
Ġdif untos
ces a
Ġoc ul
Ġoc tubre
Ġ9 0
ĠPar ÃŃs
ĠPar tido
Ġrecib en
ĠSalud os
ĠSalud able
Ġpal anca
Ġcol abor
ich oles
ĠPa ÃŃs
Ġbel lo
Ġtan ta
Ġamb os
Ġamb iental
ĠOr den
Ġentreg amos
Ġentreg ando
Ġentreg aron
Ġley enda
Ġsolidar ia
Ac uerdo
Ac abo
pos tamos
Ġquer idos
Ġfalle cidos
Ġfuncion ado
Ġfuncion ando
Ġtar ea
Ġentr ada
ĠCor rup
ĠCor ea
Ġcontin Ãºa
Ġnat urales
ĠEx pres
Ġresul tado
Ġmand atarios
Ġtem por
Ġtem prano
Ġval e
Ġactiv idad
Ġimpuls a
ĠMart ha
Ġlegisl adoras
10 9
Ġaum ento
Ġaum entos
ĠMi xteca
ĠIs la
Ġllev ando
Ġaprob aciÃ³n
Ġaprob ado
Ġinaugur aremos
inar ias
Ġpromo tor
imp i
ĠEd znÃ¡
ĠEd uardo
Ġintens idad
Ġintens ificar
och tit
ĠtÃ©cn ico
ĠtÃ©cn ica
Ġsupervis ando
Ġconsum o
ĠEsc uch
ĠEsc Ã¡rcega
Ġcoordin adores
ĠautÃ©n ticos
Ġauto pista
Ġorgan ismos
ĠValle jo
Ġir re
Ġir Ã¡
Ġgener aciones
Ġfel ices
Ġdar le
ĠAp oyo
ĠAp izaco
Ġinc rem
Ġinc omp
iter Ã©
Ġexp lo
Ġexp oner
ĠArm ando
ĠarqueolÃ³g icos
Ġsos tuvimos
Ġprior itario
Ġreci nto
Ġreafirm ar
ĠSa hagÃºn
ĠAM LO
ĠAz c
ĠAz ul
Ġincl uyendo
Ġincl uyÃ³
Ġbusc amos
Ġbusc aron
Ġtrat ado
Ġampl ia
Ġpopular es
ĠUnivers al
ĠUnivers idades
202 1
Ġrecuper ar
ite mos
Ġsan itaria
Ġsan gre
Ġhor iz
ĠSer Ã¡
Ġban da
icion ales
Ġnoti cias
ĠGr ace
ĠGran de
Ġacab Ã³
Ġ200 6
Ġtel ecomunicaciones
Ġtele vis
Ġescuch ando
Ġform aciÃ³n
Ġencontr Ã©
Ġencontr arlos
Ġprec urs
Ġhij as
Ġfran queza
ĠAbra zos
ĠRos s
ĠBar ran
Ġasamble as
Ġsubsecretar ia
Garanti zaremos
Ġu til
Ġder ro
Ġmom entos
Ġconmemor ar
Ġqued aron
Ġfl or
Ġfl ora
Ġdestin o
Ġdestin ar
Ġinund aciÃ³n
ĠTux pan
Ġapar tadas
Ġmargin aciÃ³n
Pres entamos
roc arril
Ġdecid ir
Ġdecid ido
Ġcens o
Ġcens urado
Ġlabor al
Ġlabor ales
Ġmin eros
Ġmin uto
ĠMil pa
Ġvir tual
Ġdesaf ÃŃos
Ġdesaf uero
Ġ14 0
ĠFeder aciÃ³n
Ġren acimiento
Ġrecorr er
Ġanti gua
Ġadvers arios
Ġinteres ante
Ġcombusti ble
Ġgasolina zo
Ġtelef Ã³n
Ġtelef onÃŃa
ris ti
Ġfer rocarril
ĠÃºn ica
Ġagrade cimiento
Ġmutu amente
Ġve da
Ġve hÃŃculos
Ġdesayun ando
Ġreco g
ĠNi Ã±os
Ġalim entaria
ĠFin k
ĠFuer za
Ġempe zar
Ġempe zamos
Ġentusias mada
Ġcorresp ond
ĠcientÃŃf ico
Ġcuar teles
Ġmedi anÃŃa
Ġorig inarias
Man uelPresidente
Sig amos
inc ul
Ġsum a
Ġenfer m
ĠesplÃ©n dido
ĠMo ham
ĠMac ron
Ġdesc anse
ĠSegu iremos
Ġbar ata
ĠIx tlahuaca
Ġcomple to
Ġima ginen
Ġprepar ando
Ġprepar ativos
Ġregis tr
Ġadelan tar
Ġsucul ento
Ġinstitu cional
Ġavanz ado
Ġutiliz ar
Ġutiliz ando
Ġencabez o
Ġentrevist amos
Aten demos
Ġlimp ias
ĠCultur a
ĠCultur al
Ġconoci do
Ġnegoci os
Ġnegoci ador
isc ales
Ġfom entar
Ġbate ar
ĠGabriel a
Ġsup uesta
Ġapos tÃ³lico
dern izaciÃ³n
Ġinvertir Ã¡n
Ġadmir aciÃ³n
ĠCoordin aciÃ³n
Ġinconclus a
Ġinconclus as
Rec on
di ana
gm atiz
roso ft
tic amente
Ġbl anque
Ġlu jo
Ġpin tor
Ġati ende
alo apan
Ġcontag ios
Ġguar ij
Ġvia j
Ġvia je
Ġreal mente
Ġretr oceso
ĠAg atha
ilo tes
Ġtor til
ĠInf raestructura
ĠAlem Ã¡n
Ġabier to
Ġventa ja
Ġcalific aciÃ³n
Ġcalific adora
Ġescrib iÃ³
Ġdifundir lo
ĠZapo pan
Ġinaugurar lo
Ġpromov iendo
Ġprecandid ato
Ġrecomend aciÃ³n
Ġorigin arios
Ġetc Ã©tera
Ġreactiv ar
Termin Ã³
Ġpen ÃŃnsula
Ġpelo ta
Ġcen tral
Ġmos trÃ³
ĠCona go
ĠMat amor
ĠMoc orito
ĠMoc tezuma
Ġhu icholes
Ġdom icil
ĠSte inme
ĠSol alin
ack Rock
Ġporfir ista
Ġporfir iato
ĠVir gen
ĠVir tual
Ġsufr imiento
ĠHue tamo
ĠHist oria
Ġpresum ir
Ġresis tir
Ġexper tos
Ġrum or
Ġpodr ÃŃa
ĠRev illa
ĠRev ueltas
Ġsinc ero
Ġmedici na
Ġmedici nas
Ġsiti o
Ġsiti os
Ġencar cel
Ġarro jo
Ġinvesti gar
Ġconvier te
Ġcost umbre
Ġcost umbres
Ġcalum nia
ĠTepe titÃ¡n
Ġofrec ÃŃ
Ġpersever ancia
ĠcÃŃv ico
ĠcÃŃv ica
Fal leciÃ³
Fortal ecemos
ĠÃī l
Ġce iba
Ġcay Ã³
Ġefic acia
Ġsat uraciÃ³n
Ġcontes tÃ³
Ġconcl uir
Ġprue ba
ĠMer ce
Ġges tas
Ġfar mac
ĠfÃ¡ cil
Ġdesesper ados
Ġduc tos
Ġdiv isiÃ³n
Ġrepe tir
Ġsepar ar
ĠAma zon
ĠNorm alidad
Ġaltern ativas
ĠGol fo
ĠJud icial
ĠDec laraciÃ³n
Ġact Ãºan
Ġcompl icidad
ĠFiscal ÃŃa
Ġconside ro
Ġcambi ar
Ġimpres ionante
Ġquin iela
Ġobis po
ĠMezqu itic
Ġanaliz ar
Ġdemand as
Ġlluv ia
Ġrespetu osos
Ġconfiar nos
Ġconflic to
Ġespir itual
Ġprofund amente
ĠParticip a
Alf onso
Apoy amos
Ġderroc he
Ġconstat amos
Ġglob al
Ġatraves amos
ĠcatÃ³l icos
Ġratific ado
Firm amos
Ġaj eno
Ġcump la
Ġlatin os
Ġmac ane
ĠmaÃ± an
ĠmÃºs ica
Ġmerc ado
ĠCer ro
ĠCres encio
ĠCien fuegos
Ġconj unto
Ġcontro vers
Ġesti gmatiz
ĠMic rosoft
ĠMit la
ĠMujer es
Ġgig ante
Ġgesti Ã³n
ĠPin chetti
ĠPolÃŃ tica
Ġvend iÃ³
Ġdesgr acia
Ġdivers idad
ĠSt andard
ĠSim Ã³n
ĠNues tro
ĠTem acapul
Ġalberg ues
uck er
ĠGra ue
ĠBl ackRock
ĠDura zo
ĠDep or
ĠDomin go
Ġtam ales
ĠtÃºnel es
ĠIma gen
Ġprotag onistas
ĠHerr era
Ġconsecu ente
Ġconsej eros
Ġexig e
Ġimped ir
Ġrecre aciÃ³n
Concl uimos
Ġfrij ol
Ġpreoc upaciÃ³n
Ġcoti diana
Ġarm onÃŃa
Ġabsol uto
Ġoptim ista
Ġindivid ual
Ġcriter io
ĠCop pola
Ġexpresiden tes
Ġdiscrim inaciÃ³n
ĠXoch imilco
AndrÃ©s ManuelPresidente
Ġcapaci dades
ĠsÃŃmbol o
ĠMaur icio
Ġverdader amente
Ġinfluy ent
ĠElectr icidad
ĠhipÃ³cr ita
Ġmagis terio
Ġzop ilotes
Ġsustitu ir
Ġvuln era
ĠtÃ©rm inos
AM LO
Apl icamos
Iz amiento
Mo dernizaciÃ³n
Neces itamos
Wal ter
mat tei
zint la
Ġline amientos
Ġpit cher
Ġpint ado
Ġagra vios
ĠcÃ³n sules
Ġcla ve
Ġcuen ta
orÃ¡nd um
Ġendeud ar
ĠCat acora
ĠCob Ã¡
ĠCaj eme
ĠCent la
ĠCÃ³r doba
ĠCerv antes
ĠCuev as
ĠCristÃ³ bal
Ġconform idad
Ġconfr ontaciÃ³n
Ġcontun dente
Ġnub es
Ã©ut ica
Ġpract icar
ĠMur at
ĠMap astepec
ĠMach ado
ĠMoch is
ĠMoto zintla
ĠgÃ©n ero
ĠPÃ¡n uco
ĠPay Ã¡n
ĠPers onas
Ġviern es
Ġpartic ular
ĠEug enia
ĠEcu ador
ĠSerg io
ĠinÃº til
Ġinmej orables
ĠNoso tros
Ġbron ce
ĠLiÃ© bano
Ġalreded or
ĠMÃ©len chon
ĠGait Ã¡n
ĠGiam mattei
ĠRich ard
ĠBras il
ĠBÃ©l gica
Ġterm ina
Ġtrem endo
ĠVlad imir
ĠHait ÃŃ
Ġcomport amiento
Ġcompet encia
Ġamena zas
ĠOme tepec
ĠChet umal
Ġtierr as
ĠUSM CA
ĠUsum acinta
ĠUcran ia
ĠrÃ©c ord
ĠMargar ita
ĠMargarit as
ĠSantan der
ĠTribun al
ĠAlator re
Conclus iÃ³n
ĠZald ÃŃvar
Ġcoquiz adora
ĠCalak mul
ĠGuasav e
ĠSepÃºl veda
ĠCantabr ia
ĠCoalc omÃ¡n
ĠAsamble a
Ġcancil ler
Ġcolabor aciÃ³n
ochtit lan
ĠMatamor os
ĠSteinme ier
ĠSolalin de
Ġfarmac Ã©utica
ĠTemacapul ÃŃn
' :
' d
' s
- -
1 2
1 3
1 8
1 25
4 6
8 2
9 5
: ""
A C
A v
A gua
A bra
A ban
A postamos
B A
B ien
B ienestar
B uen
B end
B VA
B uena
C I
C en
C Ã³
C la
C uar
C VI
C ultur
C ambi
C AN
C laud
C han
C rÃ©dito
D H
D ar
D ec
D imos
D anza
D ice
E ME
F A
F es
F or
F elipe
F oro
G I
G eneral
G abriel
H e
H er
H aremos
H asta
H acia
H abrÃ¡
I N
I T
I FA
J N
J u
J os
J usticia
L uc
L uchamos
L AC
L CAN
M ar
M is
M Ã¡s
N I
N O
N TE
O S
O tro
O frenda
P e
P o
P aci
P olÃŃ
P eti
P roc
R icardo
S A
S C
S er
S ÃŃ
S olo
T A
T ul
T ama
T ian
U tiliz
V al
V oy
V olv
Y unes
a uguraciÃ³n
b amos
b ur
b ay
b ran
b ido
b ord
b uj
b yn
b acoa
c ter
c ada
c tor
c Ã©s
c end
c omo
c tura
c enta
c olo
c oles
c erse
c anse
c atepec
d on
d ic
d Ã³n
d ica
d und
d ismo
d arios
d inaria
e b
e do
e ter
e dencia
f y
f em
f oc
f rez
f eder
f red
f lu
g Ã©
g encia
g ina
g ones
g aÃ±
g Ã¼
g uera
g edia
h i
h r
h or
h um
h ones
h ensiÃ³n
h acer
i k
i re
i us
i form
i ana
i ante
i Ã©c
i adora
i tido
j Ã³
j il
j Ã¡n
j ate
k s
k en
k in
k ist
l ando
l ÃŃs
l adores
l und
l eros
l ende
l ace
l ler
l Ãºa
m es
m ar
m ad
m Ã³n
m ito
m icos
m ira
m entar
n er
n ar
n al
n am
n ol
n acional
n go
n dad
o k
o v
o tas
o ft
p ut
p ens
p Ã¡n
p ados
p ita
r s
r ad
r at
r Ã©
r om
r Ã¡n
s an
s te
s trucciÃ³n
s ayo
t ina
t adores
t ismo
t amiento
t ice
u k
u z
u os
u ÃŃ
u qu
u ales
u ario
u jo
u Ã±a
u anas
v as
v ando
v emos
v ila
v ech
v echo
w it
w ait
x ito
x eno
y es
y Ã³
y ac
y va
y les
z ol
z ob
z ado
z ados
z cal
z gos
z atlÃ¡n
z Ãºa
Ä Ł
Å į
Ġ .
Ġ 0
Ġ ;
Ġ [
Ġ Ġ
Ġ ta
Ġ ol
Ġ iden
Ġ Ã©s
Ġ zar
Ġ Ã¡m
Ġ tapa
Ġ xeno
de cor
de term
Ġde cl
Ġde tuvimos
Ġde cor
en es
en tr
en ciones
en ista
en ciales
en tral
Ġ" #
os i
os iÃ³n
os per
os ques
os tÃ³n
es ÃŃa
es ca
er ci
er Ã³n
er Ã¡n
er vo
er icas
er tura
Ġl i
Ġl ic
Ġl lan
Ġl ÃŃn
Ġl ista
Ġl ech
ci ta
ci st
on e
on en
on ic
on te
on ados
on da
on der
on ga
on tales
Ġp m
Ġp eg
Ġp le
Ġp ante
Ġp ier
Ġp ido
Ġp ato
Ġp istas
Ġp ion
Ġp unto
Ġp uesto
Ġp uestos
Ġp iÃ±a
Ġp usieron
ar co
ar ito
Ġa un
Ġa ter
Ġa vis
Ġa bre
Ġa tin
Ġa val
Ġa gres
Ġa erop
Ġa gradec
Ġa trib
Ġa Ã©rea
Ġa tem
Ġa eroespacial
Ġc l
Ġc aci
Ġc el
Ġc ul
Ġc uc
Ġc uer
Ġc emp
Ġc ans
Ġc ruz
Ġc arÃ¡
Ġc ena
Ġc ele
Ġc eno
Ġc ach
Ġc oco
Ġc och
Ġc entenario
Ġc erramos
Ġla n
Ġla dr
Ġla mentar
or res
or ÃŃa
or acio
or rup
or ÃŃas
or osa
or cio
an n
an im
an ales
an til
an ea
an ke
Ġm m
Ġm ic
Ġm am
Ġm Ã©
Ġm ens
Ġm ec
Ġm ero
Ġm und
Ġm Ã¡r
Ġm ulta
Ġm useo
Ġm oche
Ġm Ã³vil
Ġm Ã©rito
al ÃŃ
al te
al lar
in i
in n
in de
in es
in am
in acional
in amente
in osa
in iciÃ³
Ġe ven
Ġe fici
Ġe je
Ġe van
Ġe gres
Ġe di
Ġs ien
Ġs ens
Ġs ano
Ġs uel
Ġs arg
Ġs aque
ad r
ad ig
ad ira
ad illa
re ÃŃ
re ta
re ma
re tera
re quete
re hensiÃ³n
ue cos
Ġen o
Ġen ti
Ġen em
Ġen tidad
Ġen fo
Ġen gaÃ±
Ġen lace
Ġen alte
as es
as Ãºchil
Ġel e
ic an
ic ac
ic ul
ic ados
ic ciones
ĠC I
ĠC is
ĠC el
ĠC ero
ĠC ada
ĠC ort
ĠC Ã©s
ĠC amil
ĠC ed
ĠC orte
ĠC atar
ĠC atem
ĠC ueva
ĠC iro
ĠC NTE
ĠC entral
am Ã¡
am paÃ±a
am bay
un ciÃ³n
un tamiento
at h
at as
at ur
at ÃŃa
at ural
at icar
at ion
at ible
at erales
tr es
tr an
tr ico
tr ora
tr ales
tr ona
tr itos
tr uimos
tr ices
Ġcon o
Ġcon den
Ġcon qu
Ġcon duc
Ġcon tras
Ġcon ce
Ġcon gres
Ġcon cil
Ġcon tamos
Ġcon cu
Ġcon ocimiento
Ġcon tral
Ġcon ferencias
Ġcon decor
Ã³n de
Ã³n ico
Ã³n oma
Ã³n zal
ÃŃ do
ÃŃ mul
Ã¡ tica
Ã¡ fr
Ã¡ ticos
Ã¡ huat
to do
to pos
to mas
to colo
te a
te g
te za
Ġn ep
Ġn egr
Ġn Ã¡huat
Ã© z
Ġes os
Ġes tr
Ġes encia
Ġes pec
Ġes cal
Ġes tim
Ġpr Ã³s
is ti
is ab
is ario
is tir
is gÃ³n
ĠM C
ĠM c
ĠM en
ĠM ol
ĠM ul
ĠM ando
ĠM ora
ĠM ax
ĠM endo
ĠM ena
ĠM ich
ĠM atos
ĠM alin
ĠM Ã³vil
que bran
om Ã©
om istas
om ine
ti Ã¡n
ti da
ti guo
ti fy
Ġh im
Ġh arÃ¡n
Ġh orn
Ġh uev
Ġh rs
ut os
id y
fer a
fer entes
Ġque da
Ġque hacer
do les
Ġg o
Ġg ub
ĠP en
ĠP ol
ĠP ab
ĠP et
ĠP aco
ĠP ensiÃ³n
ĠP iti
ĠP apan
ĠP iÃ±
ĠP utin
ĠP achuca
ĠP EME
ĠP icac
Ġmatut inas
bl os
bl or
bl ica
Ġv i
Ġv ar
Ġv ac
Ġv ers
Ġv imos
Ġv iento
Ġv ano
Ġv ial
Ġv aya
Ġv ino
Ġv olver
Ġv icios
Ġv ienen
Ġv incul
Ġf ac
Ġf us
Ġf Ãº
Ġf ier
Ġf ug
Ġf iscales
ta pe
Ġdes in
Ġdes em
Ġdes con
Ġdes cu
Ġdes eamos
Ġdes ped
Ġdes plom
Ġdes truir
Ġdes bord
Ġdes hones
Ġdes tape
Ġd amos
Ġd ul
Ġd anza
Ġd ura
Ġd uda
Ġd uros
Ġd Ã³nde
Ġre v
Ġre af
Ġre tras
Ġre memor
Ġre voluciÃ³n
Ġre quier
Ġre med
Ġre iteramos
Ġre apertura
Ġre dund
Ġre mes
ol n
ol id
ol it
ol lam
ol tita
Ġpar Ã³
Ġpar que
Ġpar ada
Ġpar ejo
Ġpar lamentar
Ġpar adig
im as
Ġun idades
Ġun idos
Ġun iform
Ġun anim
ĠE valu
ĠE che
ĠE vel
ĠS os
ĠS oy
ĠS ie
ĠS RE
ĠS ique
ĠS po
ĠS omos
ĠS EP
ĠS usan
ĠS put
ob il
ob el
ob je
ĠA f
ĠA de
ĠA ut
ĠA ud
ĠA la
ĠA van
ĠA dr
ĠA du
ĠA gradecÃŃ
ĠA gradecemos
ĠA plica
ĠA utop
ĠA eroespacial
ĠA Ã±ado
ur y
ur amos
ur ador
ur ita
ur inacional
em ente
em pres
em ÃŃnimo
em ne
il io
il and
il apa
il berto
ien das
ien dan
ico tepec
Ġin ci
Ġin tro
Ġin olv
Ġin gresos
Ġin efici
Ġin gl
Ġin quebran
Ġin obje
Ġcom an
Ġcom eti
Ġcom enzamos
ĠN or
ĠN Ãº
ĠN adie
ĠN arro
ĠN anc
ĠN ervo
ĠN atural
ĠN obel
Ġpara ÃŃso
tar io
tar ÃŃa
tar ios
ac to
ac ho
ac tivo
ac omul
ĠT at
ĠT ig
ĠT ra
ĠT ay
ĠT end
ĠT ienen
ĠT LCAN
ĠT orres
ab ia
ab el
ab ra
ab ando
ab iol
ab ind
ab uena
Ġpor tuario
Ġpor centa
ia blos
ir r
ir os
ir le
ir va
ir ino
ec ados
ec uciÃ³n
us iÃ³n
us ura
us tÃ³
Ġb a
Ġb ur
Ġb asta
Ġb oliv
Ġb esos
Ġb imes
Ġb ecados
ĠL en
ĠL or
ĠL Ã¡s
ĠL arr
ĠL ula
ĠL unes
ĠL inc
ĠL lamamos
io tismo
Ã± irnos
Ġtr Ã¡
Ġtr amos
Ġtr ato
Ġtr ajo
Ġal ta
Ġal eg
Ġal ent
Ġal tura
Ġal bor
Ġal lÃŃ
Ġal eccion
el as
el lo
el le
el ada
el et
el Ã©ctrica
el anda
ul lo
ern os
ici e
ici ar
ici onal
Ġno vel
uc es
uc tÃŃ
ĠG l
ĠG an
ĠG ay
ĠG ana
ĠG uy
ĠG and
ĠG usta
ĠG Ã¼
ĠG ert
ĠG Ã³nzal
ĠG ilberto
Ġme ta
Ġme zcal
oy a
it Ã¡c
iv e
iv os
iv as
iv oc
ĠR es
ĠR inc
ĠR abind
ud aciÃ³n
ud ita
ig ios
ig uen
ig adas
ig enista
Ġpue das
Ġpue dan
ĠB e
ĠB al
ĠB Ã¡
ĠB aj
ĠB ra
ĠB las
ĠB usc
ĠB och
ĠB omb
ĠB uena
ĠB atalla
ĠB ert
ĠB acal
ĠB BVA
ĠB osques
ĠB adira
oc as
oc racia
ues tamente
aj as
ra pu
qu il
qu ir
qu ÃŃa
qu eros
qu ila
qu iles
qu ite
qu idy
ĠJ ar
ĠJ uch
ĠJ erem
ĠJ unta
ĠJ iqu
Ġto tal
Ġto topos
st enciones
um ada
ĠD a
ĠD ol
ĠD ra
ĠD ios
ĠD ice
ĠD amnificados
ĠD iam
ĠD icen
ĠD HL
ĠD uque
ĠD ialogamos
ĠD iablos
Ã¡s quez
Ġest aciÃ³n
Ġest rec
Ġest uvieron
Ġt on
Ġt al
Ġt as
Ġt Ãº
Ġt um
Ġt amp
Ġt uvieron
Ġt ostÃ³n
uer da
uer dan
lo gos
ĠV oy
ĠV ÃŃc
ĠV Ã¡zquez
ĠV iet
ĠV Ã¡squez
ĠI I
ĠI NA
ĠI tal
ĠI cel
ĠI CA
ĠI rapu
eg aciÃ³n
Ġpro gram
Ġpro vecho
Ġpro tocolo
ĠH en
ĠH er
ĠH id
ĠH emos
ĠH ubo
ĠH uracÃ¡n
ĠH echos
ĠH uerta
ĠH Ã©ctor
ĠH oracio
Ġj uar
Ġj od
Ġj amÃ¡s
form o
ru te
Ġo pres
Ġo jalÃ¡
Ġo frenda
Ġo trora
Ġac cion
Ġac aba
Ġac tores
Ġac apar
Ġac eler
Ġpres ento
Ġpres taron
Ġpres enciales
Ġcomp os
ones ia
gr ÃŃa
gr aremos
ora ble
ro empres
ĠPal abra
pe a
pe cial
pe Ã±o
pe zamos
ida ble
le tas
go za
ran g
ran za
ran ath
rec to
rec tiva
Ġ1 20
da z
ĠF a
ĠF al
ĠF re
ĠF ama
ĠF ace
ĠF lor
ĠF ondo
ĠF IFA
ĠF isgÃ³n
ĠF abiol
Ġap lica
Ġap ag
Ġap ortar
Ġap rehensiÃ³n
Ġres olv
Ġres istencia
ada ble
Ġ2 2
aÃ± o
iz as
iz ada
iz ca
per ar
per as
tra ble
Ġcons is
Ġcons ol
Ġcons iste
Ġcons enso
En vÃŃo
ÃŃs imos
der amiento
der nidad
Ġdi j
Ġdi ario
Ġdi ferentes
ent ud
ent antes
ĠO j
ĠO HL
ĠO frez
Ġem oci
Ġpresiden tas
mo tivo
Ġser Ã©
Ġser emos
tu b
tu aremos
tu osa
Ġcam as
Ġcam is
Ġcam pos
Ġex it
Ġex tens
Ġex oner
Ġex cel
ĠEst ud
ĠEst ÃŃmul
con trat
ĠCh ico
ĠCh ontal
ĠCh ampo
ĠCh risti
erm e
Ġmil es
Ġent ero
ier es
ier re
ten den
ten gan
Ġti enes
Ġtrabaj adora
ĠU U
ĠU res
ĠU lÃºa
ĠEs o
ĠEs tratÃ©g
dad as
Ġcor aje
Ġcor por
Ġcor red
Ġci m
Ġci en
Ġci tÃ©
Ġci erta
Ġr as
Ġr un
Ġr ico
Ġr acional
Ġr arÃ¡
Ġr ama
Ġr iego
Ġr ÃŃos
Ġr urales
Ġr usos
Ġr ompe
Ġr inde
Ġr iendas
Ġsal in
Ġsal ida
Ġsal vo
Ġsal arios
Ġsal vando
Ġimp ug
Ġimp uesta
Ġimp uso
Ġimp acto
gu ay
gu ato
gu ila
Ġpo dremos
Ġpo pul
Ġpo zol
Ġpo emÃŃnimo
ap Ã©
ap otz
ap ole
Ġentre guÃ©
ort alidad
hu y
ans iÃ³n
usti ano
ĠIn vers
ĠIn dia
ĠIn auguraciÃ³n
lan o
ĠMar k
ĠMar x
ĠMar quel
ĠRe afirm
ĠRe iterÃ©
ĠRe yes
Ġviv os
Ġviv iÃ³
vis tar
Ġ20 9
ven ciones
Ġtrans forma
Ġtrans iciÃ³n
Ġtrans gÃ©n
Ġcu bano
Ġcu yo
Ġcu entas
Ġcu Ã¡nta
Ġcu otas
Ġgobern ada
Ġgobern abilidad
Ġreun irme
ĠEl los
ĠEl iÃ©c
Ġob tuvo
Ġrec ha
Ġrec titud
Ġrec uerda
ĠMe tro
ĠMe del
ĠMe dio
ĠMe trop
Ġan o
Ġan im
Ġan tir
Ġan terior
Ġan uncio
Ġan oche
Ġmi x
Ġmi el
Ġmi Ã©r
Ġsin dic
uch in
pl iaciÃ³n
ĠLa ur
Ġman tenemos
Ġman tiene
br ar
br ica
br iÃ³
ez can
Ġsobre viv
Ġll enas
Ġas um
Ġas eg
Ġas oci
Ġas umo
Ġas trona
Ġsec reto
va bles
rÃ¡ tica
Ġle er
Ġle tras
Ġle ves
Ġle altad
fici o
fici t
fici os
Ġapoy Ã³
uv entud
Ġsol uciÃ³n
Ġsol emne
ĠAl ma
ĠAl cal
ĠAl ianza
ĠAl onso
ĠAl lende
Con ocÃŃ
Ġmed ida
Ġfr uta
Ġfr ases
Ġfr uctÃŃ
"" ;
ide mos
Ġhac ernos
ĠY ax
ĠY anqu
ĠY esca
ĠEn tre
ĠEn vÃŃo
ĠVer de
ĠVer du
Ġpre v
Ġpre cip
Ġrespe tando
ĠSal to
ĠSal tillo
Es c
ĠZ ara
ĠZ elanda
ĠZ itÃ¡c
Ġmexic aneros
uel os
Ġprim a
Ġdis tritos
Re forma
Re frend
Re iteramos
duc to
Ġcre a
Ġcre en
Ġcre ado
Ġcre ando
Ġcre ados
Ġcre arÃ¡n
Ġcre encias
Ġsoci os
ĠAn dr
ĠAn trop
ĠAn exo
ĠAn tiguo
bi Ã©n
Ġparti da
Ġparti darios
zar Ã¡n
Ġcar d
Ġcar teras
and ona
Ġecon omistas
Ġdirec ciÃ³n
ie ta
ie za
Ġsalud ar
Ġgobernador as
Est ados
pec uario
Ġhist ori
Ġreg la
ch os
Ġlib r
Ġlib ro
Ġlib ros
Ġco incidimos
Ġco erci
Ġaut on
Ġar ma
Ġar ch
Ġar gent
ĠCal vo
ĠCal kin
Ġeste mos
Ġvis ta
Ġvis iÃ³n
Ġvis itÃ©
ĠRo ger
zo g
Ġsecretar ias
dem Ã³cr
Ġaten tos
tin es
tin Ãºan
Ġprop or
Ġprop ia
Ġprop oner
tad ura
Ġpers on
Ġpers egu
Ġpers ecuciÃ³n
Ġcomun ic
Ġcomun ista
pas ados
Ġpas os
Ġpas Ã©
Ġpas iones
ĠCar o
ĠCar ranza
omo vemos
Ġdej es
Ġdej Ã©
tir se
tiv al
Ġper for
Ġper ten
Ġper deremos
Ġma der
Ġma gn
Ġinform o
Ġinform Ã©
Ġinform ados
Ġfal tar
Ġfal ten
Ġamig a
iÃ³ tica
Ġdeb en
Ġdeb at
ĠLe ona
ĠLe yva
Ġesc apÃ©
Ġhum or
Ġhum ano
Ġab us
Ġab og
Ġab ordar
Ġab stenciones
Ġinv itamos
Ġinv itaciÃ³n
Ġ3 2
Ġ3 5
Ġ3 7
bol ismo
ip ar
ĠAr gan
ĠAr men
ĠAr nol
ĠAr abia
ĠGuer ra
Ġfin g
Ġfin ados
Ġfin cada
Ġad ver
Ġad her
Ġad mira
Ġad uanas
Ġad quir
Ã³r ica
Ġinter ior
Ġinter pre
Ġinter venciones
Â» "
Â» :
cis iÃ³n
Ġmo dernidad
Ġhab ÃŃan
Ġhab ÃŃamos
irm ar
ĠeconÃ³m icos
Ġdirector es
ed amos
Ġej ec
Ġej idal
Ġej Ã©rcito
Ġrepres iÃ³n
Ġdef ien
Ġdef ra
Ġdef ende
Ġperm ita
Ġperm iso
Ġperm iten
Ġmar es
Ġmar co
Ġmar ch
Ġya qui
Ã¡r amos
Ã¡r qu
ĠSe bas
ĠLu jÃ¡n
Ġ( ...
Ġcas os
Ġcas as
Ġcas ual
ĠAc uerdos
ĠAc ompaÃ±Ã©
ĠAc uÃ±a
ĠAc ambay
Ġliber ar
dr as
gan da
Ġ4 3
Ġ4 4
Ġ4 6
Ġvacun ado
Ġvacun arse
Ġinici ado
Ġinici arÃ¡
Ġ5 2
Ġ5 50
Ġ8 2
Ġsig uen
Ġten ÃŃa
Ġten den
ij alva
Ġequ idad
Ġequ ivoc
ĠCon tamos
ĠCon feder
ĠCon chos
Ġesp ero
Ġesp ion
Ġautor ÃŃa
In formaciÃ³n
In tercambi
In formo
Se ptiembre
Ġ7 0
Ġ7 4
Ġ7 00
Ġsen tir
Ġsen cil
ĠCom pos
ĠCom unicaciones
ĠCom itÃ¡n
ĠCom pr
ĠCom parto
ĠSin hue
Ġresp ald
Ġresp onder
ĠRep Ãºblicas
ĠÃģ vila
ĠÃģ guila
ĠCan al
ĠCan anea
ĠCan elas
Ġtermin e
Ġtermin al
Ġtermin Ã©
Ġplan e
Ġplan icie
Ġmuch ÃŃsimo
ĠAm ado
ĠAm ericas
Ġayud ado
Ġayud arÃ¡n
Ġayud arnos
Ġembaj adora
Ġneces aria
ompaÃ± amos
Ġhom e
Ġsocial demÃ³cr
ĠQu irino
Ġcr uel
Ġcr imen
toy uca
Ġ19 11
Ġ19 48
Ġ19 38
Ġ19 94
Ġ19 88
Ġ19 46
Ġlleg an
Ġlleg ando
Ġ6 4
Ġ6 9
Ġ6 00
Ġcos tilla
Ġaplic an
Ġaplic ada
Ġaplic aremos
Ġaplic Ã¡ndose
Ġpes te
Ġsab ÃŃa
Ġsab ios
Ġsab ros
Ġsab roso
Ġsab atino
Ġgas to
Ġgas tos
Ġref lex
Ġintegr an
Ġintegr ada
Ġciudad anÃŃa
ĠMexic anos
Ġrepresent ando
Ġpl eno
Ġpl aticamos
Ġpl aticar
Ġpl Ã¡tica
Ġemp r
Ġemp iez
Ġemp ieza
Ġmig ajas
ĠPr oc
ĠPr oceso
Ġvo z
Ġvo taron
Ġfortal eci
ĠAs pe
ĠAs esor
ila quiles
Ġllam ar
ĠQuint ero
eder os
Ġig n
Ġcab e
Ġcab ecer
Ġenv ÃŃa
Ġven ce
Ġven ga
Ġven cida
Ġins tituciÃ³n
Ġins truc
Ġcomb inar
Ġcomb ustÃ³
ĠVal les
ĠVal lad
ion istas
ĠK uri
Ġenfr enta
Ġenfr entamos
Ġespe ci
ĠPor fir
Ġfuer a
Ġfuer os
Ġfund Ã³
Ġfund ador
Ġproduc e
Ġproduc ÃŃa
Ġproduc tos
ĠacompaÃ± ado
ĠacompaÃ± ando
ĠacompaÃ± antes
pu jil
ĠW al
ĠW il
ĠW illa
ĠW ill
iste ma
Ġva gones
Ġinf und
Ġinf inita
Ġide olÃ³g
Ġpan istas
Ġcan asta
Ġcan tidad
Ġcan tada
ĠmÃ©d icas
Ġhospit alizaciÃ³n
Ġrecon ocer
Ġrecon strucciÃ³n
ĠhistÃ³r icos
Ġespecial izado
Ġespecial izada
Des eo
Des puÃ©s
Des eamos
Ġafec tar
Ġafec tÃ³
Ġconvers ado
Ġfronter iza
Ġfronter izas
Ġz Ã³calo
Ġpens arÃŃa
Ġcal iente
Ġmal v
Ġmal os
Ġmal as
Ġenerg ÃŃas
Ġgr ata
Ġgr atit
Ġgr itan
Ġfun ciones
Ġfun ciona
Ġofici ales
Ġofici nas
Ġfratern os
ĠdemocrÃ¡ ticos
men da
Ġmis mos
Ġsur ge
Ġsur real
Ġproyec tar
ĠPe tro
ĠPe pe
ĠPo za
ĠPo pular
ĠPres upuesto
Ġfav orables
Ġfav orable
ĠTo das
ĠGar za
ĠDes puÃ©s
ĠDes eamos
ĠDes canse
ĠDur ante
Ġrecord Ã³
Ġrecord arÃ©
Ġrecord aba
Ġequip ar
Ġcaus ado
Ġfelici tÃ©
ach icol
Ġdisc re
Ġhuman idad
Ġhuman itaria
ĠX X
ĠX i
ĠX icotepec
ĠX pujil
Ġus ar
Ġus ados
Ġded ico
tel l
ĠMon clo
An unci
Ġleg ado
Ġleg alidad
ard ier
Ġavan zar
Ġavan zamos
Ġch atar
Ġch ontales
Ġch ilaquiles
ĠAy uda
ĠAy ox
ĠLuc as
Ġlogr o
Ġpobl anos
Ġregres Ã©
Ġlocal idades
ot ada
ot ismo
ot lÃ¡n
Ġoc ho
Ġoc up
Ġoc upaciÃ³n
Ġev ita
Ġev itemos
Ġnacional es
Ġhabl o
Ġhabl ar
ĠprÃ³x imos
Ġ9 8
ĠÃ© xito
Ġdep ortistas
ĠcÃ³ d
ĠPar k
ĠPar do
ĠPar alÃŃmpicos
ĠSeg al
ĠSeg Ãºn
ĠSeg uro
ĠSalud amos
ĠÃģn imo
Qu ieres
Ġcol oc
Ġesper ando
Ġproc l
Ġproc eder
Ġproc lam
Ġproc edencia
ĠPa blo
ĠPa kist
Ġdig na
Ġbel los
Ġbel lÃŃs
ĠDe be
ĠDel egaciÃ³n
Ġsub e
Ġsub ir
Ġsub contrat
Ġprote ge
Ġprote ja
Ġprote ctor
Ġamb iciones
ĠOr iz
ĠOr dinaria
ĠOr daz
Ġentreg ado
Ġante pasados
Ġley Ã³
Ġdoc umento
Ġfundam ento
Ac ompaÃ±amos
og ando
Ġdecis ivo
Ġpron ta
ĠZac ap
Ġvisitar on
Ġvisitar emos
Ġpersonal mente
Ġfuncion an
Ġfuncion arÃ¡
Ġfuncion amiento
Ġolv ida
Ġolv ido
Ġentr adas
Ġentr enamiento
ĠCor por
ĠCor byn
Ġcontin uemos
Ġnat al
Ġherm ana
Ġvide oc
Ġvide ollam
Ġrep Ãºblica
Ġrep Ãºblicas
Ġunivers idad
ĠEx iste
ĠSur este
Ġresul tÃ³
Ġmand an
Ġtem blor
ĠPresiden cial
De bemos
De Septiembre
Ġpatr iotismo
ĠCas as
Ġhon roso
Ġrealiz a
Ġrealiz Ã³
Ġrealiz amos
Ġrealiz aremos
Ġtom ado
Ġtom ada
ĠUr ge
ĠUr quidy
Ġimpuls Ã³
10 5
10 8
Tr ump
Vis itar
ver tiremos
ond remos
onav it
Ġaum entado
Ġfon da
Ġfirm e
Ġfirm ar
Ġinvers ionistas
stal aciÃ³n
ĠIs abel
Ġ10 6
Ġllev Ã³
Ġllev amos
Ġllev aron
Ġsucurs ales
Ġaprob ar
Ġaprob aron
Ġinaugur ando
Ay Ãºdennos
ux tepec
ux tla
Ġevalu ando
ĠClaud io
Ã¡m onos
Ġpromo tores
ĠMa zatlÃ¡n
ĠEd gar
Ġintens amente
ĠTe quila
Ġtra iciÃ³n
Ġtra gedia
Ġtur b
Ġtur istas
Ġconsum idores
Ġcomprometi do
Ġcoordin ado
Ġcoordin ador
Ġcoordin adora
ĠautÃ©n ticas
Ġgarantiz an
Ġgarantiz aremos
Ġgarantiz arÃ¡
Ġmov ilidad
Ġra zas
Ġra ÃŃz
Ġauto mo
Ġauto determ
Ġcora zones
ĠrecibÃŃ an
ĠOl ÃŃmp
ĠOl meca
ĠOl impi
Ġcin tur
Ġases ores
Ġorgan ismo
Ġorgan izaciÃ³n
ĠRodr igo
Ġperd amos
Ġinfl uencia
Ġdistin to
Ġdistin gu
Ġdistin tivos
Ġlugar es
ĠCab o
ĠCab eza
ator ios
Ã¡b amos
Ġgener ar
Ġdar se
ĠAp oy
ĠAp rov
ĠAp Ã³stol
Ġinc reÃŃ
ĠVic ario
Ġexp ort
Ġexp ansiÃ³n
Ġtransm it
Ġtransm ito
Ġtransm isiÃ³n
Ġtransm iten
Ġmedio dÃŃa
Ġlibre pens
âĢľ .
Ġpetrol ero
Ġpetrol eros
Lo graremos
ies o
Ġabr ir
Ġsos tienen
Ġsos tengo
Ġprior itarios
Ġreci entes
ĠSa udita
ĠAle x
Ġincl uidos
Ġbusc ando
itu ales
ĠRec on
ĠRec ordamos
Ġampl iar
depend iente
ĠPotos ina
Ġrecuper e
Ġrecuper ado
MÃ©xico Deci
Ġdemos trÃ³
Ġdemos trable
Ġagr adable
anci ero
anci ngo
Ġsan as
Ġconven cimiento
Ġconven ciendo
Ġconven cionales
ĠTep uxtepec
ĠGr al
ĠGr ijalva
Ġcreden cial
Ġatend ieron
Ġescuch a
Ġescuch arÃ¡
Ġperman ezcan
Ġindustr ias
ĠGobern adores
Ġform as
Ġform arÃ¡n
Ġprofes ionales
ĠJohn son
Ġencontr arnos
To davÃŃa
fir ista
por firista
Ġur ban
Ġprec ampaÃ±a
Ġav iones
Ġmon umento
Ġmon Ã¡rqu
ĠmÃŃ tines
Ġhij a
Ġfran ca
Ġfran ja
Ġfran cesa
Ġfran cÃ©s
ĠAbra ham
ĠRos arito
ĠHu autla
rude za
Ġmilitar izaciÃ³n
Ġdistrib uir
Ġorden ar
Ġorden Ã³
Ġhospital aria
Ġgratu ito
Ġtriunf ar
Ġtriunf aremos
Ġtriunf aron
Ġsubsecretar ios
Ġasesin ado
Com imos
Com iendo
Com enzamos
pti mo
Ġder rum
Ġcer ti
Ġcer teza
Ġmom ias
Ġconmemor ativo
Ġqued ado
Ġvuel to
Ġvuel vo
Ġvuel ve
Ġfl ujo
Ġdestin ado
Ġdestin arÃ¡n
Ġinm obil
ĠTama zula
ĠLig ero
Ġtrad uc
Ġtrad iciones
Ġtrad icionales
Ġproducir Ã¡n
Ġapar tados
Ġapar iencia
ĠEsta ba
Ġrecom iendo
Ġrecom iendan
Ġconstruir Ã¡
Ġconstruir Ã¡n
Ġmargin ados
Cons ider
Cons truimos
Habl amos
Ġdecid imos
Ġatr activo
Ġmin orÃŃas
Ġmin utos
Ġconc uerdan
Ġconst atar
Ġgra ves
ĠPl iego
ĠPl urinacional
ĠPer dÃ³n
Ġvir tudes
Ġfoto grafÃŃa
olog ÃŃas
Ġintern o
Ġbaj as
Ġbaj amos
ĠbÃ¡s ica
Ġtu vo
ĠINE GI
Ġoper ando
Ġoper ativo
ĠFeder ico
Ġ21 1
Ġconstitu yen
Ġconstitu yÃ³
Ġexpl or
Ġexpl ico
Ġexpl ica
Ġexpl osiÃ³n
Ġexcep to
Ġexcep ciÃ³n
Ġren uncia
ĠInd igenista
ĠInd onesia
Ġrecorr idos
Ġanti guas
Ġencab eza
olver emos
Ġcircunst ancia
Ġoportun o
Am pliaciÃ³n
ke y
ĠlÃŃ mit
Ġpu ente
Ġagrade zco
Ġmutu o
Ġsiste mas
unci ar
Ġher idos
Ġher edamos
Ġher ederos
ĠPon iente
ĠPon cho
Ġdesayun o
Ġdic tadura
ĠEcon omÃŃas
ĠEcon Ã³mico
Ġalim ento
ĠIz Ãºcar
ĠFin anciero
ĠFuer te
Entre vista
Ġempe Ã±o
Ġestable ci
Ġdisp uesta
Ġfallar Ã©
Ġhumil dad
Ġsignif ique
Ġkil os
Ġdemostr ar
Ġdemostr ando
fic ados
fic aciones
Ġaquel la
Ġaquel los
Ġet n
Ġsac ri
Ġnaci miento
ĠesplÃ©n didas
Ġdeleg aciones
Ġdesc ans
Ġdesc entr
ĠSam uel
Ġbe b
Ġbar bacoa
Ġtro pas
Ġtro vador
Ġtras cen
Ġalgun as
ell Ã³n
ĠIx tepec
Ġprovoc aciones
ĠEsp ino
ĠEsp ri
ĠEsp inosa
Ġdiscipl inas
Ġregal Ã³
Ġregis trÃ³
Ġfinanci ar
Ġfinanci eros
Ġfinanci amiento
Ġbelle zas
Ġtraicion ar
Ġtraicion arÃ©
Ġperiod ismo
Ġperiod ista
Ġorganiz ada
Ġencabez ar
Ġencabez ado
Ġneoliberal ismo
Aten deremos
Can el
Can adÃ¡
Can cÃºn
Ġer ario
Ġdec lar
Ġlimp ia
Ġlimp iar
Ġpaci encia
Ġah ÃŃ
Ġcrec e
Ġsue Ã±o
Ġsim ul
Ġsim pl
Ġsim bolismo
ĠCultur as
Ġgen ial
ĠSig ue
ĠTul ancingo
ĠDemoc rÃ¡tica
ĠIgu al
Ġsup uestamente
Ġpade ce
rop iado
Ġapos tamos
Ġapos tando
entan illa
ibr amiento
ĠEste ban
Ġfrut os
Ġartes anales
ĠQue mada
Ġrelig iÃ³n
Ġrelig iones
Ġejer ciendo
Ġdefin ir
Ġdefin iciÃ³n
Ġuste d
ĠhelicÃ³p teros
CE LAC
EP A
Sal ÃŃ
Ġbl ind
del l
Ġlu z
Ġpin tura
Ġpoc as
Ġati enda
Ġatra pados
Ġcues te
Ġcontrat os
Ġcontrat ar
Ġcontag io
Ġcontag iado
Ġham aca
Ġguar dan
Ġgaran tice
Ġdesapar iciÃ³n
Ġreal idades
ĠEduc ativa
ĠAh umada
Ġinten to
Ġinten ciÃ³n
ĠBern al
Ġtener le
Ġsuper ar
Ġsuper flu
Ġprotes tar
Ġprodu ciremos
ĠHel guera
Ġamistos o
Ġimpos iciÃ³n
ĠInf onavit
Ġcuid Ã¡ndonos
Ġestabl ece
Ġtecn ologÃŃas
Ġabier ta
Ġabier tos
Ġrelaj ar
Ġdefens ores
Ġcasti go
ĠcrÃŃ ticos
ĠProyec tos
Ġescrit ores
Ġescrib ÃŃ
Ġpromov emos
Ġprecandid atura
ĠBarb acoa
Ġrecomend Ã©
Ġorigin an
Ġbeisbol istas
Ġreactiv aciÃ³n
Termin Ã©
ni k
para ble
Ġpend ientes
Ġpelo teros
Ġmos tr
rel las
rel igios
ĠCona gua
ĠCentro amÃ©rica
Ġcontrib uir
Ġhu achicol
ĠPan americanos
ĠPan amÃ¡
ĠPie tro
ĠPie dra
ĠPie dras
Ġdestac ado
Ġdestac ados
Ġdue le
Ġdue Ã±o
Ġdue Ã±os
Ġdom ina
ĠTec omÃ¡n
Ġbus que
ĠBel ice
ĠBel isario
ĠVen ustiano
ĠHist Ã³rico
Ġjug ando
Ġjug ada
Ġpresum ÃŃ
Ġresis tido
Ġexper iencia
Ġrum ores
Ġpodr Ã¡n
Ġsinc era
Ġmedal la
Ġencar n
Ġarro z
Ġinvesti gaciÃ³n
Ġadministr aciÃ³n
Ġpeque Ã±o
Ġconvier ta
Ġplante amientos
Ġenviar Ã©
Ġenviar nos
Ġcalum n
Ġsembr ar
ĠTepe yac
ĠLatino amÃ©rica
Ġmanifes tÃ³
Ġmanifes taciÃ³n
Ġpersever antes
Ġnervios os
Ġnervios ismo
Ġindispensa bles
Cumpl imos
Cumpl iremos
Em pezamos
Fal tan
bo ok
tl Ã©
Ġran go
Ġluc tuoso
Ġpel ele
Ġpud imos
Ġpud ieron
Ġaf anes
Ġat letas
Ġce Ã±irnos
Ġcay endo
Ġclar o
Ġmen tira
Ġmir ar
Ġefic aces
Ġsat is
Ġsom eti
Ġsent encia
Ġsagr ado
Ġsagr ada
amor ada
Ġcontr ario
Ġconten to
Ġconten tos
Ġprue bas
tit lÃ¡n
Ġgus te
ĠPre cios
ĠPre valeciÃ³
Ġfar sa
ĠfÃ¡ brica
Ġdesesper ada
Ġduc to
Ġdiv orcio
Ġrepe ticiÃ³n
Ġrepar to
ĠServ icios
ĠAma ury
ĠNav idad
ĠNav arro
ĠNorm al
Ġbr ind
Ġbas es
Ġtratar se
ĠReg ina
ĠJef a
ĠJef e
ĠVil lar
ĠIr ma
Ġoblig a
Ġpag arÃ¡
Ġaprovech ar
Ġaprovech amos
Ġameric ana
Ġameric ano
Ġcamin an
Ġimpres cin
ĠChica go
Ġrend imos
Ġcuidar nos
Ġobis pos
ĠMezqu ital
Ġanaliz amos
Ġllen ar
Ġlluv ias
Conf iamos
Conf ieso
Ġpred omin
Ġpred omine
Ġrespeta bles
Ġrespetu osa
Ġdisfrut en
chil Ã¡n
Ġpropie dad
Ġpropie dades
Ġcomunicar nos
Ġmodern izaciÃ³n
Ġconflic tos
Ġopos iciÃ³n
Ġopos itor
Ġconviv encia
Ġconviv imos
Ġconvoc atoria
Ġespir ituales
ĠJosef a
ĠJosef ina
Ġinstr um
Ġinstr umento
Ġgrab ar
Ġgrab Ã©
Ġaprend ices
Ġocas iÃ³n
Ġocas iones
Ġdepor tes
Ġdepor tiva
Alf redo
Ġcontinu idad
Ġhonr ado
Ġderroc ar
Ġconstat Ã©
Ġglob ales
ĠcatÃ³l ico
Ġrevolucion ario
Ġratific Ã³
Busc amos
Felici taciones
Ha gamos
Ima ginen
Lleg ando
Pr omovemos
Res pe
Viv os
Viv an
ĠÃŃn dole
Ġerr or
Ġerr ores
Ġileg al
Ġileg alidad
Ġlen gua
Ġpid iendo
Ġpol illa
Ġpol iti
Ġpele a
Ġpele arme
Ġaz u
Ġmas ivo
Ġsir ve
ĠCho i
Ġnorm alidad
Ġestruc tur
Ġestruc turas
ĠMuch a
Ġhin co
Ġhin ca
Ġger ente
Ġger entes
ĠPav Ã³n
ĠPav lov
ĠvÃŃs pera
ĠvÃŃs peras
Ġveci no
Ġveci ndad
ĠfÃŃs ico
ĠfÃŃs ica
ĠfÃ©r reas
Ġfies ta
Ġfies tas
Ġsel va
Ġsel eccion
ĠAustr ia
ĠAustr alia
emo Ã±a
ĠNe w
ĠTa iland
ĠTen ochtitlan
ĠTlal pan
Ġbon dad
Ġbomb eo
Ġtriste za
ĠRom ero
ĠRiv era
ĠRiv iera
ĠBach elet
Ġtoc ayo
ĠDi rectiva
ĠVis itamos
ĠHa gamos
Ġju go
Ġjue ves
Ġacord Ã³
Ġpresentar on
Ġpap el
Ġpap Ã¡s
ĠPalm illas
Ġapas ionado
Ġaport aciÃ³n
Ġampar o
Ġampar os
Ġdiplom Ã¡ticos
Ġentend imiento
Ġrad ical
Ġanunci amos
Ġmanten ÃŃan
Ġsobrevol amos
Ġnie tos
Ġnie ve
Ġtepehu anos
Ġpreven tivo
Ġcaric atura
Ġcaric atur
Ġcaracter izado
Ġconstruc tor
Ġconstruc tivo
ĠCarden al
ĠCarden ales
Ġrelacion ados
Ġdefend ieron
Ġ57 5
Ġdolor oso
ĠConven imos
ĠespontÃ¡n eo
ĠespontÃ¡n ea
Ġautoriz Ã³
Inv itamos
Inv itÃ©
Ġrespond iendo
Ġprivatiz Ã³
Lamenta ble
Lamenta blemente
ĠÃ©p oca
ĠÃ©p ocas
Ġproces ar
Ġproteg erme
Ġrescat istas
ĠturÃŃst ica
ĠturÃŃst icas
Ġagro pecuario
Ġofre ciÃ³
Ġinternacional es
Ġdiput ado
Ġdiput ada
ĠIndustr ial
Ġpublic Ã³
Ġdispon ible
Ġreligios a
Ġcuesti Ã³n
Regres ar
ĠnÃºm ero
ĠnÃºm eros
Camin amos
Fr ente
Gu adal
Mem orÃ¡ndum
Ten go
Trans mito
iÃ¡ trico
Ġza p
ĠwixÃ¡r ika
Ġdetal les
Ġlici taciÃ³n
Ġliter atura
ondr Ã©
Ġpien sa
Ġado p
Ġafici onados
Ġcoci na
Ġlagar to
Ġlagun as
Ġmue ve
Ġec olÃ³gica
ĠsÃŃn tomas
Ġenrique cerse
Ġelim inar
Ġeleg ido
ĠCaÃ± as
Ġneg ativa
Ġneo porfirista
ĠestratÃ©g icos
Ġpru dencia
Ġprom is
ĠMal pas
Ġgol pe
ĠPatr iÃ³tica
ĠPilar es
Ġvig or
Ġfut bol
Ġfif ÃŃ
Ġdese os
Ġdesig ual
Ġdesper d
Ġdesarrol ladores
Ġdor mir
ĠdÃ© ficit
Ġreel ecciÃ³n
Ġpareci da
ĠEuro pea
ĠSC JN
ĠSun gan
ĠSob re
ĠSud Ã¡fr
ĠSup rema
ĠAten ciÃ³n
ĠAtl acomul
Ġcomenz Ã³
ĠNes tlÃ©
ĠNig rom
ĠNeg ras
ĠTan toyuca
ĠTam pa
ĠTur ÃŃstico
ĠTermin aremos
ĠTorr uco
ĠTamp ico
Ġbol eta
ĠbÃºs queda
ĠLabor ista
Ġalej arlos
ĠGer ardo
ĠRoc ÃŃo
ĠRum orosa
ĠBot ÃŃn
ĠJer ez
Ġtre menda
Ġterre moto
ĠVide o
ĠVill egas
Ġjur ÃŃ
ĠFra yles
Ġapeg o
Ġresuel ve
Ġrespec to
Enfr entamos
Ġdial ogando
Ġdialo gar
Ġemerg encia
Ġcamion eta
Ġtit ular
ĠUru apan
Ġreno vables
Ġrenta ble
ĠRepres entantes
ĠRefrend Ã©
Ġcub ierto
Ġanh elada
ĠdemÃ³cr ata
ĠTriun fo
Ġsolid ario
Ġfrac aso
ĠZa id
Ġdisf rute
ĠAnd y
Ġorien taciÃ³n
Ġarg um
Ġpropa ganda
ĠQues ada
Ġayu des
Ġmillon arias
Ġperfec cion
Ġinvit Ã³
ĠAriz ona
Ġadquis iciÃ³n
Ġveracruz anos
Ġconfi emos
Prop uesta
Ġequivo quÃ©
Ġconver tirÃ¡
ĠAmÃ©r icas
ĠPrincip ales
Ġigles ias
Ġcabal lo
Ġinsta urar
Ġinspir an
ĠVald Ã©s
Ġposi blemente
Ġcancel ar
Ġcomerci antes
Ġcall Ã©
ĠLoz oya
ĠPeÃ± itas
Ġtempor ada
ĠEscuch en
Ġirre parable
Ġincomp atible
ĠAzc apotz
Ġhoriz ontal
Ġtelevis iÃ³n
Ġprecurs or
ĠBarran ca
Ġutil idades
ĠtelefÃ³n icas
Ġcorrespond iente
Ġenferm eras
Ġguarij ÃŃos
Ġdomicil iaria
ĠMerce des
Ġcontrovers ias
Ġestigmatiz ar
ĠDepor tes
Ġindividual ismo
Ġinfluyent ismo
Ġvulnera ble
Av anza
Abra zo
Aban deramiento
Cen amos
CÃ³ mo
Cla usura
Cambi amos
Claud io
Chan eca
Her zog
Pe Ã±a
Peti ciÃ³n
Tul um
Tama zula
Tian guis
Utiliz amos
Volv imos
bur go
cend ido
gÃ© lica
hor abuena
rat ado
vech ito
Ġiden tidad
Ġxeno fobia
Ġlic encia
ĠlÃŃn eas
Ġlech Ã³n
cist as
Ġpion ero
Ġater r
Ġaerop uertos
Ġagradec er
Ġatem perar
Ġcel ular
Ġcemp asÃºchil
ĠcarÃ¡ cter
Ġcele bra
Ġladr Ã³n
anke es
Ġmic roempres
ĠmÃ© todo
Ġmund iales
Ġefici ente
Ġegres ado
Ġedi ficios
Ġsarg ento
Ġenti dades
Ġenem igos
ĠCÃ©s ar
ĠCatar ino
ĠCatem aco
Ġconqu ista
Ġconduc tas
Ġcongres istas
Ġconcil iadora
Ġconcu Ã±o
Ġcontral or
Ġnep otismo
ĠnÃ¡huat l
ĠMol ina
ĠMendo za
ĠMich elle
Ġhim no
Ġhorn o
Ġhuev os
Ġgub ern
ĠPab ellÃ³n
ĠPet atlÃ¡n
ĠPiti quito
ĠPapan tla
ĠPEME X
ĠPicac hos
Ġvac ÃŃo
Ġvolver Ã¡
Ġfus il
Ġfier reros
Ġdescu briÃ³
Ġdesplom e
Ġdul ce
Ġreaf irma
Ġretras o
Ġrequier e
Ġremed io
Ġredund ante
Ġremes as
olit ana
Ġparlamentar ios
Ġparadig ma
Ġuniform ado
Ġunanim idad
ĠEvalu amos
ĠEche v
ĠEvel yn
ĠSie te
ĠSique iros
ĠSpo tify
ĠSput nik
ĠAdu anas
ĠAutop ista
Ġinolv idable
Ġingl Ã©s
Ġinquebran table
Ġinobje table
ĠNÃº Ã±ez
ĠNanc y
ĠTay oltita
Ġboliv iano
ĠLÃ¡s tima
ĠLarr y
ĠLinc oln
Ġnovel a
ĠGana dero
ĠGand hi
ĠGusta vo
ĠGÃ¼ ell
ĠGert z
ĠGÃ³nzal ez
ĠRinc Ã³n
ĠRabind ranath
ĠBra vo
ĠBoch il
ĠBomb ardier
ĠBuena vista
ĠBert ha
ĠBacal ar
ĠBadira guato
quite ctura
ĠJuch itÃ¡n
ĠJerem y
ĠJiqu ilpan
Ġtamp oco
ĠViet nam
ĠINA H
ĠIcel a
ĠIrapu ato
Ġjod iÃ³
Ġopres or
Ġaccion ista
Ġacapar amiento
ĠFace book
ĠFlor encio
ĠFabiol a
ĠOfrez co
Ġemoci on
Ġexoner Ã³
ĠEstÃŃmul os
ĠChampo tÃ³n
ĠEstratÃ©g ica
Ġcorpor aciones
Ġcorred or
ĠrarÃ¡ m
Ġrompe olas
Ġpopul ismo
apole Ã³n
ĠMarquel ia
ĠReafirm Ã©
ĠEliÃ©c er
ĠMetrop olitana
Ġantir religios
ĠmiÃ©r coles
Ġsobreviv ientes
Ġastrona uta
ĠAlcal de
ĠYax chilÃ¡n
ĠYanqu is
ĠVerdu go
ĠZara goza
ĠZitÃ¡c uaro
Refrend amos
ĠAntrop ologÃŃa
Ġhistori ador
Ġcoerci tivas
ĠCalkin ÃŃ
Ġmagn itud
ĠArgan is
Ġadher irse
Ġadmira ble
Ġdefende remos
ĠSebas tiÃ¡n
Ġ(... )
ĠConfeder aciÃ³n
Ġespion aje
Ġempiez an
Ġcabecer as
ĠcombustÃ³ leo
ĠVallad olid
ĠPorfir iato
ĠWill iam
ĠideolÃ³g icas
Ġgratit ud
Ġsurreal ista
ĠMonclo va
Anunci amos
Ġchatar ra
ĠAyox uxtla
ĠPakist Ã¡n
Ġsubcontrat aciÃ³n
ĠCorpor ation
Ġvideollam ada
Ġautodeterm inaciÃ³n
ĠOlÃŃmp ico
ĠAprov echo
ĠincreÃŃ ble
Ġlibrepens adores
MÃ©xicoDeci de
Ġinmobil iarios
ĠlÃŃmit es
Ġsacri ficio
Ġdescentr alizaciÃ³n
Ġtrascen dente
ĠEspri Ãº
Ġsuperflu os
ĠPavlov ich
ĠTailand ia
Ġcaricatur ista
ĠSudÃ¡fr ica
ĠAtlacomul co
ĠNigrom ante
ĠFrayles ca
ĠAzcapotz alco
! ""
! "".
! Â»"
' !
' ;
, "
- &
. ;
0 6
1 6
1 10
1 50
1 48
2 1
2 4
2 10
2 11
2 15
2 38
2 12
3 7
3 10
4 2
5 8
5 50
6 5
6 8
6 42
7 2
7 7
8 3
8 4
8 00
9 6
; "
? Â»
? âĢĿ.
A F
A S
A g
A h
A us
A gr
A na
A lar
A Ãºn
A Ã±o
A pertura
A ristÃ³
A BA
B R
B en
B an
B ig
B ate
B asta
B ecas
B ajo
B icentenario
B reve
B SC
C M
C P
C h
C l
C ar
C or
C al
C re
C ic
C ompaÃ±
C ala
C ach
C omb
C umbre
C entenario
C orre
C ola
C arlos
C CE
C all
C afÃ©
C risto
C reo
C laro
C edro
C risti
D A
D E
D M
D N
D P
D i
D on
D an
D is
D ur
D ir
D iar
D onde
D ejo
D eti
D emoc
D iputados
D icen
D iÃ¡
D ialogamos
E A
E G
E N
E U
E ra
E po
E dd
E fem
E motivo
F C
F L
F eder
F uturo
F abr
F ox
F eria
F uera
F lu
F ieles
G M
G U
G r
G ob
G ra
G uardia
H P
H on
H an
H ad
H om
H ac
H omo
H ospit
H arÃ©
H Ã©ctor
H allar
H CP
I V
I X
I SM
J D
J F
J unto
J ulio
J amÃ¡s
K h
K EA
L if
L lam
L imp
L atino
L impi
L ibramiento
M C
M F
M O
M S
M or
M al
M in
M ig
M Ã¡n
M ario
M ala
M icho
M ucho
M uriÃ³
N ing
N uevo
N apoleÃ³n
O P
O T
O b
O f
O l
O p
O r
O y
O br
O NE
O NU
O debrecht
O IT
P S
P T
P a
P on
P an
P re
P ue
P ens
P ap
P uerto
P asta
P ich
P Ã©same
P ensiÃ³n
P ej
P ron
P EP
P achuca
P ierre
P JD
R a
R um
R osa
R ecu
R esp
S T
S r
S ob
S ac
S oy
S um
S erv
S aba
S esiÃ³n
S TE
S uele
S irva
S istema
S EN
T h
T l
T an
T am
T ab
T ern
T and
T ata
T ras
T ub
T ard
T ienen
T arde
T iene
T RA
T eler
U A
U ES
V a
V en
V ic
V ia
V oc
V acun
V illa
V incul
V entanilla
W illa
W BSC
X II
X IV
Y ves
Y ankees
Z ur
Z ac
Z ap
a h
a un
a for
a hu
a hora
a gres
a ine
a gue
a blemente
a udaciÃ³n
a uchin
b d
b es
b Ã³n
b ien
b ia
b ec
b oy
b oc
b ada
b ito
b icos
b aron
b ara
b iente
b uro
b ach
b ender
b ill
b eca
b uros
b all
b uena
b ack
c re
c at
c ÃŃ
c om
c amos
c ente
c ro
c tur
c ano
c arÃ¡
c ores
c ara
c anza
c adas
c entes
c ompaÃ±
c och
c rel
c amin
c uchareada
c adura
c usa
c aÃ±a
d ro
d imos
d anos
d icos
d ores
d ira
d ip
d istas
d ona
d amente
d ieron
d ice
d ible
d ame
d iano
d umbre
d iti
d uras
d ondo
d igna
d man
d Ã¡bamos
e e
e de
e al
e ado
e ando
e ados
e ven
e br
e tas
e ing
e val
e ve
e aba
e dero
e ong
e ite
e dente
e alco
e vel
e taria
e quito
e hr
e tario
f ar
f Ã³
f ad
f ico
f ac
f ig
f ra
f iz
f ano
f und
f if
f irm
f gan
f ique
f icamos
f ait
f icia
f lores
f acer
f abe
f lex
f Ã³rica
g g
g t
g y
g on
g Ã³
g il
g ac
g ia
g io
g ues
g Ã¡n
g Ãº
g la
g ora
g ida
g aremos
g ato
g ÃŃn
g ip
g ilidad
g ura
g ine
g ÃŃst
g ayo
g anse
g Ã©l
g Ã¡ndose
g alÃŃ
h m
h en
h ar
h Ã³
h un
h aci
h at
h om
h ol
h il
h ens
h ir
h ÃŃa
h oy
h ay
h erm
h anos
h ort
h ez
h ie
h ima
h Ã³s
h ich
h no
h ech
h ibe
h isp
h esiÃ³n
h echo
h man
h wait
i q
i y
i Ä
i ob
i um
i ando
i des
i ord
i aron
i adas
i bles
i ach
i tivos
i quÃ©
i ech
i Ã¨
i huat
i tirse
i atorios
j k
j an
j am
j Ã³n
j Ã©
j ÃŃa
j ud
j ero
j ana
j ÃŃas
j Ã©r
j ing
j osa
j adas
j up
j au
j itos
j amo
j are
j aban
j uelas
j amin
j unta
j lund
j uqu
j emoÃ±a
k y
k ar
k an
k am
k ut
k aj
k le
k ax
k ij
k mul
k ov
k hir
l i
l s
l on
l in
l amos
l em
l ado
l ay
l ada
l ene
l ie
l ate
l iÃ³
l ing
l int
l me
l uego
l eric
l ian
l ayo
l usos
m er
m al
m Ã³
m un
m ante
m end
m and
m ita
m icas
m ex
m erÃŃa
m eo
m Ã³s
m ecas
m undo
m ientos
m isiÃ³n
m ond
m atiz
m arÃŃa
m igo
m entalidad
m eth
m buro
n ado
n eg
n ante
n ito
n idos
n eros
n inis
n ub
n ot
n eta
n uevo
n eth
n uchin
o p
o q
o te
o que
o qu
o da
o per
o ax
o fo
o tados
o zco
o americanos
o foc
o ducto
o dell
o hun
p ina
p ac
p el
p ado
p ero
p aj
p ra
p ador
p ando
p ito
p ido
p olÃŃ
p ira
p ias
p ing
p idar
p atÃ¡n
p taciÃ³n
p ende
p leo
p amentos
p temos
p iciar
p lano
p hens
r y
r al
r Ã³n
r ens
r ÃŃa
r acional
r ada
r ib
r icos
r arÃ¡
r adas
r ump
r ich
r ame
r ileg
r enaje
r Ã³nimo
r gica
r abe
r uno
r iet
r uces
s i
s u
s er
s in
s tr
s ÃŃ
s to
s ur
s ien
s af
s titu
s ex
s ÃŃo
s amo
s Ap
s tia
s ack
s ificaciÃ³n
s ste
s iguen
s burgo
s ky
t z
t Ã¡
t to
t is
t ers
t ÃŃs
t ante
t anos
t Ã©r
t alidad
t bol
t lic
t ista
t ula
t ativa
t ame
t atu
t cho
t Ã¡c
t amentos
t ska
t ule
t zc
t ulo
t Ã³rico
t Lif
t hwait
u ad
u Ã±
u den
u ente
u aciones
u amente
u pa
u par
u iremos
u able
u idores
u zos
u tral
u Ã¡nd
u aces
u fem
u wait
u inamente
u ilapa
u Tub
u fac
v im
v era
v ano
v ido
v uel
v ial
v iar
v iendo
v erg
v imiento
v ich
v olver
v uelo
v ÃŃe
w er
w in
w ay
w au
w ard
x e
x im
x em
x ca
x tlahuaca
x iqu
x tina
x kut
x mal
y an
y era
y ita
y ot
y ong
y dro
y mand
z i
z at
z ur
z ra
z ando
z go
z ada
z ana
z ano
z adas
z gar
z adora
z aba
z no
z can
z amientos
z omp
£ o
ª do
¶ ller
¸ jlund
Â ¡
Â ¿
Ã £o
Ã ªdo
Ã ¶ller
Ã ¸jlund
Å ł
Ġ %
Ġ -
Ġ @
Ġ Ã³
Ġ ÃŃ
Ġ Ã¡
Ġ om
Ġ il
Ġ ul
Ġ xico
Ġ ru
Ġ ib
Ġ rup
Ġ Ã©n
Ġ ido
Ġ aran
Ġ âĢ
Ġ onde
Ġ ordin
Ġ iremos
Ġ ub
Ġ iles
Ġ ital
Ġ iba
Ġ tap
Ġ ques
Ġ ost
Ġ %.
Ġ âĢĵ
Ġ --
Ġ rudeza
Ġ Åł
de e
de ci
de Ã³
de ando
de rec
de za
de ca
de Ã±a
de cimiento
Ġde tr
Ġde ud
Ġde da
Ġde je
Ġde par
Ġde voluciÃ³n
Ġde cep
Ġde terior
Ġde cida
Ġde tuvo
Ġde vuel
en ar
en al
en ti
en aciÃ³n
en den
en idad
en le
en adores
en arios
en zar
en ce
en istas
en les
en ango
en zas
en demos
en arnos
en cuentro
en tirÃ¡
en tiz
en ni
en Tl
Ġ" âĢľ
Ġ" ...
os as
os is
os que
os ta
os io
os idad
os era
os ca
os pec
os ped
os Esc
os cano
os evel
os fÃ³rica
es Ã³
es ado
es idad
es co
es tra
es ita
es iones
es taciÃ³n
es tado
es tÃŃa
es tirse
es tival
er il
er res
er tos
er la
er ran
er mo
er vis
er ato
er ÃŃn
er ing
er ba
er eci
er ancia
er tido
er abilidad
er itas
er tilizantes
Ġl in
Ġl id
Ġl im
Ġl ien
Ġl ec
Ġl lo
Ġl ist
Ġl ide
Ġl ima
Ġl uto
Ġl Ã³g
Ġl Ã¡m
Ġl arg
Ġl istos
Ġl oro
Ġl ema
Ġl icen
Ġl arga
Ġl isa
Ġl ectura
Ġl lov
Ġl ecciÃ³n
ci ado
ci ero
ci anos
ci dad
ci rÃ¡
ci oso
ci entes
ci dez
ci eron
ci ende
ci nto
ci fra
on ar
on Ã¡
on io
on ado
on for
on ente
on co
on go
on era
on aremos
on ismo
on ato
on ista
on gos
on ja
on apa
on ferencias
on jÃŃas
on rÃ³n
Ġp un
Ġp ÃŃ
Ġp Ã¡
Ġp im
Ġp ur
Ġp ec
Ġp ig
Ġp uer
Ġp iden
Ġp ez
Ġp ene
Ġp ura
Ġp ique
Ġp iel
Ġp atos
Ġp ude
Ġp uros
Ġp use
Ġp Ã³st
Ġp Ã¡nico
Ġp uerta
Ġp uentes
Ġp irr
Ġp izca
ar es
ar as
ar aciÃ³n
ar lo
ar le
ar ter
ar ma
ar ano
ar ÃŃas
ar ip
ar illa
ar cir
ar ejo
ar rea
ar Åį
ar quÃŃa
ar buros
ar mante
ar win
Ġa te
Ġa ur
Ġa ud
Ġa ero
Ġa for
Ġa gu
Ġa tur
Ġa ton
Ġa ula
Ġa isl
Ġa ver
Ġa ux
Ġa tre
Ġa ves
Ġa guas
Ġa trop
Ġa gre
Ġa eroespaci
Ġa gencia
Ġa ire
Ġa huy
Ġa gilidad
Ġc Ã©
Ġc ur
Ġc oc
Ġc Ãº
Ġc ru
Ġc aÃ±
Ġc era
Ġc uel
Ġc ÃŃn
Ġc Ã³m
Ġc ate
Ġc ep
Ġc ha
Ġc usto
Ġc eci
Ġc laud
Ġc una
Ġc ultos
Ġc oyo
Ġc elebro
Ġc arriles
Ġc Ã¡l
Ġc act
Ġc limÃ¡tico
Ġc edro
Ġc rudeza
Ġla men
Ġla zos
Ġla pidar
or de
or an
or al
or as
or ic
or do
or ien
or den
or ro
or ados
or da
or pres
or ial
or ias
or amente
or ancia
or tarÃ¡
or recto
or zadas
or ongos
an h
an k
an ta
an tar
an ero
an tos
an co
an der
an ismo
an tin
an istas
an cial
an cio
an ejo
an ton
an ces
an ich
an adÃ¡
an Ã¡b
an guis
an zadora
an decimiento
Ġm Ã³
Ġm Ã¡
Ġm ico
Ġm us
Ġm ÃŃa
Ġm ul
Ġm it
Ġm ap
Ġm uel
Ġm ÃŃn
Ġm ira
Ġm orr
Ġm ond
Ġm och
Ġm uros
Ġm ÃŃstico
Ġm use
Ġm ientras
Ġm ole
Ġm acul
Ġm erca
Ġm dd
Ġm adr
Ġm ortalidad
Ġm uÃ±
Ġm ereci
al e
al Ã³n
al to
al ero
al idades
al ias
al eros
al istas
al ed
al iente
al tepec
al ismos
al pan
al uca
al mirante
al fabe
al uable
in k
in s
in z
in Ã³
in ic
in to
in te
in ol
in io
in it
in ados
in da
in con
in ito
in arios
in ie
in ce
in et
in iones
in cl
in erÃŃa
in arÃ¡n
in omin
in alÃ¡
in amp
in cher
in fa
in orar
in antla
in cesa
in ken
in stalaciÃ³n
in dependiente
in ping
Ġe ti
Ġe co
Ġe ch
Ġe voluciÃ³n
Ġe Ã³l
Ġe gresos
Ġe fica
Ġe ufem
Ġs aci
Ġs it
Ġs oc
Ġs ÃŃs
Ġs af
Ġs entar
Ġs illa
Ġs orte
Ġs iren
Ġs tados
Ġs entamos
Ġs enten
Ġs umo
Ġs arga
Ġs oft
Ġs hort
Ġs ofoc
Ġs tatu
Ġs esiones
Ġs orpres
Ã³ lica
Ã³ tam
Ã³ teles
Ã³ dice
Ã³ yot
Ġy aca
ad am
ad ici
ad uc
ad ando
ad ona
ad ual
ad ieron
ad uro
ad iciÃ³n
ad arlos
ad ÃŃsimo
ad ines
ad rang
re cia
re mo
re tas
re les
re gar
re ves
re ola
ue d
ue z
ue cia
ue ta
ue co
ue ca
ue ga
ue ba
ue bles
ue ve
ue be
ue hue
ue ducto
Ġen aj
Ġen lo
Ġen gr
Ġen ro
Ġen gan
Ġen tera
Ġen arde
Ġen foc
Ġen sayo
Ġen amorada
Ġen fad
Ġen mend
as que
as ico
as ia
as iÃ³n
as ada
as con
as ez
as tas
as tre
as iado
as eca
as all
as cin
as san
as tlic
Ġel ab
Ġel las
Ġel Ã©ctricas
ic k
ic em
ic ÃŃa
ic ales
ic ana
ic adores
ic aremos
ic ultur
ic he
ic aliz
ic tiva
ic car
ic tamente
ic ori
ic erÃ³n
ic huy
ĠC uc
ĠC ra
ĠC uen
ĠC ap
ĠC uch
ĠC lar
ĠC asta
ĠC int
ĠC ade
ĠC ep
ĠC ice
ĠC isco
ĠC iti
ĠC oyo
ĠC elebro
ĠC CE
ĠC iÃ©n
ĠC act
ĠC oca
ĠC eja
ĠC reo
ĠC elebramos
ĠC RI
ĠC rÃŃ
ĠC rÃ©dito
ĠC laro
ĠC ierre
ĠC EPA
ĠC DM
ĠC ONE
ĠC eval
ĠC ruces
ĠC Ã³dice
ĠC icerÃ³n
am er
am an
am al
am at
am ina
am ora
am pe
am mo
am pl
am and
am pit
am par
am ula
am ental
am arÃ©
am ayas
am antla
am Ãºchil
am aloapan
am mad
un as
un Ã¡
un ia
un tes
un dos
un der
un cil
un tan
un ciÃ³
un tamente
un nar
un emente
un grÃŃa
un dadas
aci osa
aci tados
aci adamente
aci ficaciÃ³n
at amos
at us
at ario
at lan
at arÃ¡
at if
at istas
at ÃŃo
at iremos
at aba
at ya
at inamente
at enango
tr om
tr id
tr ob
tr ando
tr eras
tr uyÃ³
tr ack
tr onic
tr icciones
tr Ã³nico
tr adici
Ġcon te
Ġcon ur
Ġcon go
Ġcon vo
Ġcon je
Ġcon ex
Ġcon forma
Ġcon ces
Ġcon tÃ©
Ġcon cep
Ġcon tuvimos
Ġcon tando
Ġcon taron
Ġcon tac
Ġcon tarÃ¡
Ġcon gresos
Ġcon nacional
Ġcon tadores
Ġcon tub
Ġcon migo
Ã³n imos
ÃŃ en
ÃŃ ac
ÃŃ ter
ÃŃ dos
ÃŃ cito
ÃŃ lica
ÃŃ timos
ÃŃ tima
ÃŃ mica
ÃŃ pr
ÃŃ blica
ÃŃ dame
ÃŃ tulo
Ã¡ Ã±
Ã¡ ce
Ã¡ les
Ã¡ cito
Ã¡ Ã±ez
Ã¡ jate
Ã¡ tzc
to mo
to ma
to ton
to jitos
te o
te la
te co
te ce
te pa
te aban
te jÃ³n
Ġn arr
Ġn ativa
Ġn adÃ¡
Ġn az
Ġn icara
Ġn arco
Ġn ahu
Ġn adando
Ã© st
Ã© pec
Ã© qui
Ã© meth
Ġes tro
Ġes trib
Ġes tructura
Ġes tren
Ġes mer
Ġpr osa
Ġpr ian
Ġpr ole
Ġpr omulgaciÃ³n
Ġpr osper
Ġpr ospec
Ġpr incesa
Ġpr Ã©st
is e
is or
is an
is ir
is tro
is ma
is Ã©s
is po
is sum
is ionada
ĠM E
ĠM ut
ĠM em
ĠM ir
ĠM Ãº
ĠM Ã¡s
ĠM ier
ĠM arr
ĠM ans
ĠM ons
ĠM onde
ĠM ila
ĠM ucho
ĠM enos
ĠM una
ĠM olo
ĠM uertos
ĠM omp
ĠM Ã¼
ĠM ald
ĠM ientras
ĠM AS
ĠM PJD
ĠM nuchin
ĠM aduro
ĠM aseca
ĠM ammad
que Ã±a
que tado
que teros
om ina
om ien
om el
om ist
om ios
om ara
om paÃ±a
om bra
om bar
om aro
om eados
om sky
om onÃ¡
ti o
ti er
ti Ã³n
ti res
ti le
ti za
ti ble
ti zo
ti cias
ti entes
ti ja
ti aban
ti ficar
ti bil
ti fica
ti dismo
ti gio
ti plano
ti anguis
Ġh ol
Ġh ig
Ġh ero
Ġh Ãº
Ġh uer
Ġh et
Ġh ermos
Ġh ermosa
Ġh Ã©ro
Ġh alc
Ġh alla
Ġh uele
Ġh uevo
Ġh uecos
Ġh osped
Ġdel ica
Ġdel inc
Ġdel icia
Ġdel ictiva
ut aciÃ³n
ut um
ut aron
ut aria
id ur
id ia
id ora
id iÃ³
id ieron
id ge
id Ã¡c
id ÃŃculo
id atarios
id ÃŃculos
id uos
id uamente
id anta
ina uguraciÃ³n
ina ga
ina catepec
fer o
fer merÃŃa
Ġque de
Ġque ques
Ġque jas
Ġque jÃ³
Ġque marÃŃa
do bl
do ptemos
Ġg ans
Ġg ord
Ġg rÃ¡
Ġg av
Ġg ato
Ġg racia
Ġg uardia
Ġg ace
Ġg oles
Ġg esta
Ġg ole
Ġmat ar
ĠP ur
ĠP ico
ĠP ud
ĠP um
ĠP era
ĠP Ãºbl
ĠP ort
ĠP arr
ĠP Ã©n
ĠP ons
ĠP ito
ĠP if
ĠP icas
ĠP asta
ĠP ij
ĠP RE
ĠP ine
ĠP lante
ĠP oco
ĠP ich
ĠP apa
ĠP ase
ĠP utla
ĠP adre
ĠP adres
ĠP olo
ĠP ost
ĠP unta
ĠP uma
ĠP ES
ĠP ompe
ĠP adilla
ĠP ondremos
ĠP fiz
ĠP uente
ĠP Ã³tam
ĠP acificaciÃ³n
ĠP Ã¡tzc
ĠP omonÃ¡
ĠP utum
bl as
bl ana
bl ique
bl ecer
bl ime
bl anque
bl ecemos
bl Ã¡ramos
Ġv s
Ġv on
Ġv il
Ġv it
Ġv Ã¡s
Ġv eg
Ġv ienes
Ġv ib
Ġv Ã©n
Ġv iendo
Ġv ieron
Ġv ientos
Ġv elo
Ġv esti
Ġv ill
Ġv uelo
Ġv iene
Ġv eneraciÃ³n
Ġv entanilla
Ġv estirse
Ġv icem
Ġf amos
Ġf res
Ġf ec
Ġf ues
Ġf lo
Ġf la
Ġf rec
Ġf ort
Ġf rÃ¡
Ġf ores
Ġf ax
Ġf ij
Ġf iel
Ġf ango
Ġf ama
Ġf este
Ġf lam
Ġf Ã¡b
Ġf abr
Ġf obia
Ġf oul
Ġf ieles
Ġf uÃŃ
Ġf osfÃ³rica
Ġf estival
Ġf ascin
ta gram
ta gos
ta vio
ta blemente
ta calco
Ġdes pe
Ġdes ent
Ġdes ier
Ġdes gar
Ġdes po
Ġdes fo
Ġdes tituciÃ³n
Ġdes ea
Ġdes ean
Ġdes vi
Ġdes ech
Ġdes car
Ġdes agr
Ġdes trucciÃ³n
Ġdes tap
Ġdes alo
Ġdes esta
Ġdes pectiva
Ġdes tina
Ġdes afor
Ġdes vÃŃe
Ġdes orden
Ġdes astre
Ġdes ampar
Ġdes truyÃ³
Ġd ia
Ġd ud
Ġd Ã¡n
Ġd ada
Ġd ato
Ġd arÃ©
Ġd aba
Ġd orm
Ġd aban
Ġd renaje
Ġd idÃ¡c
Ġre y
Ġre iv
Ġre tro
Ġre ales
Ġre ada
Ġre tor
Ġre vers
Ġre tir
Ġre ino
Ġre van
Ġre trat
Ġre vista
Ġre trib
Ġre tÃ©
Ġre trÃ³
Ġre bas
Ġre itero
Ġre viv
Ġre quiera
Ġre donde
Ġre quete
Ġre tira
Ġre moto
Ġre iterÃ©
Ġre iniciÃ³
Ġre orien
Ġre tomo
Ġre dobl
ol in
ol Ã¡
ol ica
ol uc
ol co
ol ana
ol vers
ol sa
ol ik
ol ini
ol fgan
ol ls
Ġpar amos
Ġpar ez
Ġpar ecer
Ġpar ques
Ġpar eciÃ³
Ġpar eja
Ġpar alÃŃmpicos
Ġpar ecen
im an
im amente
im entos
im ental
im ientos
im bra
im iliano
im ondo
im onio
Ġun en
Ġun ir
Ġun iÃ³n
Ġun ida
Ġun iÃ³
Ġun iendo
Ġun ieron
Ġun irse
Ġun Ã¡monos
Ġse de
Ġse amos
Ġse mej
ĠE res
ĠE ru
ĠE va
ĠE vi
ĠE cha
ĠE terno
ĠE NI
ĠE catepec
ĠE motivo
ĠE ST
ĠE gip
ĠE tcho
ĠS el
ĠS ul
ĠS co
ĠS ter
ĠS ada
ĠS ana
ĠS ib
ĠS emp
ĠS ara
ĠS imo
ĠS illa
ĠS ed
ĠS ing
ĠS pit
ĠS osa
ĠS err
ĠS ila
ĠS ha
ĠS ach
ĠS au
ĠS abor
ĠS tan
ĠS usc
ĠS aba
ĠS tre
ĠS ola
ĠS aban
ĠS olo
ĠS esiÃ³n
ĠS Ã³lo
ĠS Ã¡bado
ĠS mit
ĠS emo
ĠS ule
ĠS uerte
ĠS oft
ĠS irva
ĠS istema
ĠS ABA
ĠS DP
ĠS HCP
ĠS ote
ĠS enadores
ĠS uecia
ob a
ob ales
ob antes
ob ras
ĠA ra
ĠA qu
ĠA gr
ĠA ro
ĠA gu
ĠA hu
ĠA lan
ĠA vis
ĠA ven
ĠA rÃ¡
ĠA par
ĠA toy
ĠA uto
ĠA tepec
ĠA cala
ĠA bar
ĠA fir
ĠA quis
ĠA vil
ĠA del
ĠA rel
ĠA bo
ĠA gradezco
ĠA dela
ĠA ES
ĠA postamos
ĠA CI
ĠA doles
ĠA toton
ĠA doptemos
ur is
ur ab
ur la
ur ados
ur aremos
ur arÃ¡
ur ian
ur ris
ur nal
ur lian
ur pador
em al
em ita
em ing
em entan
em Ã©rito
em Ã¶ller
il i
il os
il er
il aciÃ³n
il it
il ando
il iz
il ma
il idades
il ismo
il aron
il ÃŃn
il los
il ita
il ate
il lar
il ip
il ing
il ancia
il anes
il otada
il dee
res de
res es
res pe
res tan
res cos
res Man
ien ta
ien ten
ien cias
ien tan
ico vi
Ġin ig
Ġin oc
Ġin st
Ġin tu
Ġin ven
Ġin fr
Ġin deb
Ġin ev
Ġin tensa
Ġin hum
Ġin hÃ³s
Ġin ters
Ġin undadas
Ġin trom
Ġcom e
Ġcom al
Ġcom imos
Ġcom and
Ġcom entar
Ġcom ed
Ġcom entÃ³
Ġcom enc
Ġcom entÃ©
Ġcom eter
Ġcom enzar
ĠN L
ĠN Y
ĠN am
ĠN ac
ĠN el
ĠN gu
ĠN oria
ĠN iel
ĠN aje
ĠN ich
ĠN aco
ĠN uestra
ĠN ivel
ĠN EP
ĠN autla
ĠN oche
ĠN eri
ĠN icol
ĠN icara
ĠN uno
ĠN BA
ĠN IN
ĠN apoleÃ³n
ĠN AF
ĠN FL
ĠN ah
ĠN infa
ĠN Ã©meth
Ġpara der
Ġpara fr
Ġpara dero
tar es
tar le
tar ias
tar se
tar ismos
tar iado
tar ric
tar ella
ac an
ac ta
ac ac
ac ÃŃa
ac ciÃ³n
ac ro
ac car
ac andona
ac amayas
ĠT im
ĠT aj
ĠT ran
ĠT ienes
ĠT emp
ĠT lan
ĠT ez
ĠT av
ĠT af
ĠT ara
ĠT onal
ĠT ulio
ĠT Ã©cn
ĠT ech
ĠT utu
ĠT lÃ¡huac
ĠT EP
ĠT ole
ĠT urismo
ĠT Ãºnel
ĠT uvo
ĠT RI
ĠT esor
ĠT ucker
ĠT wit
ĠT icul
ĠT EU
ĠT UA
ĠT hom
ĠT zomp
ĠT oscano
ĠT arÅį
ab ie
ab eza
ab sburgo
ab arter
ab unia
Ġpor ra
Ġpor quÃ©
Ġpor tando
ia ble
ia pan
ia oq
ens en
ens iones
ens iva
ir ut
ir st
ir lo
ir ano
ir ÃŃan
ir ules
ec o
ec Ã³n
ec ta
ec tor
ec able
ec olÃ³gica
us en
us ia
us se
us ual
us iones
us tan
us hn
us tada
us tamente
us key
us hima
Ġb at
Ġb ra
Ġb ienes
Ġb Ã¡r
Ġb ach
Ġb anqu
Ġb ill
Ġb eso
Ġb razo
Ġb ox
Ġb orre
Ġb onos
Ġb urr
Ġb alc
Ġb Ã¡l
Ġb ui
Ġb uque
Ġb isab
Ġb irr
Ġb aÃ±o
Ġb ipar
Ġb oda
Ġb uzos
Ġb osque
Ġb orde
Ġb alero
Ġb reves
Ġb ÃŃblica
Ġb ombar
ĠL eg
ĠL ez
ĠL los
ĠL ara
ĠL ira
ĠL ima
ĠL uego
ĠL ond
ĠL una
ĠL ech
ĠL iter
ĠL uth
ĠL levamos
ĠL oma
ĠL arga
ĠL ore
ĠL ibramiento
ĠL XIV
ĠL arrea
ĠL ins
ĠL ammo
ĠL issum
ĠL omel
ĠL idia
ĠL ilita
ĠL acandona
io distas
Ã± or
Ã± al
Ã± ados
Ã± eda
Ġtr it
Ġtr aj
Ġtr ump
Ġtr aje
Ġtr Ã³p
Ġtr ilat
Ġtr ajes
Ġtr ibun
Ġtr imes
Ġtr ipar
Ġtr onco
Ġtr ances
Ġtr ampe
Ġal el
Ġal ud
Ġal ter
Ġal za
Ġal gu
Ġal ca
Ġal ine
Ġal iado
Ġal ÃŃan
Ġal gÃºn
Ġal mac
Ġal erta
Ġal quil
Ġal canza
Ġal ebr
Ġal armante
Ġal ientan
Ġal tares
el a
el and
el adas
ica hua
ica zos
ul ina
ul ado
ul tra
ul tas
ul los
ul icas
ul gar
ul fo
ul tÃ©
ul ler
ul tora
ul tÃ³rico
ul osis
ul atinamente
ul acro
ern o
ern er
ern io
ern ura
ici as
ici ales
ici ada
ici na
ici dades
ici dio
ici dios
Ġno ve
Ġno vio
Ġno table
Ġno tarios
Ġno ctur
uc ado
uc ena
uc alco
ĠMÃ© dico
ĠMÃ© dica
ĠG as
ĠG ina
ĠG ig
ĠG ro
ĠG raci
ĠG uar
ĠG aran
ĠG aranti
ĠG au
ĠG ian
ĠG CE
ĠG uev
ĠG ore
ĠG abo
ĠG eneraciÃ³n
ĠG hez
ĠG iord
ĠG orda
ĠG unnar
ĠG abunia
Ġme tros
Ġme tido
Ġme tiÃ³
Ġme tieron
Ġme gac
Ġme xiqu
oy an
oy ta
it z
it es
it ada
it aciones
it err
it ler
iv ados
iv ier
iv adas
iv isiÃ³n
ĠR end
ĠR and
ĠR ip
ĠR ique
ĠR up
ĠR ash
ĠR uta
ĠR uth
ĠR omÃ¡n
ĠR igo
ĠR emo
ĠR usa
ĠR IT
ĠR ius
ĠR onen
ĠR adilla
ĠR yong
ĠR adam
ĠR iccar
ĠR idÃŃculos
ĠR usia
ĠR ulfo
den a
den se
den les
den bender
ud amos
ud illo
ud iremos
ud able
ud arÃ©
ud ÃŃos
ig a
ig i
ig entes
ig rar
ig dio
ig uera
ig nante
ig uaciones
ig erancia
ig inarios
ig uez
ig reses
ero gÃ©n
ĠB ay
ĠB lo
ĠB ran
ĠB uen
ĠB arr
ĠB olÃŃ
ĠB aran
ĠB et
ĠB Ãºs
ĠB ecas
ĠB usto
ĠB ich
ĠB ajo
ĠB rem
ĠB ill
ĠB Ã¡c
ĠB ej
ĠB ell
ĠB Ã¼
ĠB esos
ĠB org
ĠB abe
ĠB atel
ĠB Ãºcar
ĠB rad
ĠB uk
ĠB runo
ĠB oric
ĠB olsa
ĠB ulgar
oc en
oc an
oc us
oc era
oc hos
oc ot
oc esos
oc aliente
ues tan
ues tran
aj j
aj Ã³n
aj era
aj uca
aj olo
aj ardo
aj galÃŃ
aj alÃ³n
aj inic
aj icori
Ã¡n ica
Ã¡n tro
Ã¡n eo
Ã¡n doles
ra el
ra ga
ra blemente
ra uz
ra zados
ra zgos
ra igadas
ra gÃ¡n
ra hman
Ãº en
Ãº pul
Ãº danos
Ãº pido
Ãº rgica
idad osa
qu erÃŃa
qu ivel
qu inaria
qu ÃŃsimos
qu enle
qu icias
for ta
ĠJ r
ĠJ on
ĠJ ug
ĠJ ord
ĠJ ama
ĠJ uego
ĠJ amÃ¡s
ĠJ iu
ĠJ uventud
ĠJ eong
ĠJ enni
ĠJ inping
Ġto que
Ġto mo
Ġto ca
Ġto me
Ġto quÃ©
Ġto ler
Ġto talidad
ay ma
ay endo
ay acÃ¡n
ay eri
st ados
st atamos
um en
um os
um aciÃ³n
um ador
um aremos
um br
um ular
um ka
um isa
um rad
um ann
ĠD E
ĠD F
ĠD on
ĠD imos
ĠD ist
ĠD ÃŃas
ĠD ed
ĠD err
ĠD ejo
ĠD ame
ĠD isc
ĠD iscurso
ĠD uele
ĠD alÃŃ
ĠD inam
ĠD jam
ĠD arwin
ĠD ilma
ĠD resde
ĠD irÃŃan
ĠD ucado
Ġest Ã©
Ġest Ã¡s
Ġest ando
Ġest aciones
Ġest uv
Ġest atiz
Ġest allar
Ġest rellas
Ġest eril
Ġest ampit
Ġest Ãºpido
Ġt us
Ġt ent
Ġt ort
Ġt zo
Ġt he
Ġt erc
Ġt atem
Ġt ubo
Ġt esti
Ġt ercer
Ġt entaciÃ³n
Ġt lay
Ġt ermo
Ġt inie
Ġt ÃŃter
Ġt ernura
uer tas
lo jar
lo dip
ĠV I
ĠV e
ĠV ales
ĠV aca
ĠV asco
ĠV entos
ĠV ice
ĠV idal
ĠV ientos
ĠV enta
ĠV oto
ĠV enado
ĠV anes
ĠV iene
ĠV inn
ĠV izca
ĠV ascon
ĠV idanta
ĠI X
ĠI da
ĠI Ã±a
ĠI SS
ĠI KEA
ĠI fig
ĠI vano
eg an
eg Ã©
eg ir
eg ario
eg orÃŃa
Ġsu je
Ġsu po
Ġsu ger
Ġsu blime
Ġsu icidio
ers lund
Ġpro gres
ĠH erm
ĠH ug
ĠH ino
ĠH ach
ĠH ong
ĠH ijo
ĠH all
ĠH ondo
ĠH onda
ĠH sien
ĠH ydro
ĠH Ã¸jlund
ĠH ank
ĠH assan
ĠH ungrÃŃa
ĠH eming
ĠH absburgo
ĠH itler
ĠH ajj
ĠH uertas
Ġj ine
Ġj ub
Ġj orn
Ġj udo
Ġj uegos
Ġj uventud
Ġj onrÃ³n
Ġj orongos
Ġj udÃŃos
tos ÃŃs
tes e
tes is
form ar
ru jo
ru tia
Ġo jo
Ġo ax
Ġo cio
Ġo este
Ġo dio
Ġo jos
Ġo ÃŃdos
la huaca
la zamientos
la isir
Ġac tor
Ġac ons
Ġac ento
Ġac tivo
Ġac tivos
Ġac ude
Ġac ech
Ġac red
Ġac ordÃ©
Ġac ost
Ġac usa
Ġac uso
Ġac aso
Ġac usan
Ġac onte
Ġac trices
Ġac eite
Ġac hich
Ġac rÃ³nimo
Ġac ueducto
Ġac atarÃ¡
Ġac ompaÃ±a
Ġac usen
Ġac umular
tro gen
Ġpres o
Ġpres os
Ġpres as
Ġpres tar
Ġpres ente
Ġpres ide
Ġpres erv
Ġpres entes
Ġpres ion
Ġpres umo
Ġpres entaciÃ³n
Ġpres erva
Ġpres entÃ©
Ġpres tigio
Ġlo ciÃ³n
Ġlo tes
Ġlo gra
Ġlo gre
Ġlo gÃŃst
Ġpa go
Ġpa vo
Ġpa gan
Ġpa vim
Ġpa ulatinamente
Ġcomp uesta
Ġcomp oner
Ġcomp endio
Ġcomp onente
iden ciales
gr os
gr ado
gr ada
gr adarlos
ro vis
ro vi
ro teg
ro elÃ©ctrica
ro xim
ĠPal adines
pe al
pe Ã³n
pe tu
pe ya
pe jemoÃ±a
le a
le bre
le jero
go don
go tÃ¡
ran i
ran car
ran cistas
ran carÃ¡
rec emos
rec tora
ĠmÃ¡s cara
da ga
da Ã±o
da Ã±os
da zal
ĠF e
ĠF erm
ĠF und
ĠF amil
ĠF elici
ĠF ed
ĠF eli
ĠF irma
ĠF uimos
ĠF Ã³rmula
ĠF eria
ĠF ore
ĠF oul
ĠF alla
ĠF uentes
ĠF iscales
ĠF uk
ĠF onda
ĠF unciÃ³n
ĠF EPA
ĠF DN
ĠF MF
ĠF lint
ĠF ertilizantes
ĠF orzadas
ĠF astlic
ĠF Ã©qui
ĠF ilip
ĠF ocus
ter ven
ter ano
ter ial
ter pre
ter ramos
ter esado
des h
des paj
Ġap to
Ġap retar
Ġap uesta
Ġap unto
Ġap og
Ġap laud
Ġap ell
Ġap ega
Ġap Ã³stol
Ġap ertura
Ġap ropiado
Ġap ague
Ġap ortarÃ¡
Ġap untan
Ġap uestan
Ġap roxim
Ġres to
Ġres tar
Ġres ist
Ġres ista
Ġres umo
Ġres table
Ġres idencia
Ġres isten
Ġres arcir
Ġres tricciones
Ġres iduos
Ġres olvers
Ġres umen
Ġres idenciales
ada bles
Ġ2 8
Ġ2 9
Ġ2 30
Ġ2 85
aÃ± ar
aÃ± as
ist Ã³teles
ist lahuaca
Ġam ar
Ġam ado
Ġam ados
Ġam ante
Ġam ate
Ġam ural
Ġam able
Ġam arga
Ġam ule
Ġam ablemente
Ġam inorar
ios a
ios o
iz Ã³
iz Ã¡
iz ando
iz arÃ¡
iz aje
per amos
per io
per emos
per aremos
per imental
tra iga
pres arios
Ġcons te
Ġcons ejo
Ġcons omÃ©
Ġcons entirÃ¡
Ġcons ienten
Ġcons ustan
En rique
En sayo
En horabuena
En tÃ©r
ÃŃs enles
der as
der Ã©
der son
der ivadas
der Ãºrgica
Ġdi era
Ġdi arias
Ġdi abe
Ġdi buj
ent ados
ent ÃŃn
ent ino
ent amientos
ent urados
ĠO tra
ĠO ug
ĠO ax
ĠO pos
ĠO mit
ĠO ks
ĠO mar
ĠO ÄŁ
ĠO rang
ĠO MS
ĠO PEP
ĠO tto
ĠO xkut
ĠO lea
Ġem blem
Ġem pez
Ġem itido
Ġem igrar
El Futuro
mo tos
mo Ã±a
mo elÃ©ctrica
mo jaban
La Cons
La urita
La Homo
ho urlian
Ġser is
Ġser ia
Ġser io
Ġser rano
Ġser mÃ³n
Ġser enarnos
tu amos
tu gues
tu osidad
ib o
ib erto
ib rar
ib ov
ib utaria
ib ilidades
Ġcam pec
Ġcam ell
Ġcam biÃ³
Ġcam pamentos
Ġex tern
Ġex cl
Ġex ces
Ġex itos
Ġex tre
Ġex quis
Ġex di
Ġex istencia
Ġex tensa
Ġex term
Ġex isten
Ġex istir
Ġex cusa
Ġex hibe
Ġex onera
ĠEst os
ĠEst uve
ĠEst uvieron
ĠEst her
ĠEst rellas
con tinu
Ġnos tal
ĠCh ito
ĠCh icas
ĠCh och
ĠCh eca
ĠCh ema
ĠCh igna
ĠCh ak
ĠCh ev
ĠCh inam
ĠCh ilapa
ĠCh ivas
ĠCh ry
ĠCh enal
ĠCh inantla
ĠCh ueca
ĠCh amula
ĠCh omsky
ĠCh eco
Ġent ornos
tor io
ier ÃŃa
ten ÃŃa
ten imiento
ten ango
ten gamos
ten table
Ġti ran
Ġti po
Ġti rar
Ġti ramos
Ġti rÃ©
Ġti tub
Ġti erno
Ġtrabaj Ã³
Ġtrabaj ado
Ġtrabaj arÃ¡
Ġtrabaj aron
ĠU NE
ĠU so
ĠU NI
ĠU NO
ĠU FC
ĠU xmal
ĠU ayma
ĠEs paÃ±
ĠEs cal
ĠEs taremos
ĠEs lov
ĠEs pecial
ĠEs tell
ĠEs quivel
ĠEs peramos
Ġcor ta
Ġcor ra
Ġcor ran
Ġcor ea
Ġcor reg
Ġcor reo
Ġcor recto
Ġcor eaba
Ġci ta
Ġci miento
Ġci entos
Ġci encias
Ġci lin
Ġci ertos
Ġqu o
Ġqu ie
Ġqu ita
Ġqu erÃŃa
Ġqu ite
Ġqu iera
Ġqu inc
Ġqu izÃ¡
oci ales
oci das
oci dio
Ġr ica
Ġr icos
Ġr ato
Ġr ing
Ġr omp
Ġr oca
Ġr entas
Ġr usa
Ġr ieles
Ġr osca
Ġr ampl
Ġr idÃŃculo
Ġsal a
Ġsal as
Ġsal do
Ġsal imos
Ġsal ido
Ġsal iÃ³
Ġsal van
Ġsal iente
Ġsal iva
Ġsal drÃ¡
Ġsal arial
Ġimp ara
Ġimp uestas
Ġimp lor
Ġimp lÃŃ
Ġimp ortar
Ġimp usieron
Ġimp lem
Ġimp unemente
Ġimp idiÃ³
Ġimp ecable
Ġimp rovis
gu en
gu enos
gu aje
Ġpo zos
Ġpo dÃŃa
Ġpo esÃŃa
Ġpo quÃŃsimos
uen tra
uen tren
ap Ã¡
ap ur
ap red
ap aces
ap acitados
ap peal
Ġentre gan
Ġentre vistar
Ġentre tenimiento
Ġsob ran
ort Ã©
ort ados
hu po
hu ala
hu atlÃ¡n
hu apan
hu alc
hu arip
arr ÃŃa
arr ones
ans misiÃ³n
ma el
ĠIn gen
ĠIn cl
ĠIn quis
ĠIn clus
ĠIn iciamos
ĠIn tercambi
ĠIn vas
ĠIn vertiremos
ĠIn daga
ĠIn terpre
Ã©n z
Ã©n ica
Ã©n dez
Ã©n tral
Ã©n ense
Ã©n dose
Ã©n dira
lan to
lan da
lan ejo
lan dia
lan ueva
xic anas
xic aneros
ĠMar a
ĠMar ta
ĠMar ia
ĠMar av
ĠMar ie
ĠMar ine
ĠMar ius
ĠMar iach
ĠMar lene
ĠMar adona
ĠMar ichuy
ĠRe al
ĠRe ed
ĠRe cibÃŃ
ĠRe uniÃ³n
ĠRe habil
ĠRe yn
ĠRe iniciÃ³
ĠRe beca
ĠRe dondo
ĠRe cinto
tur ÃŃstico
ons abilidad
Ġviv an
Ġviv ÃŃa
Ġviv ido
Ġviv eros
Ġviv iendo
Ġviv ientes
vis to
vis mo
Ġ20 94
ven tes
ven idos
Ġtrans a
Ġtrans itor
Ġtrans por
Ġcu Ã±a
Ġcu enten
Ġcu ya
Ġcu anti
Ġcu idemos
Ġcu antos
Ġcu adrang
Ġcu idadosa
Ġgobern amos
Ġgobern ando
Ġgobern arÃ¡
Ġgobern aron
Ġreun ido
Ġreun iÃ³
Ġreun irnos
Ġreun irÃ©
ĠEl ÃŃas
ĠEl ba
ĠEl abor
ĠEl ke
ĠEl isab
Ġob rero
Ġob tuv
Ġob tuvimos
Ġob vio
Ġob ses
Ġob tiene
Ġob tienen
Ġob tengan
Ġob nub
Ġob esidad
Ġrec urso
Ġrec urr
Ġrec abando
Ġrec audaciÃ³n
Ġrec etas
Ġrec lusos
Ġrec ÃŃpr
Ġrec tificar
ĠMe tapa
ĠMe jÃŃa
ĠMe tLif
ĠMe xe
ĠMe ymand
ĠMe trob
Ġan do
Ġan da
Ġan ual
Ġan ima
Ġan cho
Ġan ticip
Ġan imen
Ġan tic
Ġan trop
Ġan damos
Ġan dar
Ġan dÃ¡bamos
Ġan gora
Ġan tis
Ġan cianos
Ġan alfabe
Ġan Ã³nimos
Ġan tojitos
Ġmi edo
Ġsin ies
Ġsin cer
Ġsin tiÃ³
uch a
uch as
pl os
pl ice
pl Ã¡cito
Ġdem asiado
Ġdem uestran
ĠLa go
ĠLa gar
ĠLa gos
ĠLa uck
ĠLa ks
ĠLa zur
Ġcompr as
Ġcompr amos
Ġcompr ando
Ġcompr ados
Ġcompr endo
Ġcompr ende
Ġcompr obantes
ĠSan g
ĠSan idad
ĠSan tos
ĠSan til
ĠSan tam
ĠaÃ± ej
ĠaÃ± orados
Ġman tas
Ġman tuvimos
Ġman tienen
Ġman eas
Ġman anti
Ġman iob
Ġman ufac
Ġman zana
br os
br ado
br eros
br idge
ca z
ca zar
ca zgos
ez camos
ez yera
ez olana
19 0
19 17
19 38
19 82
19 95
19 77
ĠTr ono
ĠTr umka
ĠTr ibutaria
ĠTr uchas
Ġcorrup tas
Ġcorrup cion
ord ia
ord ial
Ġsobre pre
Ġsobre vuelo
Ġll eno
Ġll Ã©g
Ġll orar
Ġll oran
Ġas ada
Ġas pec
Ġas usta
Ġas ilo
Ġas pir
Ġas istencia
Ġas istir
Ġas queros
Ġas cendido
Ġas ciende
Ġas iduamente
Ġas ilaron
Ġas ustada
Ġas entamientos
Ġsec uaces
Ġsec tarismos
va zado
ĠCiudad ana
ĠCiudad ano
Ġni Ã±o
itar ias
rÃ¡ ulicas
Ġle e
Ġle ÃŃda
Ġle jos
Ġle ÃŃdo
vers iÃ³n
Ġesta bles
Ġesta bas
Ġapoy e
Ġapoy ado
Ġapoy ador
Ġapoy arnos
Ġapoy Ã¡ndonos
av Ã³n
av era
av illa
av ala
av eritas
av enturados
aron cito
Ġsol a
Ġsol os
Ġsol as
Ġsol taron
Ġsol teros
Ġsol ares
ĠAl i
ĠAl lÃ¡
ĠAl ux
ĠAl tam
ĠAl tamin
ĠAl ire
ĠAl zÃºa
ĠAl sto
ĠAl tiplano
ĠAl egan
ĠAl godon
ĠAl cazar
Con trol
Con tamos
Con voc
Con viv
Con tinÃºan
Con vertiremos
Con camin
Con tradici
Con statamos
Ġmed ir
Ġmed ias
Ġmed iciÃ³n
ivers idades
uy a
uy eron
end an
end as
end ado
end ios
end idos
end iÃ³
Ġfr ÃŃa
Ġfr asco
Ġfr enar
"" "
ide ro
Ġhac erse
Ġhac endado
Ġcompar o
Ġcompar an
Ġcompar aciÃ³n
Ġcompar ado
Ġcompar ten
Ġcompar aciones
Ġcompar tiÃ³
Ġcompar tiremos
ĠUn ite
ĠUn ivisiÃ³n
ĠY e
ĠY on
ĠY au
ĠY ong
ĠY orio
ĠY ankees
ĠY erres
ĠY Ã¡Ã±ez
ĠY ajalÃ³n
Ġte cho
Ġte jen
Ġte jate
Ġha gamos
ĠEn fr
ĠEn gel
ĠEn cu
ĠEn car
ĠEn tren
ĠEn horabuena
ĠEn gine
ĠEn fermerÃŃa
ĠVer dad
ĠVer kam
Ġpre val
Ġpre fir
Ġpre vio
Ġpre ferencias
Ġpre valeciÃ³
Ġpre tenden
Ġpre cisiÃ³n
Ġpre gon
Ġpre hisp
Ġpre deci
Ġpre visto
Ġhay an
ĠestÃ¡ bamos
Ġrespe te
Ġrespe tado
Ġrespe tada
Ġrespe table
Ġrespe temos
af ras
ĠSal vo
ĠSal ce
ĠSal ces
ĠSal udo
ĠSal utaciÃ³n
Es a
Es trategia
Es plÃ©n
Es pÃ¡n
Es pecial
Es peremos
ĠZ ump
ĠZ ea
ĠZ ong
ĠZ ieg
ĠZ Ã³l
ĠZ ucker
ĠZ arco
ĠZ urita
ĠZ hen
ĠZ ihuat
ĠZ amora
ĠZ inacatepec
ĠZ urab
ĠZ avala
Ġ"" Â¡
je tas
Ġmexic anas
Ġmexic anismo
Ġprim or
Ġprim ordial
Ġdis co
Ġdis ip
Ġdis pos
Ġdis traiga
Ġmej ora
Ġempres arias
Re ed
Re iniciamos
Re apertura
Re flex
Re pito
Re encuentro
Re instalaciÃ³n
Re inauguraciÃ³n
duc tiva
jo a
jo vel
Ġcre e
Ġcre er
Ġcre an
Ġcre ativ
Ġcre ativo
Ġcre cido
Ġcre cimos
Ġcre ativos
Ġcre ativas
Ġcre diti
Ġsus cep
Ġsus cr
Ġsus pende
Ġsus tentable
ĠAn te
ĠAn gel
ĠAn gÃ©lica
ĠAn derson
bi el
bi ble
zar i
zar ena
zar reta
Ġcar tÃ³n
Ġcar iÃ±
Ġcar bÃ³n
Ġcar estÃŃa
Ġcar isma
Ġcar rancistas
and re
and onaremos
Ġenc omien
Ġenc uentren
Ġor ales
Ġor ques
Ġor eja
Ġor illas
Ġor deÃ±a
Ġecon omÃŃas
ÃŃn o
ÃŃn as
ÃŃn icas
ie dad
ie va
Ġsalud Ã©
Ġsalud amos
Ġsalud ando
Ġsalud aron
Ġsalud able
Ġsalud arnos
Ã³m ica
Est as
pec Ã©
pec tivas
Ġhist orias
Ġreg ar
Ġreg ula
Ġreg lamentar
ch era
ch Ã©n
ch aca
ch inol
Ġco incid
Ġco fund
Ġco hecho
Ġco oper
Ġaut Ã³noma
Ġaut enti
Ġconstr uimos
Ġconstr uyÃ³
Ġconstr uye
Ġconstr uido
Ġconstr uidos
Ġconstr uyen
Ġconstr uiremos
Ġar mada
Ġar oma
Ġar zob
Ġar quitectura
Ġar restan
Ġar raigadas
Ġar rancarÃ¡
ĠCal le
ĠCal iente
ĠCal pul
Ġgran os
Ġgran jas
Ġeste lar
Ġvis as
Ġvis iones
Ġvis itas
Ġvis tiÃ³
Ġvis tieron
Ġvis itemos
ĠRo jo
ĠRo bles
ĠRo ton
ĠRo dolfo
ĠRo jas
ĠRo jos
ĠRo jk
ĠRo osevel
ĠRo usse
ĠJu remos
ĠJu xtlahuaca
Ġmejor en
Ġmejor ando
ita ble
ita ba
Ã©r amos
Ã©r ides
dem ocracia
Ġaten tar
Ġaten uar
Ġaten ciones
Ġaten taremos
Ġcontra par
Ġcontra pes
Me xico
Me ade
Me jor
Me xicanas
Ġbien aventurados
tin amos
tin uemos
Ġprop ias
Ġprop uesto
Ġprop osi
Ġprop one
Ġprop onen
Ġprop ondrÃ©
Ġprop iciada
if as
if ica
lar do
lar lo
lar se
lar ecer
lar ecimiento
ĠQ iu
Ġpers iguen
Ġpers uad
Ġpers pectivas
ĠSon g
ĠSon oyta
Ġcomun istas
Ġcomun icamos
Ġcomun itaria
Ġcomun icaciones
fr ente
fr ido
Ġpas a
Ġpas en
Ġpas ando
Ġpas ados
Ġpas aremos
Ġpas arÃ¡
Ġpas ara
Ġpas adas
Ġpas tel
Ġpas tores
Ġpas illos
Ġpas ajera
Ġay ude
Ġay Ãºdennos
Ġay untamiento
Ġson Ã³
Ġson ado
Ġson ris
Ġson oramente
ĠMor ista
ĠMor isco
ĠMor ne
ĠMor etta
ĠCar ter
ĠCar iÃ±o
ĠCar del
ĠCar ner
ĠCar nal
ĠCar retera
ĠCar dona
omo d
Ġdej an
Ġdej ado
entar on
entar Ã©
entar emos
tegr o
tiv ando
tiv amente
Ġmill as
cal ate
cal zi
cal anton
ĠCons uelo
ĠCons ultora
ĠCons umaciÃ³n
ĠCons idero
ĠGu ach
ĠGu ich
ĠGu ill
ĠGu amÃºchil
ĠGu ajardo
Ġper demos
Ġper fil
Ġper jud
Ġper petu
iar Ã¡n
Ġma gue
Ġma quil
Ġma zat
Ġma istro
Ġma quinaria
Ġelec tor
Ġelec trÃ³nico
til leros
til aterales
Ġinform ado
Ġinform aremos
Ġinform arnos
Ġinform ativas
pervis ando
pervis ora
Ġfal te
Ġfal lo
Ġfal la
Ġfal sificaciÃ³n
ce dente
ce bible
iÃ³ s
iÃ³ logo
iÃ³ logos
Ġdeb ÃŃa
Ġdeb ido
Ġdeb erÃŃa
ĠLe a
ĠLe al
ĠLe ones
ĠLe erla
Ġesc ucho
Ġesc udo
Ġesc uela
Ġesc enarios
Ġesc asez
Ġesc ultÃ³rico
Ġesc larecer
Ġseg ura
Ġseg uros
Ġseg uras
Ġseg undos
ĠNo h
ĠNo am
ĠNo el
ĠNo tre
ĠNo ticias
Ġab ra
Ġab ono
Ġab uelo
Ġab usos
Ġab uelos
Ġab andona
Ġab neg
Ġab ordo
Ġab omina
Ġab andonaremos
Ġsegu ÃŃa
Ġsegu idos
Ġsegu imiento
Ġsegu idor
Ġinv entÃ³
Ġinv entan
Ġinv iten
Ġinv ertido
Ġinv aluable
Ġinv adieron
Ġinv asiÃ³n
Ġinv oluc
Ġinv iable
Ġinv ocan
Ġimport aciÃ³n
Ġimport aciones
Ġ3 3
Ġ3 50
Ġ3 85
Ġ3 15
Ġ3 48
Ġ3 88
ga zo
ip tores
ip ilÃŃn
ativ ismo
ĠAr io
ĠAr gel
ĠAr iel
ĠAr tem
ĠAr zob
ĠAr quitectura
ĠAr gy
ĠAr tÃŃs
ĠAr reola
ĠAr rancar
ĠAr istÃ³teles
ĠGuer reros
Ġfin es
Ġfin gen
lic h
Ġad uana
Ġad icionales
Ġad icciones
Ġad hesiÃ³n
Ã³r zano
Ġver Ã¡n
Ġver lo
Ġver la
Ġver ano
Ġver tientes
Ġrel ativo
Ġrel ataba
Ġrel Ã¡jate
Ġinter ferencia
Ġinter act
Ġinter cambi
Ġinter med
Ġinter rump
Ġhacer lo
Ġhacer la
Ġhacer le
cis ta
Ġmo da
Ġmo jo
Ġmo Ã±o
Ġmo ja
Ġmo Ã±as
Ġmo tule
Ġmay os
Ġhab ida
Ġhab remos
Ġhab iendo
Ġhab itados
Ġhab rÃŃa
Ġhab itaciones
irm amos
Ġparticip en
Ġparticip Ã©
Ġparticip arÃ©
ed or
ed ios
ed ieron
van tamos
Ġej idos
Ġej ecu
Ġej idatarios
ex a
ing Ã¡n
ing ada
ing iÃ³
Ġconf ÃŃo
Ġconf unda
Ġconf usiÃ³n
Ġconf irmar
Ġconf esÃ³
Ġconf irmamos
Ġrepres a
Ġrepres ente
Ġrepres ento
Ġrepres enta
Ġrepres alias
ĠTab aco
ĠTab asque
Ġdef ina
Ġdef unciÃ³n
Ġperm ito
Ġperm itas
Ġmar ea
Ġmar ciales
Ġmar ÃŃtima
Ġmar avilla
Ã¡r raga
ĠSe de
ĠSe dena
ĠLu cio
ĠLu pita
ĠLu hno
ĠLu xem
ĠLu igi
Ġop ina
Ġop tÃ³
Ġop cional
Ġop acidad
Ġop onga
Ġop tativa
Ġles iones
Ġcas tilla
Ġcas cadas
ĠAc aba
ĠAc tores
ĠAc atlÃ¡n
ĠAc ordar
ĠAc tuaremos
ĠAc osta
ĠAc asico
ĠAc udiremos
ĠChia utla
Ġliber tario
Ġliber tarias
dr os
dr on
dr al
dr ÃŃa
dr Ã¡n
dr ilo
Ġind icar
Ġind ican
Ġind icadores
Ġind udable
Ġind ignante
Ġemb ell
Ġemb rujo
Pro teg
Pro vechito
Pro ductiva
ifor ni
Ġ4 1
Ġ4 8
err ÃŃa
Ġvacun en
Ġvacun an
Ġvacun ados
Ġvacun aron
Ġinici e
Ġinici al
Ġinici ando
Ġinici aremos
Ġinici arÃŃa
Ġinici ativas
Ġinici almente
et y
et al
et ano
pa zo
pa bles
ual a
ual ables
Ġ5 1
Ġ5 4
Ġ5 5
Ġ5 20
Ġ8 1
Ġ8 3
Ġ8 5
Ġ8 6
Ġ8 9
Ġ8 00
Ġdo blo
Ġdo liÃ³
Ġdo deca
Ġsig an
Ġsig amos
Ġsig las
Ġten ido
Ġten iendo
Ġten dencia
Ġten ÃŃan
Ġten gamos
Ġten aces
Ġten ÃŃamos
Ġten az
ij os
ij es
ij iapan
Ġpe or
Ġpe je
Ġpe inas
Ġpe yo
int on
ĠCon ocimiento
ĠCon voc
ĠCon tinu
ĠCon ferencias
ĠCon ocemos
ĠCon tinÃºan
ĠCon iÄ
ĠCon junta
ĠCon treras
ĠCon apred
ĠCon tinuemos
Ġesp acio
Ġesp oso
Ġesp iado
Ġesp eso
Ġesp aciosa
Ġserv ilismo
In ver
In icia
In nes
In tensa
In iciÃ³
In stalaciÃ³n
In dependiente
In digna
In jÃ©r
In str
In terven
Se Ã±or
ef ina
Ġ7 2
Ġ7 6
Ġ7 11
Ġ7 30
Ġ7 50
ĠCom ida
ĠCom imos
ĠCom ala
ĠCom arca
ĠCom onfor
ĠCom isionada
tim ado
tim edios
ĠSin verg
ĠSin icahua
Ġresp onde
ĠRep araciÃ³n
ĠÃģ rea
ĠÃģ rabe
oso fÃŃa
cion o
cion aria
cion arÃ©
Ġca os
Ġca erse
Ġca ÃŃdo
Ġca uces
Ġca oba
ĠFran cos
ĠCu atro
ĠCu entan
ĠCu adr
ĠCu idemos
ĠCu ajinic
ĠCan toral
ĠNay ib
Ġtermin en
Ġtermin aciÃ³n
Ġtermin aron
Ġtermin adas
Ġtermin arÃ¡n
ade ra
du Ã±o
du ciendo
du ciremos
par encia
par ito
par tÃŃ
par dismo
par mex
Ġplan o
Ġplan tar
Ġplan eta
Ġmuch ÃŃsimos
ĠMaya kan
ĠAm an
ĠAm alia
ĠAm biente
ĠAm ealco
ĠAm arilla
ĠAm atenango
ĠAm parito
ĠBan cos
ĠBan gla
ĠBan obras
ĠBan deras
Ġayud an
Ġayud amos
Ġayud aremos
Ġembaj ada
ĠCam pa
ĠCam pos
ĠCam argo
ĠCam peÃ³n
ĠCam bridge
ĠCam aroncito
Ġneces itas
Ġneces arias
Ġneces iten
Ġhom bro
Ġhom icidios
Ġhom bros
ĠQu ienes
ĠQu ince
ĠQu ÃŃmica
Ġgarantizar les
les teros
les centes
ton eros
Ġcr ÃŃa
Ġcr iol
Ġcr iba
Ġcr Ã©dito
Ġcr isti
Ġcumpl idos
Ġcumpl ieron
ata formas
Ġgan as
Ġgan aron
Ġgan adoras
Ġbene ficia
Ġbene plÃ¡cito
ĠJos e
ĠJos h
Ġactu amos
Ġactu aciÃ³n
Ġactu ado
Ġactu ales
Ġactu aran
Ġ19 19
Ġ19 30
Ġ19 15
Ġ19 14
Ġ19 35
Ġ19 45
Ġ19 82
Ġ19 95
Ġ19 06
Ġ19 24
Ġ19 58
ĠChi ara
Ġlleg uen
Ġseguir Ã©
Ġseguir se
ep ciÃ³n
ep orta
fec hos
Ġ6 1
Ġ6 5
Ġ6 17
Ġ6 68
Ġcos tÃ³
Ġcos itas
Ġcos tando
Ġcos tarÃ¡
Ġcos tarric
Ġcos tosÃŃs
Ġaplic aron
Ġaplic aba
Ġaplic Ã¡ndonos
gar es
gar ay
gar pa
gar se
Ġpes as
Ġsab ia
Ġsab emos
Ġsab ido
Ġsab remos
Ġsab ion
Ġsab iamente
Ġsab idur
ĠCo pa
ĠCo operaciÃ³n
ĠCo uncil
ĠCo atlan
ĠCo tija
ĠCo imbra
ĠCo parmex
Ġgas tados
Ġgas tando
Ġgas oducto
ĠPro vechito
ĠPro duciremos
Ġdir Ã©
Ġdir ÃŃan
Ġref iero
Ġref rescos
Ġintegr ante
Ġintegr arÃ¡
ĠTla pac
Ġ201 0
Ġ201 2
Ġ201 3
Ġ201 6
ĠMexic anero
Ġrepresent an
Ġrepresent Ã³
Ġrepresent amos
Ġrepresent ada
Ġrepresent ativos
Ġbenefici ar
Ġbenefici an
Ġbenefici ario
Ġbenefici arÃ¡
Ġbenefici arios
Ġbenefici arÃ¡n
po teco
var o
Ġpl atiquÃ©
Ġpl acer
Ġpl ataformas
idar idad
icip ios
oyec to
quÃŃ micos
Ġemp ate
Ġemp atar
Ġemp atÃŃa
Ġemp lazamientos
Ġexpres a
Ġexpres o
Ġexpres ado
Ġexpres ando
Ġmig a
ĠCol otlÃ¡n
ĠCol osio
ĠCol ecta
ĠPr ensa
ĠPr ior
ĠPr amp
ĠPr osper
ĠPr ieta
ĠPr ueba
ĠPr ivados
Ġvo ta
Ġvo tÃ³
Ġvo tarÃ¡
Ġviol Ã³
Ġviol aciones
Ġviol enta
Ġviol atoria
ĠAs ia
ĠAs ÃŃa
ĠAs pir
ĠAs trid
ĠAs vazado
Ġllam o
Ġllam Ã³
Ġllam as
Ġllam emos
Ġllam adas
20 19
20 20
20 18
Ġlle vo
Ġlle van
Ġlle ve
Ġluch an
Ġluch amos
Ġluch adores
Ġluch aremos
Ġluch aron
Ġluch Ã¡bamos
Ġcab ida
Ġcab eza
Ġmes ian
Ġsuc eda
Ġsuc ede
Ġenv ÃŃan
Ġenv iamos
Ġenv ÃŃe
Ġenv iaron
Ġenv ÃŃen
icar las
Ġestar ÃŃa
Ġestar Ã¡n
Ġven de
Ġven ir
Ġven den
Ġven go
Ġven ados
Ġven der
Ġven ciÃ³
Ġven cidos
Ġven ezolana
Ġins trucciÃ³n
Ġins acul
Ġins isti
Ġins pira
Ġins umos
Ġcomb ativo
ĠVal ores
ĠVal eria
ion amos
ĠK im
ĠK ing
ĠK Åį
ĠK ello
ĠK BR
ĠK aine
ĠK ehr
ĠK ohun
ĠK uwait
ĠK atya
ĠK emal
ĠK ildee
ĠK irst
ĠK ushn
ĠK rauz
Ġenfr ente
Ġenfr entÃ³
Ġenfr entado
ĠPor tilla
ĠPor tugues
Ġvol ante
Ġvol tea
Ġvol cadura
Ġfor o
Ġfor jar
Ġfor zada
Ġfund amos
Ġfund ado
Ġfund aron
Ġfund adora
ĠJal tianguis
Ġproduc en
Ġproduc tor
Ġproduc tivos
ĠacompaÃ± amos
ĠacompaÃ± ada
ĠacompaÃ± arÃ¡
ĠacompaÃ± arnos
ĠacompaÃ± arse
ĠreunÃŃ amos
ĠW all
ĠW ixÃ¡r
ĠW hat
ĠW iech
ĠW olfgan
ĠW erner
Ġcentro americanos
Ġcentro amÃ©rica
Ġeduc ado
Ġeduc ativo
Ġeduc ativos
isco pado
Ġinf lan
Ġinf antes
Ġinf init
ĠTrans por
ĠTrans parencia
Ġide ologÃŃa
Ġide olÃ³gica
Ġloc a
Ġloc os
Ġloc ura
Ġpos tel
Ġpos terior
Ġpos icion
Ġpos ee
Ġpos tula
Ġpan es
Ġpan ista
Ġpan cita
Ġpan tanos
Ġcan to
Ġcan ales
Ġcan ciones
Ġcan inos
Ġcan cha
Ġcan taba
Ġcan onjÃŃas
Ġcan astas
aliz ados
inis tro
inis tros
Ã³s ofo
atern o
atern idad
Ġhospit alizados
Ġrecon trat
Ġrecon ocemos
Ġrecon ozco
Ġrecon ocen
Ġrecon forta
embr inas
Ġtransform ando
Ġtransform aciones
Ġtransform aremos
Ġtransform adora
Ġmayor ÃŃas
Ġmayor itarios
Ġespecial idades
Ġespecial ista
AN DA
Des arrollo
Des terramos
Des tinamos
ha zo
ha blÃ¡ramos
iel d
Ġafec ta
Ġafec tos
Ġafec tuoso
Ġafec taremos
Ġafec tuosa
Ġcomer las
Ġcomer ciales
Ġprof eta
Ġconserv ado
Ġrefin amiento
Ġrefin anci
Por fir
me do
me xicaneros
vol queteros
erc ulosis
Ġpens adores
Ġcal do
Ġcal la
Ġcal les
Ġcal aba
Ġcal lejero
Ġcal averitas
Ġmal eza
Ġmal ean
Ġmal efici
Ġmal eado
Ġmal hech
Ġmal ecÃ³n
ĠprÃ³ logo
ĠprÃ³ cer
Ġgr ado
Ġgr itar
Ġgr ato
Ġgr ita
Ġgr osera
Ġgr adual
ecer Ã©
ĠLo era
ĠLo dazal
ĠJes si
Ġofici os
Ġofici osa
ĠIntern a
ĠdemocrÃ¡ ticas
Ġdirig ÃŃ
Ġdirig ir
Ġdirig ida
Ġdirig idos
Ġdirig iendo
Ġigual itaria
Ġigual itario
Ġmis mas
Ġmis eria
Ġproyec tando
ĠPR OP
ĠPe ticiÃ³n
ĠPo demos
ĠPo blana
ĠPres entÃ³
ĠTo var
ĠTo pia
ĠTo wer
ĠGar duÃ±o
ĠDes apar
ĠDes mond
ĠDes calzi
ĠDur rani
Ġapr uebe
Ġrecord ados
Ġrecord aremos
Ġrecord arÃ¡
Ġrecord atorio
Ġpermi tido
Ġpermi timos
Ġpermi tiÃ³
Ġpermi tieron
Ġequip ara
Ġequip amiento
Ġequip adas
Ġcaus Ã³
ĠCuar to
ĠMan ero
ĠMan quÃ©
ĠMan fred
ĠMan tengamos
Ġfelici to
Ġfelici dades
Ġfelici tÃ³
Ġfelici tamos
ach i
ach ada
ach aron
ĠYuc unÃ¡
Ġdisc apacitados
Ġescr ito
Ġescr ita
Ġescr utin
Ġescr Ãºpul
Ġhuman istas
Ġhuman amente
Ġhuman itario
Ġhuman itarias
Ġtransformar la
ĠX VI
ĠX ox
ĠX avier
ĠX ag
ĠX IX
ĠX alto
ĠX ilit
ĠX iaoq
Ġus a
Ġus os
Ġus an
Ġus amos
Ġus ada
Ġus urpador
Ġded ica
Ġded iquÃ©
Ġded icarlas
Ġpon emos
Ġpon gan
Ġpon drÃ¡
Ġpon erse
Ġaus tera
Ġaus piciar
ama a
ĠMon o
ĠMon te
ĠMon eda
ĠMon etario
Ġsem illas
ulta des
ulta Va
Ġatender Ã©
Ġemple ado
Ġemple ados
ĠHidalgo titlÃ¡n
An ot
An uncio
An exo
Su pervisando
Ġleg almente
Ġleg ÃŃtimos
Ġch ina
Ġch oco
Ġch omb
Ġch oche
Ġch ore
Ġch ivos
Ġch esco
Ġch inamp
Ġch ueco
Ġch ilate
Ġch ipilÃŃn
Ġch ingada
ĠMicho acan
ĠAy a
ĠAy utla
ĠAy untamiento
ĠAy Ãºdanos
ĠJo on
ĠJo el
ĠJo han
ĠJo Ã£o
ĠJo urnal
Ġlogr an
Ġlogr ando
Ġdif ama
Ġdif usiÃ³n
Ġdif aman
Ġpobl ado
Ġpobl ados
Ġpobl ada
Ġorg Ã¡nico
Ġorg Ã¡nica
Ġregres ado
Ġregres arÃ¡n
ĠTlax calanton
MEC A
Segu imiento
ces iones
eci ta
eci eron
ot ero
ot lanejo
Ġoc ulta
Ġoc upar
ĠÃºl timas
orr os
orr er
Ġev iten
Ġev idencia
Ġnom bra
Ġnom bres
Ġnom brar
Ġnom brado
Ġnacional izado
Ġnacional izÃ³
ĠMig not
Ġguer rens
Ġhabl a
Ġhabl Ã³
Ġhabl arÃ©
Ġhabl Ã¡ramos
ĠprÃ³x imas
ĠprÃ³x imamente
Ġfavor ito
Ġ9 2
Ġ9 7
Ġ9 9
Ġ9 94
ĠÃ© tico
Ġdep ender
Ġdep ortados
ĠcÃ³ lera
ĠPar ra
ĠPar lam
ĠPar lamentar
ĠPar acho
ĠPar fait
ĠPar olin
ĠPar afras
Ġrecib a
Ġrecib e
Ġrecib imos
Ġrecib idos
Ġrecib iendo
ĠSeg ob
ĠSeg undo
ustr es
ustr ial
ĠcompaÃ± era
ĠSanta ella
ĠMiguel ito
Qu ien
Qu ise
Un o
Un Ã¡monos
Un iversidades
dera zo
Ġpal ero
Ġpal acio
Ġpal acios
Ġpal oma
Ġpal enc
Ġpal omeados
Ġpal pables
Ġcol mo
Ġcol onia
Ġcol oca
Ġcol aterales
Ġcol oqu
Ġesper ar
Ġesper aba
Ġesper aban
Ġesper anzadora
Ġproc uro
Ġproc esos
Ġproc urar
Ġproc urador
Ġproc urarÃ¡
Ġproc edieron
ĠPa zos
ĠPa olo
ĠPa ulo
ĠPa isan
ĠPa ulina
ĠPa huatlÃ¡n
Ġdig ital
Ġbel las
Ġbel igerancia
ĠDe er
ĠDe forma
ĠDe Ã¡nd
ĠDe bemos
ĠDe bido
ĠDe cisiÃ³n
ĠDe jÃ©
ĠDe volver
ĠDel my
Ġtan que
Ġtan tos
Ġsub ÃŃ
Ġsub idas
Ġsub irÃ¡
Ġsub irÃ©
Ġprote gen
Ġgobiern an
Ġresc ata
Ġamb iciÃ³n
ĠOr iente
ĠOr lando
ĠOr iginarios
Ġextr aÃ±o
Ġextr adiciÃ³n
Ġextr acciÃ³n
Ġextr ayendo
Ġextr aÃ±ar
Ġentreg ados
Ġ202 4
Ġ202 6
Ġante cedente
Ġley endo
Ġley endas
ĠJuan ito
ĠpropÃ³s itos
Ġdoc tora
Ġfundam entos
Ac to
Ac omp
Ac ompaÃ±Ã©
Ac tuaremos
Ac tuamos
DÃŃa Contra
og Ã¡s
og le
tan es
tan eros
enda ble
Ġpron unci
Ġpron uncia
Ġpron uncio
Ġpron ost
isl ativo
omin ia
ĠVilla flores
Ġquer er
Ġquer encia
Ġquer ida
ĠZac atel
ĠZac arÃŃas
Ġvisitar Ã¡
Ġvisitar Ã¡n
Ġvisitar los
Ġpersonal izado
Ġfalle cido
Ġfalle cieron
Ġfuncion arÃŃa
ĠPRI SA
Ġdedic atoria
ĠÃģngel a
Al berto
Al lÃŃ
ja er
Ġtar da
Ġtar dar
Ġtar jetas
Ġtar ifas
Ġolv ide
Ġcap az
Ġcap ric
Ġcap rich
Ġcap ÃŃtulo
Ġentr en
Ġentr Ã³
Ġentr ante
Ġentr arÃ¡
ash vil
ĠCor ona
ĠCor reg
ĠCor tizo
Ġcontin ente
Ġcontin Ãºan
Ġcontin gencia
Ġnat aciÃ³n
Ġrep untes
Ġrep ortÃ©
Ġunivers itarios
ĠEx terior
ĠEx perimental
Ġestud iar
Ġestud iante
egr ama
Ġresul te
Ġresul taron
izo te
Ġquier es
Ġmand ar
Ġmand ando
Ġmand aron
Ġmand atario
ĠTrat en
ĠTrat ados
Ġtem ores
Ġtem ible
Ġtem plos
Ġdejar lo
Ġenfrentar Ã¡
Ġenfrentar lo
lÃ¡ mica
lÃ¡ dense
Ġpatr ias
Ġpatr icio
Ġpatr imonio
ĠCas i
ĠCas tro
ĠCas tas
ĠCas tilla
ĠCas tell
Ġhon rar
Ġval en
Ġval or
Ġval les
Ġval ientes
Ġval iosa
Ġrealiz ar
Ġrealiz arÃ¡
Ġrealiz arÃ©
ĠEm pez
ĠEm man
ĠEm ilio
ĠEm peÃ±o
ĠEm pleo
ĠEm isor
ĠEm igdio
Ġtom Ã³
Ġtom Ã©
Ġtom ando
Ġtom arÃ¡
Ġtom adas
Ġactiv ado
Ġ15 4
Ġ15 9
Ġ15 21
ĠUr ian
ĠUr zÃºa
ĠUr ieta
ĠUr rutia
Ġimpuls o
Ġimpuls os
Ġimpuls ado
Ġimpuls ando
Ġimpuls aremos
ĠZap otlÃ¡n
ĠZap otlanejo
Ġlegisl ador
Ġlegisl ativa
Ġlegisl ativo
10 4
10 7
Vis itÃ©
lam ar
ver tida
ond back
Ġpla ga
Ġaum enta
Ġaum entÃ³
Ġaum entarÃ¡
Ġminis terial
ĠCos ÃŃo
ĠCos tÃ³
ĠCos tilla
ĠCos com
ĠCos sÃŃo
ĠCos amaloapan
ĠMi reles
ĠvÃŃc tima
Ġfon taneros
Ġfirm as
Ġfirm ado
Ġfirm ando
Ġfirm aremos
Ġfirm eza
Ġdici endo
Ġinvers iones
ĠGon zal
ĠBen jamin
ĠDonal do
ĠIs lam
ĠIs sste
ĠIs rael
ĠIs mael
ĠIs lÃ¡mica
Ġ10 1
Ġ10 4
Ġ10 5
Ġcarre tero
Ġpobre mente
ĠInternacional es
Ġaprob ada
Ġaprob adas
Ġinaugur Ã³
Ġinaugur aciones
Ġinaugur arÃ¡
Ġevitar on
Ġevitar Ã¡n
Ay uden
pan cias
Ġevalu aciones
Ġenci erra
Ġning uno
Ġpromo ciÃ³n
ĠMa ia
ĠMa iz
ĠMa gÃ³n
ĠMa eve
ĠMa gÃº
ĠMa estra
ĠEd ward
Ġintens ifica
ĠTe jup
ĠTe kax
Ġtra e
Ġtra emos
Ġtra zo
Ġtra idores
Ġtra idor
och i
aju apan
Ġtur nito
ĠtÃ©cn icamente
Ġsupervis or
Ġsupervis ada
Ġsupervis ion
Ġpais aje
Ġpais anas
Ġconsum en
Ġconsum iÃ³
ĠEsc ude
ĠEsc uchamos
ĠEsc rib
ĠEsc larecimiento
Ġcomprometi endo
Ġcoordin ar
Ġcoordin ada
Ġcoordin arÃ¡
Ġarque Ã³lo
Ġarque Ã³logo
Ġgarantiz Ã³
Ġgarantiz ando
Ġgarantiz ada
Ġgarantiz Ã¡ndoles
Ġmov iliz
Ġextranj eros
Ġextranj eras
Cu atro
Cu entas
Cu Ã¡nta
Cu ÃŃdame
Cu Ã¡les
zos amente
Ġra za
Ġra ya
Ġra zon
Ġra yita
Ġauto esti
Ġauto lim
Ġauto bio
Ġauto agres
Ġauto matiz
ase arlo
ati bles
Ġcontrol e
Ġcontrol an
Ġcontrol able
ÃŃgen a
Ġfeder aciÃ³n
Ġfeder ativo
ĠEp iscopado
ĠSecretar ios
Ġinstal ando
ĠOl ÃŃmpicos
ĠOl mecas
ĠOl inalÃ¡
ĠOl ivier
ĠOl egario
Ġcin e
Ġcin ismo
Ġcin icazos
Ġobje tos
Ġases inar
Ġases orÃŃa
Ġorgan icen
ĠRodr iguez
Ġperd iÃ³
Ġperd iendo
tiliz ante
Ġinfl uye
Ġdistin ta
Ġdistin tas
Ġdistin ciones
Trabaj ando
cu idad
vi arios
Ġir rum
Ġir racional
Ġir respe
ende dores
Ġmor as
Ġmor enita
Ġmor onga
Ġmor enistas
Ġmor tifica
ĠCab all
ĠCab abie
ĠCab aÃ±as
ator ias
Ġgener en
Ġgener an
Ġgener ales
Ġgener osa
Ġfe haci
Ġfel ones
Ġfel onÃŃa
Ġfel igreses
Ġdar nos
Ġdar las
ĠAp uesto
ĠAp atz
ĠAp rovech
ĠAp ule
Ġinc orrup
Ġinc orrecto
Ġinc apaces
Ġinc endios
iter u
ĠRam Ã³n
Ġtend rÃ©
Ġtend rÃ¡n
ĠHay tam
ĠHospit ales
Ġexp uestas
Ġexp use
Ġexp ropiaciÃ³n
Ġexp ondremos
Ġexp ropiado
Ġexp iatorios
Ġrob e
Ġrob an
Ġtransm ita
Ġtransm itido
Ġtransm itirse
Ġmedio cre
ĠQuer emos
ĠArm erÃŃa
ĠArm ella
Ġpetrol eras
Ġmigr atorias
Ġfortalecer Ã¡n
Ġprivileg iadas
ĠarqueolÃ³g ico
Cas tejÃ³n
ies e
ies to
Ġabr en
Ġabr iendo
Ġabr ieron
Ġabr idores
Ġabr umador
Ġcelebr Ã³
Ġcelebr Ã©
Ġcelebr ado
Ġcelebr ando
Ġmuer e
Ġmuer an
Ġmuer tes
Ġsos tenemos
Ġsos tiene
Ġsos layo
Ġsos tenÃŃa
Ġelabor an
ÃŃst icas
Ġprior idades
Ġprior itaria
ĠPara guay
Ġreci Ã©n
Ġreci taba
Ġreafirm Ã³
Ġreafirm aciÃ³n
Ġreafirm ando
Ġreafirm aron
ĠSa Ãºl
ĠSa eta
ĠSa gas
ĠSa khir
ĠSa inz
ĠSa under
ĠSa grado
ĠSa huarip
ĠSa Ã©nz
ĠSa garpa
ĠSi queros
ĠSi xtina
ĠSi tio
ĠSi derÃºrgica
ĠAz ev
ĠAz erba
ĠAz ueta
ĠAz ucena
Ġincl inaciÃ³n
Ġincl uido
Ġincl uyen
Ġbusc an
Ġbusc arÃŃa
Ġtrat an
Ġtrat Ã³
Ġtrat aremos
Ġtrat amiento
Ġtrat amientos
ĠRec ono
Ġampl io
Ġampl ÃŃa
Ġampl iÃ³
Ġampl iamente
Ġampl ÃŃe
Ġampl itud
Ġmantener lo
Ġcircular es
Ġrecuper es
Ġrecuper an
Ġrecuper ada
Ġrecuper aremos
Ġnatural mente
As pir
Avan ce
Avan zan
can Ãº
gn Ã³stico
gn hil
ite z
ieg an
Ġagr ia
Ġagr ario
Ġagr arios
Ġagr icultur
Ġmundial mente
Ġsan es
Ġsan ta
Ġsan amente
Ġsan tuario
Ġsan grÃŃa
Ġsan coch
Ġconven io
Ġconven ios
Ġconven ga
Ġconven iente
Ġconven cer
Ġconven cidos
Ġconven cÃŃ
Ġconven drÃŃa
omb erg
Ġdomin Ã³
Ġdomin amos
Ġdomin io
ĠseÃ± ala
ĠSer bia
ĠSer Ã©nense
Ġingen io
Ġingen iera
Ġingen uos
Ġban cos
icion an
Ġnoti ficaciones
ĠGr ine
ĠGran ados
ĠGran hol
egoci aciÃ³n
Ġof ensa
Ġof endemos
Ġof ensiva
Ġacab arÃ¡
Ġacab aron
Ġacab arÃ¡n
Ġextra er
Ġ200 1
Ġ200 2
Ġ200 4
Ġ200 5
Ġ200 8
Ġtel egrama
Ġatend ÃŃ
Ġatend imos
Ġatend ido
Ġatend ÃŃan
Ġescuch amos
Ġperman ece
Ġperman eciÃ³
Ġperman ecen
Ġperman ecerÃ©
Ġindustr ial
Ġindustr iales
ĠÃģl varo
Ġform an
Ġform ato
Ġform almente
Ġprofes or
Ġprofes ado
ĠManuel ita
Ġencontr amos
Ġencontr aban
Ap uesto
Ap enas
Ap Ã³stol
To que
To da
Ġur ge
ĠâĢľ Â¿
Ġprec edente
Ġav iaciÃ³n
Ġav asall
Ġav ÃŃsenles
Ġmon ero
Ġmon tes
Ġmon eros
Ġmon tarÃ¡
Ġmon arca
Ġmon itores
Ġmon etaria
Ġmon arquÃŃa
Ġmon toneros
ĠmÃŃ os
ĠCÃ¡m aras
Ġfran co
Ġfran quicias
ĠAd ultas
ĠAd iÃ³s
ill ÃŃn
ill Ã¨
ill erato
Ġtranqu ila
Ġtranqu ilo
Ġtranqu ilos
ĠRos ado
ĠRos amorada
ĠBar tol
ĠBar jau
ĠBar ragÃ¡n
ĠHu go
ĠHu ix
ĠHu auchin
ĠHu amantla
ĠHu atus
ĠHu ajicori
ĠHu ajuapan
Ġ18 25
Ġ18 48
Ġ18 72
Ġdistrib uidores
Ġorden ado
Ġorden ada
Ġorden arÃ¡
Ġorden aron
Ġorden adamente
âĢĿ "
Ġcumplir Ã¡
Ġgratu itas
Ġtriunf a
Ġtriunf e
Ġtriunf Ã³
Ġtriunf amos
Ġtriunf emos
Ġtriunf arÃ¡
Ġtriunf alismos
ĠÃ©l ite
ĠÃ©l ites
Ġasesin ados
Ġasesin atos
Ġextraordin arios
Ġextraordin arias
Com ÃŃ
Com ida
Com enz
Com parto
Com pra
Com partÃŃ
Garanti zar
cel os
cel es
ian zar
iti Ã³
voc able
Ġder rame
Ġcer tero
Ġcer tam
rey ta
Ġconmemor aciÃ³n
Ġconmemor aciones
Ġqued Ã©
Ġqued ando
Ġqued arÃ¡
Ġvuel va
Ġdestin e
Ġdestin ados
ĠEj utla
ĠShe ff
Ġinm ensa
Ġinm unda
Ġinm ortalidad
Ġinm oral
Ġinm uebles
Ġinund ara
Ġinund arÃ¡n
ĠTux tepec
Ġtrad uz
Ġtrad icional
Ġtrav esÃŃa
ĠMÃ©r ito
Ġproducir ÃŃa
Ġ16 5
Ġapar te
Ġapar ece
Ġapar iencias
Ġapar entaron
Ġapar ecieron
ĠEsta ban
ĠEsta blecemos
Ġrecom endable
Ġapoyar los
Ġapoyar se
ĠYa qui
Ġmargin ada
Ġganar les
Cons ejo
Cons tituciÃ³n
Cons truyendo
Cons truir
Cons cientes
Cons umaremos
cr os
roc arburos
Ġdecid ÃŃ
Ġdecid idos
Ġdecid irÃ¡
cios amente
Ġatr incher
Ġclas e
Ġclas ista
Ġclas ismos
Ġlabor atorios
Ġlabor ioso
Ġmin era
ĠCarr iÃ³n
ĠCarr era
ĠCarr eras
Ġconc retar
Ġconc erta
Ġconc reta
Ġconc retas
Ġconc ordia
ĠMil ena
ĠMil enio
ĠMil wau
dol la
Ġgra va
ĠPl ay
ĠPl aticamos
ĠPl ayo
ĠPer Ã³n
ĠPer la
ĠPer edo
ĠPer ezyera
ĠPed ÃŃ
ĠPed rero
ĠPed irÃ©
ĠPed iÃ¡trico
Ġdim ana
Ġdim ensiones
Ġintern en
ĠTex to
Ġbaj Ã³
Ġbaj Ã©
Ġbaj arÃ¡
Ġbaj adas
Ġbaj eza
Ġbaj arme
Ġbaj acal
ĠbÃ¡s ico
ĠbÃ¡s icas
ĠJa e
ĠJa ina
ĠJa guar
ĠDan ilo
Ġoper en
Ġoper ar
Ġoper ado
Ġ14 6
ĠFr ente
ĠFr accar
ĠFr aternidad
Ġ21 2
Ġ21 3
Ġ21 4
Ġconstitu cionales
Ġexpl icar
Ġexpl orar
Ġexpl icara
Ġexcep cionales
Ġren cor
Ġren unciar
Ġren cores
Ġren unciÃ³
Ġren iegan
Ġren egociaciÃ³n
ĠInd ira
ĠInd ÃŃgenas
ĠInd ÃŃgena
ĠIns tagram
ĠIns umisa
Ġrecorr iendo
Ġanti fas
Ġanti guo
Ġanti gÃ¼
Ġanti ecolÃ³gica
Ġanti democracia
Ġvisit ado
Ġabas tece
Ġadvers idad
Ġadvers aria
Ġconvertir Ã¡n
Ġconvertir las
Ġejemplar mente
... ]
... Â»"
Ġgasolina zos
Ġoportun ista
Ġrepublic anos
Ġrepublic ano
17 3
17 4
17 5
17 65
Am igos
Am lodip
Evalu amos
Sin aloa
Seg unda
car retera
ke e
ler ÃŃas
vil ÃŃstico
zan tÃ¡n
Ġfer rov
Ġfer rovi
Ġfer tilizante
ĠÃºn icos
Ġdeten ciÃ³n
Ġdeten ida
Ġdeten gan
Ġpu Ã±o
Ġpu blica
Ġpu blique
Ġpu Ã±al
Ġmem orÃ¡ndum
Ġmem orial
reg aremos
reg aron
Ġelem ental
unci ando
Ġcond imentos
Ġne utral
Ġher encia
Ġher ir
Ġher ido
Ġher edero
ĠPon ce
ĠPas amos
ĠPas arÃ¡
ĠPas quel
ĠPas crel
Ġve ÃŃa
Ġve inte
Ġve terano
Ġvice almirante
Ġdesayun Ã©
Ġdic en
Ġdic tando
Ġdic tadores
Ġreco jo
ĠEcon omist
ĠEcon Ã³mica
ĠSu h
ĠSu pervisamos
ĠSu iza
ĠSu pervisora
Ġincon stitu
Ġincon cebible
ĠNi emÃ¶ller
ĠNi trogen
ustin o
Ġalim entamos
Ġalegr arÃŃa
oyo acac
ĠRaf iu
ĠIz amal
ĠIz tacalco
ĠHo even
ĠHo pel
ĠHo anh
Ġacep to
Ġacep te
Ġacep tar
Ġacep tados
Ġacep tÃ©
Ġacep tado
ĠFin anzas
ĠFin ancial
ĠFin landia
ĠFuer on
presiden te
Ġconsegu iremos
Entre garemos
Ġempe Ã±ado
Ġempe Ã±ados
Ġcorresp onsabilidad
ĠcientÃŃf icamente
Ġentrev istas
Ġcuar to
Ġcuar tos
ĠMejor arÃ¡n
Ġestable ciÃ³
Ġmedi ados
Ġmedi Ã¡tico
ĠSala h
Ġdisp uesto
Ġdisp oner
Ġdisp uestos
Ġdisp uso
Ġart icul
Ġfallar les
Ġllevar se
Ġpermitir ÃŃa
Ġpermitir Ã¡n
Ġkil o
Ġdemostr aciÃ³n
Ġdemostr aron
ĠtelÃ©f onos
Man tuvimos
Prim eros
Ġarr ullo
Ġarr ocera
ind Ã©
ind icaciÃ³n
ind ustrial
Ġsac Ã³
Ġsac rileg
Ġsum aron
Ġsum inistro
Ġsitu aciones
Ġenfer mo
Ġnaci da
Ġnaci mos
Ġnaci ste
ĠMo ta
ĠMo delo
ĠMo hr
ĠMo vistar
ĠMo vimiento
ĠMo isÃ©s
ĠMin erÃŃa
ĠMac rop
Ġdeleg ado
Ġdeleg ados
Ġgu ÃŃa
Ġgu iÃ³n
Ġgu ÃŃan
Ġgu isos
Ġgu anÃ¡b
Ġgu ajolo
Ġgu ayacÃ¡n
Ġgu iarÃ¡n
Ġgu indÃ©
ĠPel osi
Ġvan guar
tap aluca
Ġdesc omp
Ġdesc enso
ĠdaÃ± o
ĠdaÃ± ina
ĠdaÃ± ado
ĠSegu irÃ¡
ĠTel ecomunicaciones
Ġbar co
Ġbar da
Ġbar ato
Ġbar cos
Ġtras nacional
Ġtras cendido
Ġtras lado
Ġtras lÃ¡dense
ĠIx tla
ĠIx tapa
ĠIx achi
ĠIx tapaluca
Ġprovoc a
Ġprovoc Ã³
Ġprovoc aciÃ³n
Ġprovoc ada
Ġprovoc adores
Ġprovoc aron
Ġprovoc arnos
Ġcomple tar
Ġcomple jo
Ġ12 2
Ġ12 4
Ġ12 5
Ġ13 3
Ġ13 5
Ġ13 7
Ġ13 96
ĠEsp ero
ĠEsp inar
ĠEsp ÃŃritu
ĠElec to
Continu aremos
Continu arÃ¡
Ġprepar ar
Ġprepar arnos
Ġprepar Ã¡ndonos
Ġrespetar Ã¡
Ġrespetar Ã©
Ġrespetar Ã¡n
Ġrespetar emos
Ġrespetar los
Ġrespetar nos
Ġdiscipl inado
ĠAnton y
Ġregal o
cher es
Ġautosufici entes
ĠperiÃ³ dicos
Ġfinanci ado
Ġfinanci era
Ġfinanci eras
licer iano
Ġdefender Ã©
Ġsigu iendo
ĠCuau tepec
Ġadelan tamos
Ġadelan taron
Ġsucul entas
Ġinstitu cionales
Ġideal ismo
Ġideal istas
Ġavanz ada
Ġavanz aremos
Ġcapital inos
Ġtraicion ado
Ġorganiz ar
Ġorganiz ado
Ġorganiz ando
Ġutiliz aremos
Ġutiliz arÃ¡
Ġutiliz arÃ¡n
Ġencabez Ã³
Ġencabez ados
Ġvicepresiden te
Ġentrevist Ã³
Aten ta
Aten ciÃ³n
Aten derÃ©
Can ciÃ³n
Can elo
cer emos
Ġer an
Ġdec ano
Ġdec enas
Ġdec omiso
Ġdec laraciÃ³n
Ġdec laro
Ġdec embrinas
Ġden unciar
Ġden unciando
Ġlimp iando
Ġpaci entes
Ġpaci ficaciÃ³n
Ġah orro
Ġah uehue
Ġcrec en
ork as
Ġsue lo
Ġsue ca
Ġsim ular
Ġsim ilar
Ġcong regar
Ġcong regaremos
Ġconoci da
Ġconoci mos
Ġconoci eron
Ġconoci mientos
Ġconoci Ã©ramos
Ġnegoci adores
Ġnegoci aciones
isp ado
Ġho ja
Ġho teles
Ġho juelas
Ġho gares
Ġgen io
Ġgen era
Ġgen til
Ġgen uinamente
Ġgen tile
Ġgen ocidio
Ġfom entarÃ¡
tac ular
Ġdon aciÃ³n
Ġdon arÃ¡
Ġreac cionaria
ĠSig an
ĠSoci edad
ĠSoci ety
Ġinj usticia
Ġinj usta
Ġinj ustamente
Ġbate Ã©
Ġbate ador
Ġbate ando
Ġbate aremos
Ġbate aron
Ġalcan ce
Ġalcan zaron
Ġalcan zado
Ġalcan zaba
Ġterr enos
Ġterr ible
Ġterr itorial
ĠVel a
ĠVel arde
ĠVel Ã¡zquez
ĠIgu alapa
Ġsup uesto
Ġsup uestos
Ġsup remo
Ġjus tos
Ġpade cimiento
Ġpade ciÃ³
Ġpade cido
Ġpade ciendo
Ġpade cer
Ġpade cen
Ġ17 6
Ġ17 7
ĠFern anda
Ġapos tar
ĠEste la
ĠEste mos
ĠLagun era
ĠTrabaj aba
Ġfrut as
ĠEnerg y
Ġpregun ta
Ġpregun tÃ³
Ġpregun tÃ©
Ġpregun taron
Ġartes anÃŃas
Ġinformar les
Ġabajo firm
Ġinvertir le
Ġadmir o
Ġadmir ado
Ġadmir ada
Ġadmir adores
Ġadmir aba
Ġejer cÃŃa
Ġdefin es
Ġdefin ido
Ġdefin iciones
Ġdefin itivo
Ġautoritar ios
Ġsaber lo
Ġplur inomin
Ġponer la
Ġdocumental ista
Ġaumentar a
Ġaumentar emos
Ġgrave dad
ĠFronter iza
Ġinconclus o
Ġinconclus os
ĠCuauh tem
11 1
11 2
CE F
CE EG
Imp uesto
Le vantamos
Ni Ã±as
Rec al
Rec epciÃ³n
Rec hazo
Rec orrer
Sal imos
Sal ieron
Sal udo
Sal gamos
Sal udamos
VA L
bas queÃ±a
di bles
ix co
Ã¼ enzas
Ġbl oque
Ġbl anco
del rahman
Ġlu cimos
Ġlu cidez
Ġpin turas
Ġpin taba
Ġpoc a
ĠpÃ©r didas
Ġati enden
Ġati endan
Ġcat Ã³lica
Ġcat egorÃŃa
Ġcues tan
ald Ãºa
Ġcontrat Ã³
Ġcontrat aciÃ³n
Ġcontrat ismo
Ġnivel es
ĠprÃ¡c ticas
ĠprÃ¡c ticamente
Ġguar do
Ġguar dar
Ġvia jar
Ġfil ial
Ġfil tran
Ġfil mÃ³
Ġfil deando
Ġfil Ã¡ntro
Ġfil osofÃŃa
Ġfil Ã³sofo
ĠfenÃ³m enos
Ġdesp acio
Ġdesp idos
Ġdesp ierto
Ġdesp recia
Ġdesp idieron
Ġdesp roteg
Ġdesp acharon
Ġdesapar ecer
Ġretr ato
Ġretr acta
Ġretr ocesos
Ġretr ansmisiÃ³n
ĠEr ika
ĠEr mita
ĠEr Ã©ndira
ĠAh ued
Ġinten dencia
Ġinten cional
Ġinten tarÃŃa
Ġbend ita
Ġbend iciÃ³n
Ġbilat erales
Ġalum no
Ġalum nas
Ġalum brar
ĠRob ado
ĠBa hÃŃa
ĠBa umann
ĠBa illÃ¨
oche t
Ġtor os
Ġtor tilla
Ġtor onja
Ġtor caz
Ġsuper ior
Ġsuper iores
Ġsuper requete
Ġprotes tÃ©
Ġprodu je
Ġprodu cido
Ġprodu ciendo
Ġprodu cida
Ġprodu cirÃ¡
ĠHel Ã©nica
ĠHabl Ã©
Ġotor ga
Ġotor gÃ³
Ġamistos os
Ġimpos iciones
ĠInf antil
ĠInf antin
Ġcuid ando
Ġmanif iesto
Ġsold ado
Ġprefer imos
Ġprefer ible
Esta blecer
Ġperse vera
Inaugur ar
Ġdeber ÃŃan
Ġrelaj amos
Ġdefens ora
Ġcasti guen
Ġdoble te
Ġequil ibrar
ĠcrÃŃ tico
ĠProte gida
Ġventa jas
Ġcalific adoras
ĠManzan ero
Ġescrit ura
Ġescrib ir
Ġescrib irse
Ġdifundir la
Ġdifundir los
Ġorgullos a
Ġorgullos os
Ġorgullos amente
Ġcolon ial
Ġcolon izaciÃ³n
Ġpromov ido
Ġpromov idas
Ġprecandid ata
Ġprecandid atos
ĠBarb erÃ¡n
Ġrecomend Ã³
Ġrecomend aron
Ġorigin ada
Ġorigin aron
Ġbeisbol ista
Ġreactiv an
Ġreactiv aremos
25 6
CA RA
Gobern ar
Gobern aremos
PR I
Pas aron
Pas arÃ¡n
Sos tuve
Termin anos
iÃ©n dose
ni ador
yn itz
yo ta
zqu iz
Ãī l
Ġlig a
Ġlig ero
ciden tal
Ġpen al
Ġpen oso
Ġpen acho
Ġped ÃŃ
Ġped ir
Ġped ido
Ġped irÃ¡
Ġped irle
Ġped iÃ¡trico
Ġcen amos
Ġcen tros
Ġcen trales
Ġcerr ar
Ġcerr ado
Ġcerr aremos
Ġcerr aron
Ġcerr adas
Ġcerr arÃ¡n
Ġmos ca
Ġsimp atÃŃa
Ġense Ã±a
ĠCl emente
ĠCl inton
ĠCona de
Ġconci encias
Ġconci entiz
Ġcontrib uciÃ³n
Ġcontrib uyÃ³
Ġcontrib uye
Ġcontrib uyeron
Ġprob ada
Ġprob adas
ĠMat ÃŃas
ĠMat hie
ĠMat tarella
Ġhu ida
ĠPan etta
ĠPan kaj
Ġvolv ÃŃ
Ġvolv iÃ³
Ġdestac ada
Ġdestac adÃŃsimo
Ġdom ando
Ġrevis amos
Ġrevis ando
Ġrevol ventes
ĠSte ven
ĠSte fano
ĠSte phens
ĠSol ano
ĠSol Ã³rzano
ĠSol idaridad
Ġcomis iones
ĠTec ate
ĠTec patÃ¡n
ĠTec uala
Ġben emÃ©rito
ĠLÃŃ bano
ĠLib ro
ĠBon ita
ĠBon fil
ĠBel lo
ĠBel Ã©n
ĠDom it
Ġsufici ente
Ġsufr en
Ġsufr ido
Ġsufr imientos
ĠHue jutla
ĠHue juqu
ĠHue xca
ĠHist Ã³rica
Ġjo vial
Ġjun tas
Ġjug adores
Ġjug arÃ¡n
Ġpresum en
Ġresis timos
Ġconsci entes
ĠOro z
Ġcampe ones
Ġcampe onato
Ġexper ta
Ġcordial idad
Ġrat ito
Ġrum bo
Ġries gos
Ġimponer la
Ġpodr ÃŃamos
Ġentregar nos
Ġentregar se
Ġentregar me
Ġtranspar entar
Ġsinc eras
Ġsolici tÃ³
Ġsolici tudes
Conmemor ar
Ġcompartir les
ĠYo uTub
Recib e
Ġencar naciÃ³n
Ġcoin cido
Ġarro jÃ³
frut en
Ġmag onistas
Ġmag onismo
Ġinvesti ga
Ġadministr ados
Ġadministr arÃ¡
Ġadministr adora
Ġadministr ativo
Ġconvier tan
Ġplante a
Ġplante ar
Ġplante Ã©
Ġplante les
Ġvotar ÃŃa
Ġvotar ÃŃan
Ġcombat en
Ġcombat iendo
Desayun amos
Desayun ando
Ġcalum niador
Ġsembr Ã©
Ġsembr amos
Ġsembr ando
Ġsembr adores
Ġocurr encia
Ġocurr idos
Ġcolec tivo
ĠentraÃ± a
Ġherman ados
ĠTepe aca
Ġbandera zo
Ġofrec e
Ġofrec en
Ġofrec er
Ġindependiente mente
Ġconstitucional mente
Ġcongru ente
Ġcongru entes
Impuls aremos
Ġmanifes tamos
Ġmanifes tarse
Ġpersever ante
Particip aron
Particip arÃ¡n
Ġnervios o
200 9
Cumpl irÃ©
Em isiÃ³n
Em presarios
Em pecÃ©
Fortal ecer
Fortal ezcamos
JÃ³venes Construyendo
Reg eneraciÃ³n
be te
mbol o
pre venciÃ³n
ri ka
sol ar
viv as
Ġran as
Ġran cho
Ġran chera
ĠÃī tica
ĠÃī rika
Ġluc re
Ġluc ro
Ġluc ecita
Ġpel uqu
Ġpel otero
Ġpel liceriano
Ġpud iera
Ġpie za
Ġpie dra
Ġaf irmar
Ġaf lojar
Ġaf ianzar
Ġat entado
Ġat mÃ³s
Ġat entados
Ġclar as
Ġclar idad
Ġclar ÃŃsimo
Ġmen or
Ġmen udo
Ġmen ciono
Ġmir an
Ġmir ando
Ġmir ada
Ġsom eras
Ġsom eter
Ġsom breros
ĠsÃº bd
Ġsent ÃŃ
Ġsent encias
Ġsent ÃŃan
Ġsagr ados
uelo vich
Ġcontr ato
Ġcontr aria
Ġcontr abando
Ġcontar emos
Ġcontes tÃ©
Ġcontes tarle
Ġconten ido
Ġconcl uimos
Ġconcl uyÃ³
ĠMer ida
ĠMer ino
Ġhid rÃ¡ulicas
Ġges to
Ġges tÃ³
Ġgus tado
Ġgus tarÃ¡
Ġgus tarÃŃa
ĠPre tenden
ĠPino tepa
Ġrefor zar
Ġrefor esta
Ġrefor zaron
Ġrefor zando
Ġrefor estaciÃ³n
Ġrepar aciÃ³n
Ġrepar tir
Ġrepar tieron
Ġsed ientos
Ġsex ual
Ġsepar e
Ġsepar aciÃ³n
ĠSab ina
ĠServ icio
ĠServ iÃ©n
ĠServ irÃ¡
ĠNav al
ĠTap ia
Ġbr itÃ¡n
Ġbr igadas
Ġbr inda
Ġbas ada
Ġbas tante
Ġbas tiÃ³n
Ġaltern ando
Ġaltern ativo
ĠGal lardo
ĠGol den
ĠGol dman
ĠRen acimiento
ĠReg iÃ³n
ĠReg ional
ĠReg uera
ĠJud ÃŃa
ĠJud ÃŃo
ĠJef f
ĠDr ian
ĠDr ucker
ĠDr amarÃ©
ĠDec ÃŃa
ĠDec reto
Ġtera pias
ĠVil sack
ĠVil lanueva
ĠVil lamar
ĠIr Ã¡n
ĠIr fa
ĠIr landa
Ġoblig aciÃ³n
Ġoblig ados
Ġoblig aciones
Ġact Ãºa
Ġact Ãºen
Ġpag aron
Ġpag ara
Ġpag aban
Ġcompl ementan
Ġcompl icidades
Ġaprovech Ã©
Ġameric anistas
Ġconside re
Ġconside rablemente
Ġcamin ando
Ġcamin ata
Ġcamin itos
Ġcambi ado
Ġcambi aremos
Ġquin ta
Ġquin ce
Ġquis e
Ġrend imiento
Ġrend irse
Ġrend irle
Ġcuidar me
Ġdemand an
Ġdemand aba
Ġllen amos
Ġllen arme
Ġllen adera
Ġlevan to
Ġlevan tar
Ġlevan tando
Ġlevan taron
Ġlevan tada
ĠAlc Ã¡zar
Conf ÃŃo
Ġcompromet erse
Ġpred icamos
Ġdisfrut ar
Ġdisfrut ado
Ġdisfrut ando
Ġregular izarÃ¡
Ġpropie tarios
Ġcomunicar Ã©
Ġmodern izar
Ġmodern iza
Ġmodern izando
Ġconfiar se
Ġopos itores
Ġpeti ciÃ³n
Ġconviv ir
Ġconvoc ar
Ġconvoc ado
Ġconvoc ando
ĠJosef inas
Ġ197 0
Ġ197 3
Ġ197 6
Ġ197 9
ĠPrim ero
Ġsuced ÃŃa
Ġinstr uido
Ġprofund as
Ġprofund idad
Ġgrab ado
Ġaprend an
Ġaprend ÃŃ
Ġaprend imos
Ġchoc an
Ġregresar ÃŃan
Ġocas ionada
Ġdepor tivo
ĠParticip an
ĠParticip Ã³
QuÃ© bec
Ġcontinu o
Ġcontinu amos
Ġcontinu arÃ¡
ĠExp use
Ġhonr ada
Ġhonr osa
Ġhonr adamente
ĠEmpres as
Ġpromover Ã¡
Ġtransmiti Ã³
Ġtransmiti rÃ¡
Ġtransmiti endo
Ġtransmiti remos
Ġtransmiti eron
Ġcelebrar lo
Ġbuscar le
ĠseÃ±al ar
Apoy a
Apoy emos
Ġtrop icales
Ġinjusti ficados
Ġatraves Ã©
Ġatraves ando
Ġotorgar Ã¡n
Ġsimpatiz ante
ĠenseÃ± anzas
Ġrevolucion arios
Ġrevolucion aria
Ġrevolucion arias
Ġtestimon io
Beatriz GM
Busc ar
Busc aremos
Ex iste
Ex ijo
Ex isten
Felici tÃ©
Felici tamos
Firm ando
Ha z
Ima gina
Ima gÃŃn
Lleg ar
Lleg amos
Pr ensa
Pr oyecto
Res olveremos
Res cat
TE RI
Te huantepec
Tom en
Tom Ã©
Tom Ã¡s
Tom aremos
bel s
hue ta
tun adamente
ĠÃŃn tima
ĠÃŃn tegro
ded ito
Ġlen guas
Ġlen guaje
Ġpid iÃ³
Ġpid ieron
Ġaj ena
Ġaz or
Ġaz ul
Ġcob rar
Ġcob arde
Ġcob ertura
Ġcob rarÃ¡
Ġcump lo
Ġcerc ana
Ġcerc anos
Ġcerc ano
Ġcerc anas
Ġlatin oamericanos
Ġmas iva
Ġmac hos
ĠmaÃ± as
ĠmÃºs icos
Ġmerc antil
Ġmajes tad
Ġmajes tuoso
Ġmajes tuosa
Ġmajes tuosidad
Ġed Ã©n
Ġed iciÃ³n
Ġed itor
Ġed itorial
Ġefec tos
Ġefec tivo
Ġefec tiva
Ġefec tividad
Ġsir va
Ġsir viendo
ĠCa h
ĠCa denas
ĠCa udillo
ĠCa etano
ĠCer Ã©n
ĠCres po
ĠCien cias
ĠCho ix
Ġconj untamente
Ġconec tar
Ġconec tadas
Ġconec tarÃ¡
Ġconec taremos
Ġconoc e
Ġconoc en
Ġconoc emos
Ġconoc edor
Ġcontro vertida
Ġnorm alizaciÃ³n
Ġnorm alistas
Ġesti mo
ĠMic kle
ĠMit tal
ĠMuch os
ĠMuch as
Ġgig antes
Ġgusta ba
Ġgesti onar
ĠPin ochet
ĠPolÃŃ ticas
Ġvend ÃŃa
ĠfÃ©r til
ĠfÃ©r reo
Ġdesgr aciadamente
Ġdivers os
ĠSh aron
ĠSh ell
ĠSh arma
ĠSh amaa
ĠSt ate
ĠSim ulacro
ĠAb ida
ĠAb ner
ĠAb dell
ĠAb delrahman
Ġingres e
Ġingres ar
Ġingres Ã©
Ġingres ado
ĠNe al
ĠNe varez
ĠNues tras
ĠNeza hualc
ĠTa e
ĠTa ibo
ĠTen gamos
ĠTen orio
ĠTem amat
ĠThe o
ĠTlal tiza
ĠTlal tenango
Ġbon ito
Ġbon ita
Ġbomb as
Ġbomb eros
Ġalberg ue
ĠGra ham
ĠRom an
ĠRom ano
ĠBl inken
ĠBach ajÃ³n
Ġtoc Ã³
Ġtoc arÃ¡
ĠDi ana
ĠDi je
ĠDura zno
ĠDep ortistas
ĠDomin icana
Ġtam al
ĠVis itantes
ĠVis itaba
ĠIma ginen
Ġprotag onista
Ġprohib ir
Ġprohib ido
Ġprohib idos
Ġprohib ieron
ĠHa gan
ĠHerr adura
Ġju icio
Ġju zgar
Ġjue gan
Ġjue gazo
Ġacord ar
Ġacord ada
Ġpresentar me
ĠPalm erÃŃn
ĠPalm arejo
lex ionamos
Ġapas ionante
Ġapas ionada
Ġaport Ã³
Ġaport ado
Ġ26 0
Ġ26 9
Ġ27 3
Ġ27 8
Ġ27 00
Ġconsul tar
Ġconsul ado
Ġconsul tÃ©
Ġconsul torio
Ġconsecu encia
Ġconsej era
Ġconsider Ã³
Ġconsider amos
Ġconsider ando
Ġconsider ara
Ġdiplom acia
Ġdiplom Ã¡tico
ĠOc ampo
ĠOc tavio
ĠOc oyoacac
ĠOc cidental
Ġemo ciÃ³n
Ġemo tivo
Ġemo tiva
Ġemo tivos
Ġexig ir
Ġimped irÃ¡
Ġentend imos
Ġentend ido
Ġrad iantes
Ġrad icados
Ġrecre amos
ĠMed alla
ĠMed tronic
ĠMed icina
ĠMed iterr
Ġanunci ada
Ġanunci aron
Ġmanten imiento
Ġmanten dremos
Ġsobrevol ar
Ġsobrevol ando
Concl uyÃ³
Ġfrij oles
Ġtepehu ana
Ġtepehu anes
Ġpreoc upa
Ġpreven tiva
Ġpreven tivas
Ġcaracter iza
Ġcaracter ÃŃsticas
Ġencarg ado
Ġencarg ados
Ġencarg ada
Ġencarg adas
chon tales
Ġcoti diano
Ġarm adas
Ġperder Ã¡
Ġabsol uta
Ġinvitar on
Ġrelacion ado
Ġrelacion emos
Ġrepresentar me
Ġdefend ÃŃa
Ġdefend iendo
Ġoptim ismo
Ġindivid uales
Ġ45 5
Ġ57 0
ĠConven to
ĠConven io
Ġautoriz an
Ġautoriz aron
Ġrespond ÃŃ
Ġrespond ido
Ġcaer Ã©
Ġcriter ios
ĠCop ala
Ġexpresiden ta
Ġreconoci do
Ġreconoci da
Ġreconoci mos
Ġreconoci endo
Ġprivatiz ar
Ġprivatiz aciones
Ġfelicitar lo
Ġdiscrim inados
ĠXoch istlahuaca
Ġponch es
Ġponch ar
Ġponch Ã³
Ġponch adura
Ġproces ando
Ġproces ados
Ġproteg ida
Ġproteg iera
Ġrescat ando
Ġrescat arÃ¡
Ġolvid an
Ġolvid Ã³
Ġolvid amos
Ġolvid aremos
Ġcapaci tan
Ġreprim e
Ġreprim ir
Ġreprim ido
Ġreprim idos
ĠsÃŃmbol os
ĠMaur y
Ġverdader os
Ġinfluy ente
Ġreciente mente
Ġagro quÃŃmicos
Ġagro industrial
Ġrehabilitar Ã¡n
ĠseÃ±or il
ĠseÃ±or itos
Ġofre cimos
Ġofre cidos
Ġencontrar Ã¡s
ĠIndustr ia
ĠIndustr iales
Ġpublic ada
Ġpublic arÃ¡
Ġdispon ibles
Ġdispon iÃ©ndose
ĠElectr onic
Ġahorr os
Ġahorr ar
Ġahorr aremos
Ġahorr arÃ¡n
ĠhipÃ³cr itas
Ġreligios o
Ġreligios as
Ġcuesti ones
Ġcuesti ona
Ġmagis tral
Regres Ã©
Regres amos
ĠsÃºper carretera
Rock et
Ġzop ilotada
Ġsustitu ido
Ġvuln erabilidad
ĠtÃ©rm ino
14 0
14 9
35 7
Acep tÃ³
Acep tÃ©
Acep tamos
Camin ante
Deci damos
Fr aterno
Gu acamayas
Mem oria
Per fil
Per dimos
Per iodistas
Ten ochtitlan
Trans formar
aque Ã±o
bil izaciÃ³n
ff s
fas is
fas cista
gl ia
jen le
oul ia
rÃŃ quez
rÃŃ bete
zc as
zc ab
Ã¨ re
Ġza poteco
ĠwixÃ¡r ik
Ġdetal le
enc ez
Ġlici taciones
Ġliter ario
ondr ina
Ġpien san
Ġpiso tea
Ġpiso teaban
arreg lar
arreg len
arreg lando
Ġado lescentes
Ġata que
Ġata ca
Ġata can
Ġafici Ã³n
Ġcoci Ã³
Ġlagar tos
Ġlagun a
anc Ã¡n
anti gua
Ġmue bles
Ġmentir as
alva zo
Ġec ologÃŃa
ĠsÃ© ptimo
ĠsÃŃn tesis
Ġenter Ã©
Ġenter amos
Ġenter arme
Ġenrique cimiento
Ġelim inarÃ¡n
Ġeleg ir
ĠCA RA
ĠCA IN
ĠCre emos
ĠCre cimiento
ĠCre amer
ĠCaÃ± adas
atel olco
Ġcontamin Ã³
Ġcontamin ante
Ġcontamin adas
Ġneg aciÃ³n
Ġneo fascista
Ġnutr itivo
Ġnutr icional
Ġnutr iÃ³logos
ĠespaÃ± ol
ĠespaÃ± oles
ĠespaÃ± olas
ĠestratÃ©g icas
Ġpru dente
Ġprom ueve
ĠMal asia
ĠMis s
ĠMis tral
ĠMis antla
ĠMay or
ĠMay ores
ĠMay orkas
ĠMate o
ĠMate os
ĠMate huala
Ġhit s
Ġgol ondrina
ĠPap i
ĠPap aloapan
ĠPap oulia
ĠPatr icio
Ġvig ilancia
Ġfut uras
Ġfara ones
Ġfara Ã³nica
Ġfara Ã³nico
Ġfif ÃŃs
Ġdese en
Ġdesig nado
Ġdesper tar
Ġdesarrol larse
Ġdor so
ĠdÃ© bil
Ġreel egir
Ġrebel de
Ġrebel Ã³
Ġrebel arse
Ġpareci do
Ġsepul tados
Ġsepul cro
Ġsepul cros
ĠEuro pa
ĠSC HP
ĠSÃŃ guenos
ĠSÃŃ mbolo
ĠSob erÃ³n
ĠSud amÃ©rica
ĠSup one
ĠAten co
ĠAtl ixco
Ġcomenz arÃ¡
ĠNes tora
ĠNig eria
ĠNeg ro
ĠTu ÄŁ
ĠTu zantÃ¡n
ĠTer Ã©z
ĠTer esita
ĠTer moelÃ©ctrica
ĠTan k
ĠTal ibov
ĠTal avera
ĠTam ultÃ©
ĠTom amos
ĠTom ada
ĠTur quÃŃa
ĠTermin ar
ĠTerr ones
ĠTerr itorio
ĠTerr itorial
ĠTorr ijos
ĠTamp oco
Ġbin omios
Ġbol los
ĠbÃºs quenle
ĠLl anos
ĠLl ena
ĠLl ama
ĠLabor al
ĠLleg amos
ĠLleg aremos
ĠLleg arÃ¡
Ġalej ada
Ġnoble za
ĠGo eb
ĠGo odell
ĠGo ogle
ĠGer e
ĠGeorg es
ĠGeorg ia
ĠGeorg ieva
ĠRa wit
ĠRa imondo
ĠRa gnhil
ĠRoc ca
ĠRay Ã³n
ĠRay mundo
ĠRum ania
ĠBo eing
ĠBo urla
ĠBo gotÃ¡
ĠBas tÃ³n
ĠBas ÃŃlica
ĠBas aldÃºa
ĠBot Ã³n
ĠJer Ã³nimo
Ġtre gua
Ġtub erÃŃa
Ġtub erÃŃas
Ġtub erculosis
Ġterre motos
ĠVide garay
ĠVill alvazo
ĠIl han
ĠIl usiones
ĠIl ustres
ĠIm uri
ĠIm erslund
ĠIm perio
ĠHe ynitz
Ġjur Ã©
Ġjusti ficaciÃ³n
Ġjusti fique
Ġjusti ciero
Ġjaguar es
Ġodios a
Ġaclar e
Ġaclar en
Ġaclar ar
ĠFra iles
Ġapeg ados
Ġresuel ven
Ġrespec tivamente
Ġ210 2
Ġconsagr ado
Ġconsagr adas
Ġconsagr arse
Enc uesta
Enc abeza
Enc uentra
Enfr entaremos
Ġdial ogamos
Ġdialo guÃ©
ĠOb ama
ĠOb vio
ĠOb viamente
ĠOs una
ĠOs car
ĠOs pina
Ġemerg e
Ġcamion eros
Ġexhib ida
Ġexhib idos
Ġexhib idas
Ġimper e
Ġimper ial
Ġimper ativo
ĠChrist ine
ĠChrist lie
ĠChrist ensen
Ġtit ulado
ĠUru guay
Ġcorr ido
Ġcorr iente
Ġcorr erÃ¡n
Ġcivil izaciÃ³n
Ġquitar se
Ġreno var
ĠrÃ¡p ida
ĠrÃ¡p ido
ĠrÃ¡p idos
ĠMartin ez
ĠRef inaciÃ³n
ĠRef inerÃŃa
ĠRef lexionamos
ĠRepres entamos
ĠRefrend amos
Ġcub anos
Ġanh elo
ĠdemÃ³cr atas
ĠTriun fÃ³
Ġsolid arios
ĠAlb ores
ĠAlb ino
ĠAlb ert
ĠAld ir
ĠAld Ã©n
ĠAld aco
Ġfrac asada
Ġprem io
Ġprem ios
Ġprem isa
Ġpreci ado
Ġpreci osa
Ġpreci oso
ĠZa za
Ġdisf razados
ĠAnd resMan
Ġcarden al
Ġcarden ismo
Ġcarden istas
Ġorien tando
Ġarg umento
Ġarreg lo
Ġarreg lamos
Ġarreg larlo
âĢĻ .
Ġpropa gaciÃ³n
ĠQues qui
Ġayu demos
Ġmillon aria
Ġpervers o
Ġpervers os
Ġpervers idad
Ġperfec to
Ġinvit ada
ĠAriz pe
Ġadquis itivo
Ġveracruz ana
Ġmod ificar
Ġmod ificaciÃ³n
Ġmod alidades
Ġconfi aremos
Prop ondrÃ©
Ġ47 1
Ġ58 1
Ġsignific ar
Ġsignific arÃ¡
Ġsignific ativa
ĠpetroquÃŃ mica
ĠpetroquÃŃ micos
ĠpetroquÃŃ micas
Ġequivo ques
Ġconver tida
ĠAmÃ©r ico
ĠAmeric an
ĠAmeric ana
ĠAmeric ano
Ġrefug ien
Ġrefug io
Ġrefug ios
Ġexpresar les
ĠPrincip al
Ġigles ia
Ġadecu ado
Ġadecu adas
Ġadecu adamente
Ġcabal los
Ġvencer emos
Ġinsta urado
Ġinspir o
ĠVald Ã©z
ĠKen neth
Ġposi bles
Ġcanal las
Ġcancel aciÃ³n
Ġcomerci ante
Ġpensar lo
Ġcall ados
Ġcalor Ã³n
ĠLoz ano
ĠPeÃ± asco
Ġchica yota
Ġocul to
Ġocul tar
Ġocul taron
Ġ90 1
ĠPaÃŃs es
ĠOrden Ã©
ĠOrden amiento
ĠCorrup ta
ĠCorrup ciÃ³n
ĠCorrup tos
ĠExpres o
ĠExpres Ã³
ĠExpres aron
Ġtempor al
ĠEscuch a
Ġirre vocable
Ġincrem entar
Ġincrem entos
Ġincrem entado
Ġincomp atibles
Ġexplo tar
Ġexplo tÃ³
Ġexplo taciÃ³n
Ġexponer las
Ġexponer les
ĠAzc Ã¡rraga
Ġhoriz onte
ĠGrande za
Ġtelevis oras
Ġprecurs ores
ĠRoss ini
ĠRoss bach
ĠBarran co
Ġutil idad
Ġderro que
Ġderro ta
Ġderro tÃ³
Ġflor ece
Ġdecidir Ã¡n
ĠtelefÃ³n icamente
Ġrecog ÃŃa
Ġrecog imos
Ġrecog iendo
Ġcorrespond ido
Ġenferm erÃŃa
ĠMoham ed
ĠMoham med
ĠMoham mad
Ġregistr ado
Ġregistr aron
Ġregistr arÃ©
Ġadelantar nos
Ġbatear le
Recon ocimiento
Recon ocemos
Recon versiÃ³n
Ġblanque ar
Ġblanque ado
Ġblanque ados
Ġguarij ÃŃo
Ġviaj amos
Ġviaj ando
Ġviaj aban
Ġtortil las
Ġtortil leros
Ġtortil lerÃŃas
Ġdomicil ios
Ġresistir me
Ġencarcel Ã³
Ġencarcel aron
Ġencarcel arÃ¡n
Ġinvestigar se
Ġconcluir las
ĠMerce d
ĠfÃ¡cil mente
Ġrepetir lo
Ġmacane ar
Ġmacane Ã©
Ġmacane ando
ĠmaÃ±an era
ĠmaÃ±an itas
ĠmaÃ±an eras
Ġcontrovers ia
Ġestigmatiz ando
ĠDepor tivo
Ġimpedir Ã¡n
Ġinfluyent ismos
Ġsustituir lo
Ġvulnera bles
AMLO Fes
AMLO enTl
Ġparticular es
ĠrÃ©cord s
Ġcanciller es
12 1765
13 6
18 0
Bien venida
Bien venidos
Bend ito
Bend ita
CI DH
Cuar to
Cuar ta
CVI I
CVI II
Cultur a
Cultur as
Dec Ã¡logo
Dec laraciÃ³n
Fes tival
For ma
For osEsc
Ju an
Ju guÃ©
Jos Ã©
Jos efina
Mar tes
Mar tÃŃn
Po demos
Po drÃ¡n
Paci ficar
Paci ficamos
PolÃŃ ticos
PolÃŃ ticamente
Proc uramos
Proc uraremos
SA T
SC O
Ser emos
Ser enidad
Val e
Val entÃŃn
buj a
gÃ¼ ense
hum ara
mar t
Ġ0 1
Ġ[ ...]
Ġta cos
Ġta basqueÃ±a
Ġol or
Ġol meca
ĠÃ©s te
ĠÃ©s ta
Ġzar pando
Ġzar pazo
ĠÃ¡m bar
ĠÃ¡m bito
Ġtapa dera
Ġdecl ara
Ġdecl inÃ³
Ġdecor o
Ġdecor osas
Ġli tro
Ġli tros
Ġllan to
Ġllan ta
Ġpeg ar
Ġpeg ado
Ġple ito
Ġple itos
Ġpante Ã³n
Ġpante ones
Ġpier den
Ġpier dan
Ġavis Ã³
Ġavis ando
Ġabre viar
Ġatin ar
Ġatin amos
Ġaval amos
Ġagres te
Ġagres iones
Ġatrib uye
Ġatrib uido
Ġcl ara
Ġcl ÃŃnicas
Ġcaci que
Ġcaci cazgos
Ġcul tivos
Ġcul tivando
Ġcuc ar
Ġcuc arlos
Ġcuer po
Ġcuer pos
Ġcans o
Ġcans ancio
Ġcruz ar
Ġcruz aron
Ġceno te
Ġceno tes
Ġcach ito
Ġcach irules
Ġcoco drilo
Ġcoch ino
Ġcoch inita
Ġlan cha
Ġlan zaron
orrup to
Ġmm dp
Ġmm dd
Ġmam ita
Ġmam itas
Ġmens ual
Ġmens uales
Ġmec ha
Ġmec enas
ĠmÃ¡r tir
ĠmÃ¡r tires
inn ombra
Ġeven to
Ġeven tos
Ġevan gÃ©lica
Ġevan gÃ©l
Ġsien ta
Ġsien ten
Ġsens ibilidad
Ġsens ibilidades
Ġsuel do
Ġsuel dos
Ġsaque mos
Ġsaque aban
requete biÃ©n
Ġeno jar
Ġeno jan
Ġenfo que
Ġenfo ques
ĠengaÃ± ar
ĠengaÃ± an
Ġenalte ce
Ġenalte ciendo
Ġele var
Ġele vador
ĠCI DH
ĠCI SEN
ĠCis en
ĠCis neros
ĠCel aya
ĠCel este
ĠCort Ã©s
ĠCort ines
ĠCamil a
ĠCamil o
ĠCed ric
ĠCed ral
Ġcono zcan
Ġcono zcas
Ġconden a
Ġconden sa
Ġcontras te
Ġcontras tes
Ġconce bido
Ġconce dieron
Ġcondecor amos
Ġcondecor ada
Ġnegr ura
Ġnegr itas
Ġestr idencia
Ġestr ictamente
Ġespec tÃ¡c
Ġespec tacular
Ġescal ar
Ġescal an
Ġestim ado
Ġestim ada
ĠprÃ³s pera
ĠprÃ³s pero
ĠMc Cl
ĠMc Innes
ĠMen Ã©ndez
ĠMen chaca
ĠMul egÃ©
ĠMul timedios
ĠMando ki
ĠMax imiliano
ĠMax canÃº
ĠMalin che
ĠMalin altepec
Ġgo zarÃ¡n
Ġgo zosamente
ĠPen ÃŃnsula
ĠPol icÃŃa
ĠPol olik
ĠPiÃ± Ã³n
ĠPiÃ± era
Ġvi abilidad
Ġvi aduc
Ġvar iado
Ġvar iedad
Ġvers Ã³
Ġvers iÃ³n
Ġvial idades
Ġvincul ados
Ġvincul Ã¡ndonos
Ġfac tor
Ġfac ultades
ĠfÃº ricos
ĠfÃº tbol
Ġfug a
Ġfug an
Ġdesin formaciÃ³n
Ġdesin teresado
Ġdesem peÃ±o
Ġdesem boc
Ġdescon trol
Ġdescon ocidas
Ġdesped ÃŃ
Ġdesped ir
Ġdesbord Ã³
Ġdesbord amiento
Ġdeshones ta
Ġdeshones tas
Ġrev Ã©s
Ġrev irtiendo
Ġrememor amos
Ġrememor ando
ĠSos tiene
ĠSos tengo
ĠAf irme
ĠAf iq
ĠAde jare
ĠAde lanto
ĠAut ores
ĠAut Ã³noma
ĠAud itorio
ĠAud omaro
ĠAla vez
ĠAla zra
ĠAvan zamos
ĠAvan ces
ĠAdr ian
ĠAdr iÃ¡n
Ġinci dencia
Ġinci erto
Ġintro dujo
Ġintro duciendo
Ġinefici encia
Ġinefici entes
Ġcometi Ã³
Ġcometi mos
ĠNor uega
ĠNor iteru
ĠNatural mente
ĠTat jana
ĠTat amand
ĠTig re
ĠTig rada
ĠTra emos
ĠTra icionan
ĠTend remos
ĠTend rÃ¡n
Ġporcenta je
Ġporcenta jes
Ġba Ãºl
Ġba ilando
Ġbur ocracia
Ġbur buja
Ġbimes tral
Ġbimes trales
ĠLen ÃŃn
ĠLor etta
ĠLor encez
ĠtrÃ¡ fico
ĠtrÃ¡ iler
Ġaleg re
Ġaleg res
Ġalent ador
Ġalent adores
Ġalbor otada
Ġalbor otados
Ġaleccion ar
Ġaleccion ador
iciar la
ĠGl oria
ĠGl obales
ĠGan Ã³
ĠGan aron
ĠGay tÃ¡n
ĠGuy ana
ĠRes istencia
ĠRes olveremos
ĠBe irut
ĠBe dolla
ĠBal lesteros
ĠBal ancÃ¡n
ĠBÃ¡ ez
ĠBÃ¡ jenle
ĠBaj os
ĠBaj ÃŃo
ĠBusc an
ĠBusc amos
ĠJar ed
ĠJar ochos
Ġtotopos te
ĠDa vis
ĠDol d
ĠDol ores
ĠDra gÃ³n
ĠDiam ante
ĠDiam ondback
Ġestrec ha
Ġestrec har
Ġton tos
Ġton eladas
Ġtal ento
Ġtal abarter
Ġtas as
Ġtas calate
Ġtum ba
Ġtum baron
ĠVÃŃc tor
ĠVÃŃc timas
ĠItal ia
ĠItal iana
Ġprogram ado
Ġprogram adas
ĠHen riet
ĠHen rÃŃquez
ĠHer edia
ĠHer iberto
ĠHid roelÃ©ctrica
ĠHid rocarburos
Ġjuar ismo
Ġjuar ista
Ġaceler ar
Ġaceler emos
Ġcompos iciÃ³n
Ġcompos itor
ĠFa usto
ĠFa ustino
ĠFal ta
ĠFal leciÃ³
ĠFre inet
ĠFre eland
Ġapag ones
Ġapag aron
Ġaportar Ã¡n
Ġresolv iÃ³
Ġresolv iendo
Ġconsis tirÃ¡
Ġconsis tiÃ³
Ġconsol ide
Ġconsol idar
Ġdij imos
Ġdij era
ĠOj inaga
ĠOj ocaliente
Ġcamis as
Ġcamis eta
Ġexit osa
Ġexit oso
Ġextens iÃ³n
Ġextens ivas
Ġexcel encia
Ġexcel entes
ĠEstud ian
ĠEstud iante
ĠChontal pa
ĠChristi e
ĠChristi an
ĠUres ti
ĠEso po
Ġcim entando
Ġcim arrones
Ġras gÃ¡ndose
Ġrun s
Ġsalin ismo
Ġsalin ista
Ġimpug naciÃ³n
Ġimpug nar
ĠInvers iÃ³n
ĠInvers iones
ĠtransgÃ©n icos
ĠtransgÃ©n icas
Ġrecha zo
Ġrecha zarÃ¡n
Ġano tar
Ġano tÃ³
Ġanim Ã©
Ġanim arnos
Ġmix ta
Ġmix tas
Ġsindic ales
Ġsindic ato
ĠLaur ence
ĠLaur entino
Ġasum ir
Ġasum iÃ³
Ġaseg ura
Ġaseg urar
Ġasoci ado
Ġasoci ada
ĠfructÃŃ fera
ĠfructÃŃ fero
ĠEntre ga
Ġprev Ã©
Ġprev ia
Ġprecip itaciÃ³n
Ġprecip itada
Esc uchamos
ĠAndr Ã©
ĠAndr iÃ¨
Ġcard ÃŃac
Ġcard iÃ³logo
Ġlibr amiento
Ġlibr erÃŃas
Ġauton omÃŃa
Ġauton Ã³mico
Ġarch ivo
Ġarch ivos
Ġargent ino
Ġargent inos
Ġpropor ciones
Ġpropor ciona
Ġperson ales
Ġperson aje
Ġpersegu ido
Ġpersegu idos
Ġcomunic ado
Ġcomunic arÃ¡
Ġperfor aciÃ³n
Ġperfor ando
Ġperten ece
Ġperten ecen
Ġmader ismo
Ġmader istas
Ġfaltar Ã¡n
Ġdebat es
Ġdebat ir
Ġabus Ã³
Ġabus aron
Ġabog ado
Ġabog ados
ĠArmen ta
ĠArmen ia
ĠArnol d
ĠArnol do
Ġfing ÃŃa
Ġfing ido
Ġadver timos
Ġadver tÃŃa
Ġadquir ir
Ġadquir idos
Ġinterpre taciÃ³n
Ġinterpre tada
Ġejec utados
Ġejec utaron
Ġdefien de
Ġdefien des
Ġdefra udaciÃ³n
Ġdefra udarÃ©
Ġmarch as
Ġmarch amos
Ġ46 7
Ġ52 3
Ġ82 9
Ġtenden cioso
Ġtenden ciosamente
Ġequivoc ados
Ġequivoc arÃ©
Intercambi Ã©
Intercambi amos
Ġ74 3
Ġsentir ÃŃa
Ġsentir nos
Ġsencil lo
Ġsencil la
ĠCompos itores
ĠCompos tela
ĠCompr endo
ĠCompr ende
Ġrespald ar
Ġrespald ara
Ġplane ar
Ġplane aciÃ³n
ĠsocialdemÃ³cr ata
ĠsocialdemÃ³cr atas
Ġsabros as
Ġsabros ura
Ġreflex iÃ³n
Ġreflex iones
Ġempr endiÃ³
Ġempr endedores
ĠProc uramos
ĠProc urador
Ġfortaleci do
Ġfortaleci endo
Ġllamar les
Ġign orancia
Ġign ominia
Ġinstruc ciones
Ġinstruc tora
Ġespeci alidad
Ġespeci ficaciones
ĠWal dron
ĠWal mart
ĠWil fred
ĠWil frido
Ġinfund io
Ġinfund ados
Ġmalv ado
Ġmalv ados
Ġdiscre ciÃ³n
Ġdiscre pancias
ĠXX XII
ĠXi omara
Ġocup Ã³
Ġocup arÃ¡
ĠcÃ³d ices
ĠcÃ³d igo
Ġcoloc ar
Ġcoloc ando
Ġprocl ama
Ġprocl ive
Ġproclam aciÃ³n
Ġproclam ado
ĠbellÃŃs ima
ĠbellÃŃs imas
ĠOriz aba
ĠOriz atlÃ¡n
ĠZacap u
ĠZacap oax
Ġnatal icio
Ġvideoc onferencia
Ġvideoc onferencias
Visitar emos
Ġturb inas
Ġturb ogÃ¡s
Ġautomo trices
Ġautomo vilÃŃstico
ĠOlimpi ada
ĠOlimpi adas
Ġcintur Ã³n
Ġcintur ones
Ġdistingu idos
Ġdistingu ÃŃan
ĠApoy ar
ĠApoy Ã³
Ġexport an
Ġexport adora
Ġtransmit ÃŃ
Ġtransmit ÃŃa
ĠAlex ander
ĠAlex andre
ĠRecon ciliaciÃ³n
ĠRecon ocÃŃ
Ġurban as
Ġurban idad
ĠmonÃ¡rqu ico
ĠmonÃ¡rqu icos
Ġderrum be
Ġderrum bes
Ġcerti ficados
Ġcerti dumbre
Ġtraduc en
Ġtraduc ciones
Consider amos
Consider ando
Ġexplor aciÃ³n
Ġexplor ando
Ġestableci das
Ġestableci Ã©ndose
Ġetn ias
Ġetn Ã³logo
Ġdescans an
Ġdescans ando
Ġbeb er
Ġbeb idas
Ġdeclar ar
Ġdeclar atoria
Ġsimul an
Ġsimul ada
Ġsimpl icidad
Ġsimpl ificaciÃ³n
Ġgenial idad
ĠIgual dad
Ġblind ados
Ġblind aremos
Ġmostr Ã©
Ġmostr arÃ©
Ġcontribuir Ã¡
Ġcontribuir Ã¡n
Ġhuachicol ero
Ġbusque mos
Ġencarn an
Ġencarn aba
Ġcalumn ien
Ġcalumn ie
Ġsatis facer
Ġsatis fechos
Ġsometi dos
Ġsometi miento
Ġsentencia ba
Ġbrind ar
Ġbrind ando
ĠVillar real
ĠVillar eal
Ġimprescin dible
Ġimprescin dibles
Ġpredomin ar
Ġpredomin arÃ¡
Ġinstrum entos
Ġinstrum entado
Respe to
Respe tando
Ġpoliti zados
Ġpoliti querÃŃa
Ġazu zar
Ġazu zan
Ġestructur ado
Ġestructur ales
Ġseleccion ado
Ġseleccion ada
ĠNew s
Ġpapel erÃŃa
Ġconstructor as
Guadal ajara
Guadal upe
Ġzap atos
Ġzap atistas
Ġadop tar
Ġadop tÃ³
Ġpromis orio
Ġpromis cuidad
ĠMalpas o
ĠMalpas s
Ġgolpe teo
Ġfutbol ista
Ġdesigual dad
Ġdesigual dades
Ġdesperd icio
Ġdesperd iciarla
ĠjurÃŃ dico
ĠjurÃŃ dica
Ġdialogar Ã¡n
Ġargum entÃ©
Ġargum entarÃ©
Ġperfeccion ar
Ġperfeccion ando
Ġaterr izar
Ġaterr izaje
Ġcelular es
Ġmicroempres as
Ġmicroempres arios
Ġgubern atura
Ġgubern amental
Ġfusil en
Ġfusil ado
ĠEchev arrÃŃa
ĠEchev errÃŃa
Ġemocion Ã³
Ġemocion ante
ĠrarÃ¡m uri
ĠrarÃ¡m uris
Ġantirreligios o
Ġantirreligios os
16 0
Ag regaron
Aus teridad
Agr omod
Alar ma
AristÃ³ teles
Ben ito
Ban derazo
Bate Ã©
CM N
Ch ito
Car ta
Cor onavirus
Cal derÃ³n
Cre amos
Cic lo
CompaÃ± ero
Cala kmul
Cach orros
Comb atiremos
Call aron
Cristi ano
Di ferencias
Dan iel
Dis fruten
Dur ango
Dir igentes
Diar iamente
Deti enen
Democ racia
DiÃ¡ logos
Epo peya
Edd ine
Efem Ã©rides
Feder ico
Fabr ican
Flu or
GU NO
Gr ito
Gob ierno
Gra eme
Hon ramos
Had dad
Hom enaje
Hac emos
Hospit al
Hallar Ã¡s
ISM O
Kh aled
Llam o
Limp iar
Limpi aremos
Mor eno
Mal ki
Min ga
Mig uel
MÃ¡n denles
Micho acÃ¡n
Ning Ãºn
OT ISMO
Ob ser
Of recemos
Ol meca
Op tamos
Or den
Oy e
Obr as
Pon cho
Pan demia
Pre vio
Pue de
Pens ando
Pap aloapan
Pich iling
Pej emoÃ±a
Pron to
Ra zÃ³n
Rum bo
Recu peraremos
Resp uesta
Sob re
Sac aremos
Sum amos
Serv imos
Th ink
Tam sa
Tab asco
Tern ium
Tand as
Tard amos
Teler eporta
UES TA
Ven ceremos
Vic toria
Via jar
Voc eros
Vacun arse
Villa hermosa
Vincul aremos
Zur do
Zac atecas
Zap ata
boy Ã¡n
bill ullo
compaÃ± ÃŃa
far etti
fif ÃŃ
hm i
herm ano
iy Ã¡n
jing le
kar yan
kov Ã¡
leric al
mun icipios
op iniones
polÃŃ ticamente
sur este
saf o
sAp p
tz iles
uÃ¡nd iro
ĠÃ³ ptimo
ĠÃŃ bamos
ĠÃ¡ rea
Ġom itiÃ³
Ġil ÃŃcito
Ġul timado
Ġru ina
Ġib an
Ġrup turas
ĠÃ©n fasis
Ġaran celes
ĠâĢ ĺ
Ġonde Ã³
Ġordin ario
Ġub icados
Ġiles os
Ġital iana
Ġtap arÃ¡
Ġques o
Ġost entaciÃ³n
Ġ-- -&
ĠÅł ajgalÃŃ
derec ha
Ġdetr Ã¡s
Ġdeud os
Ġdeda zos
Ġdepar tamentos
Ġdecep cionarÃ©
Ġdeterior o
Ġdevuel vas
erran a
ervis i
Ġlin do
Ġlim itar
Ġlien zo
Ġlec ciones
Ġllo ver
Ġlist ado
Ġlide razgos
ĠlÃ³g ico
ĠlÃ¡m ina
Ġlarg amente
Ġlicen ciado
Ġllov iendo
Ġpun tal
ĠpÃŃ cheres
ĠpÃ¡ gina
Ġpim ienta
Ġpur Ã©pec
Ġpec ado
Ġpig meo
Ġpuer co
Ġpene trando
Ġpique te
ĠpÃ³st umo
Ġpirr urris
Ġate os
Ġaur ora
Ġaud iencia
Ġaero derivadas
Ġafor tunadamente
Ġagu antar
Ġatur de
Ġaton ta
Ġaisl amiento
Ġaver iguaciones
Ġaux ilio
Ġatre vido
Ġatrop ello
Ġagre garse
Ġaeroespaci ales
Ġahuy entar
ĠcÃ© lebre
Ġcur ativo
Ġcoc hupo
ĠcÃº bicos
Ġcru do
ĠcaÃ± ones
Ġcuel lo
ĠcÃŃn icos
ĠcÃ³m plice
Ġcate dral
Ġcep illar
Ġcha vismo
Ġcusto dia
Ġceci na
Ġclaud icaremos
Ġcoyo tas
ĠcÃ¡l late
Ġcact Ã¡ce
Ġlamen tablemente
Ġlapidar ia
anich kij
ĠmÃ³ viles
ĠmÃ¡ ter
Ġmus icaliz
Ġmul tilaterales
Ġmit in
Ġmap achada
Ġmuel le
ĠmÃŃn ima
Ġmorr ales
Ġmond ongo
Ġmoch es
Ġmuse os
Ġmacul ÃŃ
Ġmerca deres
Ġmadr iguera
ĠmuÃ± equito
Ġmereci damente
incon exa
incl es
Ġeti quetado
Ġech ando
ĠeÃ³l icas
Ġefica z
Ġeufem ismo
Ġsaci arÃ¡
Ġsit Ãºan
Ġsoc avÃ³n
ĠsÃŃs mica
Ġsaf e
Ġsorte o
Ġsiren as
Ġsenten ciÃ³
Ġsarga zo
Ġsoft ball
Ġsofoc ando
Ġsorpres as
Ã³yot l
Ġenaj enaciÃ³n
Ġenlo dar
Ġengr andecimiento
Ġenro que
Ġengan che
Ġenarde cido
Ġenfoc ado
Ġenfad Ã³
Ġenmend ar
Ġelab ora
ĠCuc apÃ¡
ĠCra po
ĠCuen ca
ĠCap illa
ĠCuch illo
ĠClar k
ĠCasta Ã±eda
ĠCint alapa
ĠCade reyta
ĠCep illÃŃn
ĠCice Ã±o
ĠCoyo acÃ¡n
ĠCiÃ©n egas
ĠCact us
ĠCRI TERI
ĠCrÃŃ ticos
ĠCEPA L
ĠCDM X
ĠCONE VAL
ĠCeval los
track ing
Ġconte xto
Ġconur bada
Ġcongo ja
Ġconvo quÃ©
Ġconje turas
Ġconex iÃ³n
Ġconces iÃ³n
Ġconcep ciÃ³n
Ġcontac tado
Ġconnacional es
Ġcontub ernio
Ã¡Ã± anos
Ġnarr Ã³
Ġnaz is
Ġnicara gÃ¼ense
Ġnarco estado
Ġnahu as
Ġestro fa
Ġestrib illo
Ġestren Ã³
Ġesmer ado
Ġprian ista
Ġprole tariado
Ġprosper arÃ¡
Ġprospec tos
ĠprÃ©st amo
ĠMut is
ĠMem oria
ĠMir Ã³
ĠMÃº zquiz
ĠMarr uecos
ĠMans ervisi
ĠMons i
ĠMila gros
ĠMolo acÃ¡n
ĠMomp laisir
ĠMÃ¼ ller
ĠMald onado
tiaban k
tibil idades
Ġhol gura
Ġhig iene
Ġhero ÃŃnas
ĠhÃº medo
Ġhuer tista
Ġhet erogÃ©n
Ġhermos ura
ĠhÃ©ro e
Ġhalc ones
Ġhalla zgo
Ġhosped ado
Ġdelica deza
Ġdelinc uentes
Ġgans o
Ġgord itas
ĠgrÃ¡ fica
Ġgav ilanes
Ġgato pardismo
Ġgace tilleros
Ġgole ar
ĠPur uÃ¡ndiro
ĠPud ieron
ĠPum as
ĠPera za
ĠPÃºbl ico
ĠPort man
ĠParr al
ĠPÃ©n jamo
ĠPito l
ĠPif faretti
ĠPicas so
ĠPij ijiapan
ĠPRE P
ĠPine da
ĠPlante amos
ĠPich ucalco
ĠPapa gayo
ĠPolo titlÃ¡n
ĠPompe o
ĠPfiz er
ĠPÃ¡tzc uaro
blanque ada
Ġvit amina
ĠvÃ¡s tagos
Ġveg etal
Ġvib ras
ĠvÃ©n ganse
Ġvesti duras
Ġvill istas
Ġvicem inistros
Ġfamos a
Ġfres co
Ġfec ha
Ġfues e
Ġflo tilla
Ġfla uta
Ġfrec uencia
Ġfort unas
ĠfrÃ¡ gil
Ġfores tal
Ġfij arÃ¡
Ġfeste jo
Ġflam boyÃ¡n
ĠfÃ¡b ula
Ġfabr icaciÃ³n
Ġfascin ante
Ġdespe dida
Ġdesent endidos
Ġdesier tos
Ġdesgar re
Ġdespo jar
Ġdesfo gar
Ġdesvi arÃ¡
Ġdesech an
Ġdescar to
Ġdesagr adables
Ġdestap Ã³
Ġdesalo jadas
Ġdesesta bilizaciÃ³n
Ġdesafor adamente
Ġdesampar o
Ġdia gnÃ³stico
Ġdud as
ĠdÃ¡n dole
Ġdorm ÃŃ
ĠdidÃ¡c tico
Ġreiv indicaciÃ³n
Ġretro gradarlos
Ġreada ptaciÃ³n
Ġretor no
Ġrevers o
Ġretir Ã³
Ġrevan cha
Ġretrat os
Ġretrib uciÃ³n
ĠretrÃ³ grada
Ġrebas amos
Ġreviv ir
Ġredonde ar
Ġrequete biÃ©n
Ġreorien tar
Ġredobl ar
Ġparez ca
Ġsemej antes
ĠEru biel
ĠEvi temos
ĠEcha zarreta
ĠEST OS
ĠEgip to
ĠEtcho joa
ĠSel va
ĠSul tanes
ĠSco tiabank
ĠSter ling
ĠSib illa
ĠSemp ra
ĠSimo jovel
ĠSed atu
ĠSing apur
ĠSpit eri
ĠSerr at
ĠSila o
ĠSha karyan
ĠSach s
ĠSau z
ĠSabor it
ĠStan key
ĠSusc rÃŃbete
ĠStre et
ĠSaban as
ĠSmit h
ĠSule iman
ĠSoft bol
ĠSote apan
ĠAra u
ĠAqu ino
ĠAgr o
ĠAro zarena
ĠAgu ilar
ĠAhu izote
ĠAvis amos
ĠAven daÃ±o
ĠArÃ¡ mburo
ĠApar te
ĠAtoy ac
ĠAuto consumo
ĠAbar ca
ĠAfir mo
ĠAquis mÃ³n
ĠAvil Ã©s
ĠAdel itas
ĠArel lano
ĠAbo umrad
ĠACI R
ĠAdoles cente
ĠAtoton ilco
Ġinig ualables
Ġinoc entes
Ġinst into
Ġintu yen
Ġinven tar
Ġinfr ingiÃ³
Ġindeb idas
Ġinev itable
Ġinhum ana
ĠinhÃ³s pita
Ġinters errana
Ġintrom isiÃ³n
Ġcomand ante
Ġcomentar io
Ġcomed ores
Ġcomenc Ã©
ĠNac ajuca
ĠNel son
ĠNgu yen
ĠNiel sen
ĠNaje eb
ĠNich olls
ĠNaco zari
ĠNEP OTISMO
ĠNoche buena
ĠNicol Ã¡s
ĠNicara gua
ĠNIN GUNO
ĠNAF TA
ĠNah le
Ġparader os
Ġparafr asearlo
ĠTaj ÃŃn
ĠTran viarios
ĠTemp lo
ĠTlan chinol
ĠTez onapa
ĠTav iche
ĠTaf il
ĠTara humara
ĠTonal Ã¡
ĠTÃ©cn ico
ĠTech int
ĠTEP JF
ĠTole do
ĠTRI FE
ĠTesor erÃŃa
ĠTwit ter
ĠTEU MECA
ĠThom as
ĠTzomp antepec
ector ales
usual mente
Ġbra zos
ĠbÃ¡r bara
Ġbach illerato
Ġbanqu eros
Ġbill ullos
Ġbox eo
Ġborre gos
Ġburr itos
Ġbalc Ã³n
ĠbÃ¡l samo
Ġbui tres
Ġbisab uelos
Ġbirr ia
Ġbipar tidismo
Ġbombar deÃ³
ĠLeg islativo
ĠLez ama
ĠLlos a
ĠLond res
ĠLech erÃŃa
ĠLiter atura
ĠLuth er
ĠLore to
ĠLammo glia
ĠLomel ÃŃ
Ġtrit ura
Ġtraj eron
Ġtrump ismo
ĠtrÃ³p ico
Ġtrilat eral
Ġtribun ales
Ġtrimes tral
Ġtripar tita
Ġtrampe arnos
Ġalel uya
Ġalud ido
Ġalter ada
Ġalgu ien
Ġalca hueta
Ġaline ando
Ġalmac enamiento
Ġalquil ada
Ġalebr ijes
ultra derecha
Ġnove dad
Ġnoctur na
ĠGig antes
ĠGro up
ĠGraci ela
ĠGuar dadas
ĠGaran tÃŃa
ĠGaranti zar
ĠGau tier
ĠGian ni
ĠGuev ara
ĠGhez ili
ĠGiord ano
Ġmegac orrupto
Ġmexiqu ense
ĠRend Ã³n
ĠRand all
ĠRip ken
ĠRique lme
ĠRup anichkij
ĠRash id
ĠRIT MO
ĠRadam Ã©s
ĠRiccar do
ĠBay er
ĠBlo omberg
ĠBran don
ĠBolÃŃ var
ĠBaran da
ĠBet tel
ĠBÃºs queda
ĠBich ir
ĠBrem er
ĠBÃ¡c um
ĠBej arano
ĠBell en
ĠBÃ¼ denbender
ĠBorg es
ĠBÃºcar o
ĠBuk ele
ĠBulgar ia
ocot la
ĠJug lares
ĠJord ania
ĠJama ica
ĠJiu tepec
ĠJenni fer
Ġtoler ancia
umbr aba
ĠDist ancia
ĠDed ico
ĠDerr ick
ĠDisc apacidad
ĠDinam arca
ĠDjam el
Ġestuv iese
Ġestatiz Ã³
Ġesteril izaciÃ³n
Ġestampit as
Ġtent aciones
Ġtort as
Ġtzo tziles
Ġterc ero
Ġtatem ada
Ġtesti gos
Ġtlay uda
Ġtermo elÃ©ctricas
Ġtinie blas
ĠtÃŃter e
ĠVentos a
ĠVice presidente
ĠVanes sa
ĠVinn y
ĠVizca ÃŃno
ĠVascon celos
ĠIÃ±a ki
ĠISS STE
ĠIfig enia
ĠIvano va
Ġsuje ciÃ³n
Ġsuger ir
Ġprogres ando
ĠHerm ann
ĠHug ues
ĠHino josa
ĠHach emita
ĠHeming way
Ġjine tes
Ġjub ilaciÃ³n
Ġjorn aleros
Ġoax aqueÃ±o
Ġacons eja
Ġacech ando
Ġacred itar
Ġacost umbraba
Ġaconte cido
Ġachich incles
Ġpreserv ar
Ġpresion an
ĠlogÃŃst ica
Ġpavim entaciÃ³n
ĠFerm ÃŃn
ĠFund adores
ĠFamil ias
ĠFelici tamos
ĠFed Ex
ĠFeli Ãº
ĠFoul lon
ĠFuk ushima
ĠFEPA DE
ĠFastlic ht
ĠFÃ©qui Ã¨re
ĠFilip inas
despaj ito
Ġapog eo
Ġaplaud ir
Ġapell ido
Ġaproxim adamente
Ġresist an
Ġrestable ciÃ³
Ġresolvers e
Ġamate ur
Ġamural lada
Ġamule to
Ġconsustan ciales
EntÃ©r ate
Ġdiabe tes
Ġdibuj aron
ĠOug hourlian
ĠOpos itor
ĠOmit ÃŃ
ĠOks ana
ĠOÄŁ lu
ĠOrang es
ĠOxkut zcab
Ġemblem a
Ġempez aron
LaCons ultaVa
LaHomo fobia
Ġcampec hanos
Ġcamell ones
Ġextern arle
Ġexcl uyen
Ġexces os
Ġexitos os
Ġextre mo
Ġexquis itez
Ġexdi rectora
Ġexterm inio
continu idad
Ġnostal gia
ĠChoch olÃ¡
ĠChigna huapan
ĠChak Ã¡n
ĠChev ron
ĠChinam eca
ĠChry stia
ĠChenal hÃ³
Ġtitub eamos
ĠUNE SCO
ĠUNI CEF
ĠUNO PS
ĠEspaÃ± ola
ĠEscal ante
ĠEslov aca
ĠEstell ita
Ġcorreg irlo
Ġcilin dros
Ġquie bro
Ġquinc ena
Ġromp ieron
Ġrampl Ã³n
Ġimpara ble
Ġimplor en
ĠimplÃŃ cita
Ġimplem entada
Ġimprovis ar
Ġentrevistar me
ĠIngen ierÃŃa
ĠIncl uyÃ³
ĠInquis iciÃ³n
ĠInclus ive
ĠIntercambi amos
ĠInvas iÃ³n
ĠInterpre tan
Ã©ntral o
ĠMarav atÃŃo
ĠMariach is
ĠRehabil itaciÃ³n
ĠReyn osa
Ġtransitor iamente
Ġtranspor taba
ĠcuÃ±a o
Ġcuanti osa
Ġcuadrang ular
ĠElabor an
ĠElisab eth
Ġobtuv ieron
Ġobses iones
Ġobnub ila
Ġrecurr ir
ĠrecÃŃpr oco
ĠMetLif e
ĠMetrob Ãºs
Ġanticip adas
Ġantic lerical
Ġantrop Ã³logo
Ġantis ociales
Ġanalfabe tas
Ġsinies tro
Ġsincer amente
ĠLagar de
ĠLaks hmi
ĠLazur ca
ĠSantil lÃ¡n
ĠSantam arÃŃa
ĠaÃ±ej os
Ġmananti al
Ġmaniob ra
Ġmanufac tura
Ġsobrepre cios
ĠllÃ©g ale
Ġaspec to
Ġasusta ban
Ġaspir antes
Ġasqueros o
ĠAlux es
ĠAltam irano
ĠAltamin ario
ĠAlire za
ĠAlsto m
ĠAlgodon eros
Control ar
Convoc atoria
Conviv encia
Contradici endo
ĠYau tepec
ĠEnfr entamos
ĠEngel s
ĠEncu Ã©ntralo
ĠEncar naciÃ³n
ĠEntren adores
ĠEngine ering
ĠVerkam men
Ġpreval ecer
Ġprefir iÃ³
Ġpregon eros
Ġprehisp Ã¡nico
Ġpredeci bles
ĠSalce do
EsplÃ©n dida
EspÃ¡n tame
Especial istas
ĠZump ango
ĠZong olica
ĠZieg ler
ĠZÃ³l tan
ĠZucker berg
ĠZhen li
ĠZihuat anejo
Ġprimordial mente
Ġdisip aciÃ³n
Ġdispos itivos
Reed Latino
Reflex iÃ³n
Ġcreativ idad
Ġcrediti cia
Ġsuscep tibilidades
Ġsuscr iptores
ĠcariÃ± oso
Ġencomien da
Ġorques tado
Ġcoincid amos
Ġcofund adora
Ġcooper ativismo
Ġautenti cidad
Ġarzob ispo
ĠCalpul alpan
ĠRoton da
ĠRojk jaer
ĠRoosevel t
ĠRousse ff
Ġcontrapar tes
Ġcontrapes os
Mejor amiento
Ġproposi tiva
Ġpersuad ir
Ġsonris a
ĠMorne au
ĠCarner ito
ĠCarnal ito
ĠGuach ochi
ĠGuich icovi
ĠGuill Ã©n
Ġperjud iciales
Ġperpetu arme
Ġmague y
Ġmaquil adora
Ġmazat eca
Ġabneg ada
Ġabomina bles
Ġinvoluc radas
ĠArgel ina
ĠArtem isa
ĠArzob ispado
ĠArgy ro
Ġinteract Ãºan
Ġintercambi ar
Ġintermed iarios
Ġinterrump ieron
Ġmotule Ã±os
Ġejecu tiva
ĠTabasque Ã±o
ĠLuhno w
ĠLuxem burgo
Ġindicar nos
Ġembell ece
Proteg emos
iforni anos
Ġdodeca edro
Ġpeyo te
ĠConvoc aremos
ĠContinu aremos
ĠConiÄ ĩ
Inver timos
InjÃ©r tese
Instr uÃŃ
Interven imos
ĠComonfor t
ĠSinverg Ã¼enzas
Ġresponde mos
ĠCuadr ado
ĠCuajinic uilapa
ĠBangla desh
ĠQuince y
Ġcriol lo
Ġcristi ano
Ġcostarric ense
ĠcostosÃŃs ima
Ġsabion do
Ġsabidur ÃŃa
ĠCoatlan es
ĠTlapac oyan
ĠPrior itarios
ĠPramp olini
ĠProsper idad
ĠAspir o
ĠAsvazado urian
Ġmesian ismo
Ġinsacul aciÃ³n
Ġinsisti era
ĠKÅį no
ĠKello gg
ĠKehr er
ĠKohun lich
ĠKirst jen
ĠKushn er
ĠKrauz e
ĠPortugues a
ĠWixÃ¡r ica
ĠWhat sApp
ĠWiech ers
ĠWolfgan g
Ġinfinit amente
ĠTranspor tes
Ġpostel ectorales
Ġposterior mente
Ġposicion ada
Ġrecontrat aciones
Ġrefinanci amiento
Porfir io
Ġcalaba za
Ġmalean tada
Ġmalefici o
Ġmalhech ores
ĠprÃ³cer es
ĠPROP UESTA
ĠDesapar iciones
Ġescrutin io
ĠescrÃºpul os
ĠXox ocotla
ĠXag acÃŃa
ĠXalto can
ĠXilit la
ĠXiaoq i
Anot Ã©
Ġchomb os
Ġchoche ando
Ġchore ar
Ġchinamp ero
ĠTlaxcalanton go
Ġguerrens es
Ġdepender Ã¡
ĠParlam ento
ĠParlamentar io
ĠParafras eando
Ġpalenc ano
Ġcoloqu ial
ĠDeÃ¡nd ar
ĠDevolver le
Acomp Ã¡Ã±anos
DÃŃaContra LaHomofobia
Ġpronunci Ã©
Ġpronuncia ble
Ġpronost icamos
ĠZacatel co
Ġcapric hos
Ġcaprich osa
ashvil i
ĠCorreg idora
ĠEmpez arÃ¡
ĠEmman uel
ĠUrian gato
ĠCoscom atepec
ĠGonzal ito
ĠTejup ilco
ĠEscude ro
ĠEscrib iendo
ĠarqueÃ³lo ga
Ġmoviliz ados
Ġrazon amiento
Ġautoesti ma
Ġautolim ita
Ġautobio grafÃŃa
Ġautoagres iÃ³n
Ġautomatiz adas
Ġirrum pe
Ġirrespe tuoso
ĠCaball ero
Ġfehaci entes
ĠApatz ingÃ¡n
ĠAprovech Ã©
ĠApule yo
Ġincorrup tible
ĠSagas ti
ĠSaunder s
ĠSahuarip a
ĠAzev Ãªdo
ĠAzerba iyÃ¡n
ĠRecono zco
Aspir amos
Ġagricultur a
Ġsancoch ado
Ġconvencer Ã¡
ĠGranhol m
Ġavasall ado
ĠBartol omÃ©
ĠHuix tla
ĠHuauchin ango
ĠHuatus co
Comenz aron
Ġcertam en
ĠSheff ield
Ġtraduz ca
Ġatrincher arse
Ġconcerta cesiones
ĠMilwau kee
ĠPlayo ffs
Ġbajacal ifornianos
ĠFraccar i
Ġantifas cistas
ĠantigÃ¼ edad
Amlodip inito
Ġferrov iaria
Ġferrovi ario
ĠPascrel l
Ġinconstitu cional
ĠNitrogen ados
ĠHopel chÃ©n
Ġarticul istas
Ġsacrileg io
ĠMacrop laza
ĠguanÃ¡b ana
Ġguajolo te
Ġvanguar dia
Ġdescomp uesto
Ġahuehue te
Ġcongregar nos
Ġgentile za
Ġabajofirm antes
Ġplurinomin ales
ĠCuauhtem iÃ±a
ĠfilÃ¡ntro po
Ġdesprecia ble
Ġdesproteg idos
ĠBaillÃ¨ res
Ġsuperrequete bien
ĠInfantin o
Ġconcientiz ando
ĠMathie u
ĠStephens on
ĠHuejuqu illa
ĠYouTub e
JÃ³venesConstruyendo ElFuturo
Ġpeluqu ero
ĠatmÃ³s fera
Ġsometer Ã¡
ĠsÃºbd itos
ĠbritÃ¡n ica
ĠDramarÃ© tska
ĠIrfa an
BeatrizGM uller
ImagÃŃn ense
Rescat aremos
Ġeditorial izar
ĠMickle thwait
ĠAbdell atif
ĠNezahualc Ã³yotl
ĠTemamat la
ĠTlaltiza pÃ¡n
ĠMediterr Ã¡neo
ĠElectronic s
Perfil an
ĠwixÃ¡rik as
ĠCAIN TRA
ĠTerÃ©z ia
ĠGoeb bels
ĠRawit ch
ĠRagnhil d
ĠChristlie b
ĠAndresMan uelovich
AMLOFes t
AMLOenTl atelolco
ForosEsc ucha
innombra ble
ĠevangÃ©l icos
ĠespectÃ¡c ulo
ĠMcCl uskey
ĠPololik ashvili
Ġviaduc tos
Ġdesemboc adura
ĠAlazra ki
ĠTatamand ones
ĠDiamondback s
Ġtalabarter ÃŃa
ĠHenriet ta
ĠAndriÃ¨ s
ĠcardÃŃac os
ĠZacapoax tla
Obser ven
Pichiling ue
Telereporta je
ĠÅłajgalÃŃ kovÃ¡
ĠpurÃ©pec ha
ĠcactÃ¡ce as
Ġmusicaliz ada
ĠCRITERI OS
ĠheterogÃ©n ea
