#version: 0.2 - Trained by `huggingface/tokenizers`
Ġ t
Ġ a
i n
h e
Ġ o
e r
Ġ s
Ġt he
r e
Ġ c
o n
Ġ f
e n
i s
a t
a n
Ġ b
Ġ w
Ġ p
i t
e d
Ġo f
e s
o r
a l
Ġ in
Ġ m
Ġ n
Ġa n
a r
Ġo n
i c
Ġ d
Ġ e
o u
Ġ h
Ġan d
Ġ l
i on
in g
Ġon e
a s
Ġt h
Ġt o
r o
l e
Ġ g
v e
in e
en t
i g
Ġ re
Ġ z
er o
o m
Ġz ero
l y
Ġn ine
u s
c t
i l
Ġ is
Ġs e
Ġb e
o l
a m
s t
Ġt w
Ġtw o
u n
i m
h t
i ve
at ion
c e
r a
Ġs t
Ġf or
c h
ig ht
i d
v er
Ġa s
o t
u t
u r
Ġa l
e t
ou r
i r
e l
is t
o w
Ġc on
a d
re e
u l
Ġ he
v en
t er
Ġe ight
Ġ k
it h
Ġw h
Ġ j
Ġd e
Ġw as
Ġ it
Ġb y
Ġ r
Ġo r
Ġf ive
Ġth ree
a y
i x
o s
Ġth at
Ġc om
Ġw ith
he r
Ġf our
Ġp ro
Ġ v
Ġc h
an d
u m
Ġs ix
Ġ un
er s
Ġse ven
Ġm o
g e
i f
Ġe x
o p
r i
ro m
Ġa re
e m
Ġs u
t h
es t
ou n
Ġa t
re s
a in
at e
a c
a b
it y
q u
i an
i es
o d
p e
Ġf rom
s e
Ġ us
Ġn e
m ent
ic h
l d
Ġa r
o c
ic al
es s
Ġ en
i v
Ġh is
il l
ar t
an t
Ġ y
i a
or t
i al
u d
Ġl e
al l
o g
Ġn ot
Ġth is
a p
ar d
Ġwh ich
is h
a k
Ġw or
a g
t her
Ġs h
b er
d er
i p
Ġp l
Ġh a
Ġcom p
ct ion
Ġa m
u re
at ed
s o
ar y
i e
p p
p t
am e
om e
Ġm an
ou s
Ġc l
as t
Ġal so
ou g
r it
Ġa d
er e
Ġa b
Ġcon t
c l
p er
i re
Ġc an
on g
us t
el l
a ge
Ġin t
r an
Ġha ve
Ġs p
c c
e ct
k s
Ġh as
Ġw he
Ġw ere
Ġo ther
al ly
Ġal l
o re
it ion
en d
en ce
oun d
i z
Ġ im
i b
Ġa f
Ġp art
r y
Ġb ut
Ġ u
Ġcom m
ation s
or y
Ġ ro
f er
id e
ter n
er m
u b
Ġs c
d u
ul t
as s
oug h
Ġt e
Ġd is
an g
re n
ig n
Ġit s
Ġin d
a v
r u
p h
a ct
Ġ i
Ġs y
p l
ou ld
Ġthe ir
ver s
Ġre s
ar s
Ġne w
Ġs ome
Ġg o
k e
Ġf ir
Ġ ra
or d
l and
Ġc ol
ou t
Ġn o
Ġc o
im e
Ġbe c
oun t
Ġm e
at es
Ġh ad
Ġthe y
ve l
Ġs o
or m
Ġfir st
is m
Ġfor m
Ġg en
ic an
Ġmo st
c es
Ġb o
Ġp h
Ġa g
ow n
re d
Ġm ar
u e
ac k
ab le
Ġp o
Ġmo re
at er
ic e
Ġp er
Ġthe re
res s
Ġp r
ion s
Ġwh o
os e
Ġg r
ic t
Ġd es
Ġt ra
Ġc ent
ic s
on d
Ġw e
Ġcon s
a ch
Ġy e
Ġam er
Ġs pe
Ġbe en
Ġs er
it e
f f
Ġe m
Ġre l
i le
en s
Ġre c
a ce
Ġe le
Ġsu ch
Ġp e
o k
Ġ qu
Ġman y
Ġen g
ol og
Ġk n
cl ud
or s
at h
ation al
an ce
t e
Ġf e
Ġa ct
Ġus ed
it ed
Ġp ol
Ġaf ter
Ġb l
l es
as e
he d
t s
Ġin clud
p ort
Ġh ow
on e
Ġo ver
ul ar
Ġin f
Ġl i
ub l
w e
Ġe ar
Ġse e
Ġp re
Ġwhe n
Ġd o
Ġa pp
Ġm ay
c ed
Ġl a
am p
Ġo ut
Ġt ime
w n
re at
t en
Ġamer ican
l ow
an s
Ġint o
u al
i ous
Ġp res
Ġthe se
Ġh ist
a re
Ġj o
a us
Ġw ar
Ġth an
ent s
Ġin ter
Ġpl ay
i ed
Ġbe t
in d
Ġon ly
Ġu p
st em
f t
Ġwor ld
u g
v ed
Ġa cc
ing s
Ġun der
Ġre g
Ġch ar
at ive
Ġsy stem
Ġgen er
Ġsu b
Ġas s
Ġof f
Ġm a
Ġn um
Ġat t
Ġa p
Ġe v
in t
Ġp op
Ġc ount
Ġw ill
ver y
Ġm us
on s
ur ing
Ġc all
Ġa c
Ġ ed
Ġc ar
Ġw ould
ri b
Ġde f
Ġf l
Ġb as
Ġse c
Ġun i
l l
if ic
y s
Ġh ig
ran s
Ġre p
Ġl ar
ver n
Ġt rans
u c
Ġd if
e ver
ad e
ot h
ut ion
d ition
j ect
Ġpro du
Ġar t
Ġl in
Ġthe m
ist s
Ġgo vern
Ġl o
we en
Ġp ar
Ġhow ever
Ġbet ween
i et
Ġin c
Ġpe op
ol d
Ġin st
Ġhe r
Ġab out
g r
r ic
e p
id ent
Ġm et
Ġwor k
Ġl ang
Ġm in
Ġus e
g an
Ġo b
ak e
Ġst ates
Ġp ubl
Ġ if
Ġh im
is s
Ġs im
erm an
Ġ x
Ġe u
i ent
or n
r on
ou p
Ġp os
o od
Ġm on
il d
Ġw rit
Ġlang u
Ġth r
Ġye ars
ay s
Ġpeop le
al s
Ġm em
u ally
Ġd uring
c ial
it ies
in ce
Ġkn own
a il
Ġre m
Ġun ited
Ġin v
i ly
i o
Ġan y
l ish
ce pt
Ġcall ed
r al
Ġf il
Ġwhe re
er t
Ġf ol
ow er
Ġf in
ur n
Ġs m
he s
c y
ur y
Ġg u
Ġa ut
Ġbe l
Ġuni vers
Ġb rit
Ġb r
if e
aus e
Ġthr ough
Ġg erman
Ġs ch
Ġs a
Ġv ar
Ġp ers
olog y
Ġsu pp
w ard
Ġc ap
c on
Ġex t
at ing
Ġof ten
Ġ ent
Ġs ou
Ġst ate
Ġd ist
n e
ib le
l i
u res
ment s
Ġt erm
Ġcon st
Ġen d
he m
r ist
Ġhist ory
ra ph
Ġf ran
Ġg e
Ġf am
im es
Ġ est
c k
is e
Ġeu ro
ical ly
am es
Ġgr oup
Ġdif fer
Ġm ain
ic k
Ġb ro
Ġele ct
vel op
Ġs oc
Ġm at
Ġwh ile
al e
Ġk ing
Ġin tern
f orm
Ġn or
Ġhig h
Ġw ell
ig in
Ġre fer
c ess
Ġli ke
Ġse t
Ġde velop
Ġfol low
Ġf ound
h ip
Ġc ity
ag es
Ġag ain
b le
Ġor igin
Ġbe ing
Ġex p
Ġa ir
Ġf un
is hed
Ġthe n
o st
t le
h n
Ġnum ber
Ġdis c
Ġb oth
Ġm ade
us s
f ore
Ġim p
Ġch rist
m an
Ġeng lish
id er
Ġh um
Ġt y
ian s
Ġla w
ction s
Ġ rom
at her
i el
Ġgovern ment
Ġcomm on
a h
in es
Ġm ed
t ed
Ġs he
Ġeuro pe
Ġe ff
Ġpro v
Ġl ong
at ure
Ġst ud
Ġs ur
Ġl ater
Ġpol it
Ġfil m
Ġc ur
Ġd ire
ra ct
it s
t on
Ġde p
b ers
ot her
Ġb u
Ġl oc
Ġm il
in s
Ġc re
Ġn ame
ur al
om et
iz ed
Ġn ational
Ġcomm un
Ġj e
Ġcl ass
Ġar m
Ġs ince
Ġjo hn
Ġcent ury
Ġm u
Ġde c
Ġc al
Ġs ign
Ġc or
Ġse ver
Ġst r
f ul
d s
ie w
Ġre t
t y
Ġcol le
Ġma j
Ġde m
Ġg reat
Ġbec ause
v ing
Ġk e
a z
ren t
Ġunivers ity
Ġle ad
Ġle g
amp le
an n
is ion
Ġl ife
Ġbrit ish
in ed
or k
Ġear ly
ro w
Ġpart ic
l ed
Ġe ven
ar ch
Ġr ight
con om
Ġlar ge
Ġye ar
Ġmaj or
Ġcons ider
Ġl it
Ġl ist
Ġcont ro
og raph
Ġo wn
Ġp ower
Ġs ame
Ġd ay
Ġcomp le
Ġ ir
Ġe conom
Ġe qu
Ġs ing
ro s
Ġmus ic
Ġg od
g er
Ġv al
Ġchar act
x t
Ġinclud ing
Ġex ample
Ġcont in
am m
Ġ es
Ġsec ond
ch n
Ġg re
il ity
Ġe ach
u es
Ġcomp ut
Ġbec ame
l o
Ġo cc
Ġlangu age
i um
Ġo p
i er
Ġgener al
Ġdes c
Ġspe c
v es
el f
en ces
Ġde ath
Ġal th
Ġalth ough
Ġd et
Ġmo d
Ġe l
Ġo per
Ġdire ct
iv es
ter s
Ġim port
Ġdiffer ent
Ġsever al
Ġf re
Ġmo der
an ge
i k
Ġap pe
Ġan t
pe ct
ul ation
Ġis land
Ġp ri
Ġb at
Ġst and
n ing
Ġph il
Ġh ar
Ġmu ch
Ġin s
Ġsm all
Ġor gan
Ġbe fore
Ġ very
Ġte chn
ren ch
i ence
ur ch
ic a
Ġcon f
g y
Ġres ult
Ġsou th
Ġn ow
Ġwh at
Ġf rench
v ent
Ġnor th
Ġs w
Ġ er
he n
Ġpro gr
Ġa ust
Ġoff ic
at ic
Ġpubl ic
o ol
Ġl and
Ġs l
Ġp a
el s
Ġi i
Ġre v
ant s
oc k
Ġdes ign
Ġagain st
Ġo ld
oug ht
it al
Ġf act
Ġc ould
Ġc ult
Ġbel ie
Ġg ra
Ġb ar
ain s
tern al
Ġth ose
Ġlin ks
ro p
Ġc our
Ġmoder n
Ġb ack
ru ct
ou se
Ġd r
Ġor der
ion al
Ġpers on
g est
ain ed
Ġbas ed
Ġl at
ut e
u p
a im
ak ing
Ġc r
Ġun t
Ġp ort
Ġmar k
a ve
Ġpos s
os ed
in a
Ġan other
ri es
ol ution
Ġex ternal
iv ed
Ġd iv
Ġh and
t ing
Ġh y
Ġhum an
Ġm y
Ġrec ord
Ġsh ow
d e
Ġs omet
Ġpres ident
Ġaut h
w ay
Ġcount ry
Ġn on
od e
g et
ul l
Ġy ou
Ġre f
Ġser ies
a red
Ġp at
Ġf ree
cc ess
Ġg ame
am ent
Ġbo ok
Ġpop ular
Ġex pl
Ġst ill
Ġre qu
iel d
o y
Ġcon c
Ġeff ect
Ġa v
Ġtra dition
Ġintern ational
op h
g ed
Ġsupp ort
Ġunt il
Ġser v
Ġt er
Ġd id
Ġpro t
en se
ber t
Ġch urch
Ġst at
Ġr un
Ġt r
i od
Ġinf l
Ġd om
en n
Ġinf orm
Ġje w
Ġj ust
Ġl ine
ire d
Ġart ic
as ed
ent ly
m in
Ġra d
Ġ vers
Ġar g
Ġsu ccess
Ġmil it
as on
re t
iz ation
le y
Ġw est
Ġm ill
Ġp ass
Ġn et
i us
Ġw ay
Ġsch ool
Ġpo int
Ġf a
or ies
id ed
Ġcharact er
Ġpolit ical
Ġo pp
Ġpro p
o v
Ġd i
Ġad d
Ġcomp an
qu e
Ġus ually
Ġre al
Ġs k
am s
Ġpart y
Ġf o
Ġpro cess
Ġall ow
Ġrel ig
n er
Ġc rit
Ġb re
Ġinc re
ic es
Ġam ong
en e
Ġb ir
Ġm ag
is ed
Ġrom an
Ġd own
b o
p or
m ber
Ġb i
ros s
b s
an k
m s
Ġty p
Ġre le
Ġg ree
Ġm id
Ġhist or
Ġad v
Ġe as
Ġl et
i ation
Ġc oun
Ġn at
Ġf ore
if ied
n ess
Ġper iod
Ġop en
Ġl ast
y n
c o
Ġare a
at or
Ġne ar
Ġs ol
ar k
Ġe very
id es
Ġar ound
Ġch ild
Ġv iew
Ġph ys
as es
Ġoffic ial
Ġle ft
Ġg l
Ġthe ory
Ġrep res
Ġar ch
il ar
Ġinclud e
Ġsh ort
Ġt ri
Ġauth or
Ġan g
Ġe p
in c
Ġmem bers
Ġf ar
Ġcl aim
iet y
Ġg i
ist er
Ġhe ad
Ġth ough
Ġd ra
Ġsim ilar
Ġex per
ab ly
Ġus ing
y l
Ġpartic ular
Ġv ol
at a
Ġe ast
Ġmo ve
Ġh ouse
b all
Ġfollow ing
Ġp ress
d ay
am ed
Ġr uss
Ġj ap
iv ing
Ġ ide
z e
Ġwith in
et s
Ġcur rent
Ġb ra
Ġb od
Ġt em
Ġmilit ary
Ġme an
ict ion
im ate
Ġjap an
w are
u ed
Ġpro f
Ġt a
Ġh un
Ġre st
Ġpop ulation
Ġcan ad
Ġst e
Ġinfl u
Ġhe l
Ġte le
e c
Ġb us
Ġchrist ian
as h
Ġimport ant
Ġl ight
Ġl ab
Ġstand ard
Ġw ater
Ġd el
Ġapp ro
iz e
Ġsoc ial
Ġ ve
Ġconsider ed
m e
a u
es e
Ġd ue
Ġc ir
Ġh o
Ġal b
p s
Ġl ess
Ġv i
g in
Ġphil os
Ġex ist
Ġcomput er
ri pt
Ġper form
ert ain
Ġacc ord
Ġinform ation
Ġh ome
Ġc iv
Ġs our
Ġfam ily
er v
Ġr i
d om
Ġj ud
um ent
on y
ak es
Ġeurope an
Ġc y
Ġp ract
Ġsomet imes
an e
Ġdo es
end ed
Ġsy m
ro du
Ġst art
Ġwor d
Ġass oc
Ġde v
ograph y
Ġb er
th s
at s
Ġw es
Ġwith out
h ing
Ġan n
Ġpro ble
Ġgi ven
Ġw in
Ġt imes
Ġciv il
Ġm ake
ep end
p ar
Ġre ad
Ġrepres ent
Ġpres ent
Ġpl ace
Ġind epend
Ġc le
Ġest ab
Ġrep ubl
Ġf ur
l er
Ġl im
Ġgo od
Ġfe w
Ġem p
Ġsh ould
Ġb orn
t ic
it her
Ġle vel
Ġh al
Ġdesc rib
Ġth ir
Ġbl ack
t al
Ġad dition
Ġcent ral
Ġsp ace
Ġcir c
Ġc ase
os s
Ġit al
o ks
Ġaust ral
Ġre d
Ġmet h
Ġsc ience
olog ical
Ġa ge
Ġcontro l
en g
Ġto p
Ġl ed
Ġapp l
Ġp ur
iss ion
Ġc a
Ġr ul
em pt
Ġun ion
Ġd a
le ct
Ġth us
ent ial
en cy
b n
r ation
Ġy ork
re ad
st er
Ġvar ious
n a
un e
is on
Ġv is
Ġlangu ages
Ġaf f
Ġcount ries
Ġear th
l ess
ist ic
Ġartic le
Ġbec ome
Ġm ust
am b
Ġ ver
in ation
ac ed
Ġis bn
Ġb est
Ġcom b
Ġm ass
ot t
Ġother s
p le
om en
Ġaccord ing
Ġsu per
Ġsystem s
Ġd er
Ġret urn
Ġwes tern
Ġres p
Ġre ce
Ġm or
c ing
Ġt reat
c he
ot s
Ġne ver
Ġh ol
Ġc at
ri ed
Ġm en
Ġc op
l ing
Ġch ang
Ġan im
Ġc amp
Ġt it
Ġspe cial
Ġwor ks
Ġbe gan
Ġgener ally
Ġt est
Ġhe n
Ġind ust
o ver
in k
Ġpro per
Ġne ed
Ġs ong
iv id
Ġwrit ten
Ġorigin al
Ġis s
Ġob ject
Ġs um
ed er
Ġd en
Ġs al
ur g
Ġform er
Ġe th
Ġkn ow
Ġfo ot
Ġst ruct
a e
Ġim m
Ġge or
w ays
s on
Ġfor ce
Ġmeth od
Ġpo st
Ġpr im
Ġt urn
Ġind ivid
on es
Ġatt empt
Ġl og
Ġc he
Ġsing le
Ġfur ther
Ġdevelop ment
Ġconst it
Ġan c
Ġk ill
Ġplay er
ut ed
i or
Ġl ow
g ress
Ġint rodu
le x
Ġlit er
Ġrel ations
Ġev ent
l ine
Ġbu ild
Ġp et
Ġfran ce
Ġm ult
Ġe t
Ġ ident
Ġw ide
Ġking dom
Ġv ir
o ve
al th
b e
Ġb and
al ity
Ġk m
Ġindivid ual
Ġgroup s
Ġl ate
r ing
Ġeng land
Ġpos ition
s elf
Ġli ber
Ġs on
Ġc ell
Ġre port
ol ic
Ġgree k
Ġr ather
Ġbod y
Ġal ong
Ġl ond
ward s
Ġob s
Ġinv ol
Ġlond on
Ġd av
ive ly
Ġj an
Ġeng ine
Ġsc ient
cial ly
iv al
g es
y le
Ġcour t
Ġan al
Ġm ic
a ir
Ġbe h
an ces
Ġd u
Ġfun ction
c ul
Ġa ug
Ġgerman y
Ġm ot
Ġse a
Ġre pl
Ġnat ural
Ġd ata
Ġn amed
Ġb al
Ġb ase
Ġpubl ished
Ġocc ur
Ġst ar
Ġsa id
Ġa ra
t t
ra el
Ġg ames
Ġmat hem
Ġcap ital
Ġbat tle
Ġn ort
c hes
Ġf ield
Ġp al
b y
Ġc ertain
m a
Ġre se
Ġso ft
ap p
Ġde cl
Ġc aus
as ter
Ġj u
Ġmill ion
ag ue
c il
Ġm al
Ġstr ong
Ġemp ire
Ġm er
Ġinter est
Ġs un
Ġpro ject
Ġnew s
Ġeconom ic
Ġcolle ge
Ġarm y
Ġcompan y
Ġe ither
end s
Ġvers ion
ent ion
Ġt ake
o b
Ġis rael
it es
Ġc ath
w ork
Ġsy n
Ġh ard
Ġf em
ot e
og n
er n
ain ing
Ġg row
Ġf r
Ġserv ice
Ġed uc
id ence
Ġb ill
Ġprodu ct
Ġdevelop ed
Ġf ull
ific ation
Ġme ans
Ġf ather
Ġh om
Ġte am
h an
id s
m ost
ak en
Ġamer ica
ra ft
g en
Ġw al
it ive
Ġm ater
Ġwill i
ct or
Ġphilos oph
Ġto day
Ġy oun
Ġn orm
Ġes pe
Ġhe ld
Ġr u
Ġl ib
Ġloc al
Ġs at
Ġsu g
Ġwh ite
Ġespe cially
Ġso v
Ġb all
Ġto tal
Ġbo oks
Ġc are
ure d
Ġsoc iety
il t
Ġaug ust
Ġc hem
Ġa st
Ġ ill
Ġthir d
Ġsov iet
Ġs ound
Ġse par
Ġto wn
Ġfor ces
Ġd est
Ġs ide
re w
Ġc e
ap s
Ġcon cept
an ish
Ġpre v
Ġrepubl ic
Ġte xt
Ġp s
Ġsub ject
Ġposs ible
Ġno vel
Ġinst it
Ġt ru
d le
ic ation
Ġdem oc
o x
Ġto ok
Ġfam ous
ug ht
Ġfre qu
Ġro ck
Ġchild ren
er gy
i ated
y al
u ary
Ġde b
Ġb or
Ġ q
Ġreg ard
ar ian
Ġcent er
Ġha ving
l in
Ġdef in
os ition
Ġst ory
Ġhim self
Ġc ame
Ġact iv
ru ction
Ġappe ar
Ġpr inc
Ġdif f
Ġcomple te
and er
Ġmater ial
m er
Ġm ount
ver se
Ġprinc ip
Ġh old
Ġwor ds
Ġtrans l
Ġc ard
Ġt ro
Ġse x
Ġen c
Ġri ver
Ġisland s
Ġcoun cil
Ġant i
a w
in ess
Ġf all
Ġme as
Ġlit tle
id ge
Ġsh ip
Ġem per
Ġd on
em b
Ġt re
Ġf ra
Ġo ct
Ġbe gin
Ġbro ad
Ġac cept
Ġab ove
ab ility
op s
Ġexp ress
et ic
Ġu k
em ber
Ġfin al
Ġke y
Ġm ac
Ġg old
Ġde ce
Ġv ict
y r
Ġpl an
Ġits elf
Ġup on
Ġse en
ore d
Ġcult ure
Ġf ind
Ġrefer ences
re me
Ġav ail
v ision
Ġc ross
Ġd ays
a i
is ing
Ġpro m
Ġlar gest
Ġjew ish
Ġw ind
Ġon ce
un d
Ġter rit
Ġin it
Ġcre ated
m it
Ġro le
her n
Ġal most
Ġfore ign
Ġj ames
Ġprof ess
Ġreg ion
Ġr ich
ie f
Ġhel p
Ġc ode
Ġty pe
Ġsoft ware
Ġrelig ious
Ġlat in
Ġn av
Ġm ach
os p
Ġb c
Ġnum bers
Ġse l
y ing
Ġa lex
Ġjan uary
Ġmem ber
uc k
Ġalb um
Ġs ite
Ġl iving
se qu
c raft
Ġd ig
Ġd ou
Ġco st
Ġare as
ac ks
Ġt ur
Ġim age
ic ations
Ġh it
ens ive
ac es
il le
Ġdav id
Ġm iss
Ġre n
Ġcommun ity
Ġqu est
Ġcl ose
b ol
Ġanc ient
v al
Ġ ess
at ors
Ġf ri
om s
g o
s el
a x
Ġrel ated
Ġth ought
Ġsour ce
Ġplay ed
Ġle ague
Ġright s
al d
Ġmove ment
Ġp ain
Ġprodu ction
le t
Ġre du
Ġd ied
Ġrese arch
i ate
r ict
Ġch ange
pl oy
Ġterm s
Ġen ergy
c er
ri an
Ġmin ister
Ġt al
Ġdom in
Ġmo v
Ġex am
Ġt our
Ġnort hern
Ġmar ch
Ġmean ing
um b
he re
Ġpar li
end ing
Ġcon n
Ġestab l
her s
Ġf eder
Ġcomple x
Ġf ire
s ide
f ord
r il
ar ies
Ġdece mber
Ġad min
Ġm ight
Ġprodu ced
Ġmark et
ru g
ing u
Ġear li
Ġpri v
Ġs ent
Ġex ec
Ġcanad a
Ġpol ic
Ġwilli am
Ġp ap
Ġm aking
as ing
Ġh or
e ad
c a
pl es
ines e
Ġpro b
Ġst yle
ect ed
Ġmid dle
Ġco ver
Ġne xt
Ġw on
Ġform s
ud e
ific ant
Ġen v
Ġparli ament
Ġprogr amm
Ġst re
Ġgre en
Ġavail able
Ġprogr am
Ġd oc
Ġjapan ese
c le
Ġs ay
Ġab s
ri a
Ġeas tern
Ġcan n
p ut
Ġw omen
Ġch inese
Ġrele ased
Ġbec om
in ts
o int
Ġestabl ished
Ġrad io
Ġhal f
Ġrec ogn
Ġsign ificant
Ġto get
Ġsug gest
Ġp red
Ġgeor ge
Ġconstit ution
at ures
Ġl ou
Ġtele vision
Ġo x
Ġp ot
Ġint e
Ġtoget her
h am
Ġex cept
Ġg et
Ġmathem at
Ġcath olic
Ġcon dition
Ġse pt
Ġchar les
ow s
Ġara b
Ġju ly
ther n
Ġsub st
ir on
in o
ar ily
Ġb ur
Ġpa ul
Ġne g
Ġvi ol
Ġpart s
Ġch ina
Ġinst ead
y ch
in ing
ut ions
Ġlo ve
Ġunder st
Ġacc ount
Ġal tern
Ġf ail
Ġde g
Ġbu ilt
Ġbus iness
Ġhe av
Ġcomp et
Ġatt ack
Ġfoot ball
Ġ ur
Ġle ast
Ġrev olution
Ġind ia
l am
u el
k a
Ġind ian
Ġb ig
Ġst ri
om b
Ġcap t
Ġtradition al
m on
Ġd ut
Ġqu e
Ġnot e
f ace
Ġstud y
Ġmod el
Ġc ro
Ġinclud ed
Ġj une
Ġemper or
b r
Ġd an
Ġco ast
ed ia
ort s
Ġc it
Ġtra de
Ġyoun g
er ing
us ed
ch an
Ġcomm it
Ġf ood
Ġno ve
Ġenv iron
Ġal ways
Ġdet erm
Ġp en
r ican
Ġr ange
ro te
t o
Ġact or
ap t
Ġl ive
Ġc ast
Ġs it
Ġent ire
ip p
Ġo s
Ġpr ime
in al
Ġp ast
ra y
Ġp ut
c hed
Ġa ud
Ġs an
Ġsp ir
ut h
Ġt rib
Ġt aken
Ġs old
Ġnove mber
em s
b an
Ġ ic
Ġsec ret
Ġeconom y
Ġn ature
Ġconst ant
am a
o ber
Ġl ord
Ġacc ess
ic ult
r ary
r or
Ġsel f
Ġprev ious
Ġoct ober
Ġsou thern
Ġj our
Ġlo st
Ġa ch
Ġo ur
Ġb en
Ġf ight
ri e
Ġrel ative
Ġap ril
Ġtem per
Ġg al
Ġplay ers
g or
Ġc reat
Ġch o
ff ic
ron t
Ġm art
Ġus es
Ġsp anish
Ġtru e
u x
Ġproble m
c om
Ġgr and
ent al
er ed
Ġval ue
Ġrec ent
Ġdes p
Ġf ig
sel ves
Ġital ian
Ġw rote
Ġinter p
Ġnet work
is c
Ġl ower
ric a
Ġtechn ology
Ġs en
b urg
Ġhy d
Ġsept ember
Ġev idence
Ġinv est
Ġru le
Ġcol l
Ġd one
i i
Ġs qu
Ġro yal
k ed
Ġimp ro
p r
Ġcol or
Ġm ich
Ġre form
Ġfran k
Ġdist in
Ġhistor ical
ar a
Ġfun d
Ġcomm er
Ġaf rica
i ra
Ġs ain
Ġcom e
Ġpro te
Ġh on
Ġdiff icult
i en
Ġwh ose
Ġsym bol
Ġadmin ist
Ġb ud
et h
Ġn ames
Ġe c
Ġres pect
er y
um e
Ġaustral ia
Ġe ver
Ġse ason
Ġparticular ly
Ġfe b
ar n
Ġthem selves
Ġphilosoph y
a f
Ġc ases
Ġf ut
pt ion
Ġspec ies
Ġps ych
Ġth om
Ġcon vent
ce ed
Ġinflu ence
Ġre ason
Ġr ate
Ġstruct ure
y m
Ġph ot
Ġdist rib
Ġn ations
Ġruss ian
Ġh op
ac y
Ġs il
as c
Ġrefer red
Ġfe ature
gy pt
Ġd am
Ġbe low
Ġv ide
Ġmin or
Ġe gypt
Ġad op
Ġenviron ment
an a
Ġthrough out
Ġhe re
Ġaf rican
Ġcol on
Ġcontin ued
Ġto o
led ge
Ġir ish
t a
Ġro bert
Ġeduc ation
Ġwhe ther
Ġthere fore
Ġst ep
Ġgr ound
Ġlaw s
Ġt en
k y
Ġ ire
Ġn ight
Ġtit le
Ġme chan
Ġdemoc r
Ġdefin ition
b on
Ġtra vel
uc le
Ġcrit ic
um ents
Ġwe e
Ġcle ar
Ġbro ther
Ġs am
Ġh ost
Ġhig her
Ġfilm s
Ġcomm and
Ġa ction
Ġam ount
Ġjew s
Ġfeb ru
Ġleg al
u f
Ġtechn i
Ġorigin ally
Ġf av
Ġfebru ary
Ġt ar
Ġelect ron
Ġc ities
Ġc ry
it z
Ġele ments
Ġs n
Ġpe ace
ra d
Ġspec ific
ul a
ne y
Ġdisc uss
Ġindepend ent
Ġevent ually
Ġv o
Ġintern et
Ġpar k
Ġa ward
Ġ ut
Ġinst r
Ġac ad
Ġne cess
Ġdescrib ed
o f
Ġb ank
Ġsuccess ful
ist ics
er ous
om an
Ġdesp ite
b it
ac hed
one y
a el
Ġproble ms
Ġch ief
Ġcharact ers
Ġfem ale
Ġspe ak
Ġag ree
Ġn ucle
ial ly
Ġra il
m ing
Ġdisc over
Ġis lam
Ġoff ice
Ġab le
Ġmult ip
Ġdis p
Ġform ed
Ġm ur
Ġpract ice
cl us
Ġspe ed
Ġsch ol
ate g
Ġmain t
Ġcont rib
Ġwe b
Ġbelie f
Ġcommon ly
Ġf iction
Ġev ents
i res
du ct
Ġpur p
land s
p ly
ar i
l im
Ġm other
d en
k ing
Ġm ale
b al
qu es
ist an
Ġind ic
Ġbl ood
Ġrece ived
Ġb it
Ġor d
Ġwrit er
Ġp age
u ation
Ġperson al
Ġor th
Ġout side
at ives
as ion
imate ly
Ġtyp ically
st e
Ġbl ue
our s
Ġbas ic
Ġlo ok
Ġal ph
Ġtyp es
Ġl ay
id ing
oun ced
st on
Ġfollow ed
Ġrelations hip
in ary
Ġact ually
Ġinclud es
Ġair craft
Ġd ial
Ġz e
ra p
ard s
ric k
Ġcons erv
ar ing
Ġcal if
Ġte x
ad es
Ġp ow
ag ed
av es
Ġmic ro
Ġhen ry
Ġcontro vers
Ġind e
Ġwide ly
Ġscient ific
Ġw ent
Ġch amp
le ment
Ġcalif orn
Ġint ell
ke y
Ġbegin ning
Ġphys ical
Ġf ac
Ġd yn
w or
ur ity
Ġdeath s
Ġacad em
Ġdef e
n al
Ġj es
it or
Ġdet ail
Ġocc up
ant ed
Ġbuild ing
un g
Ġof fer
is l
Ġcl ub
Ġfut ure
an ia
Ġlet ter
Ġs ize
Ġspir it
Ġtrans port
Ġh all
Ġf low
Ġc ause
Ġlead er
Ġlead ers
Ġb ul
Ġbrit ain
Ġcann ot
ot ed
Ġde ad
Ġem ploy
Ġsur v
Ġire land
ress ion
Ġw ood
Ġext reme
ol l
Ġcomp os
Ġsim ply
Ġf ront
ut es
Ġ ib
Ġw all
Ġwe bs
Ġd ri
Ġindust ry
Ġserv ices
on st
Ġappro x
Ġliber al
Ġelect ed
Ġ ven
Ġcons ist
Ġknow ledge
Ġhyd ro
os es
Ġc ut
Ġcanad ian
Ġdef ined
Ġbelie ve
Ġincre asing
Ġqu ant
b c
if y
Ġma x
t ies
Ġed ition
Ġexam ples
Ġso on
Ġresp ons
Ġelect ric
Ġst ra
Ġwrit ing
Ġcaliforn ia
Ġem b
t he
Ġcolle ct
Ġhe alth
Ġp un
it ect
Ġbir ths
Ġfeder al
ri al
Ġy our
i ers
Ġb ran
h a
Ġintell ig
Ġt im
Ġl eng
Ġlou is
Ġvide o
Ġc am
od es
Ġs ense
ig h
Ġach ie
and s
ag o
Ġfran c
Ġarch itect
h ib
Ġbir th
um p
Ġindepend ence
Ġide a
is es
Ġde al
Ġpo ints
Ġorgan ization
Ġy et
Ġf le
Ġassoc iated
Ġm ess
at ory
Ġro ad
c ript
Ġno b
ys is
Ġsepar ate
Ġm i
Ġexper im
Ġinte gr
Ġclass ical
Ġchem ical
Ġintrodu ced
Ġmov ie
Ġrequ ired
em ent
Ġme et
Ġmajor ity
Ġm ix
Ġre b
Ġdesign ed
Ġhun g
if f
Ġd im
Ġh am
Ġres our
Ġmag n
o le
Ġrelig ion
uf act
a ut
Ġb ab
Ġa way
Ġman ufact
ib ility
Ġele ment
Ġchang es
Ġloc ated
Ġbelie ved
Ġpriv ate
Ġw at
Ġcit iz
and ing
Ġcount y
ol s
Ġstud ies
Ġf oc
Ġg as
Ġch ann
w er
Ġass emb
Ġj ose
Ġa ver
u it
Ġpre c
Ġrul es
Ġn ation
Ġcor por
Ġfe atures
Ġwork ing
Ġstart ed
Ġch ap
Ġpolic y
Ġ iv
Ġpo ly
Ġcontin u
Ġcurrent ly
om p
Ġcon gress
Ġmus e
a ction
Ġc orn
Ġb an
Ġc ub
Ġbr ought
Ġdep art
Ġg un
ist ry
Ġpr on
Ġruss ia
Ġn ar
Ġearli er
Ġele ction
Ġr h
Ġthom as
Ġse m
Ġal le
Ġlab or
Ġdoc ument
Ġse qu
u k
Ġun it
ens ion
Ġdis pl
Ġta x
v in
Ġs us
ber g
Ġhy p
he l
Ġsour ces
r ated
Ġprov ide
Ġassoc iation
w h
Ġallow ed
Ġem er
Ġth ings
Ġgre ater
Ġmy th
c ies
Ġon line
Ġk ind
Ġaustral ian
Ġev olution
Ġo il
Ġpo et
c ent
Ġadd ed
Ġmed ia
Ġquest ion
Ġg lo
Ġac ross
Ġdest ro
il ities
Ġfound ed
Ġadd ress
Ġlim ited
Ġm is
Ġro b
Ġmost ly
Ġsim ple
Ġeffect s
Ġb ound
Ġsu p
Ġqu ick
Ġp it
Ġdis e
Ġsa w
Ġsec urity
Ġrequ ire
Ġg ar
Ġim per
Ġprob ably
Ġrefer ence
Ġd rug
Ġcare er
Ġst ories
Ġbre ak
Ġfre ed
en ed
Ġm ind
Ġc art
ul f
Ġat l
Ġapp oint
Ġmuse um
Ġbeh av
Ġg ave
Ġp ict
Ġcoun ter
us e
Ġ id
Ġm el
g a
Ġrem ains
Ġaut om
c ast
Ġlong er
Ġmo le
Ġho ly
Ġconf l
Ġgrow th
Ġleg isl
Ġg ive
b or
ish ing
Ġsw ed
Ġkill ed
Ġpre vent
en ced
cl es
Ġke ep
Ġthe ore
Ġf ell
Ġh ill
Ġcommer cial
Ġleng th
Ġlet ters
Ġprot est
Ġrich ard
re st
Ġlead ing
Ġp ie
Ġlib rary
read y
Ġwebs ite
Ġbet ter
Ġet c
ste in
od ox
Ġfam il
Ġcont ains
Ġrem ained
Ġcal cul
Ġcor re
i j
Ġj er
f fer
Ġto m
ct r
Ġlarge ly
Ġk ar
h ab
ed iate
Ġt or
Ġl ake
Ġsp ain
ism s
Ġmo ved
Ġex pect
Ġmon ths
Ġlar ger
Ġdiv ision
Ġwe ap
Ġobs er
ul ated
Ġr out
fer ence
Ġb ene
Ġg raph
Ġal ready
h aps
Ġper haps
Ġc ust
Ġpr ince
Ġep is
he st
gr ound
Ġsain t
Ġo pt
Ġsc ott
it ing
Ġterrit ory
ant ic
Ġdut ch
is ions
ight s
Ġpolit ics
g on
Ġpart ies
Ġcult ural
Ġestab lish
w ood
Ġb ond
Ġr at
ic o
Ġl ack
Ġfor t
Ġm akes
Ġmat ter
Ġcompan ies
Ġvar i
Ġwho le
Ġgu it
l s
Ġw ife
Ġag ric
Ġbro wn
Ġfa ir
Ġii i
Ġlin es
Ġdou ble
Ġl oss
Ġw ik
r ast
Ġsub sequ
Ġappe ared
Ġr ound
Ġp an
Ġdirect ly
Ġer a
Ġorth odox
on ic
Ġe y
Ġra p
Ġo ce
Ġa x
Ġproduct s
Ġsub s
Ġresult s
Ġf if
om in
Ġprodu ce
Ġital y
a ign
m en
Ġb ow
Ġas ia
Ġh app
Ġsc ot
ach ing
Ġsur face
Ġp ay
Ġeth n
it ude
Ġcon ver
Ġhigh ly
u ra
ur s
Ġmus lim
Ġcaus ed
Ġalex ander
w in
Ġpartic ip
Ġstat us
Ġauthor ity
Ġjour nal
e y
Ġan th
as ons
Ġcre ation
ly ing
Ġbe g
Ġlat ter
Ġ ult
Ġinv ent
Ġcamp aign
Ġliter ature
Ġw il
Ġconfl ict
Ġc d
Ġn ative
Ġm ap
res p
Ġto wards
ot es
Ġhe art
r is
Ġh ot
Ġk h
Ġfa ith
y a
Ġplay ing
Ġreg ular
k n
Ġimp lement
ith m
li ke
Ġw w
Ġwh om
Ġconc ern
Ġmet al
Ġsing er
Ġc and
if t
Ġtreat y
Ġprim ary
Ġbo ard
Ġbecom es
Ġcar bon
Ġagric ult
Ġd ate
Ġf er
h ol
Ġwas hing
b b
Ġbas is
f l
Ġanal ysis
Ġra re
o res
Ġen ough
Ġmar ried
Ġdig ital
ic ian
Ġpri ze
Ġmag az
Ġc amb
he t
Ġd ark
Ġdirect or
Ġce le
on ents
Ġl ic
Ġlike ly
Ġcour se
Ġiss ues
Ġvir t
Ġdist rict
Ġprogramm ing
Ġt v
Ġla un
Ġproper ty
Ġsh a
e e
Ġs ac
Ġfl ag
Ġth ink
Ġrele ase
Ġpet er
ab les
Ġf al
g ing
Ġmach ine
Ġcons um
Ġjose ph
Ġm oney
ur ies
Ġaltern ative
Ġcol umb
Ġrom e
f or
Ġhe ro
Ġrem ain
re am
Ġn a
Ġdra w
Ġprov ided
ic ated
a ff
Ġpar is
Ġsmall er
Ġsm ith
s h
Ġfun ctions
Ġjes us
in i
Ġdiv ided
Ġaver age
v iew
Ġmem ory
cy cl
Ġrepl aced
Ġsa f
Ġi ra
Ġdeg ree
b ra
Ġl os
Ġm c
resp ond
e ction
w ise
Ġgra du
Ġd og
Ġs low
Ġcor respond
Ġclaim s
Ġwashing ton
Ġmeas ure
Ġm ary
Ġcomm ission
ous ly
Ġnear ly
Ġv ill
iv ity
Ġque en
Ġw ars
Ġact ress
Ġmed ical
Ġdistin ct
Ġp ac
Ġk ore
Ġpro gress
Ġm as
ou ra
Ġmus ical
v a
Ġse ction
Ġnot able
Ġg n
Ġqu ar
Ġt able
Ġrev iew
Ġb ish
Ġclaim ed
Ġcont em
Ġdestro y
ed y
Ġindust rial
por ary
Ġrec ently
Ġrecord s
c an
c ol
Ġcontro ll
Ġv an
d a
f ect
Ġcolle ction
Ġport ug
Ġda ught
Ġsex ual
Ġp le
Ġanim als
Ġschool s
Ġinvol ved
Ġfin ally
iz ations
Ġhe b
Ġfin an
Ġperform ance
Ġvar iety
il es
Ġele ctions
Ġchang ed
Ġpap er
Ġb ay
Ġfrequ ently
Ġin n
o id
ut ive
Ġheav y
Ġb bc
Ġass um
Ġhig hest
Ġth ous
Ġs ens
Ġen cycl
Ġmethod s
Ġ ice
Ġdemocr atic
Ġide as
Ġal gor
Ġser ved
Ġmich ael
Ġprogr ams
d ing
Ġc red
Ġstre et
Ġelect r
a rent
on t
Ġd ie
o e
th ing
f ield
ian t
Ġus er
iz ing
Ġstud ents
Ġincre ased
Ġmed ic
Ġdel i
Ġbor der
Ġst ation
Ġobs erv
Ġrelative ly
Ġb urn
Ġdiscover ed
Ġint el
Ġast ron
c ks
us h
Ġincre ase
Ġobject s
Ġcondition s
ip s
Ġang el
e ch
Ġan s
Ġdial ect
ol f
om y
Ġreturn ed
Ġexist ence
Ġm ention
Ġappe ars
Ġt akes
Ġguit ar
Ġw it
Ġencycl op
Ġbase ball
Ġcommit te
Ġassemb ly
it ation
Ġm ad
Ġadop ted
Ġnucle ar
Ġd ar
Ġoper ation
Ġo d
Ġp erm
Ġpo or
Ġpri or
op e
Ġdis s
u ge
Ġp ack
Ġam b
iel ds
it er
Ġwee k
Ġact ive
Ġinc or
Ġuni verse
Ġconc ent
Ġphilos op
Ġnorm al
r idge
Ġinstit ute
n ers
h ood
Ġt end
Ġh tt
Ġoce an
Ġass ist
Ġc el
Ġexper ience
Ġprofess ional
Ġt aking
Ġl ad
Ġde ep
w ell
Ġnum erous
m ar
Ġheb rew
Ġcre ate
Ġro s
s hip
Ġpl at
o ff
Ġpress ure
Ġpow ers
Ġimm ediate
Ġbeh ind
ib ly
Ġs in
Ġcont e
Ġf ile
Ġun like
Ġn az
Ġch ic
pp er
Ġconst ruction
Ġc ru
Ġal ge
Ġaccept ed
Ġsomet hing
Ġiss ue
Ġw a
ce ll
an ced
Ġfranc is
Ġcitiz ens
Ġest im
Ġpot ential
Ġd ia
Ġir on
Ġreport ed
Ġfra c
Ġg ro
Ġform al
Ġset t
Ġst age
Ġprim arily
Ġins p
Ġbo x
Ġresour ces
Ġc ateg
Ġex ch
w a
um n
Ġpat tern
Ġpr int
Ġcent re
Ġm aster
Ġh ab
ate ly
Ġk il
Ġrecord ed
Ġ ip
Ġdef ense
Ġappl ied
Ġb ad
Ġschol ars
Ġas pect
Ġme x
Ġbo y
Ġm ission
Ġhe ll
Ġres ist
Ġtw ent
Ġl uc
Ġl ived
Ġinst ance
Ġdesc ript
Ġshow s
Ġcon qu
Ġder ived
Ġtro ops
Ġw oman
id ents
ign ed
Ġgovern or
Ġb ass
Ġcomp ar
Ġtar get
ot ing
Ġequ ival
Ġmathemat ics
r ound
ian ce
Ġsc re
Ġor g
Ġpl aced
Ġro ll
Ġaddition al
Ġen s
us ion
Ġsc ript
Ġac qu
Ġrun ning
Ġengine ering
Ġsqu are
Ġfreed om
b a
Ġc os
Ġst op
Ġim pl
Ġequ al
Ġess ential
Ġser ious
Ġcal end
Ġartic les
Ġchann el
k en
ast ic
Ġhtt p
Ġt un
i os
Ġth reat
ill a
Ġb ible
Ġse lect
Ġnot es
Ġr ise
Ġtrans form
Ġset tle
re g
on se
Ġun its
Ġsu ffer
Ġd ip
Ġne igh
Ġmain ly
Ġch ron
Ġair port
ri age
Ġpop e
Ġanim al
or ial
Ġsh own
Ġmagaz ine
k i
i ences
Ġk ings
Ġcont ain
Ġwind ows
Ġinterp ret
Ġg all
Ġoper ations
Ġconvent ion
Ġpurp ose
or ph
age ment
Ġm un
Ġwrit ers
o on
Ġm ars
Ġmo on
Ġse em
Ġlevel s
Ġra ce
Ġqu ite
Ġob t
Ġoper ating
Ġc ens
Ġb apt
Ġr and
Ġtemper ature
im um
ch ing
Ġsong s
Ġbroad cast
Ġext ra
Ġvol ume
Ġpl ant
Ġac id
Ġposs ess
Ġex act
Ġcell s
Ġscot land
Ġhun d
Ġs ir
Ġfri ends
Ġsp read
Ġfund ament
Ġbud d
Ġinstr ument
ter ed
Ġcom ment
Ġsur round
Ġprop osed
Ġold er
m ed
Ġc ra
Ġp ra
at t
Ġt ry
Ġh ous
Ġapp arent
Ġr is
Ġdu ke
i ents
Ġw ays
Ġb ib
Ġun s
Ġcons ists
ab et
b ack
Ġp hen
x ual
ad s
Ġnav y
Ġapprox imately
Ġj ul
Ġf ast
Ġb omb
Ġal bert
Ġindividual s
Ġl ie
Ġj ac
c her
n ed
Ġw r
Ġreg ions
d p
Ġconst ruct
r ative
Ġpl aces
Ġhund red
Ġm ath
Ġcl imate
Ġaf g
Ġcommun ist
Ġc as
Ġf ace
Ġfor ced
Ġcon ne
Ġmon arch
Ġar ri
Ġcomp l
k er
Ġcent uries
Ġpol ice
Ġgr amm
an ian
Ġle arn
Ġresp onse
Ġintrodu ction
it a
ac hes
Ġdist ingu
Ġfore st
Ġj ack
Ġval ues
Ġcommitte e
Ġdi am
Ġappoint ed
Ġpass ed
is ation
Ġv oc
Ġr ank
rie f
Ġchic ago
Ġsc ale
Ġfri end
Ġquick ly
ell ing
Ġper cent
Ġspe ech
Ġref ers
Ġus a
Ġcont ract
Ġproper ties
Ġse arch
Ġre pe
Ġd at
hen s
Ġprot ect
Ġact s
Ġintern al
ag er
Ġab ility
Ġv ia
Ġl ith
Ġal co
Ġsh o
om m
ers on
Ġro t
Ġnot ed
Ġcol d
Ġl ingu
et er
Ġcl os
ru pt
Ġcon sequ
Ġethn ic
Ġt ree
Ġimper ial
Ġdaught er
Ġp ath
h ic
Ġww w
o very
Ġbe y
g ar
Ġcar ry
Ġmot ion
Ġnob el
ig r
ol a
Ġperform ed
Ġchamp ions
ann ed
Ġs av
Ġcom es
Ġdise ase
g ers
Ġatt rib
Ġvers ions
Ġnecess ary
Ġf ix
Ġdire ction
Ġdep end
Ġlab our
Ġtechni ques
Ġfoc us
Ġpro min
Ġuni que
Ġwork ed
Ġst ars
Ġappl ications
Ġv on
Ġc ab
Ġen em
Ġref lect
Ġtreat ment
Ġha w
Ġcont ent
Ġfl u
Ġagree ment
Ġbene f
Ġira q
Ġcirc um
Ġar th
Ġmon th
Ġsupport ed
on ia
Ġalge bra
Ġafg han
t ar
Ġinf in
Ġapp le
Ġchristian ity
m p
Ġfl ight
Ġtrans fer
Ġdem onst
m ark
Ġf el
Ġwrit e
Ġsh ot
Ġrem o
al ed
Ġland s
Ġaff air
Ġsum mer
on ent
ak er
Ġbra z
Ġread ing
a ur
Ġn d
Ġcrit ical
v ille
Ġd ance
Ġl es
ol ved
Ġrap id
Ġcalend ar
Ġint ended
Ġsp l
Ġcomput ers
Ġregard ed
Ġintellig ence
er al
Ġr ang
Ġm and
Ġpre fer
Ġbra in
Ġf ant
Ġcon duct
Ġgen e
h old
Ġc er
Ġf at
Ġm ut
Ġcat al
Ġp il
Ġdispl ay
Ġw ild
Ġsp ok
Ġf an
et t
Ġconn ect
Ġre ject
and ed
y d
Ġm it
Ġspe aking
Ġbey ond
y th
Ġ il
Ġus ers
Ġco al
os h
n y
on a
Ġhum ans
Ġje an
Ġsp orts
Ġf ul
Ġat om
Ġad m
ren ts
Ġbr idge
Ġfig ure
Ġmedic ine
p ap
Ġloc ation
Ġcand id
it ors
er ia
ph as
Ġlog ic
Ġre ached
Ġadminist ration
Ġbran ch
Ġa im
Ġj ur
z z
Ġra in
in ian
Ġconserv ative
Ġb rief
Ġor ient
Ġbill ion
Ġar ran
Ġcont rast
Ġnot ably
Ġcorre ct
g n
Ġwh y
Ġar ts
Ġab b
Ġex port
Ġve hic
or ation
Ġl if
Ġjo ined
Ġe ll
ic it
Ġse ts
Ġbr ing
Ġsk ill
Ġappro ach
Ġl u
pp ed
Ġfe el
Ġsign ed
Ġber lin
Ġprov ince
Ġpac ific
Ġconte xt
Ġbraz il
m as
Ġfinan cial
Ġarg ument
Ġinflu enced
Ġmultip le
Ġbl ock
w s
Ġact ual
Ġcompos er
Ġcele br
Ġg ir
ad a
ict ed
Ġleg end
Ġrest rict
Ġin j
Ġdepart ment
Ġpre m
Ġmil es
Ġgu ide
Ġinvest ig
Ġrem aining
Ġprov ides
Ġvir gin
id a
Ġmar riage
Ġneed ed
o ke
oc a
Ġpol ish
Ġvict or
Ġglo bal
Ġd iction
ou th
Ġco ok
Ġphys ics
Ġprevious ly
Ġcust om
Ġin hab
Ġhe at
oc ol
Ġb a
Ġbo b
Ġunivers al
Ġopp osition
Ġdou b
Ġmur der
w here
al es
Ġg a
Ġdistrib ution
Ġc up
Ġactiv ity
r ison
ul s
Ġsyn t
Ġextreme ly
Ġsh are
Ġdist ance
Ġc oup
Ġk o
Ġspec if
Ġhand s
Ġtransl ation
Ġst ated
Ġse ll
Ġpower ful
Ġadv anced
Ġnews pap
Ġthe ories
Ġad vent
Ġst ren
Ġfound ation
Ġcontem porary
t ical
Ġ ign
ent h
Ġst ock
Ġsh ar
Ġdo ctr
Ġcr im
ort un
Ġpr ison
u a
Ġallow s
l a
l or
Ġtra ck
Ġman agement
bo ard
Ġv ow
Ġgreat est
Ġv ote
Ġqu ality
Ġmathemat ical
g ian
Ġch ur
ound s
Ġeff ic
Ġnet her
ra cy
ist ers
Ġreg ional
os is
Ġox ford
i as
us al
Ġan arch
as y
Ġdiffer ence
Ġcro wn
ot ic
Ġr an
Ġcrit ics
Ġcomplete ly
Ġscre en
is p
Ġj im
Ġpar al
Ġfour th
Ġstandard s
Ġus age
Ġexec utive
Ġbehav ior
he ad
Ġf ans
od y
ell ed
Ġs and
Ġg ives
Ġed ward
Ġel se
Ġmart in
Ġt as
Ġpa ir
Ġship s
ffic ient
Ġphen omen
Ġchur ches
h ar
ran e
c ious
Ġd un
Ġk ong
Ġmod els
Ġturn ed
Ġgree ce
Ġinit ial
Ġjust ice
r m
Ġh ours
man n
Ġbecom ing
Ġfundament al
Ġgu ard
Ġd ed
Ġneg ative
Ġhor se
Ġfav or
Ġm os
Ġn ap
Ġtechn ical
Ġmount ain
Ġcont act
Ġnether lands
Ġdom est
Ġfol k
Ġent er
Ġstren g
o o
p ed
Ġuse ful
Ġstr ing
Ġelectron ic
Ġquar ter
Ġre asons
Ġline ar
Ġhon or
Ġf est
Ġmo ving
Ġpol and
Ġins ide
Ġg ard
Ġr ough
Ġcomp il
Ġplan et
Ġimp act
Ġsl ight
Ġp erman
Ġgo ing
Ġfeature d
Ġencyclop edia
Ġun f
Ġepis ode
Ġcar ried
az z
Ġlin k
Ġocc asion
Ġpal est
Ġrespons ible
Ġadv ant
Ġprote ction
Ġexch ange
l og
Ġp urch
Ġsu c
Ġspok en
Ġbe at
g al
Ġw ing
Ġdescrib e
Ġg h
iet ies
Ġactiv ities
Ġon es
Ġsp ring
Ġu pper
Ġchrist ians
b our
Ġre ve
Ġcamb ridge
Ġd ro
Ġincor por
Ġo tt
Ġm om
Ġk u
Ġequ ip
er ve
Ġd ang
est s
Ġfail ed
m l
Ġcontin ue
Ġarth ur
Ġwe ight
b i
se c
Ġappl ication
Ġfamil ies
Ġf ields
Ġwin ter
Ġur ban
Ġalph abet
Ġinde ed
wh at
r ich
Ġem phas
Ġbi ography
Ġdyn ast
Ġdec ision
Ġview s
Ġsome what
Ġgo al
Ġfollow s
n es
Ġcompet ition
Ġse ems
hes is
Ġopp osed
Ġposs ibly
Ġresult ing
Ġjud a
Ġislam ic
Ġs we
Ġform at
Ġopp os
Ġscott ish
Ġdo ctor
mit ted
Ġsup reme
Ġst one
Ġn ic
ul ations
ia h
Ġsign al
Ġvo ice
Ġd na
r ate
Ġbe ll
Ġarab ic
l ines
av ing
Ġph r
Ġgener ation
ograph ic
Ġthe at
w est
Ġdec ided
Ġrepresent ed
r am
Ġcomp osed
Ġstart ing
Ġappear ance
Ġcaus es
en cies
Ġr d
Ġchar ge
Ġweap ons
Ġt ell
Ġd oll
Ġge ography
Ġattempt s
Ġgrow ing
Ġprincip le
Ġgold en
Ġpl ants
im al
Ġv ary
Ġend ed
re ed
Ġk enn
Ġp ure
ap h
Ġal f
Ġaust ria
Ġp ick
Ġg ot
Ġter ror
il s
Ġpos itive
Ġg iving
Ġal t
Ġch all
ed s
ress ed
Ġsuc ceed
Ġo ly
Ġdecl ared
z a
Ġf ish
Ġun d
Ġcap ac
w rit
Ġf uel
Ġtra ining
Ġexp ans
Ġad j
Ġgra v
Ġequip ment
Ġch am
op er
l om
er c
ver t
Ġcomp ared
Ġmar x
Ġinc ome
at i
Ġm m
Ġart ist
Ġlin col
Ġoly mp
Ġlincol n
Ġa k
Ġre action
Ġimpro ve
Ġr ing
Ġun kn
ve y
Ġfl o
s p
Ġp ier
Ġcom ic
Ġdr ive
Ġarchitect ure
Ġt ou
Ġm r
Ġadv oc
Ġacadem y
Ġze al
p g
re es
Ġarm ed
Ġmot or
Ġre ign
Ġfor d
ri er
Ġdisc ip
Ġarg ued
Ġim ag
bo ok
Ġoccur s
Ġatt acks
Ġval ley
Ġclass ic
Ġext ended
m y
iz es
Ġfin land
Ġdirect ed
Ġeas ily
Ġper fect
Ġgl ass
n el
Ġpres ence
Ġtradition ally
Ġtr uth
Ġbel ong
Ġequival ent
Ġex ists
Ġident ity
Ġnot hing
er a
ad or
ag an
Ġdiffer ences
Ġorgan izations
Ġill ust
g ment
m et
Ġen j
Ġmention ed
Ġs olution
Ġc p
ord in
Ġext ensive
Ġimmediate ly
Ġst an
Ġpol l
Ġeff orts
Ġap art
Ġsim pl
Ġprov in
Ġenc oura
o ch
Ġal one
Ġch ance
Ġap ol
Ġcommun ities
e x
Ġcop yr
Ġchampions hip
ad ed
ine t
Ġachie ve
Ġn ick
Ġle ban
Ġback ground
Ġann ounced
Ġge omet
Ġcomb ined
Ġpro ved
Ġser ve
Ġunderst anding
ic ip
ant a
Ġcl a
Ġparal le
Ġdeb ate
Ġcard s
Ġcho ice
Ġne ut
usal em
Ġtechni que
Ġcontroll ed
Ġdev ice
Ġenvironment al
Ġbat t
Ġcomp osition
av a
Ġass ass
Ġinit ially
Ġjer usalem
Ġf it
Ġstud ent
Ġmusic ian
Ġh us
Ġun c
if orm
Ġf ict
Ġsit uation
Ġfe et
i ar
Ġa z
Ġallow ing
Ġmole c
Ġme ant
Ġsecret ary
Ġmon t
Ġful ly
Ġte ams
Ġconn ected
Ġsp ort
Ġexpect ed
cl aim
Ġmaterial s
Ġbar b
Ġrul ed
Ġcar l
a ven
Ġh an
Ġcon v
ul ate
Ġpre p
Ġalgor ithm
Ġcon vers
Ġtem ple
Ġcomb at
Ġvict ory
Ġbish op
Ġmo b
Ġtur k
Ġjuda ism
Ġunkn own
n s
Ġa ctions
Ġg ib
Ġwrit ings
Ġh in
te en
Ġo h
Ġclass es
Ġhol id
k es
Ġout put
Ġfr ame
Ġh ug
Ġse at
Ġentire ly
Ġa th
Ġg ained
Ġj un
Ġe g
Ġst or
Ġj acks
Ġdomest ic
Ġcont aining
Ġearli est
Ġother wise
Ġeffect ive
Ġintel lect
le ction
ens ity
Ġh t
Ġg osp
Ġwork ers
Ġliter ary
i ro
Ġc od
and a
Ġlim it
Ġmathem atic
Ġrecogn ized
w an
Ġwe alth
Ġamerican s
g ra
Ġprincip les
Ġb on
Ġm ere
Ġex clus
Ġpr in
Ġart ists
Ġrepl ace
Ġun p
Ġat m
Ġli qu
Ġsa x
Ġa id
Ġs ites
olog ists
Ġes c
Ġscient ists
Ġent ry
Ġcur ren
Ġcontrovers y
Ġapol lo
ub b
Ġdiction ary
Ġh ong
Ġconf eder
Ġtri al
v i
Ġf ru
Ġp c
Ġas c
Ġ vel
Ġhar v
Ġsuggest ed
Ġdynast y
Ġs ays
a ctions
n am
Ġdr am
Ġstat ement
Ġbus h
Ġatt ract
Ġdom ain
Ġarg ent
Ġredu ced
Ġarm s
Ġwik ip
Ġpromin ent
Ġspecif ically
Ġc u
Ġcon ference
Ġatt ention
Ġcomple ted
r im
Ġsol id
Ġp u
ca pe
Ġcon d
Ġch a
Ġfl at
Ġdiscuss ion
Ġcopyr ight
Ġele v
Ġsw it
m un
ig an
ig ration
Ġrequ ires
Ġav oid
Ġfig ures
Ġexpans ion
w ide
Ġlith u
Ġb ah
ing er
Ġst ations
Ġcy cle
Ġatl antic
Ġdis k
Ġqu al
Ġdr um
Ġf ill
Ġop in
Ġtyp ical
u le
Ġstruct ures
Ġtex ts
Ġs ort
Ġad ult
Ġjacks on
i h
Ġl y
Ġch rom
Ġsc ene
Ġafghan istan
Ġw id
Ġcritic ism
ie val
Ġpr ice
Ġmed ieval
Ġda ily
Ġincreasing ly
m ore
it able
Ġhydro gen
Ġanth rop
Ġinv asion
Ġaud io
Ġtex as
Ġdestroy ed
Ġn om
un t
Ġrepubl ican
Ġgeor g
Ġsever e
Ġmark ed
l ight
w ar
Ġb ott
Ġisrael i
Ġw ave
ic ate
Ġl ives
Ġco oper
Ġbeg ins
Ġg dp
Ġim ages
Ġclose ly
Ġalco hol
Ġspl it
Ġl as
Ġp enn
Ġan ne
Ġgen etic
Ġjur is
Ġinter view
Ġfrequ ency
ic ed
Ġmount ains
Ġinsp ired
Ġd in
Ġto ward
Ġex c
olog ist
Ġmex ico
Ġdat ab
Ġcl osed
cept ion
Ġauth ors
Ġanal og
Ġsequ ence
Ġdip lom
Ġbe aut
Ġexperim ent
Ġber n
Ġoccur red
Ġsen ate
Ġpro ced
and on
og en
Ġke pt
Ġofficial ly
Ġhen ce
Ġdeterm ined
ion e
Ġdep ending
Ġpopular ity
Ġcorpor ation
Ġwikip edia
ur t
Ġwe ak
ant ial
Ġbo ston
Ġhelp ed
Ġconc ert
Ġdam age
Ġag es
Ġf t
Ġcr us
Ġslight ly
Ġk a
Ġfl or
Ġattempt ed
al a
ab or
Ġportug ues
Ġremo ved
Ġf u
id ers
Ġle ar
Ġsat ell
Ġhung ary
Ġzeal and
Ġdisc overy
Ġrun s
Ġp p
Ġent ered
Ġgod s
Ġabs ol
Ġswed en
Ġdescript ion
Ġj ones
um in
Ġplay s
bo x
Ġtwent y
Ġfix ed
at ically
or ter
est ed
Ġmor al
Ġportugues e
Ġpresident ial
ony m
Ġz one
Ġimport ance
Ġdiam ond
Ġj azz
Ġbuild ings
Ġnovel s
Ġc ant
Ġla ure
ans as
Ġterrit ories
Ġcry st
g s
an o
Ġsh all
oun der
Ġpur s
Ġphys ic
Ġcos m
Ġconne ction
Ġt s
Ġb ol
Ġl ut
Ġst aff
act ive
ze ch
Ġdyn am
wor ks
in n
ig en
Ġk l
Ġform ation
Ġwin ning
en ing
ar c
Ġjud ge
Ġcom ics
Ġunderst and
Ġbudd h
im b
Ġco ol
Ġalex and
Ġinstr uments
Ġagricult ure
Ġcons cious
Ġgovern ments
Ġfact or
Ġdev ices
Ġestim ated
Ġexist ing
Ġdim ens
h al
Ġg oth
Ġev il
Ġcontrovers ial
Ġag reed
Ġresult ed
Ġarg ue
Ġoffer ed
Ġn one
er ved
Ġorigin s
Ġchrist mas
Ġtradition s
ell a
cul es
Ġtheore m
Ġfict ional
d on
rop ri
Ġtest ament
Ġspirit ual
Ġc ars
ag ing
Ġas ked
ren ce
Ġfact ors
r ig
Ġc zech
on ian
Ġwith d
Ġcomb ination
Ġanc est
Ġro om
Ġcommun ications
Ġca es
Ġthous ands
an cy
Ġsc hem
Ġexpl os
Ġtop ics
Ġaffair s
Ġle e
Ġo l
Ġheav ily
Ġl un
Ġg er
Ġst al
ord ers
Ġph ase
v ia
Ġb act
om orph
ian a
Ġdes ert
Ġdefe ated
Ġp ak
Ġperman ent
so ft
Ġab st
Ġcommun ication
Ġtown s
Ġconstitution al
Ġas h
Ġhold s
in y
Ġprot ocol
Ġann ual
Ġpron ounced
Ġfal se
v ant
ver e
Ġle aving
Ġbr and
Ġaust rian
Ġprotest ant
Ġhe aven
Ġfight ing
r ix
Ġman if
Ġrec ip
Ġviol ence
ou d
Ġst ay
Ġv iet
Ġact ors
Ġir an
Ġdr ink
Ġtrib es
Ġmaint ain
Ġind o
Ġcr ime
Ġident ified
Ġl ists
Ġar ist
Ġleaders hip
Ġto ld
Ġcan on
Ġpolit ician
Ġcry pt
Ġmom ent
h amm
Ġc rick
Ġp ray
am ing
Ġhy per
Ġdemoc racy
Ġhyp ot
Ġsubsequ ent
Ġenj oy
h i
Ġch os
Ġquant um
Ġaspect s
Ġfor ward
Ġch air
Ġmov ies
a ult
ar m
Ġnorm ally
Ġr am
Ġab andon
Ġma il
Ġcens us
Ġth ing
Ġsit u
Ġsold iers
ac her
Ġconcept s
Ġin put
ad o
Ġris k
ro ll
Ġangel es
Ġp ages
el and
Ġinstit utions
Ġcolumb ia
Ġsp ent
rug g
i ber
Ġpar ad
Ġext in
Ġeff ort
Ġdoctr ine
at o
ct ors
Ġgo es
Ġreal ity
Ġve get
Ġinvol ve
Ġstri p
Ġbelief s
Ġf ame
Ġreport s
Ġib m
Ġcateg ory
Ġintellect ual
Ġform ula
Ġstat istics
Ġpro of
Ġsh ap
Ġsac r
l as
Ġa ri
Ġtri ed
Ġgood s
Ġquest ions
Ġdefe at
Ġatm osp
Ġman ner
Ġinf ant
Ġdec ades
Ġs ides
Ġd ry
Ġfant asy
Ġfor um
Ġown ers
Ġneg ot
Ġmicro soft
Ġdetail s
Ġsupp ly
Ġst rugg
Ġmat ch
Ġpresent ed
Ġmeet ing
Ġnaz i
Ġmess age
Ġlear ning
Ġv ac
Ġar c
Ġle ave
Ġel iz
Ġexpress ed
qu ar
Ġmove ments
Ġadvant age
Ġf ash
Ġspe ct
Ġposition s
in ated
he ast
Ġw anted
Ġlin ux
Ġchap ter
Ġsem i
Ġexpress ion
Ġprofess or
ut s
Ġle w
Ġkill ing
Ġcreat ing
b and
z y
Ġbe ar
Ġed itor
Ġv ice
Ġsubsequ ently
Ġb w
Ġh ay
ch ar
Ġsk y
Ġrece ive
Ġey e
Ġre ach
Ġext ent
Ġcontin ues
Ġgre w
et y
Ġpl ot
Ġcre w
k ins
Ġf ounder
Ġb ang
Ġcl ock
Ġpie ce
i ations
Ġpro ceed
Ġopen ed
Ġhistor ians
Ġmach ines
Ġb il
Ġarch ae
Ġinhab it
Ġd v
Ġcurren cy
i que
b ury
Ġb os
Ġb ru
Ġw ant
or ters
Ġv ast
Ġcl ar
Ġra ised
Ġpa rents
Ġopen ing
Ġanal y
Ġpolic ies
Ġrough ly
Ġabsol ute
is f
Ġm cc
us es
un c
Ġst y
Ġconsider able
Ġcult ures
Ġpict ure
Ġinterpret ation
Ġra y
Ġconf ir
Ġpak istan
Ġcomm od
ose xual
Ġste el
Ġchron ic
e es
Ġdiv ine
Ġtransl ated
Ġastron om
i ary
z o
Ġpers ian
Ġparalle l
p ing
int on
Ġbod ies
Ġs le
is hes
ore n
Ġto wer
Ġchos en
Ġpro s
ess ion
Ġgreat ly
Ġtele ph
Ġfem in
it an
Ġat oms
Ġshort ly
Ġfail ure
Ġf asc
Ġn oun
Ġprocess es
Ġfar m
Ġcapt ain
Ġalle ged
Ġl en
Ġg ain
Ġind ones
Ġs ab
Ġc ine
Ġc ore
Ġsu d
Ġfin n
Ġcour ts
Ġcharacter istics
e v
Ġc ow
Ġf ried
Ġb ron
Ġsu ff
Ġelect ro
Ġequ ation
Ġadminist rative
Ġbab yl
Ġad apt
olog ies
Ġphilosoph ical
Ġdar win
Ġser ver
Ġhom osexual
Ġsymbol s
Ġsha pe
Ġpro port
oc ks
Ġmyth ology
Ġkil omet
Ġt an
ic ial
Ġorgan ized
Ġformer ly
Ġhard ware
Ġobser ved
Ġrespect ively
Ġkore a
og rap
Ġap ost
Ġpeop les
Ġregard ing
c ar
Ġn as
Ġbatt les
Ġm ort
ic ks
Ġel im
Ġswed ish
h ouse
Ġch ain
Ġ ion
in ity
Ġj pg
Ġpl ate
Ġtra d
Ġeconom ics
Ġphilosop her
ir ing
Ġrepresent ation
Ġfash ion
Ġf ro
le m
Ġbl ues
g reg
or al
Ġd j
ub e
Ġstr ict
Ġwor ship
Ġder iv
itz er
Ġne ither
Ġorder ed
Ġpract ical
Ġwal es
Ġresist ance
Ġor bit
Ġstud ied
ful ly
Ġhar mon
Ġcr is
Ġri vers
Ġstra ight
Ġt enn
re y
Ġchem istry
st ream
ot y
Ġex hib
Ġsus p
Ġe ld
ct s
ab eth
Ġro d
Ġcover ed
Ġenem y
Ġconc er
Ġneed s
Ġrevolution ary
Ġpie ces
Ġan ton
Ġe in
ly wood
con t
Ġspeak ers
Ġelectr ical
Ġcrim inal
Ġst ad
Ġas ian
Ġr um
Ġacc ur
Ġprincip al
ann ing
Ġsettle ment
Ġm ist
Ġand rew
Ġwhere as
Ġnav al
Ġfe at
omp an
Ġnar row
Ġd oug
ce ived
ag n
Ġnew ton
Ġpat ri
Ġproject s
r as
Ġc m
Ġjohn son
Ġis a
Ġk en
se y
Ġbw v
Ġs ail
Ġle on
Ġph on
Ġk g
Ġacc ompan
Ġfil es
Ġsupp osed
Ġtransport ation
k et
Ġcomp r
Ġhar m
Ġm ir
if ying
Ġrad ical
Ġb inary
Ġre ven
Ġsu fficient
Ġcar ol
ou red
Ġmin utes
Ġown ed
Ġmod e
Ġstor age
Ġgosp el
Ġjuris d
Ġdatab ase
Ġc ou
Ġw ides
Ġso vere
Ġrepe ated
Ġoccasion ally
Ġsovere ign
ak h
Ġany thing
Ġrail way
Ġh osp
Ġinterp re
Ġpurp oses
Ġcel tic
g u
Ġ ille
Ġpers ons
Ġdescrib es
u ous
it arian
Ġd ict
Ġmy ster
Ġeas y
re l
Ġr ates
Ġcom ing
th y
ell ow
Ġart ific
Ġdeg rees
Ġacadem ic
Ġs ister
Ġterm in
Ġaward ed
ut ation
ad d
Ġgen es
Ġprocess ing
Ġsal v
Ġoccup ied
y an
Ġinflu ential
Ġn fl
ter y
Ġun us
Ġpl ane
Ġdef end
Ġsol ar
Ġdrug s
is her
Ġsc and
Ġfre der
Ġinfin ite
Ġat he
Ġmich igan
Ġnewspap er
Ġl l
Ġg ay
Ġcommon we
Ġhous es
Ġa wards
Ġj on
Ġrel ation
Ġend s
Ġdet ect
Ġdialect s
ad ing
Ġtrans ition
Ġcommonwe alth
im s
Ġsome one
Ġpublic ation
Ġexpl an
Ġsay ing
Ġord ers
Ġmix ed
Ġcomm ander
Ġco ordin
Ġref used
Ġrand om
Ġk ent
Ġcons on
Ġsimilar ly
am i
Ġpl ans
Ġgr anted
Ġinst all
Ġis ol
Ġar rest
Ġfe ar
Ġjo int
Ġdesc end
Ġwee ks
Ġinde x
Ġlaun ched
Ġvill age
ag on
Ġte aching
Ġgu ine
Ġfest ival
Ġsatell ite
Ġ ie
Ġd anish
Ġh oc
ac he
Ġc row
im ent
Ġgr ant
Ġmed ium
Ġcirc le
Ġfle et
og ue
Ġfel t
Ġhin du
Ġa h
or ing
or der
Ġpe ak
el ess
Ġtra ffic
Ġachie ved
Ġselect ed
Ġr ational
Ġcom edy
Ġche ck
Ġchall en
Ġp ian
Ġapp ropri
Ġide al
Ġstreng th
z ant
en a
Ġh at
ot a
Ġra bb
Ġent ertain
Ġclass ification
Ġport ra
Ġfif th
i op
Ġf ine
Ġcol umn
Ġjo h
Ġsum m
Ġcolon ial
Ġbrother s
Ġc av
Ġch art
Ġimp oss
Ġclear ly
Ġliqu id
Ġt el
Ġd or
Ġl ot
Ġpartic les
Ġh ur
st one
Ġhung arian
Ġo w
ig a
Ġby zant
Ġsaf ety
Ġsurround ing
r ates
Ġden mark
Ġdisp ute
re te
ra ction
Ġcont ained
p read
en h
Ġp i
ic ism
Ġd iet
Ġd ensity
Ġha ir
Ġstr ateg
Ġdeterm ine
Ġinhabit ants
ic ide
Ġse vent
Ġpro hib
Ġagricult ural
Ġwides pread
t es
Ġse ctor
Ġte ach
Ġlab el
Ġaff ect
Ġabs or
Ġdeli ver
c ers
Ġk id
Ġpict ures
Ġen for
Ġopp ortun
Ġsn ow
g i
Ġall iance
Ġpr uss
Ġrec omm
Ġworld wide
Ġcris is
Ġad am
Ġunivers ities
Ġse ats
Ġdo ing
Ġprodu cer
Ġprov iding
Ġval id
Ġiss ued
Ġb ed
Ġh uge
Ġg ulf
ero s
ur ation
Ġsh ared
Ġro ot
Ġmin isters
Ġshow ing
i able
Ġc able
Ġex erc
Ġfo x
Ġult imately
Ġapparent ly
Ġs ons
an i
al ing
Ġin duct
Ġdistin ction
Ġh ind
Ġl yn
Ġr ub
the less
l ers
le te
Ġpl us
Ġox y
Ġmax imum
Ġsuffer ed
Ġstand ing
Ġnever theless
Ġdan iel
Ġthe rm
Ġb ac
ur ally
Ġbott om
Ġgen re
Ġl ies
et ics
ian ts
Ġtrans m
Ġoppos ite
v is
Ġs lo
Ġob l
Ġsecond ary
Ġang l
Ġlay er
Ġj ord
Ġch ile
Ġredu ce
Ġelectric ity
Ġvirgin ia
Ġf res
id den
Ġad vert
Ġag ency
Ġtra in
Ġfe ed
Ġprec ise
Ġmun icip
Ġp ed
et te
Ġk ir
Ġk ab
Ġchar l
Ġadv ance
Ġpract ices
Ġvis ual
Ġmeas ures
ac ing
Ġthr one
Ġcomput ing
Ġsw ord
Ġs ought
Ġprodu cing
Ġtre es
Ġcontinu ous
u ro
re c
Ġh our
Ġlin ked
Ġlut her
Ġeliz abeth
i at
Ġsupp orters
Ġset ting
Ġold est
Ġshow ed
it i
Ġy ellow
Ġun able
Ġab ol
Ġta ught
Ġtit les
Ġexcept ion
Ġemer g
Ġlegisl ative
Ġo m
Ġus s
Ġsyn d
Ġmanufact ur
t ion
am in
Ġp ione
Ġre in
Ġcon clud
Ġegypt ian
Ġdetail ed
Ġrare ly
Ġphr ase
Ġm es
ens es
Ġresp ond
Ġstrong ly
Ġinvent ed
in th
Ġst ore
Ġun iform
Ġend ing
Ġsil ver
Ġplat form
Ġa le
Ġeng ines
rop ol
Ġdecl ar
Ġmole cules
Ġharv ard
Ġcal vin
Ġalph a
cript ion
Ġsc en
Ġevery thing
Ġhit ler
Ġleban on
Ġk az
Ġrepres ents
Ġfrancis co
Ġmass ive
Ġdoc uments
Ġb es
Ġd ates
Ġro se
Ġsc iences
Ġgod d
Ġcontin ental
Ġcivil ization
che st
ra in
Ġar bit
Ġjo b
Ġconstruct ed
Ġpl anned
Ġcap able
Ġunderst ood
Ġt act
Ġb ure
Ġcomp onents
Ġed ge
Ġrecord ing
Ġhouse hold
ino is
Ġstep hen
Ġman ager
Ġbi ological
Ġinterest ing
Ġcapac ity
Ġimposs ible
Ġg erm
Ġmult i
Ġpal ace
Ġreject ed
Ġlew is
b f
k h
s en
Ġarran ge
Ġd ream
Ġsupp l
Ġrev ol
Ġcro at
Ġsaf e
em ents
Ġinvol ves
Ġjac ob
Ġgir l
e k
u ing
Ġs ar
Ġrad iation
Ġhistor ically
Ġguine a
ang el
Ġli ver
Ġcaes ar
Ġab d
Ġbel g
Ġgerman ic
Ġren der
Ġp d
Ġor chest
Ġthem e
Ġshe ll
Ġdep ression
r id
Ġj r
Ġcl inton
Ġab ra
Ġcons p
Ġcirc uit
Ġhol lywood
Ġindic ate
Ġexp anded
Ġill inois
Ġdest ruction
Ġcapt ured
Ġlic ense
Ġatom ic
av ia
Ġaccount s
Ġcham ber
s et
il ed
Ġman aged
Ġmar ine
Ġje ff
Ġgal ax
Ġpoet ry
w al
Ġr it
Ġdis m
Ġcolon ies
Ġperm it
Ġneigh bor
r ations
un k
Ġve ctor
Ġpen al
Ġsucceed ed
Ġs ke
Ġe ug
Ġtw el
Ġem ot
Ġcer em
Ġoxy gen
re m
Ġc hes
Ġb ag
Ġres olution
Ġdec re
Ġtur key
Ġbud get
Ġwr ong
f c
Ġhe m
Ġinter face
Ġpa id
Ġlog ical
Ġinterest s
Ġht ml
Ġp ul
Ġn ig
Ġd c
Ġnet works
Ġessential ly
Ġalf red
Ġprovin ces
Ġf ly
it led
Ġin du
Ġview ed
Ġsuper ior
Ġinstit ution
Ġassum ed
Ġm ental
ro ad
Ġsoc ieties
Ġcast le
Ġexact ly
c op
Ġr uth
Ġprop he
Ġauthor ities
Ġgramm ar
Ġto ols
Ġis o
Ġdem and
Ġrout e
Ġmuslim s
Ġadm ir
e z
Ġf ought
Ġsl a
ict ions
Ġyou th
Ġtr ust
o is
Ġd ual
Ġpl ain
Ġpubl ishing
Ġsou l
Ġpri est
Ġvis it
Ġcandid ate
Ġartific ial
Ġtwel ve
du le
Ġso le
Ġaut on
Ġbi ology
Ġlad y
Ġturk ish
Ġmere ly
Ġb ind
Ġh amm
ol es
Ġj ava
Ġreg ister
Ġrelig ions
Ġcy cl
clus ion
Ġjoh ann
u its
Ġst ran
ant e
ach us
Ġdevelop ing
Ġweap on
a res
Ġc ia
Ġpar am
Ġport ion
Ġsett led
Ġc ogn
Ġj ers
Ġob v
Ġstal in
i vers
Ġt u
Ġn it
Ġexpl icit
Ġrat io
Ġtheat re
Ġe at
Ġphil ip
Ġchamp ion
ic on
Ġass ert
Ġg ate
Ġre ally
et ary
Ġa w
Ġh orn
Ġal i
Ġpre ced
Ġrepresent atives
Ġwit ness
Ġgodd ess
Ġkore an
Ġcoal ition
Ġstad ium
Ġinvest ment
Ġobt ained
Ġwithd ra
Ġcan cer
Ġphilosop hers
Ġt all
Ġt rop
Ġhe ight
Ġam az
Ġsur pr
Ġver b
j a
Ġbr ight
Ġact ing
Ġcar ib
Ġdirect ory
Ġhistor ic
Ġcub a
Ġflor ida
c ome
Ġp in
Ġn omin
Ġser b
Ġmembers hip
Ġdra wn
Ġh u
Ġad ams
Ġinn ov
Ġobv ious
t ime
Ġs ie
if ul
Ġmer c
Ġsignificant ly
Ġmaint ained
Ġam pl
Ġca pe
ar ia
Ġle ct
Ġsocial ist
Ġimpro ved
il bert
Ġar k
Ġfin ite
Ġexpl o
Ġrapid ly
Ġrep rodu
Ġstr ate
Ġtr ig
Ġexper ien
Ġmer ch
Ġoccup ation
Ġey es
Ġcaus ing
Ġfeat uring
Ġf lying
Ġre act
Ġtw ice
Ġk ick
ak ers
Ġbl ind
Ġexport s
Ġded icated
Ġb om
x ide
y st
Ġc s
Ġover all
Ġdef ence
pect ive
te enth
Ġlist ed
Ġsk in
Ġstrate gy
Ġs i
Ġse mit
ant o
Ġsc ore
Ġequ ations
Ġthous and
Ġopin ion
p a
Ġt am
Ġapp ly
Ġminor ity
Ġreve aled
re hens
on so
ant ly
Ġeth iop
Ġmechan ics
Ġjord an
f all
Ġst able
ut en
Ġliter ally
i ency
et ts
Ġrom ans
Ġsuggest s
Ġdistrib uted
Ġs s
Ġbib l
Ġnap ole
Ġa e
Ġm aps
Ġstud io
Ġprop os
Ġax i
Ġeffic ient
Ġm amm
Ġk os
Ġag ent
Ġdef ine
ograph ical
Ġvis ible
Ġpen ins
Ġemploy ed
Ġit ems
Ġcl us
Ġarri ved
Ġd rop
Ġl akes
Ġacc ident
Ġcall s
Ġext ens
Ġref uge
Ġhold ing
Ġro ots
Ġmusic ians
Ġattrib uted
Ġviet nam
Ġmag ic
Ġv ision
Ġgen der
Ġtr ou
Ġsound s
Ġth row
Ġfir m
Ġcol ony
Ġmod ified
Ġfru it
Ġc oca
Ġband s
Ġsat isf
Ġst orm
Ġpublic ations
Ġsubject s
Ġtal k
r ight
Ġk ansas
ast s
Ġrep utation
Ġdomin ated
Ġcontrib uted
Ġlook ing
Ġconcer ning
Ġjers ey
Ġs out
Ġp se
Ġl yr
Ġta i
hamm ad
Ġs om
Ġf ab
Ġl ind
Ġal c
Ġer ror
ane ous
Ġyoun ger
Ġdomin ant
Ġtemper atures
Ġnecess arily
Ġan at
Ġle x
ap pe
Ġoffic er
Ġep ist
Ġhop e
Ġportug al
claim ed
Ġbe er
Ġruss ell
Ġmass achus
Ġcab inet
Ġf oss
Ġmo ore
Ġkenn edy
y er
Ġg or
Ġse lection
Ġpet ro
Ġprote in
Ġreb ell
Ġd ies
Ġl an
ur b
Ġro w
Ġag o
Ġvari ations
Ġpse ud
Ġmassachus etts
en ger
Ġpart ners
Ġmin istry
Ġexist ed
Ġrecogn ition
Ġpsych ology
Ġabra ham
h o
Ġr ig
op le
Ġhow ard
Ġeffect ively
Ġsam uel
Ġhoc key
he im
Ġb ot
Ġsp in
Ġperiod s
Ġdecl ine
Ġindian a
Ġstri ke
d own
Ġb ic
it o
Ġnum er
Ġext ension
Ġstand s
Ġsain ts
Ġcomp ounds
Ġfrank lin
Ġcircum st
o en
Ġcom ed
t own
as ka
Ġbr ig
Ġent itled
Ġexp ensive
Ġfeder ation
rap y
Ġhaw ai
Ġdang erous
Ġgeorg ia
h ard
Ġin her
ith ms
Ġcomp at
Ġall ied
Ġrem ark
Ġmain stream
Ġcle an
Ġsepar ated
Ġenc oun
Ġmechan ical
Ġgraph ics
Ġb its
Ġex cess
Ġco ach
Ġpo em
Ġcho ose
Ġalle g
Ġwilli ams
Ġaud ience
Ġnick n
Ġf ert
Ġas p
Ġchang ing
Ġmal es
e f
Ġ ul
Ġm outh
Ġr on
Ġhor iz
Ġbelg ium
Ġrec onst
Ġatt end
Ġmet aph
Ġshe l
Ġofficial s
Ġaff ected
Ġcommit ted
Ġvirt ual
Ġneut ral
Ġa qu
le g
Ġalbum s
burg h
Ġconcern ed
k o
Ġt ig
Ġhe ard
Ġbro ken
Ġmat ters
Ġocc as
Ġsal es
Ġban ks
Ġtry ing
Ġw ed
Ġhe t
Ġdesign s
Ġsal t
Ġhus band
Ġh ors
Ġrel at
Ġdv d
Ġg ent
Ġup d
Ġk it
Ġbir ds
c rib
r at
Ġast ro
Ġtre ated
e ing
p an
ot er
Ġbro ke
Ġoper a
Ġnav ig
Ġexec uted
Ġrelationship s
Ġhundred s
f are
s d
Ġt on
Ġac ce
Ġappe al
Ġnear by
Ġdra ft
Ġschol ar
Ġbehav i
Ġr ic
Ġform ally
Ġkn ight
Ġjo in
Ġlead s
Ġrequ est
Ġcost s
Ġintellig ent
Ġm ent
ent ed
Ġv s
Ġpart ly
Ġang lo
Ġlegisl ation
Ġbibl ical
j o
Ġw el
be an
Ġestablish ment
i ology
Ġin ner
Ġl ux
Ġv ic
Ġconcent ration
Ġd ol
ro se
Ġr ival
Ġev olved
Ġsign s
Ġpattern s
Ġto ol
ol ar
ut ing
Ġmet ropol
v ak
Ġc odes
Ġh ip
ad el
Ġun cle
Ġpr ices
yl v
Ġeduc ational
Ġvehic les
ar us
Ġk al
Ġlo yal
Ġrem ember
Ġfav our
Ġans wer
Ġacce ler
Ġb ce
ou l
rom e
Ġat ari
Ġhistor ian
Ġeth ics
Ġren amed
is er
Ġover se
Ġinvol ving
Ġamount s
Ġunus ual
e w
w ater
Ġv ess
Ġrec on
Ġdon ald
Ġincorpor ated
Ġt ren
Ġdistingu ished
Ġvehic le
unc iation
Ġdeclar ation
o oth
Ġs ed
Ġth in
Ġcop y
Ġpain ter
Ġbib li
n g
Ġg ab
Ġparliament ary
Ġord inary
Ġsty les
Ġw olf
Ġser ving
Ġunder ground
Ġrul ers
Ġtour ism
Ġpred omin
Ġmathematic ian
Ġatmosp here
r us
Ġw ire
Ġun less
Ġle aves
Ġoffic ers
Ġhead s
Ġpain t
Ġabb re
Ġgard en
Ġt ail
il ton
Ġpre par
Ġer r
Ġhosp ital
ag u
Ġman us
Ġpartic le
Ġhar ry
Ġsupport ing
Ġbal ance
Ġsubst ance
Ġepis odes
Ġconscious ness
Ġcon j
Ġk er
Ġacc om
Ġreg ime
Ġsym pt
Ġvow el
Ġh ang
Ġfor th
Ġsp aces
Ġany one
Ġer n
Ġsubst it
Ġmolec ular
Ġfinn ish
Ġt ab
in ations
ct ic
Ġein stein
Ġl em
el ine
Ġlord s
com mun
Ġf aster
Ġfin ished
Ġnor way
Ġprop ag
Ġident ical
Ġcollect ed
Ġbyzant ine
Ġaccom pl
Ġl t
ru ctions
Ġbre ed
Ġaltern ate
Ġpun ish
Ġgradu ally
Ġtas k
Ġmob ile
Ġvel oc
Ġcu is
Ġv ul
Ġsu icide
ke ley
Ġkn ights
Ġfunction al
Ġcorrespond ing
rane an
Ġphysic ist
d o
Ġh ier
ot he
Ġnot ion
Ġg ang
Ġhe ra
Ġex clud
Ġnew ly
Ġinst ruction
Ġmet ers
Ġexp ed
Ġconvent ional
Ġgeomet ry
Ġcine ma
um es
Ġtra ding
Ġj ump
Ġsc ul
Ġres idents
Ġpat ients
Ġinfl ation
Ġsuccess or
Ġmath bf
Ġches s
Ġcal c
enn a
ipp ed
Ġpenins ula
Ġhe rit
Ġr ural
Ġor b
Ġcomp rehens
Ġsa ve
Ġins ur
Ġmark ets
Ġexpl or
Ġcharacter istic
Ġadd ing
Ġabst ract
Ġm t
Ġemper ors
Ġwall s
Ġconver ted
ylv ania
Ġmanus cript
s is
Ġh ack
Ġse ctions
Ġbo ys
Ġlog o
Ġvari able
Ġal an
Ġrec over
Ġbat man
Ġsuccess ion
Ġal k
Ġear l
Ġdec ade
Ġconsist ing
Ġcateg ories
d ed
s s
Ġa ber
Ġsh ad
Ġad ap
ins on
Ġhead quar
Ġber keley
c hen
il ing
ce l
Ġwe ather
Ġbir d
h u
un der
Ġmem orial
Ġsur vey
Ġdraw ing
Ġacqu ired
Ġcarib bean
t ure
Ġk at
Ġall ies
Ġdimens ional
j ection
Ġp ent
Ġd od
Ġspe ctr
Ġsim on
Ġhum or
Ġmagn etic
Ġconvers ion
Ġpray er
Ġabandon ed
Ġpl ural
Ġopp onents
Ġlib r
Ġindones ia
Ġd ick
el a
Ġgu y
Ġsl av
Ġpa rent
Ġfrequ ent
Ġconstant in
Ġcart oon
Ġappropri ate
op p
ok ed
Ġwar fare
Ġreform s
Ġott oman
Ġspectr um
Ġp ig
Ġg iant
ud es
Ġcons ult
Ġinc ident
Ġmeas ured
Ġsuccessful ly
Ġmi ke
m o
Ġgen us
Ġfact s
Ġgn u
Ġst ored
Ġfor b
Ġcol our
Ġoff ensive
Ġed ited
Ġgre g
Ġjud icial
Ġconcern s
Ġo re
st an
Ġst ress
Ġk ra
Ġcomp onent
Ġres emb
Ġcomplex ity
Ġphenomen on
Ġolymp ic
Ġm orn
Ġmin imum
Ġes cape
Ġpass ing
Ġlow est
Ġsubst antial
Ġcompar ison
Ġalexand ria
Ġexperien ced
ip her
Ġbr un
Ġclass ified
Ġsol o
Ġcapital ism
Ġdoub t
u ch
il it
op her
Ġcol ors
Ġatt ended
Ġstr ings
Ġsw itzer
Ġposs ibility
Ġess ay
Ġkar l
Ġlearn ed
Ġgh ost
e qu
Ġt ank
Ġinter ior
Ġic eland
Ġconsum ption
j an
av ed
Ġme at
Ġdem ograph
Ġarg uments
Ġcapt ure
Ġlun ar
Ġthe ology
Ġin qu
Ġst im
Ġhe ar
Ġr if
ition s
Ġaccur ate
Ġbal tic
Ġscul pt
Ġle v
Ġcomp act
Ġcl in
Ġem pt
Ġjo e
Ġprof it
Ġimm igr
Ġmultip l
Ġbran ches
Ġax is
Ġdoll ar
Ġv ent
Ġqu ad
Ġmay or
Ġbas ket
Ġmanufact uring
Ġsell ing
al o
Ġon to
j i
Ġwhe el
Ġev al
Ġfl av
Ġfurther more
Ġm ong
Ġex cell
Ġmed iter
Ġcolle ges
Ġdemograph ics
s m
Ġb eng
et he
Ġra cing
Ġlim its
n i
Ġsp ot
iss ance
Ġimplement ation
igen ous
Ġswitzer land
Ġprob ability
Ġut il
o ly
le ts
os a
Ġwor th
Ġsy ll
Ġconstant ine
Ġconduct ed
Ġteleph one
Ġmediter ranean
Ġv oy
Ġco ff
Ġvol can
Ġste ve
Ġs oph
il a
Ġcomp ression
Ġdis appe
vel t
Ġper ceived
Ġmed al
o ir
Ġind igenous
ath an
Ġthem es
Ġnor we
Ġorgan ic
Ġpain ting
Ġobl ig
h us
Ġn ode
Ġd ale
Ġes per
Ġbru ce
Ġangl ican
g el
Ġa ids
Ġal ien
Ġv oting
pt on
Ġmiss ile
Ġwat ch
Ġan ch
Ġk r
Ġro ose
Ġins ert
Ġexpl ained
na issance
Ġmechan ism
Ġdro pped
n ia
Ġsy ria
Ġexpl ain
Ġwal k
Ġbur ied
Ġham ilton
Ġcolumb us
Ġholid ay
h ire
ap se
Ġev angel
Ġbu ff
Ġfind ing
Ġviol ent
Ġfres h
Ġb in
Ġl isp
ul ating
Ġk ur
ug os
Ġcar rier
Ġdav is
app ing
Ġfell ow
Ġprefer red
b ell
o a
Ġoper ated
Ġple as
h r
ubl in
ific ations
Ġair lines
Ġbond s
Ġoh io
Ġbe ings
Ġst u
Ġso il
Ġph oen
Ġpre f
Ġass igned
Ġtri p
Ġcoast al
Ġintegr ated
Ġlaun ch
Ġdia gn
Ġdepend ent
Ġb rian
Ġg ran
ot o
ag en
Ġstat ements
uck y
Ġbact eria
f o
ro it
Ġchar ged
Ġmu hammad
Ġorgan isms
Ġho le
Ġroose velt
ic ians
Ġcorpor ate
Ġexplan ation
z en
go ing
Ġdise ases
Ġfamil iar
Ġmars h
p oint
w ick
Ġc ul
Ġl amb
Ġg ary
ur as
ac c
Ġcall ing
Ġstat ist
Ġdefinition s
Ġdoug las
Ġn ut
ing ly
Ġmon ster
yl an
arc hers
Ġcircumst ances
d y
Ġle ap
Ġacc used
Ġgre y
ps on
Ġpd f
Ġs id
Ġd io
Ġg em
Ġbe ars
Ġst ro
Ġha z
Ġfl ed
Ġfair ly
Ġpenn s
Ġp us
Ġsc he
Ġgal ile
Ġargent ina
Ġstrugg le
Ġpian o
Ġc rop
Ġd re
Ġv otes
Ġkey board
Ġclos er
Ġorient ed
Ġtou ch
al y
Ġdiv isions
Ġappro ved
Ġdocument ary
Ġwil son
Ġtrop ical
ill es
Ġgener ated
Ġsw iss
Ġalgor ithms
Ġhier arch
Ġh ans
Ġg y
Ġfl ood
Ġfound ing
Ġphil ipp
Ġamong st
Ġcamp us
Ġscient ist
Ġprote ins
Ġherit age
at he
Ġl ud
Ġr id
Ġdet roit
Ġcharacter ized
Ġwal ter
Ġbound aries
Ġvirt ually
Ġj ar
ort ion
Ġsp elling
Ġag ents
Ġexec ution
Ġelse where
Ġinduct ed
Ġr ising
Ġmo ves
Ġsh ock
Ġcl oth
Ġmar c
hed ral
Ġexperim ents
Ġcalcul us
Ġbish ops
Ġlyr ics
Ġcuis ine
Ġnorwe gian
Ġt ag
Ġdis order
Ġdes ire
Ġstep s
Ġille gal
an y
Ġg ather
Ġincre ases
Ġdel ta
Ġindust ries
Ġrese archers
Ġthink ing
Ġskill s
Ġflo or
Ġpenns ylvania
b l
Ġt one
Ġn y
Ġch lor
Ġcontin ent
Ġens ure
Ġsympt oms
j e
k t
al ism
Ġy es
Ġexperim ental
Ġro les
Ġte acher
Ġarm en
Ġpalest inian
Ġd ylan
Ġor ange
Ġsh ut
Ġli bert
Ġinflu ences
Ġfall s
Ġpil ot
Ġbeaut iful
Ġd ublin
Ġform ing
Ġhill s
Ġbenef it
Ġw aves
im a
Ġret ired
Ġgree ks
Ġrequire ments
Ġbeg un
g ments
Ġpro ve
Ġsee k
Ġchar ges
Ġac ids
Ġdi vers
Ġfinal ist
Ġgrav ity
Ġprep ared
Ġadmir al
b ed
t z
Ġa ero
Ġm orm
Ġh ond
Ġcan al
Ġpart ner
Ġgun s
in us
al i
Ġk im
os ing
Ġsing ular
Ġpass age
Ġwin ner
amb ig
Ġassist ance
Ġsle ep
Ġt ast
Ġh its
Ġsur f
Ġdep ends
Ġang els
Ġgib ral
Ġhypot hesis
Ġm ol
ran ce
Ġes p
Ġport ray
Ġlithu ania
Ġgerm ans
Ġconstantin ople
he rent
Ġb orders
Ġat hens
Ġjo y
hip s
Ġdesc ent
Ġresour ce
Ġtheore tical
Ġgro wn
Ġmorn ing
Ġa ce
Ġe cl
ch y
ot ers
Ġr ice
Ġsign als
Ġtal es
Ġemer ged
Ġtransm ission
Ġveloc ity
Ġ um
Ġs ight
Ġf en
Ġh iv
om er
Ġr ud
Ġy ah
Ġam end
ord s
Ġag ave
Ġgl ac
Ġaddition ally
Ġvis ited
Ġident ify
Ġmot iv
aw a
Ġinfant ry
Ġint ent
Ġres erve
Ġpo ems
Ġdec isions
Ġnorth west
Ġtest ing
Ġros s
Ġbapt ism
Ġflu id
Ġfreder ick
e en
Ġc ert
Ġh ou
ir ation
Ġdo or
Ġprodu ces
Ġdep th
Ġpron unciation
Ġelectr ons
Ġgibral tar
w ers
Ġmain land
Ġtre as
Ġin se
Ġre ne
Ġpart ial
Ġprof ile
Ġpier re
Ġarist ot
Ġentertain ment
Ġn g
ay a
Ġcont rad
Ġtest s
Ġfac ilities
Ġdri ven
Ġintegr al
Ġdistingu ish
Ġanne x
Ġchair man
Ġt ens
Ġs ig
Ġc ash
Ġpop ulations
Ġbas que
Ġre vel
Ġpres id
Ġvar iant
Ġmill enn
Ġopp onent
Ġsol utions
Ġrul er
Ġevolution ary
b ish
h um
Ġg if
og y
Ġbow l
Ġconqu est
Ġb ull
Ġin g
Ġst ret
Ġsh ift
Ġla id
Ġpres erved
Ġcr imes
Ġlabor atory
Ġprint ed
b re
Ġb urg
Ġw ine
os ph
ab ilities
Ġpers pective
Ġrit ual
Ġp el
om ial
Ġper p
Ġpol ar
Ġshap ed
cont in
Ġhoriz on
Ġnot ation
Ġcomp ound
Ġchar ter
Ġann oun
Ġattack ed
Ġhab it
Ġschem e
Ġnapole on
Ġo k
Ġs ad
Ġth or
om es
et ers
Ġex ile
Ġatt ached
Ġtri ang
in ate
Ġb ug
Ġcol omb
Ġdep os
Ġret rie
Ġchann els
Ġkeep ing
Ġextin ct
id ae
Ġhe li
Ġpro l
Ġwat ers
s a
Ġb og
ak a
Ġtra cks
Ġdra gon
Ġground s
Ġclub s
Ġemphas is
Ġproced ure
Ġkilomet ers
Ġrebell ion
Ġres idence
Ġfran ch
Ġleg acy
Ġpred ict
Ġmunicip al
b ar
Ġp as
Ġm ouse
Ġd ating
Ġal g
Ġab use
Ġloc ations
Ġgre gor
Ġmean ings
Ġjour ney
Ġdiplom atic
Ġon tar
Ġus ual
Ġro y
Ġgo als
Ġmar ia
Ġvol t
Ġbound ary
Ġc ass
ist ed
Ġpl anning
ru ption
Ġover view
ploy ment
Ġsus pect
f ort
l an
Ġdirect ors
Ġjud ges
Ġcomprehens ive
Ġn an
Ġd ur
Ġpart ially
Ġrefer ring
Ġcor ps
Ġnat urally
Ġrest aur
Ġsug ar
Ġontar io
c al
Ġc ited
Ġb ach
iet h
Ġsim ult
Ġarch bish
Ġcitiz en
Ġconsum er
Ġvoc al
d i
h l
ter ing
Ġsc hed
Ġang le
Ġcertain ly
Ġcla ud
Ġjurisd iction
ar ians
Ġrepresent ing
Ġliber ty
Ġfill ed
Ġdis ney
Ġrepresent ative
Ġvow els
Ġdescend ants
Ġesper anto
n et
Ġthe od
Ġthe olog
Ġhe s
Ġnot ice
Ġpo ver
Ġwe ar
Ġpap ers
Ġcontrib utions
w ald
en stein
Ġvar ies
Ġpat ent
Ġprot ected
Ġsold ier
Ġroad s
Ġcond em
Ġf ug
Ġex ceed
Ġexper t
Ġcy pr
Ġcle ve
Ġengine er
Ġstar ring
Ġrespons ibility
Ġmanif est
Ġpover ty
i ac
Ġbe ach
Ġequ ator
Ġult imate
Ġenfor ce
ro g
Ġk el
Ġro ger
pl ay
Ġco vers
Ġkn ew
Ġinter action
Ġimport s
Ġrh yth
Ġcarry ing
Ġenem ies
re p
Ġto x
rom agn
Ġdef ensive
iss ions
Ġrem ove
Ġlong est
Ġhead ed
kn ow
Ġcomment ary
Ġd al
Ġk han
em ble
Ġcamp s
Ġopportun ity
Ġhors es
i ative
Ġl iv
Ġth ro
Ġvi enna
Ġphot ograph
Ġdistrict s
Ġk y
ip h
Ġgo og
Ġsl ave
o ys
ol is
our se
pp ing
Ġbo at
Ġconstit u
Ġobt ain
Ġenter pr
Ġl am
Ġpro sec
Ġx x
Ġleg it
Ġland ing
Ġeas ier
Ġsen ator
l ife
r int
Ġa ar
Ġto l
ri ers
Ġsh op
Ġtechn ologies
Ġconf used
Ġperform ing
Ġuk ra
Ġsurv ived
Ġpercent age
Ġcav al
Ġa u
Ġv it
Ġwar m
Ġvar iation
Ġfollow ers
Ġsur ren
rop y
Ġhor ror
Ġdifficult y
wor ld
Ġshar p
Ġdism iss
Ġheadquar ters
Ġt ut
Ġs od
or ic
ph al
Ġmet all
Ġmat rix
Ġown er
Ġorgan isation
Ġer ic
Ġbrief ly
c s
m at
Ġf aced
Ġb uck
Ġh ann
Ġre actions
Ġar n
Ġear n
Ġpres idents
ane ously
Ġstruct ural
Ġcoll apse
Ġkind s
Ġcelebr ated
Ġku wa
writ er
Ġtai wan
Ġrelat ivity
Ġsched ul
k in
Ġch ad
Ġma h
Ġoper ate
yn am
Ġben j
Ġindic ates
Ġbul gar
Ġcompos ers
Ġmetropol itan
Ġcleve land
Ġs end
Ġe ty
Ġto t
Ġar ithm
Ġvar iants
Ġbro ws
Ġcommun ism
Ġconf ig
Ġdid n
Ġget ting
Ġinterpre ted
i ot
Ġt ong
Ġw els
Ġorigin ated
Ġdeb t
Ġd y
Ġdown town
Ġcop ies
Ġbibli ography
f e
Ġcon greg
Ġun ic
Ġac know
Ġphot os
Ġmonarch y
Ġlaure ate
ic as
Ġal ign
Ġso x
Ġabs ence
Ġsen ior
Ġseem ed
Ġcryst al
er ves
Ġm s
Ġst ages
if er
Ġafter wards
Ġmin ute
Ġdep ut
Ġsun day
Ġpossess ion
Ġforest s
Ġvictor ia
Ġety m
Ġt iss
Ġf m
Ġw ound
Ġg one
Ġr ib
ire ct
Ġbl ow
Ġhuman ity
Ġprop het
Ġthir ty
Ġenc od
Ġfried rich
Ġemerg ency
Ġpresid ency
Ġa ven
Ġd os
st ers
id el
ath y
Ġconst ell
ruct ure
Ġconfir med
Ġnas a
Ġabbre v
an th
Ġl is
Ġcont est
Ġsym p
Ġearth qu
Ġvict ims
Ġpit ch
sh ire
Ġcred ited
Ġdeli ber
ograp her
Ġb un
Ġp yth
Ġin ch
Ġun ix
Ġele ph
Ġcar ter
Ġke ys
Ġtransl ations
Ġprom ote
Ġencoura ged
in der
Ġj ama
Ġchrist opher
Ġmy st
z illa
Ġb art
Ġcon ven
Ġwh it
Ġj et
Ġbel arus
Ġsouth west
Ġsubst ances
Ġlen in
m ond
w art
Ġt ay
Ġc ave
os ure
ag a
Ġoff ers
Ġinst ructions
Ġport s
Ġanim ated
Ġprofess ion
Ġcandid ates
Ġbron ze
Ġlibr aries
Ġs anta
Ġm p
un ct
Ġcon sec
Ġass ault
Ġmem b
Ġarm ies
Ġanti qu
Ġredu ction
Ġcolor ado
Ġhapp ened
Ġtransfer red
Ġbenj amin
d or
Ġf ib
Ġb av
Ġap oc
Ġbas es
Ġbu y
ik h
Ġant ar
Ġpass enger
Ġevery one
Ġcop per
ira cy
Ġfoc used
Ġmex ican
p ool
un ction
Ġhe x
ke e
Ġrom antic
Ġnat o
Ġdiscuss ed
wor th
Ġprem ier
Ġbehavi our
p es
ow a
Ġch al
Ġch ose
Ġar row
Ġam ate
Ġcl ient
Ġrel ief
Ġep ic
Ġless er
che ster
Ġcred it
Ġs ust
Ġp ir
Ġmar g
Ġwar ri
Ġinter vent
Ġmat the
Ġcur t
Ġhun ting
Ġtit led
Ġlingu istic
Ġchrom os
Ġbern ard
Ġsout heast
r ator
Ġlist ing
lo ad
Ġcontinu ing
g ue
iv als
Ġfun ds
Ġperson ality
Ġdisp uted
Ġsud den
Ġsynd rome
r atic
Ġs q
Ġm ile
Ġg ly
Ġsu it
Ġfl ash
Ġart istic
Ġprov ision
Ġpat ient
Ġbor row
Ġphenomen a
Ġp ng
or a
Ġre aching
Ġman ip
Ġgu ar
Ġregard less
Ġic on
Ġautom ob
Ġdia gr
onym ous
Ġbasket ball
Ġhou ston
Ġwels h
Ġd ir
if ies
Ġspeak er
Ġtwent ieth
Ġrestrict ed
Ġrestrict ions
oca ust
Ġassass ination
Ġholid ays
Ġcypr us
e ur
Ġc ot
Ġth ick
un te
Ġpro ven
op es
ak ed
Ġarch ive
Ġhol ocaust
Ġplan ets
Ġconsist ent
Ġcarol ina
y stem
re ct
Ġd d
Ġl ion
om a
Ġhas h
Ġres ident
Ġpo ison
Ġcamp bell
Ġeth ical
Ġlos ing
Ġcompar ative
Ġisa ac
Ġempt y
ugos l
Ġre verse
Ġy ugosl
Ġeng aged
Ġsec ure
Ġste ad
Ġsurv ive
Ġuns u
Ġcommod ore
Ġs or
Ġm ira
Ġcomm ons
Ġsec ular
ik a
els on
Ġbre aking
Ġengine ers
Ġbal d
Ġreb u
Ġbapt ist
Ġlas er
Ġowners hip
Ġt ony
Ġto ler
Ġg ord
Ġis ot
Ġun ity
ab il
Ġpers ec
Ġoper ator
Ġsent ence
Ġsqu ad
Ġstatist ical
Ġh oney
id o
Ġr ug
Ġle o
Ġdis put
Ġpres um
Ġec cles
Ġchance ll
Ġunc ertain
Ġne ck
Ġsh ah
Ġdis ambig
Ġbo eing
Ġgr ass
Ġsub mar
Ġvol unte
Ġvir us
Ġpsych ological
Ġsac red
Ġprogress ive
Ġrank ed
o h
Ġb h
Ġd uck
il st
Ġcon go
Ġag gress
Ġlo ose
Ġav o
Ġlic ens
Ġgall ery
Ġsla very
Ġcont rary
Ġser ves
Ġins ul
Ġdi verse
Ġmor ph
Ġcat hedral
Ġadmin ister
Ġdemocr ats
Ġimplement ed
Ġgoth ic
w all
Ġre vers
Ġhe in
Ġher bert
ov o
Ġhom er
Ġterrit orial
Ġredu cing
Ġhot el
Ġdistinct ive
Ġchallen ge
Ġc f
Ġw ish
Ġre naissance
Ġmar ks
Ġmon op
Ġelect oral
Ġoffic es
Ġdra g
Ġcoup le
Ġadap ted
Ġdio xide
b olic
Ġs her
Ġw y
il i
ac ent
Ġinsur ance
Ġt ap
Ġc ad
Ġn ich
Ġre ar
Ġse asons
Ġun em
Ġcl ark
Ġres ol
Ġco le
Ġout er
Ġbet a
Ġanth ony
Ġhet ero
Ġsurren der
z er
Ġt ang
or gan
Ġinf rast
Ġrem ov
Ġste am
Ġcivil ian
Ġrul ing
Ġfem ales
Ġswit ch
Ġmorm on
st anding
Ġal aska
ir y
Ġar ray
Ġest ate
Ġsl aves
Ġmac int
Ġdut y
Ġcritic ized
Ġinvestig ation
Ġd ress
le um
Ġconqu ered
Ġpoll ution
Ġbure au
Ġen l
Ġexper iences
Ġdel ay
Ġdescrib ing
Ġdim ension
Ġadj ust
Ġesc ap
Ġc um
Ġe li
Ġno ble
Ġco in
ts ky
Ġcar n
Ġhigh way
Ġspecial ized
Ġcath ol
Ġbig gest
Ġadvert ising
Ġkaz akh
Ġpenal ty
w ig
Ġd ot
Ġen orm
Ġdis ag
Ġsecond s
Ġdri ver
Ġdemonst rated
Ġtrig ger
Ġexped ition
Ġk ern
Ġsub t
Ġbal t
Ġcaval ry
u able
Ġs ic
Ġl ose
ch o
Ġch ip
Ġcont ra
Ġmar it
Ġstart s
Ġmass ac
Ġapprox im
Ġobserv ations
Ġcircum c
Ġb anned
Ġn i
Ġj os
Ġsh r
Ġsh if
Ġres c
Ġfe ud
Ġbl ade
ob i
Ġwind s
Ġmax im
Ġpetro leum
Ġbulgar ia
d in
Ġk ash
Ġro cks
Ġme g
are t
Ġdep icted
Ġret ained
Ġrece iving
Ġinte ger
Ġcoff ee
Ġdisambig uation
c ow
n ament
Ġen ab
Ġlo op
Ġelect romagn
Ġdifferent ial
Ġconf usion
Ġsym ph
Ġd rew
Ġcon clusion
Ġj ok
Ġspec ified
Ġcorn er
Ġlif et
Ġrecip ient
Ġstrateg ic
a ug
Ġt ight
Ġa us
Ġh ipp
Ġtra ined
Ġher self
az a
Ġlat via
Ġtrib e
Ġregular ly
Ġisol ated
adel ph
s ch
Ġg amm
Ġde ck
Ġge ographic
Ġturn ing
Ġdecl ined
Ġess ays
Ġelectron ics
Ġexclus ively
d am
Ġacc us
gr oup
Ġinv ention
Ġir re
Ġdiv or
Ġdoes n
Ġcam era
Ġbab y
Ġprison ers
Ġtell s
ut er
Ġal umin
Ġbr id
Ġimp rison
Ġste ven
Ġve ter
Ġsuper man
Ġswe et
Ġbic y
b ec
f ish
Ġp ars
Ġin fer
Ġst er
Ġsu re
Ġsh ore
Ġturn s
Ġeduc ated
Ġcele b
Ġcp u
b orn
f el
Ġre cept
ol as
Ġch ick
Ġbenef its
Ġcooper ation
Ġaccompan ied
Ġscen es
Ġethiop ia
Ġp y
ou st
ing ton
ian g
Ġam iga
ell o
Ġgu er
Ġcor p
Ġstat ue
Ġinterest ed
Ġsepar ation
Ġvary ing
Ġcathol ics
Ġf lex
ven ess
Ġmo od
ac a
Ġra ces
Ġass ign
Ġclaim ing
Ġliber ation
Ġdut ies
Ġintegr ation
Ġsitu ations
c ill
c ope
w es
Ġg au
Ġtw in
Ġwh ate
Ġdis aster
Ġind ians
Ġmore over
Ġext ract
Ġfall ing
Ġslow ly
Ġari z
Ġpatri arch
Ġgalax y
Ġwhate ver
m outh
Ġm igration
Ġis le
Ġas k
du ctor
Ġph osph
Ġeu cl
Ġjul ian
Ġmolec ule
Ġgregor ian
o que
t ra
Ġt uring
Ġd ru
Ġpublic ly
Ġperson nel
Ġwik i
Ġestim ates
Ġarrange ment
Ġaristot le
Ġs ample
Ġne p
Ġcap it
Ġgl uc
Ġsym met
Ġatl anta
Ġconne ctions
e a
r ical
Ġn am
ro t
ol i
Ġad ject
Ġche ap
wh ile
Ġinvolve ment
Ġeld er
b u
p o
Ġt ale
Ġs ans
Ġs ale
Ġh art
Ġg ates
Ġam mon
Ġab c
Ġall en
Ġvar ieties
ost ic
Ġgra ce
Ġwon der
Ġstre am
Ġcreat or
Ġsynt hesis
Ġunf ortun
Ġpl astic
Ġir anian
Ġhand ed
Ġdi ver
Ġver se
Ġquant ity
Ġautom atic
Ġexclus ive
u v
Ġt et
Ġa y
Ġc ous
om on
Ġat hen
Ġint ention
pl ace
Ġvol umes
Ġconfeder ate
Ġdram atic
Ġcrick et
Ġsovereign ty
Ġmanufactur ers
Ġinfrast ructure
Ġmacint osh
Ġthe or
Ġwh ilst
Ġj ane
Ġcoll abor
Ġsurv iving
Ġsup ers
Ġairport s
Ġmos cow
Ġoverse as
Ġarchbish op
Ġs ult
Ġp ip
Ġd uc
as m
Ġpass es
Ġdev il
Ġanim ation
Ġill ness
Ġprom pt
Ġcommer ce
Ġobserv ation
Ġcitizens hip
k an
Ġp agan
ow ed
Ġun o
Ġsp ell
Ġco ven
Ġob so
Ġsupport s
Ġib n
Ġalgebra ic
Ġeffic iency
Ġprin cess
Ġstrict ly
Ġpunish ment
Ġo ption
Ġun re
Ġun com
Ġman ual
Ġear ned
Ġenjoy ed
Ġkuwa it
Ġunsu ccess
k el
in er
Ġc ate
at us
Ġw ings
Ġk am
Ġass ess
Ġprocess or
Ġast ero
Ġtro tsky
Ġbabyl on
Ġportra it
Ġpermit ted
Ġ vern
Ġc ord
Ġsix th
ard o
Ġcl im
Ġra w
Ġterm inal
Ġteach ings
Ġdeliver ed
Ġintervent ion
Ġlifet ime
Ġariz ona
c ht
p age
s es
w ing
Ġfl oren
Ġpolit icians
Ġdesign ated
Ġmiss iles
Ġlegend ary
Ġpair s
Ġ ere
Ġf red
Ġhe ir
Ġv oted
ill ed
Ġy an
Ġser ial
Ġcount ies
Ġmill ions
Ġta pe
Ġproper ly
Ġcover ing
Ġmix ture
Ġreplace ment
Ġcompat ible
Ġt ort
it udes
es ian
Ġj am
ub st
ress ive
Ġconsider ably
Ġtem por
Ġdev oted
Ġfight er
Ġtor ah
Ġinvent or
Ġnewspap ers
b us
r ant
u ct
Ġc yl
at ra
Ġw et
ic ity
Ġl od
em an
Ġra cial
Ġmar gin
Ġrecord ings
Ġwin ners
Ġtun nel
Ġarran ged
Ġbuddh ism
Ġorchest ra
Ġgoog le
ph y
Ġcur ve
Ġrev ised
ura cy
Ġparad ox
Ġconson ant
Ġarrest ed
Ġsie ge
Ġp ale
Ġm igr
Ġe ve
st r
Ġno v
Ġma ur
Ġappro val
Ġmiss ions
Ġbroadcast ing
Ġgenes is
Ġconsp iracy
d ie
s k
Ġg ren
ist a
Ġel abor
Ġimm igration
Ġstre ets
Ġlingu istics
Ġp ull
Ġdo om
Ġlaw rence
Ġox id
Ġrang es
Ġamate ur
Ġf old
Ġd art
Ġst ick
Ġsp r
Ġpe er
Ġpe as
Ġsee king
Ġcr ash
Ġchild hood
Ġphot o
hel m
Ġdiscip line
Ġframe work
Ġmatthe w
b ul
c ock
Ġthe ological
un a
Ġad mitted
ru ck
Ġover l
Ġent hus
Ġcult iv
Ġdri ves
Ġvari ables
Ġpurch ase
Ġpruss ia
Ġexplicit ly
Ġremov al
Ġobso lete
Ġan ime
Ġg ets
ad i
Ġsu itable
ac hers
ud i
Ġsc at
Ġcons ens
Ġdevelop ments
Ġrest ored
Ġdisput es
i est
p art
it ative
ic us
ro gen
Ġne o
ors hip
Ġterm ed
cess or
Ġaff il
Ġnort heast
Ġmal ays
Ġcard inal
Ġmyster y
Ġpref ix
Ġvolt age
Ġarithm etic
Ġgamm a
h yd
m es
Ġt ub
Ġf ulf
oc hem
end o
Ġres ign
Ġent ropy
Ġret ire
Ġtem porary
Ġpron oun
Ġestablish ing
Ġconsequ ently
Ġexcell ent
Ġanch or
Ġp ock
est y
se e
Ġne uro
Ġass ume
Ġway ne
Ġrout es
Ġparticip ation
Ġconsequ ences
Ġj up
ag ues
Ġsh orter
Ġpe ar
Ġhar rison
Ġcirc uits
Ġimpl ies
in als
Ġf ishing
Ġd h
Ġl ac
ly n
Ġst ability
Ġsc ar
Ġrec all
Ġinf o
Ġaut obi
Ġsign if
ros cop
Ġbar oque
Ġmill er
Ġhyp n
Ġtay lor
Ġchancell or
Ġo t
Ġf usion
Ġh ub
Ġst ere
our i
Ġwor st
Ġinc om
Ġequ ally
Ġcy ber
Ġspace craft
Ġmiss iss
Ġburn ing
Ġpurch ased
Ġgord on
Ġf isc
Ġb ak
Ġdep ict
Ġjohn ny
Ġhen d
Ġben z
Ġindic ated
Ġdynam ic
Ġconclud ed
crib ed
Ġrevel ation
Ġmississ ipp
Ġm aced
Ġh i
im ore
Ġcent ers
ger y
Ġprot o
Ġemp ir
Ġappear ances
Ġsettle ments
Ġbeaut y
Ġsitu ated
Ġimmigr ants
Ġrhyth m
Ġt ube
Ġg est
ra ge
Ġal ger
Ġbl ess
Ġmon etary
Ġfin ance
Ġfind s
Ġwid th
omorph ism
Ġscand in
Ġliver pool
en burg
Ġb ip
Ġv l
Ġcl ergy
Ġmil k
Ġcontrol s
Ġreturn s
Ġprom oted
Ġcollect ive
Ġneigh bour
Ġnegot iations
Ġhawai i
Ġbuff alo
i ast
w ed
Ġc n
on to
Ġw ins
Ġd ave
Ġre ich
Ġsm ooth
Ġexp osed
Ġvi i
Ġca ught
Ġreturn ing
Ġcreat ive
Ġmess ages
Ġtermin ology
d ers
er b
Ġthe rapy
Ġb one
Ġv inc
Ġconc rete
Ġsk et
Ġver tical
Ġstop ped
Ġdoll ars
Ġbuddh ist
Ġphoen ix
Ġfranch ise
s che
Ġb m
Ġg amb
Ġno va
Ġmon aster
min ster
au x
Ġtop ic
Ġpred e
Ġastron omy
Ġarri val
Ġpropos al
l ah
p ower
Ġo ak
Ġg ri
ri um
ill ing
Ġint ense
Ġco inc
Ġsub ur
Ġvar ied
Ġmed ian
Ġhand le
Ġwind ow
Ġfund ing
Ġdifficult ies
Ġlu ke
Ġfoss il
Ġjup iter
r ating
Ġa ware
an es
Ġde e
Ġv ib
em en
Ġqu ot
Ġval uable
Ġphil adelph
Ġque bec
Ġcust oms
Ġbring ing
Ġadvent ure
Ġadj acent
Ġvac u
Ġm oses
Ġh idden
Ġand erson
Ġv ik
ican ce
Ġrec re
Ġsee ing
Ġrem ote
Ġbor ough
Ġmiss ouri
isc op
Ġagree ments
Ġmathematic ians
Ġcroat ia
Ġportray ed
Ġw is
Ġd ated
Ġst amp
Ġen light
Ġjo bs
Ġinter m
Ġmin ing
Ġfran co
ost er
Ġden omin
Ġthom pson
Ġopt ical
Ġsurround ed
Ġcompl icated
Ġs ession
Ġthe ater
Ġb ert
ed a
Ġe is
Ġl ig
Ġto b
od ia
ace ae
Ġpower ed
Ġgra in
Ġbre ad
Ġrock et
Ġpriv ile
Ġque ens
Ġtransform ation
Ġconsequ ence
Ġsumm ary
o ons
Ġb und
Ġde leg
ag le
Ġbra d
Ġjournal ist
Ġconcent rated
Ġastro log
c p
Ġa i
it re
Ġse min
Ġi owa
Ġrele ases
Ġmer ged
Ġple ase
Ġinstrument al
Ġpros per
Ġproport ion
s ky
Ġaut hen
ij ing
Ġsubs id
Ġt ed
Ġb are
Ġand re
ell er
Ġacc uracy
Ġloc k
Ġcolle ctions
Ġobs c
Ġliberal ism
Ġhous ing
Ġadvent ures
Ġp ist
Ġp ill
Ġn ik
Ġinter active
Ġbel t
Ġfew er
Ġgene va
Ġsalv ador
Ġphiladelph ia
Ġt ends
Ġb ought
or ious
Ġin hib
Ġon going
Ġle ib
ib ilities
Ġrec overy
Ġhun t
Ġmagn itude
Ġsubs et
Ġmong ol
Ġuno ffic
Ġc ort
act s
Ġacc um
Ġsing ing
Ġbar on
Ġtri ple
Ġread ers
Ġnorm an
Ġaugust us
Ġconserv ation
Ġlouis iana
Ġdeal ing
Ġjac ques
Ġsynt hes
Ġpalest ine
Ġauton om
er als
Ġp m
Ġn elson
Ġsym bolic
Ġcub an
Ġrot ation
Ġske pt
Ġaxi om
Ġkos ovo
p ass
Ġs ant
Ġd ys
Ġg ur
Ġr us
Ġover th
Ġgovern ing
Ġinc hes
Ġmoder ate
Ġfact ory
Ġrecogn ize
Ġexcept ions
Ġec u
Ġemploy ment
Ġbec k
Ġthan ks
co ver
Ġread y
Ġedition s
Ġmillenn ium
Ġbalt imore
Ġmississipp i
Ġa wa
er ts
Ġco at
Ġmon itor
Ġlux emb
Ġsignif icance
Ġb ub
Ġw ard
Ġg ust
Ġbe ijing
Ġab und
Ġep iscop
Ġcy p
Ġattempt ing
Ġsat ur
Ġguitar ist
Ġexplor er
Ġauthen tic
Ġ ig
Ġt at
Ġb our
Ġb ry
Ġaut o
Ġext end
Ġsing les
Ġmean while
Ġprint ing
Ġsuffer ing
Ġreflect ed
Ġbos nia
Ġie ee
Ġcogn itive
Ġmarit ime
d ish
Ġp ant
Ġe ating
Ġor al
Ġco ins
Ġeurope ans
Ġadv is
Ġden ied
Ġtax es
Ġlie uten
w ich
Ġb ath
it is
ed ed
es h
om ot
et her
os aur
Ġag encies
Ġcap ita
Ġpoint ed
Ġadv ice
Ġber g
Ġnar rative
Ġopt im
Ġsevent h
Ġenorm ous
wes tern
Ġo st
st ation
Ġal p
Ġk iss
Ġpro claimed
Ġch i
Ġsh ield
Ġcomp are
Ġra ise
Ġcons ol
Ġlo oks
Ġdec imal
Ġvers us
Ġrele vant
Ġread er
Ġindepend ently
Ġthreat ened
er ial
Ġc oc
ak i
Ġout l
Ġmin eral
Ġbrit ann
Ġbar ry
ov a
Ġconver t
Ġweek ly
Ġgreg ory
i ver
Ġf inger
it t
Ġst ores
Ġk ant
if ier
ab ul
Ġper ception
Ġplay off
Ġent ity
Ġdri ving
Ġparticip ate
Ġsax on
vak ia
Ġcolomb ia
a ware
b ow
k ind
Ġf bi
Ġv oters
Ġcl ay
Ġpre gn
Ġcor on
Ġant hem
Ġdesign er
Ġphys ician
Ġcas ual
l on
z h
Ġcon ce
Ġk an
Ġar sen
Ġinter rupt
Ġcor ruption
Ġhol es
Ġaccept ance
Ġaim ed
uls ion
Ġlithu anian
Ġbind ing
Ġa est
Ġr fc
Ġbut t
Ġsc ots
Ġthere by
Ġmount ed
Ġfall en
Ġadop tion
Ġstran ge
Ġshad ow
Ġvoy age
c d
Ġf isher
Ġm ig
Ġpo ets
Ġbl u
Ġmet als
Ġhom es
Ġcover age
Ġviol in
Ġrob inson
Ġsens itive
Ġcompil er
Ġgau ge
d iv
r ill
Ġj ay
Ġun ions
iv a
Ġinf ection
Ġho over
Ġcost a
Ġconvent ions
Ġattract ed
Ġdrink ing
k rit
Ġw ider
am ine
Ġal ive
Ġind irect
Ġph i
Ġexp end
Ġaust in
Ġtri via
Ġappro aches
Ġcat ch
Ġtrib ute
Ġtor onto
Ġaar on
Ġleib n
Ġb id
am an
oc ation
ag ers
Ġbo ot
Ġmon ument
Ġgu est
Ġbel gian
Ġoper ators
Ġpri ests
Ġver t
Ġcat tle
Ġquant ities
Ġgradu ate
Ġexerc ise
Ġneighbor hood
Ġb n
Ġk urt
Ġsp here
iz er
Ġcomple ment
Ġmic hel
Ġemploy ees
Ġmeasure ment
Ġreview s
Ġmut ual
Ġnickn ame
Ġreconst ruction
Ġb le
Ġp yr
Ġm ine
Ġd b
us ing
Ġch ris
Ġres ur
Ġqu oted
Ġwill ing
Ġed in
Ġcommun ists
Ġdefin ing
Ġfootball er
Ġmaint ains
Ġbul g
Ġmary land
Ġhell en
Ġasc ii
Ġcomed ian
Ġheli um
Ġdisag ree
l ock
Ġl amp
Ġbe ver
Ġst ruck
Ġy ield
Ġdis orders
Ġmet ab
Ġtro ll
Ġtre m
Ġbul let
Ġchampionship s
m und
Ġf aces
al ia
Ġre un
Ġcom ments
Ġpain ted
Ġprogramm e
Ġell ip
Ġterror ist
Ġerr ors
Ġtast e
Ġleibn iz
i y
Ġd ian
Ġch op
Ġar ama
Ġte en
Ġrom ance
Ġdec or
Ġeas ter
Ġtele commun
Ġdig it
Ġdiamond s
Ġconsens us
Ġf et
en ess
is hers
ro om
olog ically
Ġinter st
Ġent ering
ne g
Ġmil an
Ġdec ay
Ġdog s
Ġgrav it
Ġhomosexual ity
Ġpaint ings
Ġsimult aneously
Ġvacu um
Ġarama ic
Ġc ree
Ġm box
Ġl or
Ġg olf
Ġcomm em
pl ed
Ġco ined
Ġmet res
Ġdem on
Ġbar n
Ġdie go
Ġsett lers
Ġstan ley
Ġcoca ine
c os
y ll
Ġf ired
Ġe ternal
Ġarg u
Ġrece ives
Ġhon our
Ġaddress es
Ġwil helm
Ġroll ing
Ġfriend ly
oty pe
Ġsche dule
Ġsult an
Ġb ent
Ġp ad
Ġh orm
im m
Ġr ings
ag ne
Ġcl imb
Ġres igned
Ġph ill
Ġdes ired
Ġreg ulations
Ġlib ya
Ġbul k
Ġautom atically
Ġelev ation
Ġkent ucky
Ġbes ides
Ġcerem ony
Ġclin ical
Ġmarsh all
Ġunem ployment
Ġt ables
if ice
em ic
Ġra b
Ġstud ying
Ġgod zilla
Ġsl ang
Ġnat ives
Ġkingdom s
app ed
Ġfra gment
Ġtour ist
Ġoffer ing
Ġmanufact ured
Ġobser ver
Ġsha res
Ġtend ency
unt ary
c ia
p ie
Ġc raft
or ous
Ġk et
Ġsh aring
Ġcomp rom
Ġab be
Ġab ortion
Ġlo ad
old s
Ġexp osure
Ġdisc rim
Ġnational ity
Ġhun ter
Ġalb ania
Ġpet ers
han a
Ġinj ury
fel d
e g
m el
our g
Ġsh ir
Ġman ga
Ġser vers
Ġlar ry
Ġgovern ors
Ġfun eral
eng ers
Ġhit ch
Ġos car
Ġalco h
Ġcloth ing
abul ary
c i
Ġo z
er g
ic ut
Ġg ore
Ġg ross
ill ery
Ġsh akes
Ġcl own
end ers
out s
Ġcons ent
ik i
Ġdr ama
Ġlegisl ature
Ġremain der
Ġconson ants
Ġcerem on
Ġalc hem
Ġt ies
Ġt ip
he as
is ations
Ġz o
Ġr y
Ġpl ague
Ġass y
Ġrequ iring
Ġtr inity
Ġvi ii
Ġcompet itive
Ġrail road
Ġhapp y
Ġadapt ation
Ġextens ively
Ġlieuten ant
o ven
at em
Ġm h
Ġg ol
il ly
Ġal umn
Ġcon form
ap ore
Ġpl ains
Ġtra ins
Ġover w
Ġgener ate
Ġloc omot
Ġprop osition
Ġlast ed
Ġsubst ant
Ġcut ting
Ġwr ight
Ġproced ures
Ġabol ished
Ġmetaph ys
Ġa j
Ġc ats
Ġn m
Ġd ub
Ġst ones
ust ion
Ġnor se
Ġliber als
Ġcell ular
Ġnoun s
Ġsemit ic
Ġgluc ose
Ġargu ably
Ġt ick
Ġc em
Ġc inc
Ġb ou
Ġn iet
Ġgen res
Ġgovern ed
Ġinst ant
Ġgu il
Ġcommun ion
Ġsing apore
Ġbat tery
Ġer itre
Ġjud ah
Ġtru ly
Ġtre k
mon t
af ter
Ġreason ing
Ġoccas ions
Ġmemb rane
i ates
it ary
Ġin herent
Ġle af
Ġsy d
Ġimp ression
Ġbill s
Ġtim eline
Ġinsp iration
Ġinsul in
n o
an ol
Ġg ig
Ġg ael
Ġcon an
ul u
Ġcom et
all as
Ġbo hem
Ġir c
Ġpat ron
Ġtri als
Ġappl ies
Ġmarket ing
Ġcounter part
Ġincor rect
Ġedin burgh
Ġ ian
ar o
Ġg el
Ġfor g
Ġk ry
Ġv ital
em ed
Ġnational ist
Ġret ain
Ġgra ve
Ġlat est
Ġarg ues
Ġsol ve
Ġbrazil ian
Ġprovin cial
Ġjon athan
Ġcrop s
Ġamend ment
Ġalumin ium
Ġf ern
oc ent
Ġworld s
Ġest onia
Ġrev ival
Ġmechan isms
Ġrefuge es
ubst antial
er ation
or us
ir d
Ġbr ass
Ġpolit ically
Ġdomin ican
Ġassist ant
Ġreven ue
Ġuss r
Ġgalile o
Ġfloren ce
p hem
Ġs urn
ess ions
og a
Ġte a
av ian
Ġpo ol
Ġconsider ing
Ġequ il
Ġexpl oration
Ġsocial ism
Ġsequ ences
Ġhapp en
Ġtarget s
Ġmcc ar
z sche
Ġt ied
Ġa a
Ġh d
Ġst ack
Ġen han
ok ing
Ġob st
con st
Ġsw ing
Ġroman ia
Ġbra h
Ġmor ris
Ġstrong er
Ġmart ial
Ġcam ero
Ġcra ck
Ġbomb ing
Ġcompl ain
Ġdang er
Ġunfortun ately
Ġexpend it
Ġcinc inn
Ġt ill
re ll
Ġg am
im ir
Ġr ou
ak s
Ġpre t
ug h
Ġmem or
Ġfran z
Ġant ib
Ġgra y
Ġlight s
Ġcirc ular
Ġq ur
Ġtom b
Ġadvoc ates
Ġanthrop ology
Ġrepeated ly
Ġmamm als
Ġperp et
Ġautonom ous
b ro
Ġw isc
Ġaf c
Ġco e
Ġfl our
Ġdec ide
Ġemb ra
Ġserious ly
Ġinterpret ations
Ġfeel ing
Ġoppos ing
Ġetym ology
Ġniet zsche
s burg
Ġd ust
Ġex ha
Ġam ino
Ġgener ations
Ġfl opp
Ġpubl isher
Ġmat ches
Ġins ubstantial
Ġod d
Ġderiv ative
Ġacknow led
Ġsans krit
Ġshakes pe
f ather
Ġs ap
Ġc ock
Ġm ud
el le
Ġbl ocks
Ġunder t
Ġgu atem
ather ine
Ġhar p
Ġalong side
Ġadop t
Ġencoura ge
Ġdimens ions
Ġtrad em
Ġecu ador
Ġd enn
Ġg m
Ġst ood
Ġbo om
Ġfar ming
Ġobject ive
Ġchem ist
Ġappear ing
Ġbroad way
Ġmiss ing
Ġsurv ival
Ġrequire ment
Ġsho oting
Ġjim my
Ġevangel ical
Ġhierarch y
Ġluxemb ourg
b age
is ition
Ġw rest
ra c
Ġsp ar
Ġsp ending
Ġapp rec
Ġter rain
Ġbre ath
Ġsol omon
Ġperform ances
Ġann ivers
Ġlook ed
Ġchap ters
Ġfif ty
Ġhero es
Ġunlike ly
Ġcha os
Ġrecomm end
Ġmerch ant
Ġclaud ius
a ine
g l
Ġre ct
Ġse gment
Ġhe aring
Ġpro se
Ġcan ter
ib al
Ġwrit es
Ġdefin ite
Ġbusiness es
Ġeug en
Ġadminister ed
Ġshakespe are
u ated
Ġa ka
Ġa rose
Ġb ols
Ġl ag
Ġl ip
Ġre aches
Ġmo dule
oth y
Ġsupp lement
Ġge ographical
Ġmat t
Ġeconom ies
Ġvis itors
Ġimm un
Ġara bs
Ġball s
Ġstri king
ym es
Ġgraph ic
Ġdiam eter
Ġvoc abulary
Ġrang ing
Ġtrou b
t hen
Ġc ay
en der
Ġre ver
Ġal ab
Ġun w
ac ht
Ġmar ry
Ġwe aring
Ġrec ur
Ġkn ock
Ġcar th
Ġstud ios
Ġfree ly
Ġsil ent
Ġconflict s
Ġmas ters
Ġpure ly
Ġrecomm ended
Ġunoffic ial
Ġcincinn ati
r ous
Ġs ulf
Ġas ide
ann i
Ġsk i
Ġactiv ist
Ġcreat ures
Ġfac ilit
Ġprec ip
Ġsho ot
Ġconnect icut
Ġexplos ion
Ġastronom ical
Ġthor ough
c ase
e an
Ġp asc
Ġm ild
Ġn ag
ation ally
ud a
Ġte achers
Ġwar ming
Ġev ident
Ġdam aged
Ġfer din
Ġamaz on
Ġf urn
Ġse es
ul es
Ġrec ru
Ġwar ner
Ġtrans mit
Ġcre ates
ann er
Ġmeet ings
Ġsav ed
Ġles b
Ġtas ks
Ġsuff ix
Ġtenn is
Ġsuppl ies
Ġwithdra wal
Ġnomin ated
Ġferdin and
Ġst em
ber ts
Ġsp oke
iz z
Ġqu otes
Ġfe ast
Ġsub div
Ġmin imal
Ġbro ok
Ġdisc rete
Ġeven ing
Ġperiod ic
Ġident ification
Ġrepl acing
Ġcenter ed
Ġamb ig
Ġslav ic
Ġsubmar ine
Ġmccar thy
Ġf i
Ġp ump
Ġin aug
im on
Ġal ice
Ġk le
est one
Ġha iti
ater al
Ġeng age
Ġatt orn
ons in
Ġbas in
Ġext rem
Ġmain ten
Ġpass ion
Ġprop onents
Ġillust rated
ubb ed
Ġinstall ed
Ġtel es
Ġdies el
a ic
b oy
Ġo me
Ġs as
Ġs ick
Ġb j
Ġw ats
Ġl oren
Ġunder lying
Ġreg ulation
Ġart illery
Ġdem ands
Ġel ite
Ġconf uc
Ġreal m
erv ation
Ġenc ry
Ġphilipp ines
Ġcircumc ision
Ġwis dom
m ud
r ough
Ġk on
Ġno ise
Ġpre st
Ġcar ries
Ġoper ates
Ġant io
Ġav iation
Ġder ives
Ġfac ult
Ġexch ang
Ġhug hes
Ġadult s
Ġathe ism
Ġarbit rary
Ġecl ip
Ġequil ib
r ons
Ġt ib
Ġs ri
or ate
al f
Ġhe ret
Ġmar vel
Ġinter f
Ġeu ph
Ġrun ner
Ġfra ction
Ġtour nament
Ġmaint aining
Ġwa vel
Ġneigh b
Ġstan ford
Ġarchae ological
Ġwisc onsin
a uc
Ġf ate
Ġf ract
ig ible
ch ron
ir m
Ġcomp ens
Ġbr ut
Ġhar bor
Ġorgan ism
Ġhen ri
Ġoccur ring
Ġprev al
Ġsacr ifice
Ġdiagr am
Ġelectromagn etic
b es
o es
Ġs ib
ch i
ist ent
Ġj ury
Ġr as
Ġsc ope
Ġnew er
Ġinc omp
Ġke vin
Ġcrit eria
Ġfood s
Ġhost s
Ġconsist ed
Ġphr ases
Ġvess els
Ġore gon
Ġconstell ation
Ġn aming
Ġre ed
Ġal ter
Ġcon fer
Ġit em
Ġrep rint
Ġinv aded
Ġrev ision
Ġho b
Ġcross ing
Ġinte gers
Ġarab ia
rest rial
Ġperm ission
Ġdisplay ed
Ġhind i
Ġrevol t
Ġkazakh stan
heas tern
Ġwats on
Ġb ore
ic ing
Ġl ap
Ġg on
Ġbe aring
Ġcl er
Ġab road
Ġmin erals
Ġext ends
Ġdist ant
Ġorient ation
Ġgir ls
Ġluther an
Ġpione er
Ġrif le
Ġbulg arian
Ġsyd ney
Ġmainten ance
d b
u in
v an
in ter
on ing
ul ates
Ġen cl
ag g
Ġsc ored
Ġcar go
Ġtrans mitted
Ġent ities
Ġleg s
Ġpat rick
Ġimm ort
Ġenc omp
Ġchemical s
Ġvill ages
Ġsole ly
Ġtiss ue
Ġbols he
Ġencomp ass
Ġin e
Ġd il
ol k
Ġj ung
Ġra c
Ġph arm
Ġpers u
Ġel vis
Ġbat ter
Ġexpl ains
Ġdu pl
Ġfac ing
Ġloss es
Ġclos est
Ġexplos ive
omorph ic
Ġunsuccess ful
i veness
Ġn ord
Ġl ung
Ġde als
Ġun ified
Ġsp ark
Ġmar ie
Ġdef ines
Ġir reg
Ġconf idence
Ġrad ar
Ġrest oration
app a
Ġfront ier
Ġleban ese
Ġconfeder ation
Ġpropag anda
Ġoverw hel
Ġc ran
at ical
Ġk b
Ġde ploy
Ġdo ctors
Ġsw im
Ġgra de
uth or
Ġvoc als
Ġsynt ax
Ġproport ional
re ction
Ġk ay
Ġj osh
Ġwas te
Ġsc ores
Ġdes kt
Ġpres ents
Ġmus cle
Ġest imate
Ġsur gery
Ġcir cles
Ġimm une
Ġcatholic ism
Ġcorpor ations
Ġpredomin antly
z ig
ot ion
ad ic
Ġinf ra
Ġjo an
Ġsa udi
Ġlike wise
Ġjud gment
ii i
Ġpoly n
Ġfer ment
Ġtenn es
Ġtact ics
Ġserb ia
Ġsoph istic
Ġpyth on
Ġjama ica
Ġcanter bury
Ġwavel eng
e us
he tic
Ġo vers
Ġb ones
Ġin uit
im ony
um ps
Ġmet ro
Ġpract iced
Ġconcept ion
Ġexpress ions
Ġos wald
Ġpun k
Ġmanufactur er
Ġremark able
Ġmassac re
r ising
z ing
Ġg and
id al
Ġcan cell
Ġsur ve
Ġtechn ically
Ġhy m
Ġcorrespond ence
Ġjul ius
Ġga ul
Ġanarch ist
Ġbang l
Ġstro ke
Ġukra ine
Ġpock et
g un
g raph
Ġf erm
Ġin ert
Ġd w
Ġd ense
Ġh ilbert
Ġl b
Ġfor ty
Ġj ed
Ġper u
aus s
Ġste wart
Ġcouncil s
Ġgreen land
Ġextin ction
Ġcoven ant
Ġepiscop al
Ġannivers ary
m atic
iv ism
so le
Ġover t
Ġinter se
Ġpubl ishers
Ġju an
Ġnovel ist
Ġastron aut
Ġargent ine
Ġstu art
Ġautomob ile
Ġalumn i
Ġtennes see
Ġbangl ades
f ts
h d
m ir
Ġf ing
Ġm ond
Ġn u
Ġh ars
Ġl d
Ġk as
Ġcount s
Ġfound ations
Ġhy br
Ġca uc
Ġdeb ut
Ġbit ter
Ġlay ers
ij i
Ġassum ption
Ġpotential ly
Ġclus ter
Ġrecover ed
Ġcul min
Ġconsol id
Ġf itz
Ġnine teenth
am ation
Ġra j
ep ing
Ġshe ep
Ġport ions
Ġemb ed
Ġcam er
Ġreported ly
Ġguard ian
Ġjun ior
Ġenlight en
Ġinterm ediate
g ary
r in
Ġp ush
Ġd allas
Ġl ens
ol ith
Ġy ards
Ġph one
te xt
Ġev ol
Ġassoc iate
Ġcivil izations
Ġmal ay
Ġpsych iat
Ġopin ions
Ġvul ner
Ġmt v
Ġ ia
ro l
el in
Ġcon sole
ag ger
Ġpo e
ach ment
Ġem an
Ġele ven
Ġcar p
Ġequ ipped
Ġnon ethe
Ġalb anian
Ġbank rupt
Ġmir ror
Ġsalv ation
Ġemot ional
Ġupd ated
Ġretrie ved
Ġcot ton
Ġguil ty
Ġnonethe less
Ġm d
ro e
Ġad he
Ġgr iff
Ġrel iable
Ġmet ric
Ġpos it
Ġconst ra
Ġfr is
Ġq a
Ġvict im
Ġdial ogue
Ġze us
Ġatl as
Ġamb ass
Ġslo ven
Ġprecise ly
Ġtren d
Ġome ga
Ġt ense
Ġs ang
Ġp ound
her ic
Ġv a
Ġthere after
Ġamer icas
Ġem it
Ġpop ul
Ġmin i
Ġoper ational
Ġer u
Ġwest minster
Ġdi oc
Ġcreat ure
Ġcontrib ution
Ġpow der
Ġcorrespond s
Ġchall eng
Ġdeput y
Ġsymph ony
Ġcamero on
g ate
t i
en et
Ġhe gel
Ġab u
Ġdef ect
Ġsign ature
Ġdiv ide
Ġang les
Ġspeed s
Ġmas cul
Ġfavor ite
Ġwealth y
Ġ eros
Ġh ubb
Ġg ott
id ad
ach i
Ġed s
Ġname ly
Ġcour ses
Ġconc ord
Ġbi ochem
Ġfull er
Ġexam ination
Ġben ed
Ġrain fall
bour ne
Ġbil ly
Ġconfig uration
Ġyugosl avia
Ġeccles iast
Ġpasc al
f s
h ist
z ed
Ġp eng
Ġcon vin
Ġpl ut
Ġi q
Ġpo le
Ġprodu cers
lo qu
ob a
Ġprev ail
Ġbirth day
Ġcampaign s
Ġlands cape
Ġcatal an
Ġeg g
Ġfasc ist
Ġdol ph
Ġflopp y
Ġenlighten ment
Ġn t
Ġl av
Ġj a
Ġde uts
um a
Ġam ster
Ġab ilities
Ġgen ome
Ġdo ors
Ġtrans it
Ġtr il
Ġcompan ion
Ġmass es
che l
Ġprim itive
Ġrecogn ised
Ġflo ating
Ġauton omy
Ġhond uras
Ġphotograph s
Ġkern el
Ġo v
Ġin verse
Ġn odes
ro d
Ġse al
Ġun ex
Ġwor n
orm al
Ġup rising
Ġdire ctions
Ġphys iology
Ġexper ts
Ġcorn wall
Ġjer ry
Ġprince ton
Ġdeep ly
Ġip a
Ġcant on
Ġanton io
Ġeug ene
Ġgravit ational
Ġmh z
Ġequilib rium
b el
m ath
u an
Ġh amp
Ġeight h
Ġwh ale
um ber
Ġex ter
ac s
Ġu g
Ġgen etics
Ġrel ating
Ġjo ke
Ġcar riers
Ġinv ited
Ġimp osed
Ġspec ification
Ġgra d
Ġcapital ist
Ġelement ary
Ġott o
Ġinher it
Ġunic ode
Ġvl ad
Ġp ic
Ġl ane
ip el
Ġac oust
Ġtrans c
Ġlo an
Ġfil ter
Ġdevelop ers
Ġcal iph
Ġprop ri
aw s
Ġaccess ed
Ġnucle us
Ġflow s
Ġemb ass
Ġcorn ell
Ġfal k
Ġlamb da
Ġcate gor
b en
z es
in ery
is ers
ri ans
Ġrel atives
Ġpol es
Ġgener ic
Ġgra ham
Ġlast ing
Ġcant or
Ġhem isp
Ġschedul ed
n at
Ġch ord
Ġch ocol
ac ular
Ġsp end
Ġinst ruct
Ġmet e
Ġmin es
Ġleg ends
Ġter ry
Ġtri um
Ġpract ition
Ġda wn
Ġcoll ins
Ġprec ision
Ġadvoc ate
Ġlaure n
Ġdict ators
Ġincom ple
Ġpolyn omial
Ġhubb ard
Ġw ool
Ġp up
Ġd une
Ġh amb
Ġg ift
est yle
Ġar ctic
Ġdis app
Ġres erves
Ġform ats
Ġgen ius
Ġtrans p
Ġcap abilities
Ġorgan isations
Ġvers a
Ġreal ized
Ġevery day
com ing
Ġflow ers
Ġattrib utes
Ġiraq i
Ġgeomet ric
Ġtox ic
Ġtong ue
Ġdeskt op
g ger
Ġ ero
Ġt iny
Ġa head
Ġs z
re al
Ġh ij
Ġv ig
Ġsy rian
Ġbl o
Ġmem oir
io v
Ġfilm m
Ġbelie ves
Ġmart yr
Ġrespect ive
Ġalleged ly
Ġvolcan ic
Ġmarg aret
Ġretire ment
Ġamster dam
g rad
Ġf ier
Ġn int
as hed
ad ers
Ġy ale
Ġtra ce
Ġexp and
Ġcal gary
Ġcomput ational
Ġche st
Ġreform ation
Ġdeal t
Ġalbert a
Ġfarm ers
Ġrein for
Ġere ct
Ġirreg ular
Ġf ed
Ġn ash
Ġre ly
et ery
Ġen act
Ġam ph
Ġqu art
Ġpar ks
Ġsmall est
enn on
Ġhome page
Ġtest ed
Ġcd ot
Ġbudd ha
Ġran ks
Ġbav aria
Ġcem etery
Ġa ux
ro c
Ġg hana
ch a
Ġv at
pl er
Ġtra il
Ġsch war
Ġent rance
Ġant ip
Ġdev ast
Ġann ually
Ġmor gan
Ġsong writer
Ġfather s
Ġsat an
Ġwood en
Ġjurisd ictions
Ġprepar ation
Ġp ix
Ġfor cing
Ġor le
Ġro berts
Ġgen oc
Ġact ively
Ġmus s
Ġstates man
Ġhigh land
Ġnational ism
Ġback ed
Ġlog ar
Ġcann on
Ġhost ed
Ġbank ing
Ġdim in
Ġburn ed
Ġod ys
omm od
Ġinhab ited
Ġbol iv
Ġbabyl onian
Ġcroat ian
Ġsurf aces
f in
r h
Ġt ension
an cing
Ġk in
Ġr ick
Ġam d
Ġbr uss
Ġcomple tion
Ġspec ulation
Ġtechn ological
Ġver bs
Ġche ese
Ġbur ial
Ġcompet ing
iff s
Ġdispl ays
Ġcalcul ations
Ġnaz is
Ġpruss ian
Ġdivers ity
Ġthro wn
Ġmonop oly
Ġbanglades h
Ġconvin ced
c ience
Ġc ere
il ia
Ġse ed
ot ten
ab oration
Ġpres erve
Ġinter ch
Ġdan cing
Ġven ez
Ġrh ine
Ġdun can
Ġcompil ed
Ġcrus ade
Ġplate au
hard t
Ġjar gon
Ġhorizon tal
Ġdenomin ations
d n
p ro
Ġb aker
Ġinter act
Ġrefer end
Ġsign ing
Ġleg ally
Ġfact book
Ġfa q
Ġarch ipel
Ġwes ley
Ġos cill
the tic
har ma
Ġimprove ments
Ġaccompl ished
Ġt um
Ġf ires
an ians
Ġw ake
Ġp ink
Ġg ases
th ood
Ġpers ia
Ġdem anded
Ġant icip
Ġconserv atives
Ġmeasure ments
Ġanarch ism
Ġpleas ure
Ġequator ial
Ġearthqu ake
Ġconsec utive
Ġprest ig
f ast
Ġ ions
at on
or ia
Ġpro x
ort ed
cc a
Ġag n
Ġacc ommod
Ġcirc a
Ġfac ility
Ġrob ot
Ġdescript ions
Ġremember ed
Ġvess el
Ġenforce ment
Ġeleph ant
Ġelabor ate
g as
es is
Ġm ason
and o
ian ism
Ġam ber
Ġsystem atic
Ġfin ish
Ġcomb ustion
Ġden ver
Ġkill s
Ġliter acy
Ġfrequ encies
Ġwall ace
Ġcorre l
Ġfif teen
Ġrender ed
Ġsemit ism
Ġnich olas
Ġtradem ark
i ating
Ġa ur
Ġb io
Ġw ise
ad er
Ġr ica
se x
Ġaf l
Ġaf ri
Ġhar bour
Ġstat ute
Ġadv ances
Ġsam ples
Ġdocument ation
att an
Ġhug o
don ald
Ġapost les
Ġdepos its
Ġenab led
Ġkry pton
as hes
ve t
ul um
Ġdis char
Ġra ven
Ġqu iet
hed ron
Ġret reat
Ġlist en
Ġlat itude
Ġchart s
Ġark ansas
Ġlud wig
at ers
Ġw er
Ġst all
Ġst ating
ad vant
Ġhe red
ix on
Ġch ains
Ġun st
em ann
ust ed
Ġatt itude
Ġshe et
Ġprot oc
Ġprof ound
Ġta o
Ġtreat ies
Ġdiff ers
Ġaccept able
Ġpen et
Ġglo be
Ġstay ed
Ġjeff erson
Ġserb ian
Ġbrid ges
Ġorle ans
f low
w ord
Ġe ul
Ġis les
Ġhe res
Ġad olf
Ġkn ife
Ġinst ances
Ġdisc o
Ġret ail
Ġop ens
Ġhar old
Ġbi as
Ġlove craft
Ġvo ices
Ġscand al
Ġcoordin ates
Ġinher ited
Ġoccas ional
Ġenterpr ise
Ġmalays ia
Ġattorn ey
Ġb ast
Ġd ying
im ov
Ġhe ights
Ġun de
Ġpl as
Ġam p
Ġed iting
Ġprov isions
Ġcompet e
Ġenviron ments
Ġfight ers
Ġcontrib ute
Ġnob ility
Ġwa it
Ġmurder ed
Ġmarx ist
Ġsupposed ly
Ġnit rogen
Ġaber de
Ġautobi ography
Ġan x
Ġand r
ul us
ay er
Ġpro st
Ġed u
Ġdef ault
Ġleg ion
Ġcrit ique
Ġarch ives
ze k
Ġprom ised
ky o
Ġcommand s
Ġmis cell
Ġexc av
Ġmoment um
Ġconj ug
Ġfisc al
Ġschwar z
on i
an al
Ġm g
Ġm ug
Ġbe am
Ġsh ots
Ġad a
Ġdis advant
ke es
Ġed gar
Ġprodu ctions
Ġmin im
Ġge ology
Ġbro oks
Ġpass engers
Ġtrib un
Ġcritic isms
Ġrail ways
Ġfell ows
Ġcalcul ated
Ġult ra
Ġrabb i
Ġregister ed
Ġclus ters
Ġantiqu ity
Ġt ric
Ġa ph
Ġthe sis
en berg
Ġw elf
or i
ar ks
Ġd ubbed
Ġe b
Ġh ut
Ġg ap
Ġg ps
Ġj enn
Ġher ald
Ġx i
cul a
Ġavail ability
Ġdiscuss ions
Ġsurv iv
Ġkh az
Ġpack age
Ġdram atically
Ġconfir m
Ġprophe ts
Ġhamm er
Ġsurpr ising
Ġron ald
d ot
g ov
o i
Ġc c
it us
ic op
Ġh ate
Ġz en
om ed
im ents
Ġmo z
Ġsh i
Ġmin nes
Ġsing ers
Ġmod ification
au er
Ġmor oc
Ġtal ks
Ġrob in
Ġkl an
Ġcanon ical
Ġproceed ings
Ġastronom er
Ġsusp ended
Ġgent le
Ġforb idden
Ġtelecommun ications
Ġabbe y
Ġnint endo
n ight
u ce
Ġt us
Ġh ud
ro ph
Ġman h
ide an
we ight
Ġgovernment al
Ġdesign ation
Ġinform al
Ġfore ver
Ġide ology
Ġhol land
Ġinit iated
Ġtal mud
Ġtransform ed
Ġveget ables
Ġgalax ies
Ġsatur day
c ard
Ġ ix
Ġh ast
Ġhe d
Ġj ak
od ies
art a
Ġman chester
iz ers
Ġcol a
Ġrel uct
Ġbl og
Ġinter val
Ġacc ent
Ġpop ulated
Ġdec is
Ġcamb odia
Ġcod ing
ih ad
Ġhur rican
Ġepist le
Ġpus hed
Ġbrows er
x ts
Ġt ons
in ians
at ics
Ġd ice
Ġg t
ad os
Ġj av
Ġde emed
Ġne il
Ġph yl
Ġent rep
Ġdist ances
Ġdesc ended
Ġaff ord
Ġstar red
Ġpred icted
Ġaddress ed
Ġdaught ers
Ġterror ism
Ġharmon ic
Ġing red
Ġwound ed
Ġaven ue
i ke
Ġd m
Ġto ll
Ġal tered
ad der
Ġr ide
os lo
Ġch ry
ap olis
Ġsc oring
Ġdet er
Ġdown load
Ġphys ically
Ġcare fully
Ġdemocr at
Ġvo iced
Ġcook ing
Ġolymp ics
Ġlibert arian
Ġtol k
Ġtot ally
Ġbm w
Ġalcoh olic
Ġguatem ala
s i
Ġc atherine
um en
Ġen h
Ġpl ates
Ġcont ents
Ġsp a
Ġsp o
Ġinter actions
Ġloc ally
Ġcomb inations
Ġconstant ly
Ġimprove ment
Ġeg gs
Ġfemin ist
Ġfasc ism
Ġwarri or
Ġceleb ration
Ġenhan ced
Ġbruss els
Ġarchipel ago
a ver
Ġ ud
Ġp od
Ġr het
se xual
Ġcl ause
Ġra f
Ġra ys
Ġwe aken
Ġcap ability
bo oks
Ġsat ir
Ġfamous ly
Ġemb ry
Ġcontinu ity
Ġfat al
Ġhug h
Ġweak ness
Ġkash mir
Ġchocol ate
Ġe z
Ġbe eth
Ġch ips
Ġmon k
Ġany where
Ġdist urb
Ġstr at
Ġequ ality
Ġrece iver
Ġcla ude
Ġlimit ations
Ġsacr ific
Ġexhib it
Ġsuspect ed
Ġalab ama
Ġprotoc ols
Ġminnes ota
Ġbeeth oven
f r
p ace
Ġt ie
Ġc ros
at ch
Ġse ctors
ol o
Ġcom fort
ens is
Ġact ed
Ġinter c
Ġchar lem
Ġbas il
Ġbat tal
Ġsimilar ities
Ġpresent ation
Ġindic ating
Ġdeli very
Ġcous in
Ġpyr am
Ġcharlem agne
r ine
an as
Ġj ero
Ġar che
og ne
ell ar
we h
Ġcar b
Ġext ending
Ġste in
Ġcle ment
Ġplan es
Ġmach inery
Ġsit ting
Ġinterp ol
Ġpan el
Ġwit t
Ġcru cial
Ġmonarch s
Ġremo ving
gra du
Ġkab bal
Ġaxi oms
Ġmanuscript s
Ġhann ibal
Ġpersec ution
Ġwelf are
b ach
b urn
Ġs r
Ġp ub
it ic
al us
Ġst yl
Ġen ig
Ġcl oud
Ġsp ont
ph i
ok er
Ġed mund
ail s
Ġnumber ed
led on
Ġpass ages
che ll
Ġseparate ly
Ġhapp ens
Ġdiss olved
Ġsacr ament
Ġharm ony
Ġtrou ble
Ġlegit imate
Ġrug by
Ġpear l
Ġgenoc ide
Ġan a
ar in
Ġd ish
Ġto kyo
Ġg aining
id en
Ġr io
Ġun e
ff e
Ġbr ill
Ġland ed
Ġpot ato
Ġsem icon
Ġhab sburg
Ġcustom er
Ġcoordin ate
Ġcharl ie
Ġrespond ed
Ġfab ric
Ġgather ing
Ġinse cts
Ġguar ant
Ġeucl idean
Ġcyp ri
u ine
Ġp aved
Ġm ice
Ġth read
Ġre de
ol ini
od ynam
Ġen z
Ġbo ats
Ġdef ic
Ġcre ed
Ġcor inth
Ġhelp ing
Ġdeterm ining
Ġcel est
Ġcryst all
Ġorb ital
Ġbicy cle
Ġhybr id
Ġs ending
Ġd war
le tic
im p
el ian
Ġcon verse
ok a
Ġinter ference
Ġac ute
Ġfree m
Ġchurch ill
Ġkill er
Ġbow ie
Ġfru its
Ġcrypt ography
Ġcrow d
f urt
g ence
Ġc ipher
Ġm b
Ġn est
Ġst abil
Ġj ihad
Ġrec urs
Ġinf ect
Ġout come
li ver
Ġarm our
bo ards
Ġdel aware
osp here
Ġdeterm in
Ġtrib al
Ġaccess ible
Ġcoll aboration
ira ble
Ġreason able
Ġdocument ed
Ġdark ness
Ġvirt ue
Ġbox ing
Ġorg ans
Ġconnect ing
Ġadvant ages
Ġsurpr ise
Ġadject ive
Ġhemisp here
m ia
r t
v o
is k
Ġn p
Ġan ger
Ġre agan
ol in
ra ctions
Ġim f
Ġra ising
Ġgu ild
Ġlaw yer
Ġport al
Ġmor ality
Ġfra gments
Ġaccount ing
Ġspir its
Ġdam asc
Ġassass inated
Ġtherm al
Ġencoun tered
Ġencod ing
Ġtolk ien
Ġp ounds
Ġn ile
Ġd well
Ġl ions
Ġz ion
Ġis t
Ġv as
Ġad s
Ġge off
Ġhar ris
enn ial
Ġlight ing
Ġread ily
Ġfra ud
Ġput ting
Ġmanufact ure
Ġmagaz ines
Ġcorrect ly
Ġath letic
Ġczech oslo
Ġsud an
Ġentrep ren
c hers
on ed
Ġn ab
Ġz h
um er
Ġbut ton
act ic
Ġcons iders
Ġarg uing
Ġknow ing
Ġec ology
Ġmagn et
Ġrat ified
Ġplat o
Ġpil gr
Ġpu ert
Ġancest ors
Ġdecre ase
Ġfacult y
Ġn erv
Ġnot orious
Ġres id
Ġintern ationally
ann a
Ġperson ally
Ġlat v
Ġconstit ute
Ġdig est
asc ar
Ġcommand ed
Ġimplement ations
Ġcompar able
Ġgramm atical
Ġanarch o
Ġcosm ic
Ġtan ks
Ġhindu ism
Ġtig er
Ġern est
Ġyah weh
Ġdismiss ed
Ġembed ded
Ġbened ict
b ody
r and
Ġin ex
Ġm ott
Ġd t
Ġas imov
ut or
Ġcon dom
Ġch at
Ġch and
Ġpl acing
Ġad equ
Ġsoc cer
Ġthir teen
Ġbeh alf
Ġwal ker
Ġce ase
Ġfind ings
Ġess ence
Ġmur ray
Ġparticip ated
Ġabsor bed
Ġlt d
Ġsyll able
Ġcondem ned
Ġmonaster y
Ġbub ble
Ġsubstant ially
f ri
r ive
r ams
Ġw age
Ġin land
Ġn un
Ġh ired
Ġg ilbert
Ġne u
ren ess
Ġres erved
Ġwhen ever
Ġexp elled
Ġhar ps
Ġport able
Ġpost s
Ġmic row
Ġsan ct
ym ond
Ġbelong ing
Ġsuppl ied
athe red
Ġguer r
tra ck
Ġexpendit ures
Ġvenez uel
Ġt rick
an ium
Ġw ick
Ġth under
ist ence
Ġcon clus
Ġv ed
ac le
oc c
Ġle ather
Ġme ets
Ġed itors
Ġgu ided
Ġend ang
Ġpost hum
Ġce ased
Ġderiv atives
Ġmultipl ication
Ġarmen ian
Ġsod ium
Ġarn old
Ġlicens ed
Ġdivor ce
Ġmetab ol
Ġs ut
en cing
or o
or um
ar ms
Ġr ut
Ġv amp
qu et
Ġad ela
Ġpr ide
Ġout bre
Ġjo ining
Ġass ets
Ġent ries
Ġexp anding
Ġke yn
Ġeconom ist
Ġmod es
Ġang ola
Ġreform ed
Ġprevent ed
Ġcontem por
Ġsett ings
Ġfriends hip
Ġille g
Ġwed ding
Ġfug ue
u ff
v als
Ġt ent
at ism
ed e
Ġm ant
as ters
Ġz ones
il ian
Ġst ir
Ġk i
Ġby te
Ġwor se
Ġman s
end a
Ġres olved
ug g
Ġlo ved
Ġfr ig
Ġren own
Ġcoast line
Ġiv an
Ġobser vers
Ġcommission ed
Ġcontroll ing
Ġans wers
Ġchronic les
Ġbeng al
Ġtriang le
Ġsophistic ated
Ġhamb urg
Ġreferend um
v ised
y ers
Ġc ache
Ġse as
Ġdis ks
Ġqu ote
port ed
Ġwar ning
Ġden ote
Ġeth anol
Ġmic rop
Ġprom ise
Ġcolon el
Ġtim ber
Ġsevere ly
Ġancest ry
Ġnavig ation
Ġrestaur ants
Ġtrium ph
Ġt in
Ġp ont
Ġl omb
ip per
Ġsp ons
Ġcol ored
Ġag ed
ile y
Ġwork er
Ġmon sters
Ġcommun icate
Ġfre ight
Ġfa ult
Ġsun g
Ġsoviet s
Ġcoll aps
Ġdri vers
Ġprec urs
Ġpil ots
Ġelim inated
Ġment ions
Ġuncle ar
Ġdeliber ately
Ġresc ue
Ġpuert o
Ġadela ide
l ore
l ass
m ill
Ġp om
ard ed
Ġper t
Ġsub group
Ġmon ks
Ġunivers ally
ah o
Ġbar cel
Ġdra cula
Ġhel en
Ġhel icop
Ġcy cles
Ġsyn thetic
Ġcross ed
Ġcommit ment
Ġut c
cript ions
Ġpit ts
Ġjer em
Ġburn s
Ġmort ality
Ġom n
Ġwitness es
Ġbreed ing
Ġdre ams
Ġantio ch
Ġhars h
Ġinterch ange
Ġt ended
Ġo is
Ġn ull
Ġk or
Ġph ases
Ġtra its
Ġpe ir
Ġreg ist
Ġhum e
Ġdem ons
Ġwal king
Ġdiscover ies
Ġreflect s
Ġancest or
Ġextens ions
Ġyan kees
Ġcyl inder
Ġalger ia
Ġawa reness
Ġhamp shire
nat ural
c aster
e ous
h y
i pe
k ary
Ġ ith
Ġs izes
Ġs essions
ic able
id ian
ot te
Ġper f
Ġpre hist
Ġhand ling
Ġemer ging
Ġscholars hip
Ġinj ured
Ġalt itude
Ġadvoc ated
Ġbelong s
Ġuncom mon
Ġastero id
Ġoverwhel ming
Ġinfra red
Ġtril ogy
he w
en z
is ons
Ġb ant
Ġp act
Ġn inth
as i
Ġde an
Ġsp y
Ġsc roll
Ġdis hes
Ġfir ing
Ġrep air
Ġhigh ways
Ġair pl
Ġeconom ists
Ġsuccess ive
Ġgl oss
Ġcivil ians
Ġgrand son
Ġtravel s
Ġwebs ites
Ġmi ami
Ġparticip ants
Ġconqu er
Ġscript ure
Ġvictor ian
Ġconv icted
Ġfeed back
Ġlect ures
Ġanat omy
Ġbot an
Ġcauc as
olith ic
Ġaberde en
Ġc her
on ics
Ġw imb
Ġin cl
Ġl ank
Ġg ains
Ġre ds
Ġr ous
Ġr ush
ac o
ber ry
Ġpl ug
Ġha us
Ġres on
Ġco erc
Ġgr id
Ġrel ax
Ġsec re
Ġcomput ation
Ġtr ump
Ġfolk lore
Ġdiscrim ination
g art
Ġt ert
Ġs ided
on ium
is ible
Ġg ut
Ġr al
Ġgr am
Ġpre fect
Ġcre am
Ġes oter
Ġver te
Ġknow s
Ġpal at
Ġprogramm ers
Ġopt ions
Ġluc as
Ġinterview s
Ġaccompl ish
Ġmiscell aneous
Ġdamasc us
Ġin ev
ar row
pe g
Ġra ymond
Ġcol ogne
Ġher b
Ġcor rupt
ught er
Ġmeas uring
Ġut ility
Ġmit chell
Ġbeat les
Ġmerc ury
osa urs
Ġdisappe ared
Ġpresum ably
Ġincomple te
in ks
Ġp am
Ġm all
as ia
ine m
and y
Ġbut ter
av ier
Ġwar ren
Ġcar neg
Ġart if
Ġimport ed
Ġhol low
Ġtal king
Ġhost ile
Ġham let
Ġcorn ish
Ġslow er
Ġcens orship
Ġcustom ers
Ġarist oc
ograp hers
Ġrender ing
Ġborrow ed
Ġeritre a
Ġmete or
e u
Ġd ag
Ġg iov
Ġst atic
Ġde uter
cl amation
Ġres erv
Ġbo as
Ġpubl ish
Ġge ar
ah l
Ġgl as
Ġtem ples
Ġsat urn
Ġinit iative
Ġdig its
Ġthought s
Ġradio active
Ġsuggest ing
Ġven ice
Ġgene al
Ġign ored
Ġpick ed
Ġsab b
Ġchallen ged
Ġtherm odynam
Ġparam eters
Ġmanh attan
Ġbarcel ona
n ie
Ġt ack
Ġf iber
Ġw ag
Ġin k
Ġm end
Ġm ck
Ġk ara
oc ene
Ġdis rupt
ious ly
Ġaut umn
Ġsupp ose
Ġgar field
Ġprevent ing
Ġbrand enburg
Ġhousehold s
Ġindu ced
fo ot
Ġantar ctic
Ġescap ed
Ġtib et
Ġvlad imir
Ġwimb ledon
Ġcarneg ie
Ġo liver
Ġb enn
it ch
ar r
Ġl lo
Ġg ym
Ġas king
Ġk ang
Ġar ise
Ġte eth
Ġgen uine
Ġunder go
Ġfl ame
Ġfun k
Ġbat s
ov ich
Ġho bb
Ġtreat ise
Ġship ping
Ġdisp ers
Ġmax well
Ġcub ic
Ġcontract s
Ġqual ities
Ġatmosp heric
Ġreven ues
Ġnumer ical
Ġtheolog ian
Ġhein rich
Ġjok es
Ġchick en
l ic
Ġo ath
Ġd ock
Ġh ms
Ġg pl
id ity
Ġam mun
Ġcl ick
Ġall ah
Ġtra ct
Ġafter math
Ġcy an
Ġachieve ment
Ġbac hel
Ġscholar ly
Ġplas ma
Ġpeir ce
Ġammun ition
u i
le ys
Ġg il
Ġg iants
Ġre ward
Ġman kind
Ġtra ced
Ġfl ights
Ġmil ton
ann y
Ġrequ ests
Ġinform ed
Ġtop ology
Ġfr iction
Ġhom o
Ġprom oting
Ġstri ps
Ġblood y
wor thy
Ġdepart ure
Ġpoor ly
Ġassist ed
Ġkenn eth
pie ce
Ġambass ador
i ological
u z
Ġp ace
Ġn ice
ra h
ut ors
if iers
Ġy ard
Ġper c
ild ing
Ġbar rel
Ġlight er
Ġvir uses
Ġps i
Ġsequ el
Ġgraph ical
Ġlack ing
Ġheart s
Ġwild life
Ġbarb ara
ogen ic
Ġclar ke
Ġaccur ately
Ġlyn ch
Ġneighbor ing
Ġjed i
Ġmuss olini
Ġenh ance
Ġa rom
Ġs ard
Ġb oss
Ġm ing
Ġm ack
Ġe agle
Ġby tes
Ġr n
Ġare na
Ġsp ur
Ġtra ged
cess ors
Ġpass ive
Ġep it
Ġfr id
Ġcommer cially
Ġip v
Ġextra ord
Ġfest ivals
Ġexcess ive
Ġern st
Ġacknowled ged
Ġguerr illa
g h
s c
Ġa quar
Ġs ink
Ġh ide
Ġse iz
ol ph
Ġwas n
Ġr iding
Ġam al
Ġcount ing
Ġet a
Ġtur b
Ġpriv at
Ġindones ian
Ġrabb in
Ġrub ber
Ġbom bs
Ġcontrad ict
Ġkel ly
Ġabbrev iation
str ong
Ġgael ic
gradu ate
b ius
w ana
Ġt ac
is che
Ġm apping
Ġh p
Ġg athered
oc y
Ġy am
Ġcl ot
Ġdis contin
Ġaut oc
Ġexp ense
Ġfact o
Ġdra in
Ġtop ological
Ġvis iting
Ġsum mit
Ġdan ube
Ġpeace ful
iff e
Ġflag s
Ġcomposition s
Ġprin ces
Ġbure auc
Ġkra k
Ġbritann ica
j ah
k k
z i
Ġo g
Ġs ull
Ġs aga
Ġf les
Ġp or
ur i
Ġv es
if iable
qu er
Ġend e
Ġair line
Ġvol untary
Ġhel s
Ġden oted
Ġintrodu cing
Ġill umin
Ġps y
Ġround s
enh agen
Ġopportun ities
Ġcalc ulation
Ġdiagn osis
Ġhend rix
Ġsubur bs
Ġcree k
Ġlesb ian
in ating
Ġf f
Ġf as
Ġb t
Ġw o
Ġd uration
Ġse ized
oc ated
og an
pt ions
Ġwhe at
pl ing
Ġpre l
Ġout standing
Ġplay w
Ġge ological
ost icism
Ġbar rier
Ġdi ab
Ġdra ke
Ġsen ators
Ġfund ed
Ġhop ed
Ġpow ell
Ġrout ine
Ġfocus es
Ġsimpl est
Ġconcert o
Ġpurs ued
Ġsusp ic
Ġprohib ited
Ġacceler ation
Ġrestaur ant
Ġeis enh
Ġextraord inary
u er
w id
Ġb ars
Ġis n
ch s
Ġcon ve
ap or
Ġac ron
ames e
Ġhigh lands
ik o
Ġaccord ance
Ġflow er
Ġprotest s
Ġfer r
zz le
Ġmotor cy
Ġdrum s
itarian ism
Ġexclud ed
Ġvolunte ers
Ġsic ily
Ġdenn is
Ġmicrop ro
i ad
r ators
Ġs ized
on omy
Ġp to
Ġm ul
Ġcon ceived
Ġj ason
Ġbo ost
Ġpr oud
Ġapp lying
Ġpres ley
Ġgener als
Ġfran ces
Ġfam ine
Ġke ith
Ġnow ad
ret t
Ġtele graph
ash i
Ġaccording ly
Ġliber ia
Ġdest ination
Ġtur ks
Ġpap al
Ġdeterm ination
Ġnecess ity
Ġspeak s
Ġassum ing
Ġlith ium
Ġcarl os
Ġabol ition
Ġpreced ing
Ġobvious ly
Ġprede cessor
Ġembass y
Ġenz ymes
Ġeisenh ower
b in
p in
at in
os ystem
Ġrel i
Ġinter ven
Ġclass ics
Ġdet ected
Ġdomin ance
Ġstri kes
Ġtravel led
Ġchap el
Ġpit cher
Ġdoctr ines
Ġstreng then
Ġparad ise
Ġken ya
Ġdict ator
Ġbac on
Ġlect ure
Ġwire less
Ġjosh ua
Ġnowad ays
Ġe cho
Ġre ef
ly sis
Ġk w
Ġsp an
Ġro gers
Ġout s
ier ra
Ġmy ths
Ġpoint ing
Ġfa ctions
Ġrest ore
Ġcop enhagen
Ġic ons
Ġrespect ed
Ġfort une
Ġscot ia
Ġmad ison
Ġwa iting
Ġalf onso
Ġsax ony
Ġnom ination
Ġcool ing
Ġsquad ron
Ġempir ical
n ings
n ik
Ġb old
Ġm n
Ġl sd
Ġk ath
Ġsu ite
Ġpart ition
Ġpres ervation
Ġgu id
Ġarm strong
Ġroman ian
Ġmot ors
Ġrese ar
ote chn
Ġach illes
Ġcart ridge
Ġbene ath
Ġconte xts
Ġcompetition s
Ġcond ens
Ġts ar
zy me
Ġchronic le
Ġreprodu ction
Ġannoun ce
Ġprofession als
Ġspr ings
Ġscat tered
d ale
h ara
Ġs v
Ġs add
it ated
le ments
Ġse eds
am ous
Ġde const
um ann
Ġsc ales
Ġcol ours
Ġrem n
Ġdec omp
Ġtr in
Ġthir ds
Ġpur ple
Ġimm ense
Ġpal m
Ġaugust ine
Ġcollect ing
Ġbreak s
Ġcommission er
Ġmath rm
Ġpurch asing
Ġwithd rew
Ġcompr ised
Ġmerch ants
Ġresemb les
Ġeval uation
Ġdart mouth
Ġeclip se
Ġtransc end
Ġmicrow ave
Ġgiov anni
Ġth y
Ġse ct
Ġde ity
Ġde ities
od s
iz ard
Ġbo ards
Ġcount ed
ze gov
Ġassoc iations
Ġrock y
Ġcolumn s
Ġjohann es
Ġsudden ly
Ġcomprom ise
Ġllo yd
Ġt elling
er ies
Ġd ances
Ġre jection
om al
im o
Ġcon g
Ġde le
Ġch ol
Ġbut ler
Ġro of
Ġsc al
Ġres ort
Ġmar qu
Ġher zegov
Ġprocess ors
Ġbre ton
Ġwood s
Ġfle m
Ġimpl ications
Ġorient al
Ġpu pp
Ġmunicip ality
Ġemot ion
Ġcalc ium
Ġenl ar
Ġbn p
Ġinherit ance
Ġnerv ous
Ġrenown ed
h ous
v ol
Ġn ixon
Ġd as
Ġl ying
Ġy a
ub a
Ġwell s
Ġel f
Ġbre ast
Ġsol ving
Ġbus es
Ġsyn chron
Ġchief s
Ġwit ch
Ġconcent rations
Ġdemonst rate
Ġprison er
Ġgard ens
Ġcorp us
c ott
e enth
m i
he ld
Ġf ool
Ġn s
Ġe ase
Ġbe ast
ol ly
Ġk ine
Ġle op
Ġind ies
Ġper ipher
Ġgu am
Ġfilm ed
Ġtest imony
Ġden otes
Ġtro y
Ġredu ces
Ġgrand father
Ġfrank furt
Ġbob by
Ġnom inal
Ġrecon cil
Ġbrun s
Ġimprison ed
Ġbip olar
Ġbohem ia
b at
b acks
Ġo ra
Ġs ul
Ġn em
Ġd ak
Ġl uck
ol ine
wn ed
Ġsub m
Ġgu ards
ah u
Ġarm or
Ġconsider ation
Ġfa ction
Ġgl ory
lect ed
Ġaud iences
Ġchief ly
Ġconsist ently
Ġarchitect ural
Ġfle ming
Ġconsum ers
Ġsens es
Ġimpl ied
Ġdynam ics
Ġisa iah
Ġprovision al
Ġhitch cock
Ġpropri etary
Ġhij ack
l ie
u ity
Ġf als
Ġg d
Ġro oms
Ġcol loqu
Ġpo ster
Ġcons ort
Ġlo aded
Ġdifferent ly
Ġlet o
Ġprof its
Ġoccur rence
Ġsound track
Ġdan cers
Ġreb el
Ġdin osaurs
Ġcommod ities
Ġiceland ic
Ġshut tle
Ġabbrev iated
Ġresur rection
im en
ul ative
Ġco b
Ġem issions
ug u
Ġpar ody
Ġsur ge
Ġret ro
Ġrev ived
Ġyoun gest
Ġfort un
Ġfemin ism
Ġarrange ments
Ġorb its
Ġannex ed
Ġmunicipal ities
Ġapoc aly
Ġteles cope
Ġpitts burgh
f a
f ire
h aus
Ġc ors
Ġto y
st ad
Ġhe ming
ain t
Ġar ra
Ġam ar
Ġint u
Ġatt raction
Ġpar ish
Ġmet er
Ġdi ac
Ġpract ically
Ġattack ing
ym ph
Ġtravel ling
Ġfav ored
Ġappoint ment
Ġcred its
Ġsufficient ly
Ġgab ri
Ġconven ient
Ġsust ain
Ġforg otten
Ġpto le
h art
er ian
Ġf iji
it ure
it ution
Ġn ad
Ġg uten
st s
Ġbo oth
Ġper ce
Ġpre ference
Ġsub mitted
Ġmon te
Ġest onian
Ġintrodu ce
Ġdu chy
Ġfr ames
Ġham as
bor g
Ġrank ing
Ġperman ently
Ġmr s
Ġath let
Ġht m
Ġemerg ence
Ġinnov ation
onso red
Ġconj unction
Ġantar ct
Ġenthus i
Ġbrook lyn
Ġenig ma
Ġendang ered
w itz
Ġt orn
Ġf on
Ġf id
Ġw ol
ar io
Ġon wards
le v
ur d
Ġk ap
Ġj ab
og ether
out i
Ġpre y
Ġreg ul
Ġtrans actions
Ġappro ached
Ġsent ences
Ġid aho
Ġguit ars
Ġjul ia
Ġwid ow
Ġdetect ive
Ġstrateg ies
Ġrene wed
Ġshif ted
Ġfing ers
Ġ urg
Ġg ad
ero g
om ic
Ġj ain
ie v
Ġsp onsored
Ġimp ly
Ġorgan ised
Ġhel ps
Ġexist ential
Ġbroad ly
Ġtal ent
Ġpsych o
Ġphot ography
Ġhop es
Ġhealth y
Ġorthodox y
Ġsexual ity
Ġdiscip lines
Ġvinc ent
Ġodys sey
Ġhered itary
Ġeul er
Ġherzegov ina
Ġantarct ica
Ġt ries
Ġl ift
Ġk de
iz able
Ġcent res
Ġpres by
Ġreg ulated
Ġsm oke
Ġge h
pect ed
Ġreal ism
Ġless ons
lect ric
Ġdefin itive
Ġactiv ists
Ġaud i
Ġfrank enstein
Ġtravel ed
Ġdepart ments
Ġinfin ity
Ġmand ate
Ġinj uries
Ġcompil ation
Ġaz erb
Ġdrum mer
Ġger ald
Ġnut rit
Ġavo ided
Ġvat ican
Ġheming way
y on
on ential
Ġm ak
Ġh m
le ton
am ents
ot rop
Ġhe ath
um ed
Ġwhere by
Ġcre t
ann on
ograph ies
Ġdiv ing
Ġter ra
Ġrad i
Ġstre ams
Ġvide os
Ġnob les
Ġans w
Ġalt ogether
Ġconvers ation
Ġphon etic
Ġeval u
je ctions
Ġapoc ry
Ġmargin al
Ġecclesiast ical
Ġmoroc co
Ġcelest ial
h ra
ic ht
ic ating
il ation
Ġr idge
Ġcomp uls
Ġsc rat
Ġte ch
Ġdef ended
Ġinc arn
Ġent ers
Ġconf ess
Ġbelie ving
oph one
Ġmor rison
Ġspecific ations
Ġord in
Ġww ii
Ġcru c
Ġmission ary
Ġfeel ings
Ġsimpl er
Ġesc al
rel ated
Ġow ing
Ġfert ility
Ġreconst ruct
Ġshop ping
Ġclimb ing
Ġencry ption
Ġpeng uin
Ġjero me
Ġguten berg
Ġazerb ai
c ore
c hem
Ġs ina
Ġand y
Ġth ail
Ġse ar
Ġbe e
Ġr t
Ġar cher
Ġle agues
Ġcl ients
Ġsp elled
Ġform ul
Ġfe ared
Ġir rig
Ġsuccess es
Ġep id
Ġevent ual
ows ki
Ġimpro ving
Ġmuseum s
Ġiron ically
Ġcrown ed
Ġnumer als
Ġencoun ter
Ġisot opes
Ġthail and
c ular
e it
h ow
Ġf art
Ġf oster
Ġp on
Ġe thern
th a
Ġwor m
Ġint ensity
Ġrel ay
Ġfe ver
Ġfil ed
Ġexp onential
Ġval ued
Ġappe als
Ġpat ents
Ġadd iction
Ġsk ull
Ġsol ved
Ġtour s
Ġfire arms
Ġfle w
Ġgradu ated
Ġcatal og
Ġinvestig ations
Ġign or
Ġnic ar
Ġpurs uit
Ġreven ge
Ġvalid ity
Ġfoss ils
Ġdisappe ar
Ġwitt gen
Ġflem ish
t ically
he ro
as is
Ġr s
Ġch an
art e
Ġha ven
ib us
Ġsc r
ater n
Ġser ge
Ġsub c
Ġoff sh
Ġhar b
Ġdesign ers
Ġvers es
Ġmer it
Ġtravel ing
Ġut ah
Ġlay out
Ġcollect ively
Ġreb els
Ġassemb led
Ġsin atra
Ġfant astic
Ġaim s
Ġshar on
Ġhonor ary
Ġdiscip les
Ġattract ive
Ġdale ks
Ġaggress ive
Ġloose ly
Ġdeploy ed
Ġacoust ic
Ġbattal ion
Ġgym n
Ġethern et
Ġwittgen stein
c r
v as
en cer
Ġw ants
Ġz a
Ġst ol
ri pp
se a
Ġman age
Ġinter cept
Ġup grad
Ġoff ense
Ġher m
Ġje h
Ġruss ians
ec hes
Ġcomb ining
Ġpossess ed
Ġhera cles
Ġstead y
Ġmaur ice
Ġsket ch
Ġastrolog y
Ġabund ant
Ġhurrican e
e ctions
r ics
Ġt i
Ġa q
re ls
Ġb ri
Ġl uthor
Ġbl itz
Ġinc ons
Ġsl ot
Ġprot otype
Ġprotest ants
Ġcru el
Ġmun ich
Ġskill ed
Ġcook ies
Ġimag inary
Ġswit ched
Ġshap es
Ġabsor b
Ġkab ul
Ġpractition ers
Ġkrypton ite
Ġoutbre ak
f ound
Ġc et
Ġp ine
Ġd op
Ġh ood
Ġby ron
Ġr ating
Ġcl o
cl ass
land ers
Ġcent aur
Ġem ir
Ġbl ank
Ġover lo
Ġsee ks
Ġsub tle
Ġbr une
Ġhar per
ps y
Ġcy t
Ġann a
Ġder ive
Ġmor se
Ġsum mar
Ġcontrib uting
Ġpack et
Ġcelebr ity
Ġhay dn
Ġisol ation
Ġkid n
Ġpartners hip
Ġburg und
Ġammon ia
Ġarsen al
Ġqa eda
Ġsemicon ductor
Ġbruns wick
k u
n otes
in um
Ġs erm
Ġs isters
Ġf ont
Ġe cc
Ġh r
Ġl ennon
ro ads
Ġg auss
Ġas hes
Ġcon ject
Ġex commun
od us
Ġen zyme
Ġsh aw
Ġcl an
cl iffe
uc er
oth o
Ġx p
Ġmon ty
Ġdisc ourse
Ġopen ly
na eus
Ġfr ust
Ġarab ian
Ġmel bourne
Ġhell o
Ġattrib ute
Ġmand atory
Ġdefend ant
Ġabsor ption
a an
m ic
at ist
Ġb ots
Ġp es
Ġn ose
Ġd ns
et ically
Ġhe ated
Ġex iled
Ġpl ed
Ġint r
Ġres emble
Ġbl acks
Ġev ac
ck er
Ġcho osing
Ġpark er
Ġmind s
oura ge
Ġcelebr ate
Ġmist aken
Ġcou pled
Ġloyal ty
Ġsculpt ure
Ġtens ions
born e
Ġdupl icate
Ġheres y
Ġsabb ath
Ġc ron
Ġb am
Ġw ishes
Ġg ul
Ġas ks
Ġhe ating
Ġad ds
Ġspe eches
Ġfe e
Ġout do
Ġatt ractions
Ġinc est
Ġher mann
Ġext r
Ġlaw yers
Ġday ton
Ġhard er
Ġdan cer
iff el
Ġfort ress
Ġpaper back
Ġdepend ence
Ġsimpl ified
Ġprophe cy
Ġhawai ian
Ġfert il
Ġmetall ica
Ġtempor arily
Ġvulner able
d ynam
o zo
z an
Ġs ack
Ġc ic
an or
ic ia
le ctions
Ġpro c
op ot
ag ua
ph a
Ġreg iment
Ġfl ute
ise xual
ruct ive
Ġcoun sel
Ġevery where
Ġru ins
Ġtown ship
Ġcompet itors
Ġsn ake
Ġcub e
Ġprevent ion
Ġmas k
Ġequival ence
Ġfeud al
Ġblu et
Ġcancell ed
Ġmascul ine
anal ysis
Ġdecis ive
Ġith aca
Ġral ph
Ġt une
he a
Ġs ends
Ġd ump
Ġl p
am er
Ġal ly
Ġj agu
Ġmo or
ars on
Ġapp ar
Ġapp end
Ġed en
Ġsa ul
Ġbu ffer
Ġrequ ested
Ġjew el
Ġjust ification
Ġdi as
ene gger
Ġlight ning
Ġcomb ine
Ġsuper natural
Ġstrong est
Ġmer ger
Ġtour ing
Ġcontinu ously
uk i
Ġrepe at
Ġlingu ists
Ġachieve ments
Ġprep are
Ġanalog ous
Ġkilomet res
Ġalleg ations
Ġasp ir
Ġhack er
Ġchromos ome
Ġoverth row
Ġcommem or
Ġcypri ot
n als
Ġt z
Ġm l
Ġan onymous
Ġd ent
ro id
le tt
il iary
Ġhe aling
Ġpl a
Ġele anor
Ġinter vals
Ġexpl ored
Ġconc ur
Ġgl ad
Ġche l
Ġthreat s
Ġmonth ly
Ġcatal yst
Ġforum s
Ġinqu iry
Ġneighbour ing
Ġcarth age
Ġschwarz enegger
Ġhud son
Ġczechoslo vakia
m ers
n amese
o ire
Ġc t
Ġc ue
Ġc aves
Ġb iz
Ġse b
Ġal d
Ġr ip
Ġch im
og ram
Ġsh ang
Ġra h
Ġunder graduate
Ġcap s
up s
Ġalb eit
Ġox ide
Ġviol ation
Ġtemper ate
Ġhop kins
Ġcompos ite
Ġpay ment
Ġobserv ances
Ġmars hal
Ġpra ise
Ġperfect ly
Ġviet namese
Ġtact ical
Ġattend ance
Ġbachel or
Ġbrune i
o ard
Ġin clusion
Ġn fc
Ġd s
Ġg ill
Ġz appa
st and
Ġal ps
et ta
Ġcon rad
Ġun ch
ac co
ia e
pt ed
Ġman uel
ff man
Ġgu in
Ġperform ers
Ġwin ters
Ġemp ress
Ġfr as
Ġdeb ated
Ġdomin ion
Ġdeterm ines
Ġven d
Ġscre ens
Ġvac c
Ġclar inet
Ġpros pect
Ġteleph ones
Ġelim inate
Ġplatform s
Ġtren ds
Ġdick ens
Ġcapit ol
Ġassess ment
Ġgust av
Ġprecip itation
Ġeros ion
Ġboliv ia
Ġdiac rit
a a
g om
h ad
Ġt enth
Ġc en
Ġn l
Ġh ank
Ġg b
Ġg aza
ct ive
ut able
op l
Ġus d
iv an
ip er
ult ure
Ġchar ity
ll i
Ġview ers
Ġlim estone
Ġvict ories
Ġprogramm er
Ġfaith ful
Ġgn ostic
Ġod ds
Ġfemin ine
Ġmyster ious
Ġchromos omes
at ories
Ġm ast
Ġl ub
Ġth orn
il is
ur us
ian o
Ġsp ite
Ġte ut
Ġmar ble
Ġtrans ist
Ġlo b
Ġhar vey
Ġbelie vers
Ġrad ius
Ġsimilar ity
Ġsuper st
Ġfail s
Ġimper fect
Ġkh mer
Ġfer ry
Ġdraw s
Ġbox er
Ġapart ment
Ġnig eria
Ġinnov ations
Ġthrow ing
Ġinsert ed
Ġcasual ties
Ġpreval ent
Ġchalleng es
Ġaux iliary
m aster
Ġa ided
Ġb ia
es co
Ġin ject
Ġe use
Ġg aming
Ġbe th
Ġmo ck
Ġex odus
Ġne ur
Ġtra ces
Ġpe el
Ġinf ected
Ġx iv
Ġeconom ically
Ġdom ination
Ġliter al
Ġpet ition
Ġdu kes
Ġast on
Ġprom otion
Ġtour ists
Ġven us
Ġcam el
Ġbrown s
Ġdiss ol
Ġsav ing
gra de
Ġpurs ue
Ġparad ig
Ġprohib ition
Ġindu ction
Ġhumor ous
Ġmotiv ated
Ġchry s
wid th
Ġb ord
Ġb rick
Ġm akers
Ġn aked
Ġe iffel
Ġl il
Ġcon ductor
um s
Ġsp at
are st
Ġx avier
Ġmem ories
Ġben ch
Ġapprox imate
Ġdestro ying
Ġpra gue
Ġlif estyle
Ġdoub led
Ġcham bers
Ġgosp els
Ġnom ine
rec ht
Ġbag hd
Ġtheor ists
Ġdisapp oint
Ġfier ce
Ġlogar ithm
Ġanx iety
Ġcontempor aries
Ġfles h
g us
h s
Ġs ins
Ġp and
Ġm old
Ġh ale
Ġh ull
Ġst ops
Ġal am
Ġv and
Ġex empt
Ġsu ited
Ġsome where
Ġph ant
Ġhigh light
Ġke pler
Ġhand led
Ġdi at
Ġconn ot
Ġsil icon
bor ough
Ġcalcul ate
Ġexpect ancy
Ġwil der
Ġdemonst ration
Ġlu is
Ġgib son
Ġarchae ology
Ġexhib ition
Ġae ge
Ġdod gers
Ġarmen ia
Ġprompt ed
Ġaest hetic
Ġmetaphys ics
Ġexha ust
Ġrect ang
Ġwaveleng th
Ġtribun al
Ġdwar f
Ġende av
Ġazerbai jan
Ġs oup
Ġw ore
Ġm im
Ġm ate
Ġn ih
Ġk ol
Ġr g
Ġr ite
Ġfour ier
ri ages
ab y
ag i
Ġem ission
Ġfe es
Ġthr ust
Ġdet ection
Ġdi ary
bo ys
Ġve ctors
Ġkey boards
Ġec osystem
Ġtrad ed
Ġflex ible
Ġtob acco
Ġsurn ame
rough s
Ġerect ed
d d
l ance
Ġt ak
Ġis ab
am as
Ġk yr
Ġr ises
um an
Ġar rive
Ġman agers
Ġag greg
Ġover come
Ġcontin uation
Ġfo res
Ġcare ful
Ġtransl iter
aw ed
Ġfail ing
Ġhyd ra
Ġmis con
Ġmad rid
Ġprior ity
Ġemphas ized
sp ace
Ġschem es
Ġmanif old
Ġharmon ica
Ġcompr ises
Ġexerc ised
Ġmaced onia
Ġplayoff s
Ġinterst ate
Ġrecur ring
Ġingred ients
otechn ology
Ġbluet ooth
g g
l u
r ational
Ġa erial
er ving
on al
Ġw are
Ġp is
Ġd ante
Ġl us
Ġg w
Ġre e
ac les
og ly
Ġcl ap
ell i
Ġu pl
pl us
Ġnew found
Ġpe cul
Ġpar ity
ert on
Ġsm art
Ġdiffer ing
Ġimp ressive
Ġconf ront
Ġeffect iveness
Ġopp ose
Ġmag ical
Ġbi os
Ġassoc iates
Ġborn e
Ġpain ters
Ġjour nals
Ġminor ities
Ġpun ch
Ġestablish ments
Ġpay ing
Ġhero in
Ġcontroll er
Ġdiction aries
Ġapost olic
Ġalleg iance
Ġfert ile
Ġky oto
Ġveter ans
Ġinfer ior
Ġcoron ation
Ġfrid ay
Ġpecul iar
o ge
Ġa cl
he res
Ġb isexual
om ination
ir i
Ġhist ories
Ġac res
Ġdisc ography
Ġsw ift
Ġdr inks
Ġdom ains
Ġang ular
Ġjud ic
Ġcop tic
Ġreport ing
Ġdeb ates
ipp ing
Ġsil ence
Ġtheat rical
Ġtam il
Ġhaz ard
Ġalg ae
Ġhetero sexual
Ġpeas ants
Ġafri ka
Ġbrill iant
Ġartif acts
c ou
m od
p her
Ġf rit
Ġm int
Ġe ph
Ġse cts
Ġbe ef
Ġas ym
Ġhe z
Ġit u
Ġr ally
ab as
Ġne h
Ġle ip
Ġbo iling
Ġcons cription
Ġeng ra
Ġend ors
Ġmat ure
Ġarm oured
Ġval ve
Ġes a
Ġocc ult
Ġhand book
Ġjust ified
Ġmic ros
Ġce o
uck er
Ġtim or
hol m
Ġconsum ed
Ġalternative ly
Ġfast est
Ġastronom ers
Ġchile an
othe rapy
Ġrif les
Ġprosec ution
Ġneighb ors
Ġbankrupt cy
Ġinterc ourse
Ġvenezuel a
Ġgeh rig
opot am
a way
f ar
f ra
g am
h and
Ġs ierra
Ġb ust
Ġp our
Ġp orn
Ġbe ads
Ġun rest
ab ad
Ġen roll
Ġle an
Ġfir ms
Ġcons ul
Ġdef ending
Ġart em
Ġmet re
Ġfran ks
Ġtr am
Ġpress ures
Ġpost al
Ġaccess ion
Ġec ological
Ġdistrib utions
Ġtim ing
Ġcart oons
Ġgn ome
mar ks
Ġscript s
Ġdoub les
Ġmont gom
Ġrepublican s
Ġanaly tic
Ġpeak s
Ġkir k
Ġtheolog ians
roscop ic
Ġlatv ian
Ġmontgom ery
l ings
p at
Ġg ast
ur gy
Ġch iang
Ġab n
ru p
Ġso ap
Ġper cept
Ġgroup ed
Ġtri v
Ġang ry
Ġrepubl ics
Ġcirc us
Ġdiscuss es
Ġoccup y
Ġtax ation
Ġquestion ed
Ġwars aw
Ġfocus ing
Ġveget ation
Ġelim ination
Ġleon ard
Ġsword s
Ġampl ifier
Ġnickn amed
Ġgab on
Ġexclud ing
Ġvent ure
Ġarrow s
Ġwarri ors
Ġblo om
Ġesoter ic
Ġpresby ter
Ġleip zig
o ese
p ow
in as
Ġc res
Ġw ander
Ġn erve
ic ular
Ġg in
ht h
et a
Ġk eral
Ġr w
og ens
Ġrel ie
Ġatt ain
Ġcar ved
Ġfl ip
Ġbel ize
Ġreal istic
Ġfar ms
Ġspecial ly
Ġsex ually
Ġgreen house
Ġrespons es
Ġcongress ional
Ġrot ating
Ġpalest inians
Ġseat tle
Ġelev ator
Ġcosm ology
Ġhypot hes
Ġbog art
Ġcoerc ion
Ġperc uss
cou ver
b one
Ġa ol
in os
Ġthe ra
Ġc au
Ġf ric
en es
Ġb b
Ġb ism
Ġp ose
Ġh uss
Ġv iv
Ġne v
Ġam bit
vers ion
Ġbo ole
Ġbl ast
con n
Ġdep osed
Ġdev on
Ġca iro
Ġwal t
Ġmac donald
Ġabs ent
Ġspir al
Ġstra it
Ġfle e
Ġsus an
Ġcd ots
Ġinn ocent
Ġpromin ence
Ġanarch ists
Ġcryst als
Ġcompr ising
Ġbrig ade
Ġmetaph or
Ġwel come
Ġok lah
Ġenterpr ises
Ġsymmet ry
Ġscandin avia
Ġdian etics
Ġadequ ate
Ġkine tic
Ġdias por
Ġoklah oma
h op
Ġ umb
Ġc i
Ġw ages
al an
al id
Ġm am
Ġn ons
ic ul
ing ham
Ġre organ
Ġst ance
Ġun related
qu est
du c
Ġag enda
Ġmar l
Ġpo etic
Ġcr ude
Ġprot agon
Ġcirc ulation
Ġisrael ites
Ġhit ting
Ġcut s
Ġarchitect s
aut ical
Ġrh odes
ura ble
Ġvan couver
Ġtun ing
Ġclos ing
Ġpropos als
athe tic
Ġtick et
Ġfreem ason
d es
Ġt t
Ġt iber
Ġs ene
Ġb sd
Ġp ero
Ġm ik
Ġd ared
ce ae
ers en
rib le
Ġconf ined
Ġmark ing
Ġsuccess ors
Ġhel m
Ġsuper f
Ġcard inals
Ġpot ter
Ġscript ures
Ġpossess ions
Ġplanet ary
Ġdin osaur
Ġdj ib
Ġcompr ise
Ġlabel ed
Ġassert ed
Ġtoler ance
Ġhypn osis
Ġscandin avian
Ġobsc ure
Ġfitz ger
Ġconverse ly
Ġacron ym
Ġcob ain
o be
p ent
t v
v ik
Ġa in
Ġthe ft
Ġc ement
Ġf ond
an im
ed ing
Ġn omen
ut a
ul ator
Ġv il
em on
all ing
Ġam n
Ġhas id
Ġdo z
Ġdo zen
Ġsub ordin
Ġatt itudes
Ġair ways
Ġcur ves
Ġmod est
Ġbre w
Ġfunction ing
Ġaddress ing
Ġacqu ire
Ġbomb ard
Ġrang le
Ġquarter back
Ġcha ucer
Ġexplos ives
Ġcou ples
Ġtig ers
Ġinse ct
Ġcongreg ation
Ġtub es
Ġimmort al
Ġunex pected
Ġgabri el
p y
Ġm k
Ġse gments
ur er
Ġj ail
op ular
so on
Ġcl ou
Ġall an
Ġform ulated
Ġac claimed
Ġlo ch
Ġbr ings
Ġrun ways
Ġgl en
Ġhard ly
Ġfall acy
Ġdeg rad
Ġcast ile
Ġnetwork ing
Ġmix ing
Ġcalcul ator
Ġcorre ction
Ġlic enses
Ġreve al
Ġjudge ment
Ġexplan ations
Ġsumm ers
Ġpi pe
Ġeat en
Ġpreced ed
Ġjoy ce
dor ff
Ġrevers ed
Ġstere oty
Ġprosper ity
Ġreprint ed
Ġfitzger ald
b eth
i am
j ud
Ġw art
Ġd um
Ġh od
Ġg az
Ġse p
ch ild
Ġde we
Ġr amp
Ġfour teen
Ġint ensive
ok u
Ġatt ending
Ġed die
Ġprov iders
Ġrele asing
bol lah
Ġsent enced
Ġcondition al
Ġbox es
Ġacqu isition
Ġillust ration
Ġphon em
rid ges
Ġlegit im
Ġearthqu akes
Ġrebu ilt
Ġresign ation
Ġaph rod
Ġpyram id
Ġmott o
Ġeuse bius
j or
m ad
m ail
y e
is ch
Ġm ish
Ġn ie
Ġe go
Ġr ivals
Ġv ass
od ic
Ġsh annon
Ġsp ider
Ġno ir
Ġreg ent
Ġrep et
Ġinc idents
Ġinv as
Ġsupp ressed
Ġdr unk
Ġread s
ink i
Ġdecl are
Ġps al
Ġimpl icit
hold ers
writ ing
Ġeleph ants
Ġapproxim ation
Ġunst able
Ġbaghd ad
Ġkyr gy
r um
s ki
w i
w ords
Ġm aker
Ġn ess
ut t
Ġmo ist
ac on
Ġar ises
ill o
Ġy el
ag h
Ġsp ra
Ġdis gu
Ġso f
Ġgr ants
Ġpe ers
Ġqu int
Ġsou ls
Ġdec ree
Ġval leys
Ġsk ating
Ġvol ta
Ġdev ised
Ġemp ires
Ġblack adder
Ġstruct ured
Ġaltern atives
Ġtrib ut
Ġmess iah
Ġopt ional
Ġconver ts
Ġimperial ism
Ġmont real
Ġunp opular
Ġdecre ased
Ġnep hew
Ġtet ra
Ġweaken ed
Ġguarant ee
Ġharps ich
Ġbots wana
Ġkyrgy z
g ent
Ġa ster
re ated
at che
Ġw ra
es ia
Ġin equ
ar re
Ġl one
le ading
om ach
Ġhe y
Ġman eu
Ġad mit
ke eping
Ġem inem
Ġbas ically
Ġher man
Ġcur ric
Ġgra ff
Ġposs ibilities
Ġtem pl
Ġalb at
Ġconstit utes
Ġsyn ag
Ġcost ume
Ġbur k
Ġhon ored
Ġec umen
Ġcreation ism
Ġcontain er
Ġcomment ators
Ġprotect ive
Ġqual ified
Ġeld est
Ġepist em
Ġsubstit ute
Ġguy ana
Ġkur dish
Ġgif ts
Ġconstitu ent
Ġresol ve
Ġalchem y
Ġmond ay
Ġexter min
Ġhobb es
Ġguid ance
Ġs ony
Ġm und
un ning
Ġex ert
Ġne b
Ġman it
per t
Ġro ws
Ġcol oured
Ġap olog
ons cious
Ġcar roll
Ġunivers it
Ġbr ist
Ġcr ater
Ġri ots
Ġet rus
Ġbroad er
Ġsan ction
Ġcho ices
Ġthink ers
Ġcru ise
Ġchron ology
Ġsearch ing
Ġelev ated
Ġadapt ations
Ġinnov ative
Ġmerc en
Ġexplo itation
Ġoblig ations
Ġtreas ury
Ġsq rt
Ġpeters burg
Ġdictators hip
Ġgeoff rey
Ġplayw right
Ġth umb
st orm
im eters
Ġen able
Ġcomm ut
ph one
Ġpar ade
Ġbel o
Ġcur s
Ġins isted
Ġsw amp
Ġide ological
Ġbal k
Ġara gon
Ġdecl ares
Ġtal ib
Ġsil k
Ġcolon ization
Ġflow ing
Ġseem ingly
Ġincorpor ate
writ ten
Ġpier ce
Ġprin ter
Ġswit ching
Ġphysic ists
Ġenfor ced
Ġvolunte er
Ġpeas ant
Ġvik ing
Ġmoz art
Ġpilgr im
Ġcompuls ory
Ġaege an
Ġhez bollah
c at
h ai
l ia
it ian
Ġin ver
Ġm ikh
Ġd ose
Ġl on
ol ia
Ġsu e
og ene
Ġrel ates
Ġfe ars
Ġcar m
Ġsec ured
Ġinc red
Ġeu char
ne ys
Ġfre ud
Ġaff ection
Ġdomin ate
Ġput s
Ġmis under
Ġbound ed
Ġbreak down
Ġwik is
Ġbow ling
Ġtarget ed
Ġreflect ing
Ġadm ission
Ġbom bers
Ġbin omial
acc i
Ġanchor age
Ġceremon ial
Ġtroub les
Ġprehist oric
Ġtraged y
Ġextr ater
Ġguin ness
Ġambit ious
Ġdewe y
Ġalbat ross
c ro
v ana
Ġc v
Ġc bs
Ġw ip
ar ity
Ġse ld
ch at
Ġch ase
Ġun ification
Ġex agger
ard i
Ġim pe
Ġform ulation
Ġlin king
li er
Ġdisc ord
Ġlater al
Ġmod ifications
Ġback ing
Ġserv ant
Ġden y
Ġproduct ive
Ġtru ck
Ġfut ur
Ġcritic ised
Ġiv ory
Ġconnect s
Ġabb ot
Ġmountain ous
Ġsport ing
Ġmamm al
Ġnut ri
Ġsurviv ors
Ġartem is
Ġdiaspor a
j ab
w ind
Ġf y
Ġb ess
Ġw ax
Ġan ab
Ġhe w
Ġk ub
Ġpro clamation
Ġv ag
Ġne umann
Ġman power
Ġad vers
Ġbl oc
Ġinter d
Ġx v
Ġsupp ress
Ġpublic ity
Ġpopular ized
Ġarch aic
Ġann ot
Ġsuper hero
Ġcell o
Ġbal anced
Ġheav ier
Ġglo b
Ġlack ed
Ġdraw ings
Ġquar ters
Ġdiss olution
Ġmarx ism
Ġbarb ados
Ġath lete
Ġcharl otte
Ġmes opotam
Ġpul led
Ġcompat ibility
Ġprivile ges
Ġbever ages
Ġsloven ia
fin ite
Ġlank a
c in
m al
Ġf da
is an
es es
Ġe ther
Ġl m
Ġbe et
Ġst a
Ġal igned
ak u
Ġra chel
Ġdes per
Ġinv isible
arch us
Ġdet on
Ġsomet ime
Ġter restrial
Ġmilit ia
Ġcanad ians
Ġste ep
Ġfoot age
Ġmac beth
Ġlou d
Ġcub s
Ġmad ag
Ġpath s
Ġreve als
Ġgate way
Ġjung le
Ġhels inki
Ġseb ast
Ġdjib outi
Ġclou ds
Ġmikh ail
g ia
n ell
Ġo u
Ġs art
Ġw an
Ġw ives
es thood
Ġn urs
Ġd x
Ġd ah
Ġd harma
ig o
Ġal tar
Ġr k
Ġcom ets
em pl
Ġhis pan
Ġcl one
Ġaf ro
Ġreg isters
Ġpri esthood
Ġview ing
Ġpress ed
Ġver de
Ġsum mon
Ġbal kan
Ġsqu ares
Ġfreed oms
Ġmel ody
Ġanaly tical
Ġaffect s
Ġrub y
Ġsar ah
Ġresident ial
Ġdelay ed
Ġtempor al
Ġswim ming
Ġhaus dorff
Ġreserv oir
Ġneh ru
c ence
Ġa pe
Ġf are
Ġb acks
Ġin ability
Ġk ai
Ġwh ales
Ġun esco
Ġcomp ress
Ġman n
Ġad rian
Ġrel ies
ens en
Ġfin est
Ġcontin ents
Ġorder ing
ull ah
Ġauthor ized
Ġdiff usion
Ġaccept ing
br as
Ġsha ft
Ġdro ve
Ġhan over
Ġjun ction
Ġapost le
Ġleon ardo
Ġtut orial
Ġlod ge
Ġdeter ior
Ġconclus ions
c ot
g ang
k ov
m ans
r c
Ġa ik
re ck
Ġf c
en os
Ġm ys
Ġn athan
ar th
Ġe k
as a
ent ric
Ġbe ans
ist ically
Ġwh olly
Ġsix teen
ab a
Ġcomp ass
pt ic
Ġpr one
Ġafter life
Ġinter im
Ġed win
Ġwell ington
Ġsur pass
Ġins cription
Ġlim iting
Ġhol der
Ġpal mer
Ġbur den
Ġsan ctions
Ġfrank ish
Ġcontinu um
Ġobser ve
Ġfit ted
nam ents
Ġmarc us
Ġfen cing
Ġyah oo
Ġtheod ore
Ġcounterpart s
Ġenact ed
Ġcollaps ed
Ġregist ration
c z
c ip
g ow
he tt
re en
Ġc rom
an us
Ġb iod
it ivity
Ġd ign
Ġl ing
ist ing
Ġcon vey
Ġr na
Ġun a
em ia
Ġab oard
Ġrep orter
Ġinc a
ne um
Ġloc ke
ik er
Ġref lection
Ġdi abet
Ġbir ming
Ġbra ille
Ġsocial ly
Ġca ffe
Ġanal ys
Ġsun ni
Ġsuggest ion
Ġnight s
Ġalph ab
Ġstra in
Ġassum es
Ġcommitte es
Ġbad ly
Ġflav or
Ġprol ong
Ġlicens ing
Ġimprison ment
Ġpregn ancy
Ġsulf ur
Ġincomp at
Ġnicar agua
Ġnewfound land
Ġdoz ens
Ġbirming ham
j u
Ġa ired
Ġs d
Ġc ure
Ġm our
Ġn ac
Ġe ars
Ġto wers
am ic
Ġex empl
Ġle eds
og ues
Ġman ned
per m
Ġsp her
Ġme al
Ġele g
Ġrem arks
Ġfin als
Ġcur rents
Ġcre te
ters on
Ġant ig
Ġins ight
Ġep ile
Ġrepresent ations
Ġprincip ally
Ġbur roughs
Ġjournal ism
Ġil iad
Ġabsolute ly
Ġbom ber
Ġbrun o
Ġstu ff
Ġtort ure
Ġdee per
Ġeugen ics
Ġcau chy
h aw
w ave
Ġn in
Ġd ots
Ġg es
Ġz inc
Ġal m
Ġar yan
oc het
og lo
ound ed
Ġrem ix
Ġext ant
Ġret ains
Ġgeneral ized
Ġel igible
Ġsouth western
Ġprocess ed
Ġcop ied
Ġband width
Ġprogramm es
asc ript
Ġut ter
Ġexpect ations
oura ble
Ġtun is
Ġcompil ers
log y
sp ring
Ġharv est
Ġspect acular
Ġeditor ial
Ġproceed ed
Ġsusp ension
Ġrival ry
Ġbeng als
Ġdale k
Ġmotiv ation
Ġgri p
Ġrecre ational
Ġrou ge
Ġkabbal ah
Ġptole my
b ur
m us
Ġp t
Ġe uras
Ġh urt
Ġz oo
st ed
Ġst o
Ġst ake
Ġpro be
Ġv or
Ġv est
Ġex it
Ġy ang
Ġhad rian
Ġper l
Ġinf amous
Ġtrans f
Ġinv arian
io let
Ġaut ism
Ġdevelop er
Ġnumber ing
lo id
Ġmod ulation
Ġpopular ly
Ġbod h
Ġver bal
yle ft
Ġaug ment
Ġgrow s
Ġsubject ive
Ġseason al
Ġcontrovers ies
Ġjes uit
Ġroll s
Ġcow boys
Ġshell s
Ġearn hardt
Ġcheap er
Ġoxid ation
Ġgamb ling
Ġassy rian
Ġcay man
Ġairpl ane
Ġsull ivan
Ġnomen cl
Ġmadag ascar
y g
Ġt is
Ġc ip
or igin
ar ic
Ġk om
Ġk au
Ġr iel
Ġr ites
em a
Ġar bor
Ġsp encer
Ġform ations
Ġlo is
Ġlo ver
Ġelect or
omet ric
Ġright arrow
Ġsol ids
Ġbra ck
Ġtreat ments
Ġcop yleft
Ġlow lands
Ġprob able
Ġbur ton
Ġpoly nes
Ġkeep s
Ġkar ate
Ġgradu al
Ġresist ant
Ġbah rain
Ġbattles hips
Ġfeed ing
Ġethiop ian
Ġfavour ite
Ġannex ation
Ġukra inian
Ġpir ates
Ġcomplement ary
Ġmemoir s
Ġprecurs or
p ers
p ical
he red
Ġo ught
Ġs ake
Ġc hen
ed es
Ġin acc
ic om
Ġd l
Ġd ere
ou ch
Ġst up
Ġv in
Ġun ne
Ġy or
Ġsh ops
Ġam os
so ver
Ġman ch
Ġro ver
Ġi oc
Ġwe ig
Ġspe ar
Ġpe g
olog ic
Ġla os
Ġwar hol
Ġbas el
Ġdem ol
Ġright eous
Ġgre et
Ġland mark
Ġshort ened
Ġlab els
Ġche cks
Ġhom eland
Ġget t
Ġbig ger
Ġdefe ats
Ġhall uc
Ġdispl aced
Ġtheore tically
Ġpan ama
Ġris ks
Ġsho es
Ġcrim inals
Ġdescend ant
Ġow en
Ġali ke
Ġsust ained
Ġcultiv ation
Ġambig uous
Ġhym n
Ġcic ero
Ġaphrod ite
l ies
r ust
Ġs g
Ġs ag
Ġe ut
il der
Ġch in
ian ces
Ġen erg
ill s
Ġu z
Ġbl an
Ġpre jud
Ġev a
Ġrep ly
Ġmon astic
ract ed
Ġir rational
Ġconf ident
Ġstandard ized
Ġalb anians
Ġtit an
Ġgeor gian
Ġconcept ual
Ġprev ents
Ġprivate ly
Ġprotect ing
Ġmom ents
Ġpier cing
Ġgoth s
ache v
Ġwithdra w
Ġae g
Ġjump ing
Ġrecept or
Ġtrem end
Ġfern ando
Ġadhe rents
Ġvamp ire
Ġdeconst ruction
Ġclap ton
Ġboole an
a is
b ic
c us
d an
Ġt ran
er ated
Ġs iber
Ġb ing
Ġe ch
Ġl ys
Ġbe es
Ġbe ow
im et
Ġk af
Ġus enet
Ġem ble
Ġrel ied
Ġover d
Ġed ges
Ġdef icit
Ġfound ers
Ġspec ulated
Ġins pect
Ġmid night
Ġbra ves
Ġdel hi
Ġbattle field
Ġcame o
Ġship ped
Ġfat ty
Ġcustom ary
Ġconfeder acy
Ġfu els
Ġproceed s
Ġfro st
Ġconcer ts
Ġathe ist
Ġpseud o
Ġpredomin ant
Ġoblig ation
Ġrud olf
Ġprol ific
cover ed
Ġcomplain ts
Ġpom pe
Ġstol en
Ġappar atus
Ġbeow ulf
p unk
Ġt cp
Ġthe ta
Ġb erm
Ġw u
it als
Ġth ames
le e
am eral
ur ated
Ġcom or
av is
ord ination
Ġag ass
ok i
Ġpop per
Ġx ii
Ġend oc
Ġsl ope
Ġgra il
Ġdiv iding
Ġpat ch
Ġpat ric
Ġtreat ing
Ġden omination
Ġregard s
Ġtre ason
Ġmeaning ful
Ġabs urd
Ġadminist rator
Ġdiscuss ing
Ġgar rison
Ġcrick eter
Ġnegot iated
Ġlind y
Ġbald win
Ġaccus ations
zh ou
Ġlocomot ives
Ġhob by
Ġfalk land
Ġarra ys
Ġbrist ol
n on
p ress
is se
Ġw ished
Ġin ference
Ġn bc
Ġd ome
ro ck
Ġcon e
Ġun lim
Ġy ields
Ġnot ing
Ġspe ars
Ġbl ades
Ġinf ty
Ġev ans
Ġlo vers
Ġpar an
Ġpar as
Ġfilm ing
Ġsl ash
Ġlat t
Ġexpl ore
Ġmag ist
Ġimportant ly
Ġshould er
Ġident ifying
Ġtur bo
Ġmel an
Ġplat inum
Ġluc y
Ġspread ing
Ġlie cht
iform es
Ġathe ists
Ġslo vakia
Ġped ro
Ġrig id
Ġcartoon ist
Ġmanifest o
Ġxx x
Ġmyst ical
asm us
Ġindirect ly
Ġhellen istic
Ġfurn iture
Ġkas par
Ġprox im
Ġperce ive
Ġdared ev
Ġunlim ited
Ġliecht enstein
m ith
r ors
Ġf ries
Ġf landers
Ġb anner
ro y
Ġre ception
est ock
Ġne c
Ġne br
ical s
Ġcomp ressed
Ġcont am
Ġgr as
Ġoff spring
Ġma o
Ġmet a
Ġx ml
Ġeu kary
Ġel ves
Ġnorth western
Ġperform s
Ġhome op
Ġber ry
be ck
Ġlaws uit
Ġpit ched
Ġlength y
Ġround ed
het ics
Ġinfin itive
Ġprem iers
Ġterror ists
gra ve
Ġanalog y
Ġsuff rage
Ġhabit at
Ġmetall ic
Ġaffil iated
Ġbreath ing
Ġkle in
Ġamph ib
Ġkeral a
Ġpercuss ion
Ġgraff iti
Ġcaffe ine
Ġnebr aska
b ir
b ase
f ront
y ard
Ġs op
Ġs ak
Ġc yn
Ġp est
al on
Ġm v
ar ck
ic ates
ero l
se au
Ġpl ag
Ġwhe els
Ġro c
Ġi od
Ġi ber
Ġra id
Ġcol oss
Ġpr c
ath a
Ġbl amed
Ġinf ections
Ġbet ting
Ġgener a
Ġgener ating
Ġgu idel
Ġconsider ations
Ġins criptions
Ġfar mer
Ġfar oese
ze b
Ġvis its
Ġlate x
Ġnort heastern
Ġconn or
Ġexec ute
Ġviol ations
Ġdisp ro
Ġmess enger
Ġcalcul ating
Ġfort ran
Ġamb rose
Ġdescript ive
Ġobt aining
sp an
Ġspect ral
Ġecl ips
Ġritual s
Ġathen a
Ġgand hi
Ġtert iary
Ġclot hes
Ġbia fra
Ġnomencl ature
Ġguidel ines
g ated
t us
Ġs orts
Ġp bs
it ory
Ġm ell
im ens
el b
ul i
Ġeight een
Ġcomp aring
Ġab ba
Ġint ra
Ġind ication
Ġcol in
Ġpr ix
ade qu
Ġcor al
Ġval ent
Ġer ie
Ġjud ged
Ġpet e
Ġdiff raction
Ġoct ave
Ġexpress ing
Ġur anium
Ġcoll ision
Ġsus cept
Ġassum ptions
Ġimag ery
Ġunp aved
vi ks
Ġdiplom at
Ġorchest ral
Ġcondem n
Ġlis bon
Ġsymp athetic
Ġdeliber ate
Ġavo iding
Ġsurrender ed
Ġgren ada
Ġbless ed
Ġbert rand
Ġspont aneous
fri end
Ġbant u
Ġecc entric
Ġecumen ical
b ent
w ent
Ġb rom
Ġp ess
Ġin adequ
Ġd iod
ro v
ro wn
Ġre yn
Ġim db
du ction
Ġcol span
Ġreg imes
Ġcar av
Ġorigin ating
Ġlong itude
Ġcal ig
Ġjust ify
Ġep och
Ġcomb ines
Ġcode x
Ġdomin ica
Ġpriv y
Ġbusiness man
Ġcast ro
Ġmother s
Ġfif a
Ġtas man
Ġpray ers
Ġharm ful
Ġshel ter
Ġgran ite
Ġrecept ors
Ġnik ol
Ġaj ax
Ġcoe fficient
Ġspat ial
ogly ce
Ġjudic iary
Ġtalib an
Ġseld om
Ġdaredev il
k ers
l ag
v re
w l
is y
at ile
it as
Ġk un
Ġr ust
Ġor i
Ġsu cc
ab we
Ġy o
Ġsh in
ran o
Ġsy l
ace ous
Ġinf ring
Ġcar bo
Ġinc ent
Ġsm oking
ah an
Ġprov ing
omet er
Ġnational ists
Ġcomple ting
amm ing
Ġins u
Ġsl ide
Ġcr ust
Ġmy c
Ġauthor itarian
Ġda iry
Ġsal ts
be k
Ġdeb ian
Ġcit ing
Ġinvest ors
Ġcommand ers
Ġord ained
Ġemer ge
Ġcra ig
Ġclos ure
Ġles otho
Ġell is
Ġimag ination
Ġneut ron
Ġah mad
Ġaffect ing
Ġinstitution al
Ġsout heastern
Ġhaz ards
Ġtouch down
Ġliv estock
Ġdivor ced
Ġpregn ant
Ġjav ascript
Ġacl u
Ġyel ts
f ried
Ġt art
Ġt ough
Ġan te
Ġl ent
Ġst omach
Ġk ane
Ġpro ton
Ġpro jection
Ġsix ty
Ġex otic
op ol
Ġar d
Ġcont ested
Ġro pe
Ġcent r
Ġqu in
Ġrem in
Ġbr as
Ġest ates
Ġir ving
Ġins ult
Ġgra ins
Ġexpl aining
oph y
bs d
Ġide als
Ġve to
Ġwin ston
Ġhol mes
Ġsal mon
Ġegypt ians
Ġsem ant
Ġrat ings
Ġparticip ating
aff e
Ġtun ed
Ġbenef icial
Ġauthors hip
Ġarc ade
Ġie c
Ġtall est
Ġsatisf y
Ġdeput ies
Ġsymmet ric
Ġbare ly
Ġcres cent
Ġproxim ity
Ġyelts in
i ques
l ights
he ads
Ġp iet
Ġp neum
al one
Ġm are
Ġan ts
Ġd ressed
Ġl c
ion ed
Ġz imb
Ġse an
Ġrec ount
Ġpe arson
Ġass im
Ġmon othe
Ġdec ent
Ġcolle agues
Ġequ als
Ġsing h
ik es
Ġref ined
Ġtele v
Ġassoc iative
Ġcross es
Ġbur st
com put
Ġafrican s
clus ive
Ġhyp oglyce
Ġgn osticism
Ġreview ed
Ġhab its
Ġswe pt
Ġalt ru
Ġbelong ed
Ġcrus ades
Ġfro zen
Ġamaz ing
Ġsom ers
Ġbot tle
Ġster ling
Ġdepict ing
Ġkara oke
Ġremn ants
Ġbelo ved
Ġzimb abwe
f ly
Ġs f
on o
Ġl act
Ġl ds
Ġg um
Ġg rie
ig s
ig rated
us ions
st ra
Ġst ems
et us
Ġk um
Ġwh ites
Ġch uck
Ġex cer
Ġat p
Ġcons oles
Ġem in
Ġli kel
Ġbr ide
Ġpers istent
Ġest e
Ġdisc s
Ġtri o
ec d
Ġmer cy
Ġdest ructive
Ġmac ro
Ġorth ography
Ġemploy ee
Ġyour self
Ġleng ths
Ġintegr ity
Ġobserv atory
Ġtun n
Ġsatell ites
Ġhay ek
Ġmist ake
Ġsail ing
Ġpin ochet
Ġastero ids
roscop y
Ġpant he
Ġundert aken
Ġbatter ies
Ġmanit oba
Ġspher ical
i hood
u ana
Ġa uck
in ia
Ġw to
or row
Ġd ried
Ġl ia
Ġg und
Ġg da
Ġbe an
Ġj ets
ill ance
Ġman aging
Ġab origin
ang o
Ġso y
Ġgener ator
Ġsub mit
Ġma ine
Ġed it
Ġfl am
Ġwhere in
Ġgu ests
Ġdown lo
Ġsocial ists
Ġcy m
Ġcle ese
Ġexam ined
Ġsecret ly
Ġmur ders
Ġrespons ibilities
Ġwat ching
Ġnation wide
Ġchap man
Ġdispl ace
Ġgar bage
Ġburn t
Ġcel ts
Ġnap les
Ġcp us
Ġinterpre ter
Ġdor a
Ġupd ate
Ġstead ily
Ġceremon ies
Ġcompens ation
Ġsurve illance
Ġbiochem istry
Ġilleg it
Ġwag ner
Ġteut onic
Ġcalig ula
it ious
or g
Ġm ph
Ġn n
Ġl up
il on
Ġst ap
our ce
Ġk ids
Ġr im
op t
Ġcl oning
Ġad ul
Ġcan aan
Ġinter rog
Ġsoc i
Ġshe ets
Ġcontin ually
Ġback ward
Ġdr ought
Ġhuman ist
Ġspecial ist
Ġcath ode
Ġmarket ed
Ġmagn es
Ġautom ated
Ġdiss ent
Ġpra ised
Ġcatal onia
Ġcow boy
Ġtransition al
Ġcontrad iction
Ġeucl id
Ġchop in
Ġinterf aces
Ġconfer ences
Ġmetabol ism
Ġora cle
Ġtriv ial
p ot
Ġc b
Ġf og
Ġp end
it ting
Ġm ps
Ġh og
Ġg is
ig ation
Ġbe ating
Ġtw ins
im ar
our t
Ġun n
ers h
ub le
ang ed
Ġgen etically
Ġtra p
Ġye ast
ace ut
Ġdo ver
Ġmon ten
Ġsm ell
Ġbr ands
Ġwell es
Ġleg o
Ġgre ens
Ġref use
Ġref rig
Ġmill s
Ġperform er
Ġgeor ges
Ġche er
Ġze pp
Ġven ues
Ġpay ments
Ġpack ages
Ġthreat ening
Ġpra g
Ġinj ection
Ġbron x
Ġhind us
Ġlyn x
Ġimmigr ant
Ġhond a
Ġferment ation
hous es
Ġcarbo hyd
Ġ ich
Ġo c
Ġc in
Ġc is
Ġf ount
Ġd up
Ġd yst
Ġg p
om o
et e
ter a
Ġj ol
Ġpro d
Ġv ine
Ġat oll
Ġam id
rit e
end e
Ġdis ab
Ġag ing
Ġdef ore
Ġtrans cription
Ġgu ern
Ġsupp orter
Ġarm ored
Ġke en
Ġer asmus
lin ary
Ġtro phy
Ġprom ising
Ġdam ages
Ġpun jab
Ġbab e
Ġgas oline
Ġsup rem
Ġprogress ion
Ġperm its
Ġselect ive
Ġflu ct
Ġrain bow
Ġblock ed
Ġnick el
Ġunc onscious
Ġshall ow
Ġger ry
Ġpione ers
Ġprepar ing
Ġcongreg ations
Ġcyl ind
Ġphill ip
Ġfacilit ate
Ġfris ian
Ġtransp arent
Ġabn ormal
Ġwart ime
Ġunne cess
Ġremin isc
k ar
Ġa er
Ġa rian
he id
Ġf ring
Ġf oul
Ġf idel
at ri
Ġp ens
Ġp ork
Ġn ure
Ġl ots
Ġst air
Ġst aged
Ġdis ast
Ġac up
Ġgovern ance
Ġsupp ression
Ġeuro s
Ġsoc io
Ġcult urally
Ġback wards
Ġhand ful
Ġadv ised
Ġri emann
Ġcy rill
Ġrece ivers
Ġrepl ied
Ġmiss ed
Ġmyth ological
Ġtom orrow
Ġhapp iness
Ġcas p
Ġinvestig ate
Ġbact erial
Ġhypot het
Ġbattles hip
Ġdefend ers
Ġpian ist
Ġdor othy
Ġadvert is
Ġcurt is
Ġellip tic
Ġhorm ones
Ġdolph in
Ġoutdo or
Ġbalk ans
Ġhispan ic
Ġlikel ihood
a ud
b ie
c ode
e i
on ius
Ġp g
Ġn ur
Ġon t
ic eless
Ġd ow
Ġd ul
Ġd red
Ġre ass
et erm
Ġare n
Ġen ron
ag raph
Ġcl aus
Ġaf tern
ph an
Ġres umed
Ġem pl
Ġapp rent
Ġla z
Ġinter fer
oth s
Ġinv aders
Ġspec ify
Ġant o
Ġorgan ize
Ġgra ves
Ġdiv ides
Ġreal ize
Ġbre eds
mber g
yn t
Ġdel phi
Ġbor ges
Ġaltern ating
Ġur ged
Ġchap lin
Ġlad en
Ġbapt ized
Ġderiv ation
Ġsail ed
Ġacceler ated
Ġbrows ers
Ġconstell ations
Ġisot ope
Ġoverl ap
Ġborough s
Ġchi rop
Ġbarn abas
Ġinert ial
Ġeman cip
Ġanticip ated
Ġfellows hip
Ġanab apt
b ons
in ct
Ġc ed
Ġc es
Ġb is
Ġp ag
Ġn ass
Ġd orm
Ġd ental
Ġe ur
Ġl ymph
Ġis h
Ġal ert
Ġde af
Ġor n
Ġun h
Ġun in
qu it
od ied
Ġnot iced
Ġsh at
Ġad verse
Ġsp ots
Ġind us
Ġwe igh
Ġem ma
Ġkn ives
Ġplay station
Ġunder m
ative ly
Ġoff set
Ġcap oe
Ġrefer enced
Ġexp osition
Ġsur plus
Ġdep ri
ier i
Ġfact ories
Ġdiv inity
Ġview point
Ġep hes
Ġhel met
Ġvis ions
Ġaff irm
Ġobject ives
Ġmult im
Ġrepl ication
ob ia
Ġaccept s
Ġdece ased
und i
br idge
Ġinde finite
Ġhydro car
Ġgun pow
Ġhero ic
Ġalge bras
Ġindo or
Ġali ens
Ġkit chen
Ġsyll ables
Ġwonder ful
Ġfulf ill
Ġpharm aceut
Ġsurprising ly
Ġpotato es
Ġglas gow
Ġansw ered
g ic
k it
k ir
l ang
y ah
Ġo mitted
Ġs ikh
Ġf ron
it ate
Ġd eng
Ġd read
Ġl g
Ġg ru
ut ic
Ġcon cess
Ġeight y
Ġy u
Ġle is
Ġnot ions
ie u
Ġcl iff
Ġcl ocks
Ġint ake
Ġsp art
Ġdis in
Ġhad ith
Ġdes irable
Ġrel ate
ok es
Ġla ura
Ġout line
Ġinc ap
Ġsm ugg
Ġsa uce
Ġmod ify
Ġred und
Ġcat ast
Ġara ble
Ġsyn onym
Ġhom ogene
Ġinstit uted
Ġrich mond
Ġpred ictions
Ġpot ass
Ġrob ust
Ġflu or
Ġmut ually
Ġemphas ize
Ġdatab ases
Ġcars on
Ġcrypt analysis
Ġtrad ers
ivers ity
Ġhang ing
Ġhipp archus
Ġnord ic
Ġinterse ction
Ġcamer as
Ġdolph ins
Ġreluct ant
fr ame
Ġformul as
Ġafrika ans
Ġamn esty
Ġkaspar ov
Ġgunpow der
a q
b ted
c ient
e b
t or
w au
Ġs agan
Ġc id
Ġb end
Ġb ren
Ġb iss
Ġan ten
Ġe zek
Ġre x
Ġbe ats
id able
Ġr ico
ay ana
ri ac
Ġwor ms
Ġcl if
Ġdis cl
Ġra pe
Ġco il
ict s
Ġtra pped
Ġob ey
iss a
Ġsim pson
Ġgu ang
Ġir rit
Ġbra ve
less ly
Ġnort on
Ġsyn onymous
Ġsubject ed
Ġfra g
Ġtransport ed
Ġib id
Ġachie ving
Ġobser ving
Ġextra ction
Ġcra fts
Ġfel ix
Ġsand y
Ġded u
Ġfried man
Ġaccompan ying
Ġrabb is
Ġexerc ises
Ġhorn s
Ġgoddess es
Ġpseud onym
Ġerr one
Ġexplor ers
Ġcert ific
Ġeli jah
Ġcyber punk
Ġsubur ban
Ġqueens land
Ġprestig e
Ġphant om
Ġharpsich ord
Ġpotass ium
e le
Ġf p
is en
at isf
Ġp iz
Ġm ull
Ġn es
Ġe ich
Ġh ak
ig er
us a
ra b
Ġas b
Ġj umps
Ġde ar
Ġdis par
Ġsome how
Ġgo v
Ġem ail
Ġtrans action
Ġsch r
Ġsch ism
Ġsa hara
Ġrom a
Ġsl ogan
Ġpat rol
Ġdra v
ash ing
Ġmethod ology
Ġdu o
Ġfunction ality
Ġlib yan
Ġtransl ates
Ġbig foot
Ġdefe ating
Ġbirth place
Ġham ster
Ġid i
col m
Ġbass ist
Ġcook ie
Ġimag ine
Ġcrus hed
Ġrecip ients
Ġveget able
Ġabd ul
Ġemot ions
Ġannoun ces
Ġtrigger ed
Ġbutt ons
Ġextrem es
Ġconstra ints
Ġmug hal
Ġrous seau
Ġreconcil iation
n an
p se
Ġp all
Ġp ater
al t
Ġin gest
Ġh il
Ġth rew
Ġz ar
il ated
Ġis omorphism
Ġbe aches
st ock
im id
ra de
Ġst ern
ul se
Ġr yan
est on
ant es
ap arte
Ġab dom
ell es
Ġper ry
Ġbl air
Ġatt ained
Ġfil ters
Ġdist ill
Ġbu ying
Ġdem anding
Ġcould n
Ġtr uman
Ġline age
Ġgl enn
Ġhead er
ec ost
Ġciv ic
Ġmake up
Ġappl icable
Ġpur ity
Ġball ot
Ġbur ke
Ġten ure
Ġletter man
Ġcart ridges
Ġtor ped
Ġbond ing
Ġoce ans
Ġphysic ians
Ġpione ered
Ġwitness ed
Ġaccident ally
Ġpent ecost
Ġpus hing
Ġaero space
Ġglac iers
Ġaggress ion
Ġenab ling
Ġdepict s
Ġprede cessors
Ġgriff ith
Ġnash ville
Ġdischar ge
Ġferr ari
Ġmesopotam ia
Ġacup unct
Ġchirop ract
s f
w ire
Ġt n
Ġc ater
Ġp ard
Ġp uls
it ism
or th
Ġd ame
Ġg os
Ġfor get
Ġal oe
Ġde port
Ġby pass
Ġv ague
qu in
iv ist
pp ers
ph ys
Ġdes k
Ġser pent
Ġem acs
Ġbl ond
Ġpers ians
Ġhum ph
ah ar
Ġcur ling
Ġmil wau
Ġant agon
Ġconf ron
Ġer as
Ġhuman ism
Ġcountry side
Ġauthor itative
Ġimm ers
Ġexcept ional
Ġid ol
Ġdestroy er
Ġlad ies
ios is
Ġcomment ed
Ġsax ons
Ġgrant ing
ante ed
Ġul rich
Ġsculpt or
Ġprol ifer
Ġguar anteed
Ġmira cle
Ġextract ed
Ġcapit als
Ġhorm one
Ġexchang ed
Ġbrut al
Ġevol ve
Ġrhet oric
Ġez ra
Ġpam ph
Ġconcur rent
Ġfrit z
Ġfreemason ry
Ġextrater restrial
Ġgett ys
Ġinsu fficient
Ġauck land
e urs
in ox
Ġs its
at ius
Ġd ic
Ġh ort
Ġl acks
ion age
Ġth ou
Ġbe ers
ur ities
Ġde gen
Ġr he
Ġr er
Ġne olithic
Ġne arest
red ited
Ġmar riages
ict on
Ġeu phem
Ġbr is
Ġconst ants
Ġbro s
Ġty ran
Ġcolle ctor
Ġbat ting
Ġep s
Ġstory line
Ġbegin nings
Ġiv oire
Ġmel ting
Ġencyclop ed
Ġbroadcast s
att i
Ġshot gun
Ġsimpl icity
Ġpatri ot
Ġmyster ies
Ġhat red
Ġaw aken
Ġnapole onic
Ġtiss ues
Ġdir ty
Ġuncertain ty
Ġdru ze
Ġneighborhood s
Ġlocomot ive
Ġspar se
Ġconcord e
Ġcanton ese
Ġaur ang
Ġhed ge
Ġamar anth
Ġregul atory
Ġfart her
Ġillegit imate
Ġnure mberg
Ġmilwau kee
f unction
p ost
Ġb ould
Ġp dp
it he
Ġl n
Ġbe a
ur ia
Ġex eter
ac us
Ġar y
end icular
ph is
Ġco ke
Ġser bs
ten ess
Ġunder went
Ġmus cles
Ġdep iction
Ġfree way
Ġprop ulsion
Ġbi ographies
Ġgl or
Ġarch im
Ġve gas
Ġread ings
Ġred es
Ġpost ed
Ġill usion
Ġpun ct
Ġtim othy
Ġcart esian
Ġjournal ists
Ġvill ain
Ġsens itivity
Ġcas ino
Ġnic ene
add y
agon al
Ġexplo it
Ġpig s
Ġrecall ed
Ġbenz ene
Ġdeleg ates
Ġdak ota
otrop ic
Ġcentaur i
Ġwilder ness
Ġnev ada
Ġmaneu ver
Ġeuchar ist
Ġbiod iversity
Ġexcer pt
Ġdisast rous
Ġempl oys
Ġgettys burg
w it
w orm
Ġf and
at io
Ġw end
Ġm asc
Ġd anny
ra cies
el ong
op ian
Ġsc rim
Ġwe aker
hed ra
ft a
Ġgu i
Ġge ograph
Ġmed itation
Ġshe pher
Ġcr ashes
Ġunt o
Ġexpl oring
oph il
Ġvarious ly
Ġinit i
Ġcost ello
Ġur s
Ġcho ir
Ġrat ios
Ġinvent ory
Ġhero dot
Ġcontem pl
Ġinn ings
Ġsens ory
Ġparalle ls
Ġasc rib
Ġanthrop ologists
Ġveget arian
Ġfreder icton
Ġkir by
Ġconclud e
Ġsafe ly
Ġreprodu ce
Ġwolf gang
Ġsubstit ution
Ġinqu isition
Ġglac ier
Ġperp endicular
Ġmanip ulation
Ġathen ian
Ġdisagree ment
Ġpret ty
Ġentrepren eur
Ġprel ude
Ġburk ina
Ġetrus can
Ġhypoglyce mia
c ru
h all
n en
Ġt ide
Ġa es
er i
Ġs hed
Ġc ec
Ġn autical
ou fl
Ġh ap
Ġl f
Ġl oses
el ing
Ġk ins
Ġj en
ay an
Ġv apor
ill er
Ġsp or
Ġsc out
Ġdis b
Ġco aches
Ġhad es
Ġbo omer
ond s
ok o
Ġmay be
ans ing
int he
Ġlo ving
Ġmon uments
Ġpers pect
Ġequ inox
Ġaust ro
Ġserv ants
yl um
Ġaff ir
Ġturn er
Ġdevelopment al
Ġident ifies
Ġmic ron
Ġmal colm
Ġhom oph
Ġhom eless
Ġtext ure
Ġsent iment
Ġdam aging
Ġgar ner
Ġweek end
Ġcurren cies
Ġly ric
Ġtan akh
Ġcrow ley
heim er
Ġintention ally
Ġphill ips
Ġbolshe vik
Ġdiabet es
j our
Ġc du
Ġc ider
Ġf d
Ġw ic
Ġan k
Ġd ella
Ġre hab
Ġbe avis
ch witz
ur ance
Ġor well
Ġat kins
od a
Ġar id
ks hire
Ġgo at
Ġeng agement
Ġbl ake
Ġunder world
Ġnum eral
Ġmet am
Ġmin us
Ġx en
Ġest her
Ġloc ks
Ġdec ides
Ġstr and
Ġmod ules
Ġhuman itarian
Ġrad ios
ret ion
Ġho ok
Ġmethod ist
Ġactiv ated
Ġforeign ers
Ġneg l
ffic ients
Ġmyth ical
Ġtom my
Ġrout ledge
Ġconver ting
Ġjoseph us
Ġmission aries
Ġmath bb
Ġconv iction
Ġbon aparte
Ġbil ateral
Ġmort al
Ġion ic
kh az
Ġexplo ited
Ġglac ial
contin ent
Ġnan ot
Ġpresum ed
Ġshir t
Ġcoe fficients
izz ard
Ġastronaut s
Ġleop old
Ġvend ors
Ġparadig m
Ġchrys ler
Ġaftern oon
c ap
m age
r d
y cl
Ġs ne
Ġf ay
Ġb s
Ġw izard
ed ience
Ġl ips
Ġth res
ent e
im at
el ic
Ġun int
Ġun anim
Ġsh am
Ġab khaz
ran g
Ġsc ro
Ġco ordination
Ġpres erving
Ġacc idents
Ġreg en
Ġlo vel
Ġlo ans
Ġdevelop s
Ġimp ose
Ġcur se
Ġnational s
Ġspec ulative
Ġorgan izing
Ġter rible
Ġcy ril
Ġaddition s
Ġwal ks
Ġprom ises
Ġcover t
Ġneg ro
Ġimpro per
Ġvo id
Ġwat t
Ġiv y
Ġbreak th
Ġimag ing
Ġanton y
Ġsail ors
Ġsuperior ity
Ġirre duc
Ġceleb rit
eg ro
Ġbolshe viks
Ġine ff
Ġdimin ished
Ġkhaz ar
Ġcaucas us
Ġhydra ul
Ġsart re
Ġmonten egro
Ġzepp elin
Ġcyrill ic
Ġherodot us
Ġperspect ives
a ired
e per
u pp
on acci
Ġf ide
Ġre active
Ġr ider
Ġpro claim
Ġus af
ber ger
Ġsp ino
iz ards
Ġsc or
Ġra ids
Ġco hen
Ġrep ent
Ġher cules
man uel
Ġret aining
Ġop ium
ina e
Ġinform ally
Ġfa o
ov ah
Ġson ata
Ġdecl ining
Ġsyn od
Ġsat ire
let ion
Ġic c
Ġproblem atic
Ġpersonal ities
Ġpoly mer
Ġban ach
Ġdemonst rations
Ġmand arin
Ġcapac itor
writ ers
Ġah med
Ġarbit ration
Ġfirm ly
Ġdraft ed
Ġpoison ing
Ġdrag ons
Ġmaur it
osaur us
Ġculmin ating
Ġmotorcy cle
cro ft
Ġsebast ian
m m
Ġt ier
he it
Ġc gi
Ġp x
al is
Ġg wh
Ġst ressed
se in
Ġcl air
Ġmar ched
Ġup set
Ġinv alid
Ġgu ilt
Ġins ign
Ġsw orn
Ġbar riers
Ġdr ift
Ġref lex
Ġsk yl
Ġden ial
Ġbill board
Ġphilosoph ies
Ġtransl ate
Ġpriv acy
Ġid o
Ġtheore ms
Ġhebrew s
Ġcru iser
Ġpromin ently
Ġinvestig ated
Ġshar ply
Ġswe ep
Ġund es
Ġak in
Ġqual ify
Ġrecip es
Ġunus ually
Ġjoint ly
Ġparam eter
mo or
Ġresemb lance
Ġesp ionage
Ġtreas ure
Ġpir ate
Ġaus chwitz
Ġreinfor ced
Ġpix el
Ġprestig ious
Ġtus can
Ġdiscontin ued
Ġconve x
Ġreli ability
Ġrah man
Ġprotagon ist
Ġincompat ible
Ġmagnes ium
Ġhypothet ical
Ġcelebrit ies
b ird
m other
r iction
w ara
er ate
Ġm oss
ic he
Ġd oses
Ġh bo
Ġl id
Ġg sm
ur ate
Ġk ling
Ġch r
Ġun con
all ed
Ġad ren
Ġdis asters
Ġmar ines
Ġpol k
Ġover r
Ġpre lim
Ġout ward
Ġass erts
Ġap ache
Ġfun gi
Ġlit urg
els at
Ġmilit ant
Ġsol ic
Ġvol s
Ġber ber
Ġmac le
Ġcann ib
Ġsymbol ism
Ġdisp os
Ġhydro x
Ġmyth os
Ġrob ots
Ġcounter point
Ġsens ation
Ġlif ted
Ġcrim son
Ġtrack ing
Ġmos que
Ġflor a
gu ard
Ġportra yal
Ġinteresting ly
Ġlis a
Ġautomob iles
Ġbicy cles
Ġassign ment
Ġoak land
Ġsubsid iary
Ġkiss inger
lock ed
Ġmemor able
Ġaccommod ate
Ġsadd am
Ġnutrit ion
Ġkyrgyz stan
Ġprolong ed
i ere
Ġt ul
Ġa ure
in ished
Ġf ah
Ġb ubb
Ġp rad
Ġn ero
Ġl enses
as se
Ġch ing
Ġy oga
ong s
Ġsp ike
Ġu bi
Ġra v
Ġra pper
Ġdo st
Ġdef unct
Ġmon roe
Ġgu ess
Ġunivers idad
Ġimp ressed
ins ky
az e
az i
Ġsw an
de e
Ġjust in
Ġcompan ions
Ġbre men
Ġbi ographical
Ġaccord s
Ġtro jan
Ġexpress es
Ġphot ographer
Ġfav oured
Ġsn ap
Ġcollect ors
Ġinvent ors
Ġfundament ally
Ġarri ves
Ġconduct ing
Ġcelebr ations
Ġkid ney
Ġasp art
Ġresemb ling
Ġvolcan o
Ġaero dynam
Ġcert ified
Ġconstitu encies
Ġdecor ated
Ġapprec iation
Ġsecre ts
Ġsubordin ate
Ġtremend ous
Ġinadequ ate
Ġdefore station
a ire
e ys
f olk
m ings
p m
Ġt es
Ġc ig
Ġb red
Ġp orter
Ġe f
Ġl umin
am ily
ot ive
Ġen velop
Ġaf onso
act us
Ġcol ts
Ġph ara
Ġwe ber
Ġup s
ric ks
ick ing
Ġorgan iz
Ġdiv is
Ġfa una
Ġadv ancing
Ġtri ps
Ġrest ra
Ġappro aching
Ġmeth yl
Ġver d
Ġden ounced
Ġbattle cru
Ġnorm andy
Ġill icit
Ġtur bul
Ġpred iction
Ġgrand e
Ġconserv atism
Ġemb ark
Ġcam oufl
Ġbab bage
Ġprec ious
Ġfal con
Ġtransform ations
Ġhaw k
Ġunp re
hamm ed
Ġpenal ties
Ġtu ber
Ġflood ing
Ġsleep ing
Ġstret ch
Ġalg ol
Ġrib bent
Ġencod ed
Ġveter an
Ġscar ce
Ġsket ches
Ġsemin ary
Ġdys on
Ġpharm ac
Ġconsolid ated
Ġdevast ating
Ġhast ings
Ġcros by
Ġannounce ment
Ġapocaly pse
Ġleis ure
Ġacupunct ure
Ġribbent rop
k ah
Ġt rit
in ality
Ġc ess
Ġf ry
Ġh ux
Ġg ersh
Ġbe ir
Ġk ul
Ġk em
Ġun m
op ia
art es
Ġpl ots
Ġco x
Ġme ad
Ġmar low
Ġfe ather
Ġla ud
Ġout right
Ġpres ently
Ġtrans cript
Ġx iii
Ġimp art
iel der
Ġjohn ston
Ġcrit er
Ġcrit ically
ae an
Ġmight y
Ġcoast s
com es
Ġdistin ctions
Ġsam pling
Ġdeal er
Ġmis leading
Ġpan c
Ġanth ology
Ġans i
Ġip cc
Ġcalend ars
Ġcomment aries
Ġcatal ogue
Ġdun ge
Ġcontact s
Ġdro pping
och ond
Ġprin ters
Ġgoth am
Ġstrugg les
Ġabbre vi
Ġchlor ide
Ġsig ma
Ġfib onacci
Ġinherent ly
Ġlauren t
Ġconfirm ation
Ġinex p
Ġhelicop ter
Ġfrances co
Ġsina i
Ġbism arck
Ġinequ ality
oglo bin
v ation
v ich
w ith
Ġt ud
Ġo ed
Ġc eded
Ġm um
ic ides
Ġd ada
ou x
Ġl yd
Ġse aled
et ism
Ġhe c
Ġwh is
Ġpro log
Ġun ac
og rams
ag ram
ast ics
cc i
Ġsy riac
Ġeng aging
olog ue
Ġma z
Ġcar r
Ġrem ed
Ġbel fast
Ġpresent ing
Ġhal t
ling ton
Ġconstit uted
be at
Ġju ice
Ġcompet itor
Ġvo iceless
Ġstra uss
Ġsubs pe
for ward
ba um
Ġjack ie
ett i
Ġlu ft
Ġprem ise
Ġturk ic
Ġinstall ation
Ġul ster
Ġintent ions
Ġhes se
Ġacknow ledge
Ġdd r
Ġsor cer
Ġsurn ames
Ġcler k
Ġrac ism
Ġfas o
Ġincarn ation
Ġchel sea
Ġaurang zeb
Ġhux ley
i ors
o bs
u ka
z ep
Ġs ara
Ġc cc
Ġc ott
on ne
Ġb ail
Ġd ion
Ġl ore
ing ual
om ing
st ar
el ius
Ġde ployment
est os
Ġar ising
ud ence
Ġle et
ag int
Ġro land
Ġsc an
ath ic
ced ented
Ġfl ies
Ġart work
Ġdist ortion
Ġexp ulsion
Ġfun ny
Ġbu chan
Ġlit urgy
Ġant is
Ġfree zing
Ġho ax
Ġplace ment
Ġvis c
Ġindivid ually
Ġconstit utions
Ġnovel ists
Ġbor is
Ġlatin o
Ġhit t
Ġgreen wich
Ġcapt ivity
Ġfight s
Ġtemper ament
Ġpit ching
Ġopt ics
Ġsubs ets
hol der
Ġluc id
Ġchron o
Ġflu ores
Ġenj oys
Ġswit ches
Ġka ren
Ġol ive
Ġtermin als
Ġconclud es
Ġparam ount
Ġwithdra wn
Ġstorm s
Ġbehavi ors
Ġlev y
Ġnotice able
Ġbav arian
Ġflex ibility
Ġprefix es
Ġmonaster ies
Ġprivile ge
Ġdiab lo
Ġreconstruct ed
Ġjagu ar
Ġcurric ulum
Ġberm uda
Ġcapoe ira
Ġprelim inary
Ġunpre cedented
p it
r ina
Ġf ou
ar is
Ġon set
Ġe ject
Ġl ump
Ġre per
Ġas ylum
Ġj aw
op las
oun ce
ant ine
ia go
ard y
Ġsp heres
Ġu c
Ġwe ights
te chn
Ġapp les
Ġpres cribed
Ġac re
Ġlo ading
Ġinst ability
Ġfilm ography
Ġcur ry
Ġdesign ing
up ac
Ġref usal
Ġrest s
ony ms
Ġpur ported
Ġbal let
Ġmal t
Ġdest iny
Ġsubst rate
Ġcreat ors
isc ip
Ġoccup ying
Ġrh o
ij uana
Ġhot els
for ce
Ġmc g
Ġresist ed
Ġens emble
Ġreject s
Ġlif es
Ġfundamental ist
Ġchrom atic
Ġnom adic
Ġexhib ited
Ġkg b
Ġhur d
Ġnig er
kee per
Ġyugosl av
Ġpronoun ce
Ġquot ations
Ġabund ance
Ġbrah ms
Ġimmun ity
Ġgeneal ogy
Ġrabbin ic
Ġpsy ched
Ġoffsh ore
Ġcrom well
Ġreyn olds
Ġscrim mage
Ġscro oge
Ġbeir ut
b ing
i ens
l ar
Ġc ds
en c
Ġb ard
it ives
Ġz amb
Ġis omorphic
Ġal s
Ġk re
Ġk rist
Ġj or
ap o
Ġab el
Ġro th
Ġsc i
Ġpo inter
Ġpe pper
Ġup right
Ġsub f
row s
Ġown s
lo o
ple as
Ġball ad
Ġhold ers
ief en
Ġabs inthe
Ġcast ing
Ġcommand ments
Ġcry onics
ari os
Ġhall ow
Ġmagn ific
Ġkar p
Ġinvent ions
Ġunf inished
Ġhus sein
Ġdynam ical
Ġcheck ing
Ġslo vak
Ġassert ion
Ġreprodu ctive
Ġblind ness
Ġghost s
Ġlibert ies
dor f
po ints
Ġskept ical
Ġconfuc ius
Ġved ic
Ġthera pe
Ġwikis ource
Ġsemant ics
Ġcriter ion
b ane
c imal
h ot
k al
l av
y der
er l
Ġb bs
Ġw ang
ic les
Ġl ance
ig raph
us ter
am oto
el ines
od ed
Ġen ables
Ġab uses
Ġall ocation
ound ing
ke ys
Ġco herent
Ġqu it
Ġsub j
Ġmus h
Ġher mes
Ġhum id
Ġconf using
Ġstat ues
Ġhead ing
Ġlab yr
Ġcentral ized
Ġpost war
let te
ari at
Ġpun ished
Ġimplement ing
Ġamb ient
Ġbudd y
Ġprefer ences
Ġencoura ging
Ġft p
Ġcosm ological
Ġfro g
Ġdecre asing
Ġreact or
Ġanat om
Ġlux ury
Ġgly c
Ġcomparative ly
Ġpars ons
Ġnam ib
Ġbrad ley
Ġincorrect ly
Ġneighb ours
Ġjerem iah
Ġdrain age
Ġlegitim acy
Ġsomers et
Ġguern sey
e ck
f ight
Ġc ly
Ġf us
Ġn ol
Ġh ok
Ġl ago
Ġg ag
Ġre pt
Ġre igned
il o
el t
Ġk ate
Ġde eds
ay y
ay ev
if erous
Ġsu its
ain ted
Ġy emen
Ġsp are
Ġall oy
Ġte aches
Ġco val
ism atic
Ġkn ot
Ġfe els
Ġwar l
Ġup coming
Ġap i
Ġwould n
Ġbas h
Ġpar agraph
Ġob jections
Ġhar ass
Ġprot oty
Ġcharacter ised
Ġperiod ically
Ġbra b
Ġeth yl
Ġmot if
Ġsun set
Ġcondition ing
Ġbur undi
Ġindian apolis
Ġinvest ments
Ġpsych ologists
Ġmur d
Ġemb arr
Ġrh y
Ġquestion able
Ġid le
Ġarri ving
Ġgramm ars
Ġvictor ious
Ġbehavior al
Ġdun dee
Ġfavor able
Ġbarb arian
Ġol ig
Ġprotestant ism
Ġsty led
Ġbabyl onia
Ġsevent een
Ġencoun ters
Ġsimult aneous
Ġmig rated
Ġbullet in
Ġpsychiat ric
Ġtric ks
mill an
Ġresear cher
Ġrectang ular
Ġinvas ions
Ġaborigin al
Ġunnecess ary
Ġorganiz ational
Ġembarr ass
a id
d ays
m u
p he
p ad
on na
Ġw als
ar at
Ġl und
Ġto dd
Ġr iv
ab e
oc al
art y
Ġad en
Ġint ens
Ġint elsat
Ġro ok
ub s
Ġra iders
Ġli ked
Ġsoc iology
Ġmat ching
Ġlist ening
Ġdesc artes
Ġref ine
Ġjust inian
Ġneed le
ae us
Ġball oon
Ġtransl ator
mit t
Ġfire arm
Ġlay ing
Ġacadem ics
Ġdead ly
Ġstra w
Ġmind ed
Ġinn oc
Ġdiss oc
Ġcru z
Ġcru isers
Ġdistingu ishing
Ġsav age
Ġdepend ency
Ġdynast ies
Ġaz te
Ġlas ers
Ġhosp itals
Ġbes ie
Ġsant iago
Ġbour ge
Ġcoc oa
Ġhellen ic
Ġembra ce
Ġrecommend ation
Ġambig uity
Ġpersu aded
Ġdisadvant ages
Ġchand ler
Ġgloss ary
Ġpalat al
Ġinev itable
Ġmicropro cessor
Ġperipher al
Ġenthusi asts
Ġemble m
Ġreminisc ent
Ġcasp ian
Ġemancip ation
Ġcamoufl age
Ġtuber cul
Ġsubspe cies
l ot
l ace
x on
er able
re b
Ġin ning
Ġan omal
Ġl ute
im er
Ġj ard
Ġle ver
Ġman x
Ġcont ing
Ġsc rib
Ġgen itive
Ġdes erts
Ġrel iance
Ġla x
Ġjo ey
Ġsub urb
ys c
Ġbrit t
Ġval ves
Ġdesign ations
Ġbar g
Ġbar rels
Ġinfl amm
Ġbus y
Ġvi able
Ġbeh ave
Ġsun light
Ġproject ed
Ġrespect s
Ġnucle i
Ġweb ster
Ġjose f
Ġsem antic
Ġsequ ential
Ġgar cia
Ġdark er
Ġstation ary
Ġpossess es
Ġrain y
Ġmob il
Ġabst raction
Ġnegot iate
Ġnomin ally
Ġexplo its
Ġmong ols
Ġcarn iv
Ġwinds or
Ġtight ly
Ġspell s
Ġfulf illed
Ġmonitor ing
Ġsas k
Ġdioc ese
Ġdefect s
Ġreinfor ce
Ġphyl ogen
Ġsatir ical
Ġembry o
Ġjeh ovah
Ġconject ure
Ġunch anged
Ġepile psy
Ġdisab led
Ġezek iel
l ink
p c
t ures
v ar
Ġt ones
he ster
Ġthe rap
an ity
Ġn ca
ic z
Ġd ich
Ġd ess
Ġh ir
Ġh ul
Ġh agg
Ġl ime
Ġl ug
ad in
Ġk are
Ġj oc
Ġmo ons
ag les
Ġha ik
Ġcan als
Ġall ocated
Ġgr im
Ġtra ff
ens on
Ġapp ell
Ġout f
Ġinc on
ild e
Ġmem phis
Ġgu ant
Ġgu iana
Ġmat ric
Ġcre m
Ġdec iding
ann ers
Ġes sex
Ġstat utes
Ġview er
Ġhel ix
Ġvis ig
Ġsat ie
Ġmac c
Ġmart y
Ġimpro v
ien ne
Ġreason ably
Ġten der
Ġsam oa
Ġindic ator
Ġopt imal
Ġfair y
Ġconver gence
Ġlic ence
Ġens uing
Ġdip ole
Ġjul es
Ġlingu ist
Ġmit ochond
Ġstock holm
Ġdun es
Ġtruth s
Ġcharl ton
Ġlev it
Ġamend ments
Ġdiagr ams
Ġcole man
Ġrecre ation
Ġpist ol
Ġmetaphys ical
Ġwrest ler
Ġspa wned
Ġkeyn es
Ġthermodynam ics
Ġnomine e
Ġenerg ies
Ġtunn els
Ġasb estos
Ġthres hold
a edia
d al
f u
f ined
m ap
Ġc ite
Ġc ows
Ġn h
Ġn ir
Ġl lam
Ġth ri
ro oms
Ġz u
ol ulu
Ġst ip
Ġst uck
el ly
Ġk j
Ġk ru
Ġj ess
Ġne oc
Ġwor thy
ran ge
Ġsc o
pl ant
Ġno st
Ġmar ath
Ġlang le
Ġfin ishing
Ġfin ns
Ġcur ious
conom ic
Ġprop ose
Ġeast enders
Ġta j
Ġhun s
Ġann ih
Ġred ist
Ġver mont
Ġdecl aring
Ġmer ge
Ġhelp ful
Ġtour naments
Ġpred icate
Ġsept u
Ġur ugu
Ġhon olulu
Ġphot ographic
Ġhost ility
Ġoccup ies
Ġpoly techn
Ġrout ing
Ġtend encies
Ġsho oter
Ġabb as
har an
Ġincorpor ating
Ġillust rations
met ric
Ġcp c
Ġconv ince
ogen esis
Ġintellectual s
Ġpakistan i
Ġcommod ity
Ġelim inating
Ġtact ic
Ġjeff rey
Ġefficient ly
Ġremark ably
Ġstret ched
contin ental
Ġembra ced
Ġski ing
Ġrecru it
Ġprevail ing
Ġrecurs ive
Ġprefect ure
Ġtrin idad
Ġdisplace ment
Ġanten na
Ġineff ect
Ġhydraul ic
f an
m aker
w affe
Ġa ires
he ll
Ġc hern
Ġan oint
Ġand es
Ġg le
Ġre jo
Ġse greg
st en
ut ory
qu ad
Ġpl ac
Ġco y
Ġmar io
te ch
Ġover head
Ġjo el
Ġreg ained
Ġcar lo
Ġfl ux
Ġsim ulation
Ġdisc oura
Ġimp air
Ġclass ify
Ġprot ons
bo at
Ġpress ing
ash a
Ġmic key
Ġhon est
Ġbound s
Ġid a
Ġmc du
Ġconcent rate
Ġdia gon
Ġcompar isons
Ġcompl ications
Ġgramm y
Ġcontract ed
Ġcontrast ed
Ġexport ed
Ġdin ner
Ġproport ions
Ġlot us
Ġsed iment
Ġsymp ath
Ġdd t
Ġfeud alism
Ġdh cp
Ġsynthes ized
Ġoz one
Ġflour ished
Ġquart et
Ġconjug ation
Ġdisadvant age
Ġrhet or
Ġcondom s
Ġcyan ide
Ġintr ins
Ġmys elf
Ġanto ine
Ġmetam orph
Ġinexp ensive
Ġseptu agint
l ined
m id
n ut
Ġt ir
Ġa pt
in ator
Ġf ian
at ar
Ġp anda
Ġe ager
Ġh s
Ġh ue
am pton
od ing
Ġen er
Ġsh og
Ġint est
Ġwe imar
Ġrec k
Ġbl ame
Ġrep r
Ġinv ading
Ġred is
Ġden is
Ġvir al
Ġprofess ors
Ġliving stone
Ġrecogn izes
Ġkar achi
ura i
Ġstation ed
Ġunique ly
Ġcatal y
Ġcod ified
Ġexclus ion
Ġbah amas
Ġclock wise
Ġrum ors
Ġjon ah
Ġdrop s
Ġalk anes
Ġutil ized
Ġstret ching
Ġtriang ular
Ġdisney land
Ġtheod os
Ġbuck ingham
Ġresol utions
Ġadject ives
Ġbund es
Ġadvis or
Ġemit ted
Ġpopul ous
Ġtrump et
Ġarom atic
Ġconsort ium
stad t
Ġcomor os
Ġlatt ice
Ġfluct u
Ġmultim edia
Ġbiss au
c ut
e as
j ou
l en
l is
m os
p ox
Ġt int
Ġt ips
Ġt ucker
on et
Ġf uck
Ġd ug
Ġe tern
ro gr
ent er
il ateral
Ġtw elf
ad h
Ġhe ap
Ġor ch
Ġsh ab
ub es
Ġdis j
ress ions
Ġwe ird
Ġwill ie
Ġbas soon
uc id
Ġrem ind
Ġintern ally
Ġcur ved
Ġmark up
Ġfa x
Ġadd ison
Ġdown s
Ġbi ologists
Ġprof itable
Ġlab elled
ps ons
Ġast ros
Ġsepar ating
Ġpot tery
Ġindic ative
Ġfoc al
Ġpac if
Ġcra zy
Ġmand olin
Ġign atius
Ġmob ility
Ġpu zzle
Ġcycl ic
Ġsurpr ised
Ġampl itude
Ġampl ifiers
Ġgor b
Ġment ally
hum an
Ġwhit lam
Ġirre le
Ġelder ly
Ġcyber n
Ġaest hetics
Ġrecommend ations
Ġloren z
Ġencl osed
Ġencompass es
Ġinfect ious
Ġaquar ium
Ġchol est
Ġinvarian t
ynt hesis
Ġphara oh
Ġnca a
b ound
h ound
h of
Ġt il
Ġs que
Ġc th
Ġp n
Ġp av
Ġp ins
ou ac
el o
Ġk ale
Ġj ut
Ġv int
Ġus eless
Ġar ct
Ġle p
ish a
Ġcomp elled
Ġcont end
Ġres ent
Ġra z
Ġem igration
Ġsub continent
Ġatt ested
Ġatt achment
Ġap oll
Ġfl own
Ġrep uted
Ġinv ari
Ġinv oked
Ġmed i
Ġdep osition
Ġmaj esty
Ġcomput e
Ġgl adi
Ġshort est
Ġjud e
Ġsuper vision
Ġder by
Ġche ers
Ġren ov
Ġpain ful
Ġmodel ing
Ġhop ing
Ġpeace keeping
Ġven et
Ġconsist ency
Ġbapt ists
Ġles lie
Ġspok es
Ġspring er
Ġincorpor ates
Ġalphabet ical
Ġnic ol
Ġassass in
Ġfu ji
Ġmail ing
Ġinput s
Ġspect roscopy
Ġbag p
Ġrig orous
Ġdol ly
Ġdod o
Ġinterst ellar
Ġfract al
Ġsacrific es
Ġposthum ously
Ġtibet an
Ġtranscend ental
conn ected
Ġnac ional
Ġcip hers
Ġeich mann
Ġgeograph ically
Ġluft waffe
Ġbourge ois
Ġgorb achev
b t
g ins
i qu
Ġc els
Ġc pr
an ne
Ġw ounds
Ġn os
Ġe lo
Ġh ag
ig i
Ġst ur
ir ts
Ġr ams
Ġch ak
Ġch ass
Ġch ances
Ġch ords
um i
Ġun cont
Ġar ter
Ġle one
Ġad obe
Ġapp o
Ġacc ents
Ġsub gen
Ġma iden
Ġev ap
Ġsim psons
Ġinv itation
Ġelect ors
Ġorigin ate
Ġhum our
Ġmed ication
Ġbu enos
Ġje ep
Ġstr ands
Ġland marks
Ġhand held
Ġgame play
Ġdi ode
Ġlet hal
Ġgl orious
Ġtem p
Ġca ution
Ġaff inity
Ġlog os
Ġbor g
Ġexam ining
Ġfail ures
Ġnote worthy
Ġcast e
Ġsn yder
Ġtax onomy
Ġros a
Ġhous ed
Ġimpact s
Ġdiplom acy
Ġpurs uing
Ġcool ed
Ġremark ed
Ġalleg ory
Ġdoubt ful
Ġdiagn ostic
Ġhierarch ical
Ġexpert ise
Ġwy cliffe
Ġinaug urated
Ġpreval ence
Ġpup il
Ġfilmm akers
Ġinev it
Ġlub ric
Ġcannib alism
Ġtubercul osis
Ġtwelf th
Ġcholest erol
h oe
l ain
z one
Ġ ers
he ed
Ġs is
at z
Ġp ays
Ġp omer
Ġin m
ar ius
ar oo
Ġd ens
Ġand or
Ġl ope
Ġto k
ig e
Ġre y
Ġz am
il itation
un s
Ġas ce
ow ing
Ġk ite
Ġun iv
Ġsu ed
Ġen ric
ia ceae
Ġpl ent
Ġro oted
Ġi o
Ġcent red
Ġpe jor
Ġmus cular
Ġfl ock
Ġfam ed
Ġcre ws
Ġoper as
Ġant ide
Ġcr ashed
Ġauth ored
oph ys
Ġber ia
Ġliter ate
Ġsun k
Ġproduct ivity
Ġnorm s
ox ide
Ġgold fish
Ġpast or
pr int
Ġimper ative
Ġod in
Ġdang ers
Ġalcohol ism
Ġancest ral
Ġstraight forward
Ġsevent y
Ġkir ib
Ġbrig ades
Ġneutral ity
Ġcolomb ian
Ġrebu ilding
Ġvik ings
Ġbeck ham
Ġinterrupt ed
Ġthorough ly
Ġsubdiv isions
Ġraven s
Ġneu ros
Ġhelicop ters
Ġseiz ure
Ġseiz ures
Ġturb ine
icht e
Ġignor ance
Ġkaf ka
Ġdistill ation
Ġmarlow e
Ġabbrevi ations
c or
f i
Ġc ables
at as
Ġh z
et z
Ġhe al
Ġr ift
Ġun ite
Ġcl ash
Ġab i
Ġab rupt
Ġcont empt
ass ic
Ġind ul
Ġli que
Ġear ning
Ġla o
Ġwar rant
Ġreg ulate
Ġed wards
Ġwhere ver
Ġsa haran
Ġdirect ing
Ġant it
Ġpri zes
Ġport land
Ġtr im
Ġdown ward
Ġbi ke
Ġcoun cill
Ġta u
Ġste al
Ġhel ena
Ġhal ak
Ġital ians
Ġhom age
Ġhom omorphism
Ġcost ly
Ġpast eur
Ġec st
Ġsn o
Ġdiscover ing
Ġcontrib utors
Ġnob ody
Ġcra w
Ġpra ir
Ġadm ired
Ġcelebr ating
Ġba ud
Ġdesert ification
Ġbang la
Ġelectro ly
Ġhomosexual s
Ġtrad es
Ġsom alia
Ġepist les
Ġoblig ed
Ġinsert ion
Ġchlor ine
Ġmyst ic
Ġsubmar ines
Ġvern acular
Ġpronoun s
Ġneuro log
Ġadvis ory
agg io
Ġjak arta
Ġarche ty
Ġathlet ics
Ġmoist ure
Ġkub rick
Ġdrav idian
Ġchiropract ic
Ġbreakth rough
Ġener get
Ġkirib ati
Ġb rent
Ġh oy
Ġg ius
Ġz oro
Ġbe agle
et or
ir l
Ġr pg
op ing
od on
pe c
ud ge
ber y
Ġcl ans
Ġab elian
Ġsp inal
Ġcons cience
Ġem il
Ġem igr
Ġem igrated
Ġqu ix
Ġqu asi
Ġbl ur
Ġreg istry
Ġgener ates
Ġsec ession
Ġpubl ishes
Ġend uring
Ġend less
Ġimp ulse
Ġbu zz
ros se
Ġhar rier
Ġins urg
Ġsw all
de z
Ġbre ach
Ġpract icing
Ġda w
Ġmen u
Ġintrodu ct
Ġbody bu
Ġjan et
Ġnews group
Ġmater nal
Ġcard inality
Ġtal ents
Ġpap acy
Ġprogramm able
Ġlower ed
Ġlower case
Ġsurv ives
Ġven ue
Ġfinan cing
Ġpack ed
bour g
Ġencoura ges
Ġcod ed
Ġsort ing
box yl
Ġproof s
Ġbil ingual
Ġadapt ive
Ġtan z
Ġorbit ing
Ġdiet ary
Ġuniform s
Ġshel f
Ġnavig able
Ġtank er
Ġsyll ab
Ġmemb ran
Ġnep al
Ġpist on
Ġoverth rown
Ġoutl ined
Ġwrest ling
Ġrecru ited
Ġinaug ural
Ġgon z
Ġlung s
Ġspark ed
Ġcaliph ate
Ġcrystall ine
Ġentrepren eurs
Ġstrengthen ed
Ġupgrad ed
Ġshang hai
Ġhasid ic
Ġmercen aries
Ġdiod es
Ġmyc en
Ġdred d
Ġbuchan an
n ian
s he
w iki
Ġs ino
Ġc ourage
Ġb anning
Ġw ired
Ġp og
Ġp oul
al ine
ic ious
Ġl ars
ra ine
ot ional
Ġeight eenth
Ġj ag
Ġj ub
Ġde er
Ġr ated
Ġr isc
Ġch oms
Ġsu ez
ac ies
ian us
ment ioned
Ġpl o
Ġad hes
Ġint act
Ġsp ice
Ġbo er
own er
Ġtra ject
Ġbl izzard
Ġthan k
Ġac m
Ġinv ade
Ġexp enses
Ġchrist ine
Ġins ane
Ġconf ession
Ġland locked
Ġprop elled
Ġsk ysc
Ġfar oe
Ġbod ily
Ġhun ters
Ġrest riction
Ġinflu x
Ġinvol untary
Ġcourt es
Ġhold ings
Ġren t
Ġpap ua
Ġmodel ed
to ok
Ġcolon ists
Ġquant itative
Ġunit ary
ij a
Ġlaun ching
Ġvill a
Ġtun es
Ġadvoc acy
Ġillust rate
Ġapart heid
Ġvast ly
Ġsle e
Ġworship ped
Ġandrew s
Ġideal ism
Ġale ks
Ġrevol utions
Ġlind a
Ġker ouac
Ġpleas ant
Ġjama ican
Ġgol an
Ġunw illing
Ġsubdiv ided
Ġwaveleng ths
Ġcamer on
Ġsene gal
Ġdesper ate
Ġyor kshire
Ġiod ine
Ġbubb les
Ġmcdu ck
c are
h ill
r s
w he
Ġt d
Ġt ah
Ġthe ss
on aut
Ġf ps
Ġn ba
Ġn ancy
Ġh ire
Ġse ab
Ġse als
Ġbe ard
Ġst icks
Ġk orn
if fer
est ab
ess er
Ġhis p
Ġpl um
ous ed
Ġab ort
Ġcan ary
Ġint imate
ran k
Ġall oys
Ġdes ires
Ġact in
Ġany way
Ġmat ched
uss y
Ġsur g
Ġsl am
Ġsl im
enn ess
Ġline up
Ġfa w
Ġphys iological
Ġarch du
Ġcle ver
Ġindividual ist
Ġju ven
Ġbill i
Ġcare ers
Ġtext book
Ġq quad
Ġmaterial ism
Ġviol ated
Ġaccount ed
Ġgrand mother
Ġflow ering
Ġelement al
Ġlabor atories
Ġgraph ite
Ġluc ifer
Ġcontrast s
Ġquarter ly
Ġones elf
Ġott awa
Ġgrav itation
Ġprep osition
Ġesc ort
Ġfemin ists
Ġexhib its
Ġpione ering
Ġhera cl
Ġearn ings
iot ics
ystem s
Ġmorph ology
Ġsupers eded
Ġspell ings
Ġgrad ient
Ġwer ner
Ġtiber ius
Ġpero xide
Ġtribut aries
Ġexagger ated
Ġprad esh
Ġintroduct ory
x x
y t
Ġt enses
Ġa pl
in ism
Ġw i
it ted
Ġn c
Ġn im
Ġan ode
ero y
Ġse am
Ġal ve
ul ators
Ġj i
Ġman ages
Ġtra gic
Ġbl end
Ġbl own
Ġwar ned
Ġma f
Ġcount less
ep pe
Ġmon ica
Ġmon key
Ġge ologic
Ġcre ations
Ġdem ographic
Ġstat istic
Ġfore most
Ġcle ared
Ġdeb ts
Ġprom ul
Ġexam ine
Ġexec ut
Ġhon ors
Ġdepart ed
Ġautom orph
Ġborder ed
Ġethnic ity
Ġscreen play
Ġund ers
Ġcha otic
Ġdj s
Ġdoug lass
Ġadvance ment
Ġdream ing
Ġpreced ent
Ġdeuts ch
Ġgeneal og
Ġbureauc racy
Ġscrat ch
Ġharb ors
Ġepistem ology
Ġextermin ation
Ġtunis ia
Ġuz bek
Ġtelev isions
Ġfount ain
Ġclif ford
Ġshepher d
s l
Ġw ies
Ġd iana
Ġl ucky
Ġth ai
Ġg ould
Ġbe au
Ġwh ist
Ġcom a
Ġch ore
Ġmo hammed
Ġne pt
Ġne ural
ess a
Ġsc rew
Ġres urg
orm an
Ġmar ijuana
ok en
Ġfe as
Ġpres ided
Ġatt ach
Ġap opt
Ġac claim
Ġfl ank
Ġty ph
Ġcor i
Ġret al
Ġcolle ague
Ġyear ly
Ġmark er
Ġpat ented
Ġstat utory
Ġwater loo
ats u
Ġann als
Ġscient ology
ob ic
Ġhard cover
Ġfr atern
Ġtext iles
Ġbor on
Ġdon ated
Ġmac millan
isc hen
Ġinvest ed
Ġbul lets
Ġemploy ers
Ġintegr ate
Ġpan ic
Ġfaith s
Ġtable ts
Ġcompl iance
Ġchrom at
Ġrecip roc
Ġmist akes
Ġmir rors
Ġbes ide
Ġstret ches
Ġdress ing
Ġperpet ual
Ġrac ist
Ġhym ns
Ġculmin ated
roph ic
Ġsanct uary
Ġposthum ous
Ġjerem y
Ġkang aroo
Ġenlar ged
Ġincons istent
Ġappend ix
Ġconnot ations
Ġfric ative
Ġsuscept ible
Ġsuprem acy
Ġgersh win
h ito
Ġa ether
Ġs es
is i
Ġb ary
Ġp iny
al ous
Ġm ash
Ġn ah
Ġh iding
Ġl v
om ers
Ġbe ts
Ġk arn
Ġj in
Ġj peg
Ġr f
Ġor nament
if ix
ac char
Ġne op
ill on
ill ion
Ġam y
Ġcl ad
Ġte ars
Ġind ict
Ġbo o
ach im
Ġkn ots
Ġmay a
Ġoff ence
Ġev id
Ġac k
Ġdef ender
Ġinc umb
Ġgu ides
Ġend ings
Ġgroup ing
Ġcal ib
ty l
lo v
Ġdifferent iate
Ġfre t
Ġsl ip
Ġri ot
Ġsum s
Ġintrodu ces
Ġmal ta
Ġwal ked
Ġball istic
Ġstri pped
Ġhost ing
Ġatl ant
Ġrichard son
Ġcand y
Ġdemonst rating
Ġmut ations
Ġil ly
Ġprem ium
Ġdoctor ate
Ġmotor ola
Ġjun ta
Ġjuris pr
Ġger ard
Ġnarrow ly
Ġcrow ds
Ġpul itzer
Ġsla ughter
Ġaccident al
Ġthin ks
Ġker ry
Ġlt te
Ġutil ize
Ġanglican s
Ġmyst icism
Ġdru id
Ġsubsid ies
Ġreun ification
Ġassy ria
Ġcomplain t
Ġcorrel ation
Ġprivat ization
Ġheath row
Ġlob by
Ġpresbyter ian
Ġfand om
Ġtheodos ius
Ġantide press
Ġchoms ky
Ġpiny in
v ity
Ġs amp
Ġc ites
at u
Ġn ou
Ġe h
Ġh ira
un ch
un ted
un ner
Ġst iff
Ġst ellar
Ġhe ctor
ay e
th an
ment al
Ġsh ores
ell an
Ġgr t
Ġgr imm
te gr
Ġfl op
gr ass
Ġmin ist
Ġloc ate
Ġstr ife
lo ok
Ġspec imen
Ġsl opes
Ġbelie ver
Ġref ere
Ġref using
ov sky
Ġlet t
Ġphys i
Ġste pped
Ġlab s
Ġjud o
Ġber yll
Ġaustral ians
Ġsal ary
ingu ish
Ġcann ab
Ġschol astic
Ġjes se
Ġsurround ings
Ġnic olas
Ġstor ing
Ġstay ing
Ġcine mat
Ġrod rig
Ġrum s
enh auer
Ġprophe tic
Ġdiagn osed
Ġbelarus ian
Ġnam o
Ġhypn ot
Ġaccum ulation
Ġaccum ulated
Ġpm id
Ġmig uel
Ġvert ices
Ġantib iotics
Ġeuph rates
Ġgriff in
Ġroberts on
Ġbenn ett
Ġintu ition
Ġcruc ifix
Ġirrig ation
Ġdiat onic
Ġaggreg ate
Ġhazard ous
mod ern
Ġsiber ia
Ġhomogene ous
Ġtherape utic
Ġnamib ia
Ġsask atche
Ġinvari ably
Ġgius eppe
v ance
Ġc erv
Ġw ond
Ġp f
Ġp ius
Ġn j
Ġn ia
Ġd ell
Ġe lish
Ġe co
Ġto w
am y
Ġst ark
ut z
Ġk amp
Ġr ash
Ġex xon
Ġat a
Ġcl ones
Ġab alone
ang a
Ġme cca
Ġreg ain
Ġma id
Ġinst antly
Ġsch op
Ġdisc world
Ġcre st
Ġcolle g
Ġdet aine
Ġep ip
yl on
Ġled s
che v
Ġtit o
Ġfoot notes
Ġident ities
Ġrecogn izable
Ġlou vre
Ġgal at
Ġphot ons
Ġkar ma
Ġdog ma
Ġlad der
Ġflu ids
Ġblock ing
Ġtheat ers
Ġelev ators
Ġpenn ant
Ġhyper text
Ġpi ke
Ġrein st
Ġscen ario
Ġdecre ases
Ġhu ffman
Ġtrig on
Ġrefuge e
Ġclean ing
Ġwed ge
Ġprepar ations
Ġshad ows
Ġsemin al
Ġexchang es
Ġgentle man
Ġperf ection
Ġannot ated
Ġinacc urate
Ġprejud ice
Ġbris bane
Ġhallow een
Ġlabyr inth
Ġmatric es
Ġmembran es
Ġsaskatche wan
f lex
l aw
t rans
Ġ iz
er ium
Ġc rist
Ġw ah
Ġw reck
Ġm ou
Ġd ive
Ġd aim
Ġl ol
Ġnine teen
st ep
id harma
Ġal to
Ġr ats
Ġpro ver
Ġv om
pe ace
ich i
Ġy og
Ġcont ention
Ġra g
Ġrec ession
Ġdo yle
Ġcar riage
Ġx y
Ġeuro vision
Ġelect orate
Ġair lin
Ġty ler
Ġcommun al
Ġbar nes
Ġcr ass
Ġnet s
Ġadd itive
Ġhistor ia
yn ia
Ġwater ways
Ġho hen
Ġmeth ane
Ġlog ically
Ġhard core
Ġtext books
Ġinstit utes
ander ing
Ġprincip ia
Ġpen is
Ġic rc
Ġadminist rators
Ġpsych ologist
Ġphot on
Ġadop ting
Ġcommand ing
Ġemploy er
Ġaver ages
uk u
Ġcust ody
Ġloss less
ship s
Ġgro ve
Ġens uring
Ġlif elong
Ġemphas izes
Ġconv inc
Ġliqu ids
Ġcooper ative
Ġstrugg led
Ġnas al
Ġpatri otic
Ġphon ology
Ġprohib it
Ġpul p
Ġcycl ing
Ġparam ilit
Ġaqu inas
Ġgy ps
Ġtag gart
Ġbug s
Ġmanip ulate
Ġrug ged
Ġcum mings
Ġshr ine
Ġheir s
Ġneighbour hood
Ġprosper ous
Ġgur u
Ġrab bit
Ġtroub led
Ġinterf ere
Ġeuph onium
Ġkhaz ars
Ġjewel ry
Ġneur ons
Ġnutri ents
Ġagass i
Ġemin ent
Ġtorped o
Ġprolifer ation
Ġcth ul
Ġschop enhauer
h or
h orn
j ust
o an
Ġt c
Ġt rist
Ġf g
Ġp ly
Ġp ile
Ġn ica
Ġth ur
Ġto oth
ro b
Ġz od
Ġse uss
Ġtw ist
Ġst ocks
Ġde lete
Ġsix teenth
Ġun se
ich o
Ġy osh
Ġpl anted
Ġcl ut
Ġph ones
Ġtra vers
ubl ished
we b
Ġcar boxyl
Ġbas ques
Ġlo ves
Ġx vi
Ġfran con
Ġrom mel
Ġdec oration
Ġgeneral ization
Ġsl ots
Ġref ract
Ġwest ward
Ġhal ted
Ġcirc ulated
Ġresp ir
Ġtit us
Ġpost modern
Ġtru cks
Ġbroad caster
Ġinit iation
Ġprogramm ed
ray ed
Ġhon ours
Ġdisp ens
Ġpan els
Ġcarbon ate
Ġparis hes
Ġdiss atisf
Ġrand i
Ġfast ing
Ġell ison
Ġprem ature
Ġunf air
Ġeld ers
Ġmist ress
Ġanat olia
Ġexclud e
Ġrud olph
anth rop
Ġbald rick
Ġaccus ative
Ġpull ing
Ġrhythm ic
Ġskept icism
Ġellip se
Ġcarth ag
Ġheret ics
Ġsib lings
Ġfilmm aker
Ġjak ob
Ġscr ut
Ġfras er
Ġeut han
Ġdora emon
Ġpater nal
Ġiniti atives
Ġubi quit
Ġirrele vant
g ames
h on
l ation
Ġ ica
Ġs inc
Ġc asc
is ans
Ġw inc
Ġp iv
or ah
Ġd z
Ġh ing
om i
am ir
ce phal
ra id
Ġch orus
ac ia
Ġar s
Ġsh ame
Ġam ended
ast ed
Ġint rig
ren e
Ġres iding
Ġme ga
Ġmar tha
Ġpr ints
Ġgener ators
int o
ric ate
Ġking ston
Ġorigin ates
Ġprov oked
Ġcur v
Ġopp ression
Ġbi otechnology
Ġsol st
Ġshort wave
Ġcy bers
less ness
Ġsal am
Ġmal aria
Ġtext ual
Ġdeb ug
Ġdig imon
Ġestabl ishes
Ġtar zan
Ġmur phy
Ġhung ry
Ġcer amic
Ġabb ott
Ġgard ner
bi ology
Ġglass es
Ġsplit ting
Ġcool er
Ġsuff olk
Ġcheck ed
Ġportra its
Ġsevent eenth
Ġaw k
Ġaqu atic
Ġsubstit uted
Ġexceed ed
Ġmonop ol
Ġtang ent
Ġadjust ment
Ġshif ting
Ġdart moor
Ġcn n
Ġheret ical
Ġexter ior
Ġloan words
Ġpupp et
Ġepid emic
Ġdiacrit ics
Ġimpe achment
Ġaik ido
Ġeleg ant
Ġkau f
Ġunh app
Ġfah ren
Ġhec ate
Ġbritt any
Ġjurispr udence
Ġcthul hu
b ard
d l
u os
Ġt l
Ġt rent
Ġa ac
Ġs perm
at l
Ġp ia
Ġn hl
ar er
Ġd umb
Ġl ament
Ġl ler
Ġto ile
Ġto ys
Ġg land
Ġz wing
Ġse ap
Ġbe b
Ġk us
ant z
ard en
Ġad i
Ġad here
Ġaf ore
Ġu pt
ces ter
Ġag am
Ġcons ume
Ġbl iss
port s
Ġli ability
Ġpre ca
Ġpre aching
Ġout comes
Ġup grade
Ġunder going
Ġob jection
Ġexp onent
Ġcor k
Ġdem ise
Ġes k
Ġel ton
Ġbar th
oph yll
Ġtr unk
Ġprop ell
Ġbre wer
Ġlast s
Ġtem pt
Ġred ire
Ġcomb inator
ple x
Ġcop e
app ropri
Ġmal i
Ġstrong hold
Ġru in
Ġdemoc racies
Ġq ing
Ġcard iff
Ġever ett
Ġsam urai
Ġstra its
Ġwat ts
Ġwat terson
Ġcorn ers
Ġcalcul ators
Ġstop ping
Ġbomb ings
Ġly on
Ġheaven s
Ġconsp ir
Ġthrow s
Ġsatisf ied
Ġspin ning
Ġnavig ator
Ġton ight
Ġhear st
Ġgem ini
Ġintent ional
Ġok ina
Ġbart on
Ġmigr ant
Ġbless ing
Ġlock heed
Ġras put
Ġeru ption
Ġmartyr s
Ġsuspic ion
Ġcolloqu ial
Ġsurge on
Ġsynag ogue
Ġephes us
Ġeps ilon
Ġarchim edes
Ġliturg ical
Ġtud or
Ġcoval ent
Ġrook ie
Ġredist rib
Ġurugu ay
Ġinevit ably
Ġrums feld
k ad
n ard
r ice
Ġt rom
Ġs ank
or f
Ġn iel
Ġan h
Ġan sel
ar med
Ġl ager
Ġg an
Ġg ed
ero x
im eter
Ġst ab
id an
ul d
Ġk ung
Ġk wan
Ġr ans
Ġor ator
Ġv ested
Ġch ant
Ġun b
Ġun aware
Ġmo h
Ġmo ines
ac ious
Ġle vant
Ġad e
Ġad oles
ong o
Ġall iances
Ġu ly
Ġu ph
act ory
Ġso ils
Ġpo lem
Ġwe iss
Ġkn ee
Ġunder water
Ġwill s
Ġpos ed
ail ed
Ġair borne
Ġdisc ount
Ġloc ked
Ġer g
Ġland m
Ġcy g
Ġlim burg
Ġvis itor
Ġcat cher
Ġcell ul
Ġmot ions
tt i
Ġhyd rop
Ġtar iffs
Ġcontrib utes
Ġemploy ing
Ġemb ro
het amine
Ġple a
Ġbay er
Ġros es
Ġequival ents
Ġrot or
Ġuseful ness
Ġhan cock
Ġash oka
Ġari el
Ġadmiral ty
Ġcert ification
Ġtheod or
Ġconven ience
Ġhein z
Ġstamp s
Ġteen age
Ġunw anted
Ġconfuc ianism
Ġevol ving
Ġscroll s
Ġincl ined
Ġbiz arre
Ġdisb anded
Ġlevit icus
Ġlope z
a pe
g io
j ack
p ur
s im
Ġa al
Ġc age
Ġc rane
Ġb ury
or as
Ġn k
Ġh iro
Ġl cd
Ġg at
Ġz ap
Ġse ated
Ġse ize
Ġfor c
est e
ac ons
Ġar b
art s
Ġle ak
og s
Ġsh oe
Ġra ises
Ġag rees
Ġag ripp
Ġqu o
Ġpre face
Ġjo achim
Ġunder way
Ġsub du
Ġher r
ost ics
Ġchrist ie
Ġhum idity
Ġdep ended
Ġcre ole
Ġdifferent iation
Ġsl ug
Ġgra pes
Ġfa ire
Ġhun ger
Ġho f
Ġspace time
che t
Ġcop ying
Ġworks hop
Ġche ster
Ġsug ars
Ġenc ir
aw i
Ġrecogn ise
Ġsuggest ions
Ġpen cil
Ġislam ist
Ġnar rator
Ġautom otive
Ġacqu iring
Ġdistingu ishes
Ġrain fore
Ġmos aic
Ġunp ublished
Ġasc ension
omorph isms
ograp hed
Ġjacob ite
Ġgor illa
Ġvic inity
Ġmetropol is
Ġrecon naissance
Ġphoen ician
Ġrid icul
Ġdepos ited
Ġcongreg ational
Ġsher man
Ġjok er
Ġpip es
Ġenthus ias
Ġgest apo
Ġcort ex
Ġvert ically
Ġchalleng ing
Ġverte br
Ġapocry pha
Ġburgund y
Ġserm ons
Ġhypothes es
Ġdecent ral
Ġaspart ame
Ġpsyched elic
Ġcels ius
Ġchass is
Ġberyll ium
Ġzod iac
Ġfahren heit
c ons
g il
g one
l ich
o ids
u ze
v s
Ġt ung
Ġa ene
er ie
Ġc z
Ġb ricks
or ously
Ġl oll
un i
Ġr ican
Ġle bes
rit is
Ġhas s
ib o
Ġu gr
Ġro de
Ġdis rael
Ġgo ethe
Ġem ulation
Ġrec ycl
Ġatt ila
Ġdef orm
Ġpar ach
Ġvar iance
Ġfollow er
Ġair bus
Ġdisc arded
Ġmil ky
Ġjohn s
Ġel is
Ġdifferent iable
Ġfree bsd
Ġav ant
Ġreal ms
Ġsol uble
Ġgi ul
Ġvol ks
Ġve in
Ġjud ith
Ġwal d
Ġtro op
Ġtal ented
Ġlou ise
Ġtrib une
Ġdistrib ute
Ġsubs crib
Ġprogress ed
Ġdip hth
Ġwr ath
Ġconstruct ing
Ġmath cal
Ġrepe ating
Ġcontent ious
Ġreve aling
Ġbon us
Ġkl aus
Ġcrypt ographic
Ġstrip es
Ġgirl friend
Ġpropag ation
Ġmillenn ia
Ġpas ht
Ġtox icity
Ġarsen ic
Ġferm i
Ġcere b
Ġdm t
Ġcomfort able
Ġreson ance
Ġdeuter onomy
Ġthermodynam ic
Ġmiscon ception
Ġnons ense
Ġmarl ins
Ġdegrad ation
Ġpilgrim age
Ġincred ible
Ġsop rano
Ġcarav aggio
Ġori oles
Ġmasc ot
Ġkarp ov
Ġrhy me
Ġvint age
Ġandor ra
Ġrespir atory
Ġlebes gue
Ġdisrael i
r ats
Ġo le
Ġo val
Ġs ine
Ġb ik
Ġd ode
Ġg esser
un ting
im us
Ġfor ts
ur st
Ġk and
Ġk ell
Ġv ita
Ġch or
Ġch ast
op ic
ast ically
Ġind ira
Ġi ke
Ġres ide
Ġpo in
Ġpo ker
Ġinter red
Ġup wards
Ġrep ression
Ġinc idence
Ġmat s
Ġdec rees
Ġret reated
Ġequ iv
Ġtechn o
Ġbar k
Ġbar ra
Ġrun off
Ġmag ellan
Ġgl am
Ġbra un
Ġhal ting
Ġver lag
Ġmor ale
Ġspecial ty
Ġden ying
Ġisrael is
Ġhard y
Ġfall out
Ġgold man
Ġgold water
Ġpot ent
Ġmathemat ically
Ġos lo
Ġhost ilities
Ġblue grass
Ġstra ins
Ġrat ification
Ġhapp ening
Ġborder ing
Ġgall eries
Ġign ore
Ġdoctor al
Ġtou red
Ġdiscip le
Ġfill ing
Ġbron cos
Ġorbit als
Ġinfinite ly
Ġstran ger
Ġmerch and
Ġkos her
Ġric hest
Ġpyth ag
Ġcultiv ated
Ġbent ley
Ġmini ature
Ġdisco vers
Ġultra v
enz ie
Ġcontradict ory
Ġsv g
Ġmarqu is
Ġtransist ors
Ġdissol ve
Ġisab ella
Ġanalys es
Ġalphab ets
Ġdere k
Ġirreduc ible
Ġzoro ast
Ġelish a
Ġubiquit ous
Ġafore mentioned
Ġgesser it
d ell
f red
f old
i atic
z el
Ġt ect
in qu
at ro
Ġb out
Ġn is
ic i
Ġe igen
Ġh ound
Ġand ers
Ġre z
Ġz ag
am il
ce t
ra ble
Ġfor ged
Ġk erm
Ġun equ
if ax
Ġus ur
oc o
Ġy in
Ġle uk
ish ment
ber land
ast ing
Ġsp ani
Ġgo ats
Ġno ah
Ġbo k
Ġgr ind
Ġfe ces
Ġhow e
Ġla ugh
Ġsec uring
con i
Ġmat urity
Ġdisc ern
Ġimp lying
Ġes chat
Ġcomput ed
Ġappe aled
Ġbar ber
Ġbar ks
Ġback up
Ġfree man
oph on
Ġline back
Ġbre asts
Ġhistor i
Ġsol vent
Ġauthor ised
Ġche eses
Ġkill ings
Ġnatural ist
Ġcertain ty
Ġinstit ut
Ġmac roe
Ġhor ace
Ġgreen peace
com ed
Ġire naeus
Ġwood land
Ġarchitect ures
Ġtom ato
Ġfer gus
Ġgradu ating
Ġinn ate
ding ton
Ġobserv able
Ġamb ros
Ġhaw ke
Ġmut ation
Ġga ius
Ġfit ness
Ġath lon
Ġhyper card
Ġfinn o
Ġske leton
Ġhet field
Ġvul gar
Ġaber ration
Ġstro kes
Ġtast es
Ġdy e
Ġcarn ival
Ġmaced on
Ġinhib itors
Ġtroll s
Ġchop st
Ġhitch h
Ġobst acles
Ġming us
Ġrabbin ical
Ġfortun es
Ġtorn ado
Ġfon ts
Ġsurpass ed
Ġcondemn ation
Ġkling on
Ġdion ys
Ġtanz ania
Ġexecut ives
e on
f us
f ields
j et
Ġf ence
Ġb amb
Ġb oud
it ating
Ġm isc
Ġd it
Ġd ud
Ġd ors
Ġre lying
Ġthat cher
and ro
Ġy uan
ap est
iz a
av i
Ġco bol
Ġco bb
Ġthere of
Ġtra cing
Ġcons cript
Ġqu ay
Ġbl as
ug a
ys s
Ġlin ed
Ġher bs
ric ht
gan a
Ġob edience
Ġhim m
Ġsch iz
Ġge ys
Ġmat th
Ġimp rint
Ġje alous
Ġdet ention
Ġperson a
Ġrad ically
Ġgl ut
Ġdel ight
ae a
Ġche chen
be e
Ġball ads
Ġic d
Ġgal icia
Ġcho oses
asc ular
Ġnucle ot
Ġguitar ists
Ġpack ets
Ġcompl ained
Ġlands l
Ġconnect or
Ġprem iere
Ġspecif ies
Ġnap ier
Ġsucceed s
Ġdram at
unt arily
Ġexperiment ation
Ġbern ou
Ġts un
Ġradical s
Ġcav ity
Ġlyn n
Ġluther ans
Ġsatisf action
Ġlan caster
ss es
Ġvolcan oes
Ġhes ych
Ġexceed s
Ġjos iah
Ġaus p
Ġlac an
Ġauthentic ity
Ġble eding
Ġmetab olic
Ġlor raine
Ġinert ia
Ġdw ight
Ġweakness es
Ġathlet es
Ġcret aceous
Ġexcommun ication
Ġpsal ms
Ġtransf ers
Ġfrag ile
Ġreper to
Ġappo ints
Ġquix ote
Ġzwing li
f at
h m
k ell
o ft
r atives
Ġa phas
Ġo mar
Ġw t
Ġp ots
Ġp ension
Ġd n
Ġd ad
Ġd ile
Ġl ak
Ġg ia
Ġz an
Ġse le
Ġbe aver
ol it
im mer
id i
Ġj ou
Ġmo hammad
oc ate
Ġsh ak
Ġcomp ose
Ġsc ream
Ġte amm
Ġco ch
Ġco bal
Ġgr ate
Ġgr ams
Ġrec omb
Ġli kes
Ġwar mer
Ġunder ne
Ġcar cin
Ġfl aws
Ġob it
Ġrem edy
Ġbrit ons
Ġend os
Ġir onic
Ġref lections
Ġav i
Ġsk ip
Ġgi ra
Ġrest oring
Ġdel ays
Ġdev otion
Ġca f
Ġvis ually
Ġspecial ists
Ġsum erian
Ġche v
Ġcapital ists
Ġalex ius
Ġpred ators
Ġben in
Ġwat ched
Ġwil kins
Ġdestroy ers
Ġroll ed
Ġsav oy
Ġba um
Ġgard e
Ġhan uk
Ġvel vet
Ġsort ed
Ġcrus ader
Ġsail or
Ġped est
Ġcogn ate
Ġshel ley
Ġwel comed
Ġsculpt ures
Ġexcell ence
Ġtol st
Ġhex ade
Ġmira cles
Ġadjust ed
Ġcontra ception
Ġcollabor ated
Ġquot ation
Ġdeleg ation
Ġversa illes
Ġexcav ations
Ġinterpol ation
Ġcorinth ians
Ġtac itus
Ġarcher y
Ġpla que
Ġendors ed
Ġporn ography
Ġhalluc in
Ġpompe y
Ġtasman ia
Ġcertific ate
Ġjor ge
Ġeuthan asia
Ġbernou lli
Ġunderne ath
c omb
e au
g le
o z
v able
Ġo de
Ġc ripp
Ġw ade
Ġw agon
Ġin appropri
Ġm ating
ar p
Ġd ft
Ġg low
Ġst ero
ir al
el age
Ġde hyd
Ġsh out
Ġpl aus
Ġha hn
Ġcont ig
Ġcan ons
Ġaf raid
Ġpol ls
Ġmay ors
Ġjo yst
Ġif f
Ġge e
Ġge oc
Ġhigh lights
Ġmod ular
Ġoper ative
Ġcult s
Ġhand ic
Ġfore cast
Ġste iner
Ġstandard ization
Ġhal ifax
Ġcop ern
Ġmot ives
Ġactiv ism
Ġmeas urable
Ġdon or
val ds
Ġdan es
Ġjour neys
eth yl
Ġclear ing
Ġpit chers
for th
Ġmc don
Ġencyclop aedia
Ġpack aging
Ġros en
Ġens ures
Ġell en
Ġcook ed
Ġbeat en
Ġincorpor ation
Ġfit ting
Ġqual ification
Ġly ons
Ġexc ited
Ġcrus aders
Ġheaven ly
Ġmanif olds
Ġdv ds
Ġelectro chem
Ġpul se
Ġeval uated
Ġshock ed
Ġace tyl
organ ic
Ġcum berland
Ġelectromagn etism
Ġfold ed
Ġscat tering
Ġquot ient
Ġmongol ia
Ġalp ine
Ġfisher ies
Ġlamp s
Ġbever age
Ġinstruct ed
Ġpix els
occ up
Ġbotan ical
itution al
Ġcommut ative
Ġfare well
Ġexempl ified
Ġincent ive
Ġrehab ilitation
Ġnir vana
Ġfuji wara
Ġpejor ative
Ġenthusias m
Ġultrav iolet
c as
c ov
j n
s berg
Ġp ond
Ġin version
Ġan onym
Ġe gal
ou bted
Ġl oth
ing o
Ġg oss
ly s
st ones
im i
Ġk raft
Ġv ivid
ri p
Ġar isen
oc ratic
Ġy arn
Ġsh ade
Ġsp d
Ġsp ices
Ġcomm issions
Ġme gal
Ġmar ian
Ġtra cts
Ġla f
Ġla us
Ġout post
Ġout look
Ġtrans gen
Ġhim al
Ġbr at
Ġent r
Ġnor folk
Ġset up
Ġmed ications
Ġshe n
Ġgra pp
Ġcr t
Ġmid way
Ġkm t
Ġobs ess
Ġdest ined
Ġcomplex es
Ġpaul o
af i
Ġflag ship
Ġslow ed
Ġdar ius
Ġsett ling
yd on
Ġjim i
Ġspring field
Ġund oubted
Ġtou ching
Ġneut rons
Ġoutput s
Ġcosm os
Ġarchae ologists
ropol is
Ġcalvin ism
Ġdism ant
Ġhem oglobin
Ġsatisf ies
Ġgor ill
Ġheadquar tered
Ġkur ds
Ġsad dle
Ġexceed ing
Ġmanifest ations
Ġicon oc
Ġrebu ild
Ġtap es
Ġclim ates
Ġaffil iation
Ġlac rosse
Ġandre as
Ġresur rect
Ġheret ic
Ġcompens ate
Ġld ap
Ġjenn ifer
Ġscal ar
vol ent
Ġevalu ate
Ġenroll ed
Ġsanction ed
Ġsummon ed
Ġspino za
Ġcourtes y
Ġsurg ical
Ġarchdu ke
Ġrasput in
Ġcobal t
c od
k l
w oman
Ġa is
Ġo un
Ġs ass
Ġf ow
en ary
at aka
Ġw oo
Ġw iley
Ġin organic
Ġm ie
Ġn od
Ġn ak
ar b
ou pe
Ġh ild
Ġg f
Ġg ins
Ġre inc
om ics
us ive
st a
ra g
Ġk ann
em non
Ġat re
ac ity
Ġcomp ile
Ġad ri
Ġcan yon
Ġro chester
Ġra ph
ond ition
Ġrel o
Ġover flow
Ġmay o
Ġpres cription
Ġinter cal
Ġunder took
Ġbas eman
Ġthem ed
Ġfil io
Ġpers ist
Ġty r
Ġcommon place
Ġdep ressed
Ġcal der
Ġeven ly
Ġfre estyle
Ġins anity
Ġconf isc
Ġfa ust
Ġdi aries
Ġreal ization
Ġmid i
Ġann oy
Ġgood ness
Ġhal o
Ġappl ic
Ġda isy
Ġmult ic
ring ton
Ġposition ed
Ġposition ing
Ġrepl ica
Ġsyn c
Ġsound ing
Ġsepar ates
Ġhold en
Ġcapt uring
Ġcreat ivity
Ġorth og
Ġfac ial
Ġdestro ys
Ġmel odic
Ġdivision al
Ġvirt ues
Ġgradu ates
Ġdiss em
Ġsav ings
Ġdisplay ing
Ġga ia
Ġcla rence
Ġmont ana
Ġconvers ations
Ġturk men
Ġsolid arity
Ġexperiment ed
Ġproced ural
Ġpatri ots
Ġvic ious
Ġplural ity
Ġspot ted
Ġsoph ia
Ġkr ish
Ġmanifest ation
Ġthro at
Ġschedul ing
Ġphosph ate
Ġpip eline
Ġunsuccess fully
Ġpale ont
Ġpeer age
Ġbry th
Ġpassion ate
Ġteles cop
Ġug anda
Ġgrad es
Ġdwell ing
Ġzion ism
Ġkeyn esian
Ġoverwhelming ly
Ġaccomplish ments
Ġsink ing
Ġapocry phal
Ġtransist or
Ġuna uthor
Ġplag ued
Ġpess oa
Ġgerry m
Ġunin hab
Ġascrib ed
Ġembark ed
Ġbrab ant
Ġasce tic
Ġcannab is
Ġbeb op
Ġagam emnon
Ġugr ic
Ġreperto ire
e lectric
f il
g ard
m ium
u ously
Ġa unt
Ġo ber
Ġc unning
is ite
Ġb uc
or rh
Ġn f
Ġn uts
Ġd ams
Ġh id
Ġto e
le in
Ġg aps
us k
ch ool
id on
ir us
Ġhe p
Ġj ad
Ġde ported
Ġit er
op y
op us
Ġare s
Ġsp anning
Ġdis reg
Ġdis cont
Ġnew man
Ġra ge
Ġper ennial
Ġfe aring
Ġinf ants
Ġapp let
ced ed
Ġlin us
Ġcal m
Ġrest ing
Ġlight weight
Ġdel icate
Ġsuper v
Ġden ies
Ġmot ive
Ġcaus al
ox y
Ġexec utions
Ġrecogn izing
Ġcro quet
Ġic onic
Ġfrank ie
Ġjes uits
Ġcompos ing
Ġmagn us
Ġcongress man
Ġsequ els
Ġdiss ert
Ġtarget ing
Ġpossess ing
Ġalbert o
Ġjack et
Ġprotect or
Ġpath way
Ġdemonst rates
Ġfan z
Ġful ham
Ġded ication
Ġswe eping
Ġhin der
Ġath anas
Ġexc it
Ġwant ing
unc iations
Ġindu ce
Ġlex ical
Ġflav our
Ġburg ess
Ġconstitu ency
Ġcurt ain
Ġshr ink
Ġshif ts
Ġyan kee
Ġfisc her
rell a
Ġloren zo
Ġlap lace
Ġimmort ality
Ġferment ed
Ġovert urn
Ġlauren ce
Ġdisapp ro
Ġtack le
Ġmotorcy cles
Ġdecomp osition
Ġvass al
haw k
Ġconfron ted
Ġnanot ubes
Ġremed ies
Ġmagnific ent
Ġtaj ik
Ġfilio que
Ġt idal
Ġa per
in form
Ġthe e
Ġf ake
an bul
Ġb olog
es a
Ġm ord
le en
le th
Ġg og
Ġse ph
st uff
ch l
Ġcon gen
Ġk icks
Ġr ie
Ġv og
and ra
Ġun ass
Ġun pleas
ac i
Ġy er
Ġy uk
Ġle ices
Ġsh rim
Ġcomp ost
Ġcont raction
Ġdis ability
ren cy
Ġme in
Ġbo asts
Ġmar vin
Ġcons uls
Ġkn ox
Ġinter l
Ġbas ics
Ġtrans cribed
Ġaut istic
Ġge ologist
Ġsoc rates
Ġsl ain
Ġgra pe
Ġbar ley
Ġref uses
Ġrun ners
Ġfar amir
Ġeast ward
Ġbra ins
Ġho ff
Ġlim itation
Ġver ified
Ġder ry
Ġmult in
Ġbal och
Ġdon ations
Ġbud apest
Ġven ge
Ġfle eing
Ġloss y
Ġsmith son
Ġcommission ers
Ġmaster piece
Ġmut ant
Ġinvestig ating
Ġshare holders
Ġpick ing
Ġsucceed ing
Ġol iv
Ġsla ught
Ġlan es
Ġcomed ies
Ġforb id
Ġrhyth ms
Ġfib ers
Ġbaptist e
Ġrevers ible
Ġcoin age
Ġsteven s
Ġclim ax
Ġoverl apping
Ġautobi ographical
Ġproposition s
Ġtick ets
Ġincomp et
Ġwick ed
Ġcolloqu ially
Ġirrig ated
Ġpercept ions
Ġbess el
Ġaltru ism
Ġstap le
Ġjen kins
Ġboomer ang
Ġecst asy
Ġwond ers
Ġhimm ler
Ġaphas ia
Ġhexade cimal
t les
y u
Ġa il
Ġw ield
al om
Ġin h
Ġn er
Ġd erog
Ġl ust
Ġth urs
Ġtw isted
im an
ul ent
Ġk und
Ġby r
Ġch ag
Ġex ac
Ġen vision
Ġy id
Ġcl itor
Ġint imid
ib ald
ang u
Ġso b
Ġag r
Ġmar ion
Ġrel ational
Ġpe pt
Ġlo ops
Ġpar agu
Ġmon och
Ġge odes
Ġfun ctor
Ġlong time
Ġrev isions
Ġbi ologist
Ġrele vance
Ġca j
Ġet hel
Ġliber ated
Ġmer ging
Ġaugust e
yr us
uck le
Ġur ine
Ġcapt ive
Ġcome back
Ġrobert o
Ġcamb od
Ġlaun ches
Ġmc donald
Ġfinan ced
ush i
Ġscript ing
Ġchron ological
Ġprefer ring
osh i
Ġillust rator
Ġhan se
ubb ing
Ġfu chs
Ġvac ation
Ġtransition s
Ġprophe cies
Ġdual ism
Ġexperien cing
Ġskin ner
Ġgor ge
Ġtab oo
Ġkat ak
Ġvit amin
Ġsymp athy
Ġcate ch
Ġhub ble
Ġmaced onian
Ġpill ars
Ġgur ps
Ġoptim ization
Ġsas qu
Ġdioc let
Ġprevail ed
Ġdevast ated
Ġphyl um
Ġfrust rated
Ġconfront ation
Ġrw anda
Ġdign ity
Ġcoloss us
Ġcylind ers
Ġpharmaceut ical
Ġdisin tegr
Ġredes ign
Ġineffect ive
Ġatlant is
Ġminist ries
r ida
v d
v or
Ġa yn
Ġb ates
Ġb eds
Ġp ets
Ġin ception
Ġon ward
Ġh ops
Ġl r
Ġl er
Ġg av
Ġg ale
Ġg opher
Ġg imp
Ġz el
Ġz ulu
Ġis ps
Ġbe ad
Ġj f
Ġj um
Ġr b
Ġor phan
Ġv f
Ġv u
Ġun const
Ġy ak
Ġle vi
Ġcan e
Ġint ol
Ġsy rac
Ġgen ital
Ġbo hr
Ġrec order
Ġkn uth
Ġafter ward
we ar
Ġchar ismatic
Ġwill ard
Ġed da
Ġfl oy
Ġmin ogue
Ġmon ter
Ġfil ip
Ġgu an
Ġsupp er
Ġmat hers
ah a
Ġsur real
Ġbu ilder
Ġsign atures
Ġcor rid
Ġret ros
Ġop us
Ġdirect ories
Ġfre enet
Ġisland ers
Ġins cribed
hen d
Ġappro ve
Ġann an
Ġhol ly
Ġcop p
Ġbuild s
Ġdav ies
Ġsea f
Ġactiv ation
Ġfra ctions
ops is
Ġviol ate
rie g
Ġpsych ic
Ġhop per
Ġdisp at
Ġoccup ations
Ġhydro electric
Ġintegr als
Ġpoly the
Ġban ana
Ġoil s
Ġtor valds
Ġfort ified
Ġconflict ing
Ġcens ors
Ġplant ation
Ġjac obs
Ġprotect s
Ġcorrect ed
Ġbeat ty
Ġanthrop ologist
Ġsuff ers
Ġmort on
Ġcalvin ist
Ġplain t
Ġcogn ition
Ġnumer ic
Ġhack ers
Ġsid ney
Ġliv y
Ġrib bon
Ġpersec uted
Ġoutl aw
Ġbohem ian
Ġhd tv
Ġdefinite ly
Ġdense ly
Ġfalk lands
Ġpolynomial s
Ġagn ostic
Ġspont aneously
Ġdefic iency
Ġist anbul
Ġbutter fly
Ġroutine ly
Ġintu itive
Ġenthusi astic
Ġserm on
Ġbeth le
Ġantig ua
Ġinfring ement
Ġincap able
Ġspor adic
Ġundes irable
Ġsolst ice
Ġgrate ful
Ġhanuk kah
Ġcontig uous
Ġexac erb
r ash
Ġt ach
in ative
Ġs ind
Ġs hem
Ġc ern
Ġf ist
en ne
at ivity
Ġp b
Ġp ree
Ġp ere
al k
Ġh int
Ġth ra
Ġg lands
il and
Ġst en
Ġr c
Ġr iders
Ġun man
Ġsu k
Ġen umer
Ġy om
Ġsh an
Ġha itian
Ġsp oon
ib les
Ġph ar
Ġmar cel
Ġtra it
Ġrel ocated
Ġqu ake
Ġmay nard
ft u
Ġchar tered
Ġed ict
Ġfl int
Ġmon aco
Ġshe k
Ġdec ry
Ġsign alling
Ġdesc ending
Ġspec imens
Ġhy de
Ġfo il
ner y
Ġmag y
Ġbi ased
Ġvol atile
Ġengine ered
Ġscient if
Ġbor land
Ġcost umes
Ġdomin ions
Ġgreen berg
Ġcoll isions
Ġord ination
Ġhall s
Ġwood y
Ġnation ally
Ġsubs istence
Ġparticip le
Ġdistinct ly
Ġkil ogram
Ġens ured
Ġtransform s
Ġforest ry
ett es
Ġpick ford
Ġpu zz
Ġkl ux
Ġanaly ze
Ġrational ity
Ġconsult ing
Ġvoy ages
Ġcous ins
Ġbou lev
Ġeclip tic
Ġlogar ithms
Ġoscill ator
Ġmason ic
Ġspons or
haus en
Ġexistential ism
Ġphonem es
Ġcompass ion
Ġinspect or
Ġprod ig
Ġorn ith
Ġdepri ved
Ġwals h
Ġhaik u
Ġresurg ence
Ġply mouth
Ġica o
Ġtolst oy
Ġyid dish
Ġkatak ana
Ġbethle hem
b red
n is
n um
n ote
Ġa ed
Ġa ub
Ġc og
Ġb ret
Ġp add
Ġm its
Ġm umb
ar ism
Ġe agles
Ġg c
im ated
Ġr all
Ġar tery
ud ed
Ġha v
Ġman g
ast y
rit es
Ġad orn
Ġcan vas
Ġu v
Ġdis abilities
ke ep
Ġbo ots
Ġpr ere
we hr
Ġout let
Ġfl awed
Ġher n
Ġbr ush
Ġarm inian
Ġcomple teness
Ġir rad
Ġsouth ward
Ġer ik
Ġhand el
Ġhuman ities
Ġconc ise
Ġwest phal
Ġmill imeters
Ġbi ographer
Ġbi osphere
Ġmid st
Ġfar ad
Ġlight house
lect ic
Ġsal on
Ġche chn
Ġdav y
Ġmer its
Ġhom in
Ġchem ists
Ġdest inations
Ġrock ets
Ġcard iac
Ġrich ards
Ġdavid son
Ġtal ked
Ġfeder ated
Ġcro ydon
Ġsit com
Ġgal actic
Ġut ilities
Ġhydro ph
Ġbond ed
Ġpay load
Ġethn ologue
Ġprogress ively
Ġconqu ests
Ġfans ite
Ġcapac itors
Ġmarx ists
Ġtou ched
Ġbackground s
Ġbon n
Ġdram atist
Ġanalog ue
Ġspiritual ity
Ġash ken
Ġaccompan iment
Ġinstall ations
Ġkaz aa
Ġtrust ed
Ġphilip pe
Ġbright ness
Ġlex ic
urb ation
Ġupd ates
Ġkat ana
Ġslav s
sm outh
Ġtreas ures
Ġdur ham
Ġthick ness
Ġmira cul
Ġunre li
Ġgol fer
Ġcategor ized
Ġstall man
Ġmant le
Ġfrig ate
Ġamal ric
Ġsuspic ious
Ġinterven e
Ġsear ches
Ġgul ag
Ġfras ier
Ġlil ith
Ġware house
Ġhomeop athy
Ġcori olis
Ġdetaine es
Ġuly sses
Ġundoubted ly
Ġbryth onic
Ġdissert ation
Ġsmithson ian
Ġdioclet ian
Ġfloy d
b aker
r ush
in fl
Ġthe ism
Ġc ush
at is
an ag
Ġb au
Ġb enson
Ġp pp
Ġm est
le ased
ine ts
om ans
Ġse ga
Ġas iatic
ur an
Ġal de
Ġj ell
Ġde acon
Ġv ind
Ġat roc
qu ist
pe ction
Ġad ver
Ġro ds
Ġgo e
Ġmar in
Ġmar ad
Ġmar ina
Ġem ily
Ġpol ite
Ġover ly
Ġout rage
Ġchar ging
Ġpar ab
Ġpar aph
Ġher bal
Ġsch les
Ġsch ne
Ġimp osing
Ġhum ble
Ġprov es
Ġcr ises
Ġter rier
Ġprop onent
Ġmid west
Ġevery body
Ġep onymous
Ġste aling
Ġcy rus
tal k
Ġvis a
Ġtreat s
Ġpal ae
ploy ed
Ġneg ation
Ġneg lect
Ġven dor
Ġhealth care
Ġban jo
Ġrh ode
Ġpan zer
Ġax es
Ġconsum ing
Ġcontroll ers
Ġcred ibility
Ġluc ius
Ġconvention ally
Ġsho ots
Ġtransfer ring
Ġko ch
Ġanarch y
Ġtheat res
Ġak bar
Ġflo ors
Ġimag ined
Ġpenn y
Ġabandon ment
Ġscand als
Ġcoordin ator
Ġdeliver ing
Ġcharl eston
Ġtrust ees
Ġbright est
Ġric ardo
Ġlem on
Ġexped itions
Ġfresh water
Ġrene w
Ġsuspect s
Ġlion el
Ġdiver gence
Ġgust ave
Ġreun ion
Ġdecor ative
Ġcarp enter
Ġdischar ged
Ġspo of
Ġsubc ulture
Ġain u
Ġiber ian
Ġcarbohyd rates
Ġeuros cept
Ġhumph rey
Ġcec il
Ġmicron esia
iscip linary
Ġzamb ia
Ġbesie ged
Ġconting ent
Ġdiscoura ged
Ġfratern ity
Ġpoin ters
Ġsasqu atch
f en
o ot
t ail
u ate
v sky
Ġt ired
Ġc us
Ġb reat
Ġw ires
Ġand aman
as k
Ġto ps
ro phy
ig l
ig ated
un ks
ul o
Ġhe pha
Ġde i
Ġde ut
Ġun he
op edia
Ġsh u
Ġha il
Ġcl iffs
Ġint on
Ġhas kell
Ġsc rap
Ġdis like
Ġgener ous
Ġsub mer
Ġass ured
Ġfl ames
Ġrep os
gr am
iss ible
Ġfin ances
Ġgu ad
Ġdist illed
Ġprov ider
Ġmil o
omet ry
Ġsever ity
Ġcomput able
Ġer ich
rop s
rop ods
Ġcle m
Ġhal ves
Ġthir teenth
Ġmor als
Ġiss uing
Ġpet ty
Ġnorm ative
Ġce iling
Ġnovel la
Ġmarch ing
Ġcompet ed
Ġque ue
Ġreform er
Ġrail roads
Ġham sters
Ġtax i
Ġmel t
Ġmc gra
Ġsens or
Ġobserv ance
Ġkil o
Ġrand y
Ġko an
Ġexc iting
Ġka iser
Ġcool idge
Ġsab ot
Ġrandom ly
Ġkick ing
Ġtrip oli
unct ive
Ġborrow ing
Ġmaxim ilian
Ġdru ids
Ġsupers onic
Ġfold ing
Ġtob ago
Ġsynthes izer
Ġaxiom atic
Ġbritann ia
Ġfet us
Ġdub ious
Ġsuffix es
Ġpopul ace
Ġdeuter ium
Ġdispers ed
Ġdele uze
Ġenlar ge
Ġjain ism
Ġhuss erl
Ġbrew ery
Ġrepet ition
Ġdisgu ised
Ġpolynes ia
Ġunn amed
Ġmaurit ius
Ġmacc ab
mid t
Ġfian na
Ġjut land
Ġevid enced
Ġparamilit ary
Ġcurv ature
Ġredire cts
Ġunpleas ant
Ġchechn ya
b ot
c ule
h in
h ima
i ott
i ability
i otic
m ate
m akers
n ought
v est
Ġw yn
Ġp ud
Ġm bit
Ġn uk
Ġd amp
Ġd sm
Ġh ague
Ġl ugos
Ġg im
Ġg ert
Ġre id
ol ome
Ġfor ge
Ġal der
Ġk ass
Ġit v
um ination
Ġun just
ri v
rom et
Ġar uba
ant i
ial s
ip es
Ġha em
cl a
per ed
Ġsc ra
Ġte h
Ġno on
Ġme als
Ġper uv
Ġqu i
Ġla wn
ual a
ind a
Ġreg ulating
Ġx erox
Ġbel le
Ġcap p
Ġconst ructions
Ġcal f
Ġcal or
Ġir v
Ġsouth ampton
Ġrev is
Ġjust ices
Ġbre wing
Ġtele com
Ġdev ote
Ġpur itan
Ġver di
Ġpost p
Ġmic roscopic
Ġstar vation
Ġdecl ension
Ġconcept ions
Ġprom ethe
let ter
Ġmeaning less
Ġsent iments
Ġtar iff
Ġnar ratives
Ġunit arian
Ġcommercial s
Ġcamb rian
Ġvirt uos
Ġpack ers
mar ried
Ġluc rative
Ġprotect orate
Ġles ter
Ġrang ed
Ġil o
Ġguard ians
Ġstan isl
Ġpc s
Ġbos nian
Ġaccompan y
Ġrespond s
Ġcomed ians
Ġgalile e
Ġbun dle
Ġconsec rated
Ġcf a
Ġeli ot
Ġvinc i
Ġmonument al
Ġry u
Ġero tic
Ġchest erton
Ġfid onet
Ġdisappear ance
Ġumb rella
Ġconcess ions
Ġawaken ing
Ġunac cept
Ġcott age
Ġinnoc ence
Ġintrins ic
Ġcybern etics
Ġcybers pace
Ġkerm it
Ġsyrac use
l ist
n ah
Ġt up
Ġa ix
Ġc ac
Ġb ose
Ġw ien
Ġm ism
Ġan ac
ic ative
Ġh ose
Ġl ite
Ġl apt
Ġto ken
Ġis th
ht ml
Ġfor all
Ġas cent
ot ics
Ġal mond
Ġk ot
Ġwh ip
Ġj ug
Ġj elly
Ġde us
Ġwas tes
Ġch u
Ġex e
Ġsu et
pe ak
ill ian
Ġman ia
Ġab ram
Ġim am
Ġpart on
ub ian
Ġra ck
Ġper cy
Ġspe er
Ġrel ics
Ġfe yn
Ġreg iments
Ġx ia
Ġsupp lying
ful ness
Ġleg ions
Ġsk ater
Ġvol untarily
Ġtem po
Ġexist ent
Ġaff ix
Ġhol t
Ġobject ed
Ġpal ma
Ġdeb it
Ġprom otes
Ġrevolution aries
Ġself ish
Ġdiscover er
Ġbow ls
Ġelectr ically
Ġmad onna
Ġplant ations
Ġpra etor
Ġhaw ks
Ġreject ing
Ġak kad
Ġunp red
Ġbuddh ists
Ġanaly zed
Ġcoordin ated
Ġexception ally
Ġscen arios
Ġnomin ations
pan ze
Ġinsur rection
Ġmultipl ied
Ġgran ada
Ġretrie val
Ġdy es
Ġchal de
Ġpy g
Ġcollabor ative
Ġduc hes
Ġprompt ly
Ġsurve ys
umber ed
Ġinstruct or
Ġpup ils
Ġdetermin istic
Ġdigest ive
Ġmans ion
Ġverte x
Ġaristoc racy
Ġmack enzie
Ġpsy che
Ġinver ted
Ġcontam ination
Ġpremiers hip
Ġhydrocar bons
Ġnegl igible
Ġvisc ount
Ġdiagon al
Ġprair ie
Ġnept une
Ġhira gana
Ġpiv ot
Ġzoroast rian
Ġcopp ola
Ġmcgra w
e aux
h ans
k on
m and
r ide
r ism
Ġs age
re z
Ġc g
Ġf its
Ġp id
Ġin gen
ic le
Ġe ct
Ġand alus
Ġg ian
Ġg hett
Ġz ur
il er
Ġtw e
Ġst oker
Ġfor er
ad y
Ġhe zek
Ġk ami
Ġwh oles
Ġj ensen
ri k
Ġsu z
Ġne us
Ġman ually
Ġcl ip
Ġcl ara
Ġsp ine
ib a
Ġcomm uter
act yl
Ġgo ose
Ġpol ished
we ed
Ġpre ached
ans en
Ġpres iding
Ġjo ins
Ġunder gone
Ġcount able
Ġsupp lements
Ġext ras
Ġend emic
Ġcur ios
Ġdep rec
Ġarm ament
Ġsever ed
Ġval ign
Ġmoder ately
Ġappe aling
Ġins ider
hen burg
Ġdesign ate
Ġbar rist
Ġport smouth
Ġhun ted
Ġspecial ised
Ġmult itude
Ġmer idian
Ġhard ness
Ġchem ically
Ġprom otional
Ġhor r
Ġpaul ine
Ġcompet ent
Ġcit ation
Ġlaws uits
Ġten or
Ġsn akes
ha ven
Ġfranc s
Ġpict ured
Ġax e
Ġethn ically
Ġkh rush
Ġsens ors
Ġselect ing
Ġconstruct s
Ġmonarch ies
Ġrot ated
Ġga ud
Ġign oring
Ġfuel ed
Ġcond or
Ġanthrop ological
Ġhyper infl
Ġsteel ers
Ġrum ours
enh of
Ġpent agon
Ġstress es
Ġkim ono
Ġnan otechnology
Ġgly ph
Ġenl isted
Ġjam o
Ġlod ges
Ġandre a
Ġcommem orate
Ġobst acle
Ġsard inia
Ġserge i
Ġsummar ized
Ġchim panze
Ġinject ed
Ġtransliter ation
Ġmicros cope
Ġwra pped
Ġneb ula
Ġalbatross es
Ġbodh idharma
Ġdemol ished
Ġpatric ia
Ġencycloped ias
Ġtuscan y
Ġadren al
Ġturbul ent
Ġalve olar
Ġincumb ent
Ġcolleg iate
Ġunreli able
Ġhepha est
Ġlugos i
Ġfeyn man
Ġhezek iah
Ġkhrush chev
a j
a ise
c ile
g ie
r ude
u per
z t
Ġt ian
Ġt amp
Ġa ve
he y
he art
Ġc oss
Ġw ight
Ġp aus
Ġin ad
Ġm apped
Ġan ach
Ġd inger
Ġh b
Ġand ersen
Ġth al
Ġg cc
Ġz ip
ct a
ol ian
st op
Ġst agn
ir t
ad ne
Ġk uala
Ġwh aling
Ġwas h
Ġpro kary
Ġv ault
Ġat on
Ġle ase
Ġnot ting
ish i
Ġha re
Ġcomp ly
Ġsp arta
Ġte ens
Ġdis li
Ġdis arm
Ġgo lem
ue z
Ġtra um
are a
Ġma ize
Ġev apor
Ġed ison
Ġinc ur
Ġher d
Ġgu ill
li us
Ġdiffer ed
Ġfound ational
Ġdisc retion
Ġdet ract
Ġsl it
rop ical
Ġdr astically
Ġcharacter ize
Ġgl ue
Ġve c
Ġship owner
Ġstre ak
Ġbur ma
ining rad
Ġcho ct
Ġpark ing
Ġmultip ly
Ġindic ators
Ġhydro xide
Ġnar c
Ġbreak fast
Ġpan or
Ġgro hl
Ġroll er
Ġaim ing
zz y
Ġblock ade
Ġgot henburg
Ġelev ations
Ġlithu anians
Ġcm t
Ġbyzant ium
Ġbed e
Ġfres co
Ġale ut
Ġbind s
Ġassert ing
Ġlex icon
Ġkal iningrad
Ġhang ul
Ġrecover ing
Ġstim ulated
Ġmultipl ayer
Ġflood s
Ġconven ed
Ġresc ued
Ġsure ly
Ġunre al
Ġunre leased
Ġaffil iate
Ġastrolog ical
Ġconce al
Ġencompass ing
Ġpractition er
Ġprost it
Ġminim ize
Ġsurviv or
Ġzion ist
Ġcaucas ian
Ġmicropro cessors
Ġsubm ission
Ġignor ant
Ġvacc ine
Ġecosystem s
Ġhew lett
arth ur
eterm ined
Ġazte c
Ġfluctu ations
Ġuzbek istan
Ġaac hen
Ġausp ices
Ġlaus anne
Ġaper ture
Ġshrim p
Ġhyperinfl ation
c asters
k is
p al
t ry
y y
Ġo y
re qu
re ich
en co
is el
at able
Ġb ows
Ġd ilbert
Ġl uk
Ġth ie
Ġto pped
Ġg ently
Ġre be
Ġre arden
ol on
el ia
ist o
Ġk ok
Ġk ah
Ġj ah
op on
ill i
Ġle y
Ġle uc
Ġsh ake
Ġsh ields
Ġsh iva
Ġman ic
Ġcl are
Ġab l
Ġim itation
Ġpart isan
Ġdis g
Ġi ro
Ġmar on
Ġmar cell
Ġwe ars
Ġpre acher
ced es
Ġcar ver
Ġsec urities
Ġrep orters
ject ive
Ġgu adel
Ġsch w
velop ed
Ġsur in
Ġdep ths
Ġloc als
Ġgre ene
Ġphil ist
Ġer d
Ġsl iding
Ġback bone
Ġhuman kind
ull us
Ġbre cht
yn c
Ġtele vised
Ġdev iation
Ġred empt
Ġder rida
Ġmor phem
Ġrepl aces
Ġbal ancing
Ġmal aya
Ġball oons
Ġaugust a
Ġtur mo
Ġcit rus
Ġlower ing
af a
Ġnight cl
Ġven eration
Ġquestion ing
cast le
Ġcorrespond ent
Ġple ased
Ġamb itions
Ġhab eas
Ġbad en
Ġacqu aint
Ġadm its
Ġprem ises
Ġott omans
Ġnic he
Ġreign ing
Ġillust rates
Ġmeant ime
Ġchrom ium
Ġdiplom ats
Ġbol t
Ġstrugg ling
Ġartific ially
Ġabol ish
Ġnig sberg
Ġhamm ond
Ġastro phys
Ġpent ium
Ġconsult ation
Ġrene wal
Ġrevel ations
Ġvocal ist
Ġgly co
Ġmorph isms
Ġpars er
Ġhend erson
Ġoutl awed
Ġencourage ment
Ġconfuc ian
Ġgaul le
Ġia ea
Ġdeuts che
Ġcros sover
Ġstyl istic
Ġinterchange ably
Ġaristoc ratic
Ġillumin ati
Ġordin ances
Ġsack ed
Ġlone ly
Ġeclips es
Ġdispos al
Ġllam a
Ġkund al
Ġinton ation
Ġunpred ict
Ġrebe cca
c ans
m are
Ġ ump
Ġs ero
Ġs enn
Ġs anto
Ġc uc
on as
at en
Ġb isc
Ġp ing
Ġp ious
it ra
Ġm ab
Ġan z
Ġd iefen
ou m
Ġg om
il ion
Ġst ing
Ġal ia
Ġal ley
ow itz
Ġk add
Ġr ation
Ġr iga
Ġor ion
os cience
op ed
Ġnot re
Ġsh un
Ġu b
Ġrel inqu
Ġele vent
Ġpe an
Ġeng els
Ġout sp
Ġout lets
Ġup ward
Ġsub way
Ġsub class
Ġed ith
Ġdef enses
Ġher t
Ġmin ed
Ġif r
Ġrem emb
Ġdep ictions
omet ers
Ġcal tech
Ġdet rim
Ġmod elling
Ġant wer
Ġant illes
rop he
Ġshould ers
Ġtop ography
Ġvis ibility
Ġsuper vised
Ġpost age
Ġprim er
Ġsun ny
Ġill iter
Ġprom oter
Ġcit adel
Ġroyal ty
pr ints
rad or
Ġcontrib utor
Ġmicro comput
Ġpoly hedra
Ġexpect ation
Ġcampaign ing
Ġimpl ication
ita ine
Ġcab in
Ġlif ting
Ġlu igi
Ġdoub ts
Ġmurder er
Ġdoctr inal
Ġtou l
Ġfict itious
Ġalcohol ics
Ġproceed ing
Ġfashion ed
Ġhat field
Ġow ed
Ġsie g
Ġton nes
Ġinqu ir
Ġgif ted
Ġhes iod
Ġblow ing
Ġvern on
Ġpock ets
Ġeritre an
Ġpatron age
Ġexha usted
Ġunex pl
Ġtum or
Ġresid ual
Ġmend el
rah im
Ġprospect s
Ġhale y
Ġphonem e
Ġnur se
Ġappell ate
Ġtraject ory
Ġepip han
Ġwinc hester
Ġchopst icks
Ġdile m
Ġreinc arn
Ġturmo il
Ġkundal ini
Ġantwer p
p re
u en
v ie
Ġ ural
Ġt ant
Ġo ste
Ġs ade
Ġs ands
Ġf ission
at ta
Ġb ree
Ġb ite
Ġb ds
Ġp ied
al ach
Ġin hal
ar um
Ġh one
Ġg ini
Ġg rief
il ight
Ġse ism
Ġbe asts
am o
Ġtw ilight
ht er
ir th
Ġsu ck
Ġen ch
Ġsh rew
Ġaf b
Ġte ar
Ġdis ruption
ff y
Ġem erson
Ġout n
wn ing
Ġreg ret
Ġbas ins
Ġher tz
Ġsa u
Ġshe er
Ġje ho
Ġstr as
Ġdem o
Ġant ic
Ġins ist
Ġer lang
hen t
Ġbar ker
Ġter r
Ġrun way
Ġcharacter ization
Ġreal ised
Ġlet ting
Ġleft ist
Ġprof iles
Ġalb recht
Ġhome ost
Ġjud y
ane y
Ġeth ic
ob ar
Ġdeb uted
Ġprincip ality
Ġren al
ca hedron
Ġimpro vised
ta ine
the ning
Ġbab ies
wer k
Ġmel odies
Ġbay esian
Ġdiss ip
Ġcomment ator
Ġmand ated
Ġfan cy
Ġell iott
Ġspecif ying
Ġrum ored
Ġnewton ian
Ġbed ford
angel o
Ġtail s
Ġpas sover
Ġunic ameral
Ġpoison ed
Ġunem ployed
Ġeli as
Ġcorp se
Ġalger ian
Ġcoinc ide
Ġberg son
Ġost ens
Ġreun ited
Ġexpendit ure
Ġapprec iated
Ġkon rad
Ġplut onium
Ġprecurs ors
Ġrelax ed
Ġspur ious
Ġouts iders
Ġepid em
Ġconnot ation
Ġnie ce
Ġexert ed
Ġweig hed
Ġbould er
Ġthri ving
Ġneoc lass
Ġenerget ic
Ġcarboxyl ic
Ġunhapp y
Ġansel m
Ġcereb ral
Ġmcdon nell
Ġathanas ius
Ġmultin ational
Ġneus ner
Ġelevent h
f ran
g ara
Ġt iles
in ius
Ġc bc
on ica
Ġp v
Ġin let
ic y
Ġe ure
Ġand hra
Ġl um
Ġl izard
Ġre he
Ġse ym
am ines
Ġst rad
Ġal ma
ad ors
ul ars
Ġk ib
Ġk onst
Ġby e
os ity
Ġv iz
Ġun av
if a
Ġat e
qu al
ill ac
ish n
ag us
Ġpl aza
Ġam oe
Ġab used
cl air
Ġcomm enced
ub en
Ġsc are
Ġres et
Ġme yer
Ġrec apt
one g
Ġinf ilt
Ġli k
Ġjo han
Ġsystem atically
Ġass et
Ġac orn
Ġher z
Ġmon et
Ġfil k
Ġsa fer
Ġair s
ost ak
Ġprov idence
Ġcommun icating
Ġcor ros
Ġeconom ical
Ġequ ity
Ġgre co
Ġphil by
Ġmodern ization
Ġcr ush
Ġreal izing
Ġide ologies
Ġste alth
Ġho oker
Ġsum atra
Ġlow land
Ġtotal itarian
Ġplan ck
Ġinit iate
Ġren dition
go vern
Ġur du
Ġos s
Ġic j
Ġtemper ed
Ġstep pe
Ġoffer ings
Ġassemb lies
Ġnar cot
Ġtax on
Ġtom bs
Ġrap ids
Ġkh al
Ġmad ness
Ġcircum ference
zz ar
Ġko i
Ġeffic acy
Ġka hn
Ġarc ad
Ġdiet s
Ġkid d
Ġbot any
Ġbic ameral
Ġaqu itaine
Ġrecon cile
Ġalk ali
Ġpig ment
Ġquad ratic
Ġretrie ve
Ġpredict able
Ġprosec utor
Ġstere o
Ġbund est
Ġauthentic ation
Ġtelecommun ication
Ġclown s
Ġloren tz
Ġposit ively
Ġbiochem ical
Ġplut arch
Ġstein beck
Ġfrig ates
Ġevac uated
Ġaspir in
Ġglad stone
Ġvand als
Ġparan ormal
Ġamphib ious
Ġgund am
Ġdread nought
Ġguang zhou
Ġerrone ously
Ġenvelop e
Ġbattlecru isers
Ġlump ur
oplas m
Ġcly de
Ġconvinc ing
Ġkwan za
Ġcellul ose
Ġleices ter
Ġparagu ay
Ġguadel oupe
Ġseym our
d em
f ol
m aking
o ves
Ġt rench
on der
Ġb ae
Ġw ishing
Ġin clusive
Ġm ia
Ġm ound
ar ine
Ġe e
Ġh ick
Ġh omet
ion ic
Ġto s
ine ar
Ġse w
ol us
un gen
ch us
Ġcon gest
Ġwas hed
Ġor land
Ġv ain
Ġv ort
Ġun used
Ġmo zilla
Ġar am
iv ision
Ġpl os
Ġpl iny
Ġcl ive
rit ion
Ġu ef
ass es
ign er
Ġind ist
pl an
ism und
Ġpr att
Ġbl oss
Ġinf ancy
Ġwar n
Ġbet ty
Ġma imon
Ġcar ic
Ġpar odies
Ġmin ers
erman n
Ġsch we
Ġconst ance
Ġair sh
Ġclass ifications
Ġel astic
Ġant imat
Ġhar ley
Ġins ular
Ġpa ired
Ġlat ency
Ġadd ict
Ġbi omed
Ġide ally
Ġtreat ises
Ġpost ulated
Ġpet r
Ġnatural ized
Ġill umination
Ġmount ing
Ġbroad band
Ġsay ings
Ġneg lected
Ġhost age
Ġappoint ments
Ġoce ania
Ġgradu ation
Ġmedic i
Ġmedic inal
Ġplat onic
Ġinstrument ation
Ġpath ways
Ġdepend encies
Ġcab ot
Ġrang ers
Ġfundamental ism
Ġliqu or
Ġalexand re
Ġarc hers
Ġelectro lysis
Ġinduct ive
Ġped al
Ġconsp ic
Ġampl ified
Ġrow ling
Ġhoriz ont
acc io
Ġdepos it
Ġau ction
iot is
Ġhomer ic
Ġaccus ation
Ġbak u
Ġviolin ist
Ġpersu ade
Ġpsychiat rist
Ġplut o
Ġinteract ing
Ġreli ably
Ġthy roid
Ġsul ph
Ġsustain able
Ġhighlight ed
Ġreorgan ized
Ġbeet le
Ġeuras ia
Ġflam enco
Ġadvertis ements
Ġsubf amily
Ġjoc key
Ġpolytechn ic
Ġsegreg ation
Ġshog un
Ġevap oration
Ġdaim ler
Ġnica ea
Ġspani ards
Ġhistori ography
Ġinappropri ate
Ġgins berg
Ġorthog onal
Ġcambod ian
Ġunconst itutional
Ġunman ned
Ġperuv ian
Ġdiefen baker
Ġhomet own
Ġantimat ter
d all
m ob
n n
n ius
p ole
r ise
z ol
Ġc un
ed o
or ov
al ds
Ġm aus
Ġm ons
Ġn z
Ġan ecd
ar ium
Ġh ated
Ġand rom
as aki
Ġg uth
st ag
Ġst ain
ad an
Ġhe ars
Ġhe ck
Ġk eller
Ġwh ig
Ġde x
Ġfour teenth
Ġv oter
Ġmo ors
op tera
og ie
Ġha iled
Ġcl ips
cc an
Ġbo e
Ġgr un
Ġwe in
Ġamer ind
Ġrec ipe
Ġbl ows
Ġli ar
Ġout d
Ġher mit
Ġmin ne
Ġx l
orn e
ild a
Ġgu ys
li ers
Ġke eper
Ġins ol
Ġer ad
Ġmark ings
Ġpat ro
Ġexpl oded
Ġdown fall
Ġshort age
Ġca ir
Ġver a
Ġsuper vis
Ġtest ified
Ġche f
ob yl
Ġtur tle
Ġentire ty
Ġben ito
ien cies
Ġletter box
Ġcam us
Ġsus sex
Ġprotest ed
Ġrout ines
Ġopt ic
Ġfif teenth
Ġfal cons
Ġvill ains
Ġris en
Ġuns uit
erson al
Ġdoub ling
writ e
Ġpoll en
Ġgeomet rical
Ġvel ar
Ġjackson ville
Ġschem a
Ġcrow ded
Ġow l
Ġreact ors
Ġkick ed
Ġbrig ham
Ġnickn ames
Ġwed nes
Ġgent iles
Ġstim ulate
Ġarchbish ops
Ġlam bert
Ġalumin um
Ġwet lands
Ġenthus iast
Ġincom ing
Ġskept ics
Ġkurt z
Ġwilling ness
Ġgel atin
Ġconstra ined
umber land
ben ch
Ġthread s
Ġairpl anes
Ġbri en
Ġkidn apped
had owed
Ġwander ing
Ġmisunder standing
Ġstup id
Ġgras p
Ġblond e
Ġabkhaz ia
Ġfeather s
Ġresent ment
Ġfaw kes
Ġpromul gated
Ġfeas ible
Ġkarn ataka
Ġrefere e
Ġhitchh iker
Ġquay le
Ġobit uary
Ġraph ael
Ġuninhab ited
Ġbolog na
Ġderog atory
Ġscientif ically
Ġmumb ai
Ġpromethe us
Ġunaccept able
Ġsuet onius
Ġrememb rance
Ġbundest ag
Ġuef a
Ġhorizont ally
c w
d og
f al
h ole
k ong
n ick
r ase
in ous
Ġf ij
Ġb ly
Ġp ab
Ġp oured
Ġd ative
ou k
Ġl oki
Ġre eds
il ic
st age
Ġtw ain
ch ie
ut an
ut ations
Ġcon es
Ġk appa
Ġj s
Ġj as
Ġj amm
Ġde pe
ay ed
Ġv ie
if ug
oun cing
oc he
Ġen qu
Ġsh ining
Ġsh ostak
Ġpl under
Ġad on
Ġres ides
Ġtra uma
Ġcons ular
ff ield
Ġdo e
Ġla ug
Ġla isse
Ġpres erves
Ġinter ling
Ġchar iot
Ġass emble
int rodu
Ġwill is
Ġfl amm
Ġpar c
Ġcap one
Ġeuro pa
Ġty n
Ġshe ikh
Ġlit re
Ġspec ulate
Ġphil ips
Ġfact orial
min ent
Ġdi oph
Ġfo o
Ġang u
Ġlab rador
Ġdev anag
Ġred irect
Ġver ify
Ġpost ing
Ġfr ight
Ġtotal ing
Ġbroad casters
Ġexpress way
Ġmac l
Ġcross roads
Ġfire wire
Ġviol ating
ipp ur
Ġroyal ist
Ġtim ur
Ġgraph s
Ġconver ter
Ġcand le
Ġwars hips
Ġtable t
ba ugh
Ġimpl ant
Ġjul ie
Ġcoup s
Ġcombat ants
Ġcopyright ed
Ġmarked ly
Ġbern stein
Ġchallen ger
Ġparent al
Ġdre x
Ġaristot elian
Ġng c
Ġsig ismund
bre aking
Ġwy oming
Ġunfortun ate
Ġcoinc idence
Ġalcoh ols
Ġbrah man
Ġsupplement ed
Ġmarry ing
Ġsubdiv ision
Ġconfer red
Ġgott fried
Ġprox y
Ġnest or
Ġspons ors
Ġincons ist
Ġhr er
Ġmistaken ly
Ġbam bo
Ġneb uch
Ġadul thood
Ġfidel ity
Ġmacle od
Ġdunge ons
Ġwarl ord
Ġneurolog ical
Ġjuven ile
Ġretal iation
Ġrainfore st
Ġkrish na
Ġgerrym andering
Ġvenge ance
Ġlaisse z
f iction
l us
o ok
y o
Ġt av
Ġs ach
Ġs ams
Ġs auss
Ġw izards
Ġp icks
Ġp umps
Ġd ull
Ġh ord
Ġh ik
Ġl end
ro th
Ġg arn
Ġre illy
ra x
id ade
ur ations
ul ed
Ġk od
Ġk ool
Ġk ilt
Ġj al
Ġj inn
Ġr v
Ġr in
Ġor igen
Ġun ve
th ren
pe i
se ason
Ġne ph
art ney
Ġcomp aq
Ġam in
Ġcan ce
ell ular
Ġint if
Ġsp ans
erm as
Ġno od
Ġme iosis
Ġso lem
Ġbo iled
Ġinf lection
Ġpre ston
Ġla h
Ġup held
Ġreg ression
Ġass ent
Ġpar a
Ġinst inct
Ġmon itors
Ġbro ck
Ġdep rogr
Ġloc us
Ġlit igation
Ġel m
Ġins ights
Ġaust rians
Ġcr aters
Ġfree ways
Ġbre thren
Ġbi om
co e
Ġsol itary
Ġshort s
Ġpress es
Ġdev o
Ġemp ower
Ġcase y
Ġder iving
Ġtit ans
Ġnovel ty
Ġstory t
Ġmac arthur
und a
Ġpast ures
Ġaud itor
icult ural
Ġben zo
Ġhost ages
Ġut recht
Ġmicro e
ung a
Ġrh ymes
Ġmel ville
Ġparticip ant
Ġcred itors
Ġbad ge
Ġconqu ering
Ġremo ves
Ġfat ig
Ġell ips
Ġshar ks
Ġnegative ly
Ġflo at
Ġattract ing
Ġqual ifying
Ġcrus hing
Ġnegot iation
Ġclar ity
Ġisol ate
Ġpeak ed
Ġhat ch
Ġprohib its
Ġamaz ons
Ġampl ification
Ġparent hes
Ġbeng ali
Ġalg iers
Ġchal ced
Ġescap es
Ġni ven
Ġguer rill
Ġathen ians
Ġduc ks
Ġmigr ations
Ġpill ar
Ġbry an
ocent ric
Ġkin sey
Ġpenet ration
Ġingred ient
Ġguild s
Ġmn em
Ġurg ing
Ġemir ates
Ġevac uation
Ġbord eaux
Ġree ves
Ġinterd isciplinary
Ġces are
Ġnass au
Ġlyd ia
Ġjess ica
Ġaleks and
Ġeschat ology
Ġdiscont ent
keep ers
Ġduches s
Ġkadd ish
Ġtoul ouse
Ġbds m
Ġeure ka
Ġorland o
Ġindist inguish
b as
i q
k rieg
t w
Ġa isha
Ġo ecd
Ġb ront
Ġof t
es ter
ar se
Ġd ong
Ġe loqu
Ġl ama
Ġto ss
Ġg iles
Ġre introdu
Ġz ed
il us
st re
im ental
Ġst ig
Ġfor k
id y
Ġhe ather
Ġk its
Ġr ides
Ġr ca
Ġpro let
Ġun covered
rom an
Ġat op
ab lan
Ġsh y
Ġsh ark
Ġam un
so ever
Ġab yss
Ġcan cel
Ġsp ies
Ġind ices
act ivity
Ġi et
Ġform idable
Ġpr isc
Ġwe aver
Ġqu ir
ath ing
Ġli able
Ġsub un
Ġfl aw
Ġtrans continental
Ġsim ulate
Ġrem ake
Ġmain frame
Ġsoc iet
Ġsoc iological
form s
Ġmed ina
Ġcor b
Ġdem i
Ġmod al
Ġoper at
Ġdifferent iated
Ġbar red
Ġsk ate
Ġshort ages
Ġbra ce
Ġprof ic
Ġrest ruct
Ġlight ly
Ġpract ised
Ġcirc ulating
Ġda ven
Ġsong writers
Ġbill ions
Ġru ined
Ġlib el
Ġren o
Ġthom son
ym p
Ġfav ourable
Ġze ph
Ġib rahim
Ġpit t
Ġgar age
fl u
Ġdirector ate
Ġsac ram
Ġdog matic
Ġindustrial ized
Ġwit ches
Ġconcent rating
Ġnaz ism
Ġens l
Ġtransform ing
Ġmun ch
Ġspl end
Ġscreen writer
Ġhorse power
Ġadj o
Ġbos ons
zo a
Ġsab re
Ġelectro des
Ġdict ated
Ġbyzant ines
Ġlyn don
Ġstim ulation
Ġutil izing
Ġum ayy
Ġsight ings
Ġtong ues
Ġpremier ed
Ġmanip ulated
Ġsubt ropical
Ġapproxim ations
Ġtort ured
Ġpant hers
Ġfisher men
Ġyield ed
Ġshir ts
Ġproposition al
Ġantib iotic
Ġtransmit ting
Ġfract als
Ġcler ical
Ġmd ma
Ġug ly
Ġmoz amb
Ġsacrament o
Ġpilgr ims
Ġconquer or
Ġdag ny
Ġreef s
Ġcaps ule
storm s
Ġaugment ed
Ġnikol ai
Ġlup us
kir k
Ġunanim ously
Ġrefine ment
Ġimpair ment
Ġpomer ania
Ġhalak ha
Ġjub ile
Ġbilli ards
Ġconspir ators
Ġschiz oph
Ġthurs day
Ġexacerb ated
Ġboulev ard
Ġnuk em
Ġinterling ua
Ġguerrill as
Ġsacram ents
c ian
f ig
i em
k owski
p ark
v ings
x id
z hen
in ium
Ġo man
Ġc k
en cia
is a
is ot
at ry
Ġp iety
it ively
Ġan ax
Ġan jou
ar as
ar ial
Ġd ach
Ġh ust
Ġl bf
ro x
Ġg ond
ol ite
st ood
Ġst am
Ġst ays
Ġst ature
Ġst arch
id as
et es
Ġhe ide
Ġhe pat
Ġk s
Ġk wh
Ġv ap
Ġch ie
Ġun g
Ġmo ab
ant on
Ġy ass
Ġle ary
Ġwor ry
ag rams
der ing
Ġcomp elling
pt a
Ġcont ests
Ġall ot
ore an
Ġsc yth
Ġra ppers
Ġco ve
Ġph oe
Ġpo ore
Ġqu ery
Ġwhen ce
Ġapp alach
Ġjo ints
Ġrep ud
Ġtrans plant
Ġlo ft
Ġsim ulated
Ġany more
Ġsch midt
Ġent ails
Ġimp aired
ton es
Ġdem os
Ġval ence
Ġsmall pox
Ġfact ual
up on
Ġport ed
Ġexpl ores
Ġlet s
Ġcoun ters
yn ski
Ġho os
Ġjud gments
Ġcivil ized
Ġread able
Ġhal iotis
Ġearth ly
Ġearth worm
Ġmor ally
Ġche kh
Ġtext ile
Ġtransl ating
Ġtransl ators
val a
Ġparli aments
Ġpap yrus
Ġcro cod
Ġaccess ories
Ġfig ured
Ġcolor ful
Ġmultip lying
Ġmur als
Ġdetail ing
Ġbul ld
Ġfal well
aff ected
Ġfinan cially
Ġcred ible
Ġocean ic
Ġformal ism
Ġlands cap
Ġmut iny
Ġhands ome
Ġpair ing
Ġdomest icated
Ġpurch ases
Ġmotor way
iro t
Ġattract s
Ġqual ifications
Ġdynam ite
Ġbact erium
Ġfalse ly
Ġmanif ested
Ġspect ra
Ġanaly zing
Ġsab ah
Ġharmon ics
Ġtermin us
Ġcolumn ist
Ġcolonial ism
Ġrespond ing
Ġarbit r
Ġpermit ting
Ġcomed ic
Ġhang ed
Ġhear ings
Ġalien ated
Ġace t
Ġpel opon
Ġannoun cing
Ġtriang les
Ġfib re
Ġdir t
Ġbh ag
Ġaus ter
Ġclergy man
Ġberg man
Ġkan ji
Ġteen agers
Ġfern and
Ġcrack ing
Ġovers aw
Ġeru pted
Ġincl ination
Ġyam amoto
Ġcruel ty
Ġoverlo oked
Ġexcommun icated
Ġpled ged
aby te
Ġbombard ment
Ġbeet les
Ġmagist rate
Ġcontam inated
bir ds
opol itan
Ġpneum onia
Ġprag matic
Ġapprent ice
Ġmarath on
Ġuncont roll
Ġautomorph ism
Ġtoile t
Ġhiro hito
Ġplaus ible
Ġtelescop es
Ġagr arian
Ġhephaest us
Ġaton ement
Ġiro qu
Ġoutsp oken
Ġhert ford
Ġnarcot ics
Ġminne apolis
Ġdevanag ari
Ġintif ada
ablan ca
d el
d rop
k os
r ut
r ino
t land
v ic
he us
Ġs cept
Ġs ights
Ġf aded
or am
Ġm ens
Ġm ennon
Ġn ause
Ġn ude
Ġon s
Ġd res
Ġe ury
Ġl le
Ġl ansing
ing rad
Ġg inger
Ġg enders
Ġg hent
Ġis mail
ra k
ur u
ad ata
Ġk ut
Ġk ad
Ġun le
qu ito
oc om
ill in
ill usion
Ġsh ia
Ġha f
Ġam ir
Ġcl oned
Ġab j
Ġab du
ib e
ren ces
act eria
Ġco aching
Ġph p
Ġag ar
Ġag nes
ress ing
Ġtra ils
Ġinf requ
Ġthese us
Ġbet ra
Ġchar itable
Ġsub l
Ġlin naeus
Ġinc urs
Ġmon oxide
Ġimp ed
Ġhum b
Ġmil estone
Ġdec o
Ġpower pc
Ġmod elled
Ġphil o
Ġnow here
Ġsw ab
Ġless on
Ġdev ils
Ġlim er
oss a
Ġpur ge
ott a
che z
Ġche ek
Ġvir gil
Ġson ic
Ġdu el
Ġbal i
Ġproject ile
Ġbill ed
Ġtru ce
Ġdiff use
Ġprofess ions
Ġdomin o
Ġur l
Ġze bra
Ġintell ivision
Ġdeal ers
Ġfle ets
Ġham pton
Ġrh ym
Ġtheore tic
Ġbass es
Ġcens or
Ġjur assic
Ġcup s
Ġfu j
Ġfu er
Ġram sey
Ġinterpre ting
Ġrational ism
Ġow es
Ġvic ar
Ġbrun el
Ġvent ures
Ġbug atti
Ġdismiss al
Ġbuck minster
Ġalign ment
Ġsubt ract
Ġtheor ist
Ġjane iro
Ġclim atic
Ġbenz odia
Ġempir icism
Ġreich stag
Ġbarn ard
Ġtransmit ter
Ġencry pted
Ġhob art
Ġcancell ation
Ġmartyr dom
umer able
hy de
Ġimmense ly
Ġcors ican
Ġblitz krieg
Ġdisappoint ment
Ġasym pt
Ġpose idon
Ġwip o
Ġmanch u
Ġendoc rine
Ġeukary otic
Ġrefrig er
Ġrepent ance
Ġrept iles
Ġtint in
Ġsinc ere
Ġfergus on
Ġunauthor ized
Ġsubmer ged
Ġsabot age
Ġshostak ovich
Ġbambo o
Ġsauss ure
Ġiet f
Ġschizoph ren
Ġbenzodia zep
b ank
d ic
f uck
h at
h as
j k
p as
z ai
Ġ ure
he ws
Ġs dp
Ġc ps
Ġf ren
Ġf let
Ġf used
en o
Ġp eder
Ġn itz
Ġan us
Ġl s
Ġg aut
Ġg ba
Ġg illes
Ġre written
Ġbe z
Ġst il
Ġhe im
Ġde ception
Ġde letion
her ing
op tery
em aker
Ġne al
Ġwor s
ary a
Ġsp un
Ġsp aced
Ġsp ray
Ġall ende
Ġnew com
Ġco ated
Ġmar i
Ġwho ever
Ġev i
Ġlo os
Ġmet adata
orn ame
Ġmon ot
Ġrem ar
Ġent ang
Ġnational e
Ġret ention
Ġday time
Ġir ony
Ġcontin ual
Ġmod ulo
Ġdirect ive
Ġfre yr
aim an
Ġpat ches
Ġconc ub
oph ilia
Ġopp oses
Ġfo oth
Ġdev al
Ġber gen
Ġaff l
Ġver ification
Ġsuper con
Ġprim ates
Ġbuild ers
work ing
Ġdeb ussy
Ġenc aps
Ġmarket place
Ġdoc ks
Ġos ce
Ġach a
Ġcoll ar
Ġec lectic
Ġut er
Ġmultip lex
Ġfranc isc
Ġpron unciations
Ġtor ch
bb els
Ġmc m
Ġactress es
Ġmas ks
Ġpack ard
Ġhab ermas
mark et
Ġunp ro
Ġasc end
Ġasc ended
Ġnomin ative
ho ven
Ġgent ile
Ġkra v
Ġstim ul
sm ith
Ġevangel ist
Ġhex agonal
Ġcircumc ised
Ġillness es
Ġvern e
Ġcoinc ident
Ġcoinc ided
Ġlig ands
Ġsatur ated
Ġmichel le
Ġdisagree ments
Ġshir ley
Ġflour ishing
Ġcock pit
Ġfacilit ated
Ġhighland er
Ġunde c
Ġzh ou
occ us
Ġrut her
Ġpert aining
Ġbenn y
Ġdele ted
Ġpled ge
Ġexhaust ive
Ġrg b
Ġeph rem
Ġsynag ogues
Ġutter ly
Ġeuras ian
Ġbodh is
Ġoverd ose
Ġpend ulum
Ġcatast rophic
Ġhydrox yl
Ġfluores cent
Ġvisig oths
Ġchern obyl
Ġrhetor ical
Ġvenet ian
Ġmaf ia
Ġcrucifix ion
Ġcarthag inian
Ġrans om
Ġforc ibly
Ġbarra cks
Ġkraft werk
Ġunass igned
Ġhanse atic
Ġcorrid or
Ġthra ce
Ġgoe bbels
Ġanach ron
Ġdex ter
Ġunsuit able
Ġwednes day
Ġoperat orname
c ourt
d les
f our
f ax
h urst
m ons
u j
y p
z in
Ġt ire
in ov
at omic
Ġb d
Ġw rist
Ġw igner
Ġp ads
Ġm ick
ar ro
Ġg s
Ġg rit
Ġg ros
Ġg ull
Ġg cd
ero t
ly ph
am us
ra ged
id ium
ut ella
ur ian
Ġal ess
Ġal tering
Ġcon way
Ġv anish
Ġv ista
Ġch ia
Ġun ambig
Ġun married
op atra
Ġar rog
Ġen ki
Ġam ines
Ġcl ipper
Ġsc aled
Ġsc outs
Ġdis illusion
ign ant
Ġres ided
Ġbo v
Ġcent imeters
ond a
Ġem ulator
ok ov
Ġover night
Ġla zy
Ġap es
Ġac ropolis
Ġed mon
Ġed mond
ll a
Ġfil ing
Ġsm ile
Ġbr am
Ġsupp lier
Ġshe ffield
Ġnational ities
conom ics
amm y
Ġel ong
Ġstand point
Ġins istence
Ġer win
Ġcr m
Ġmilit arily
Ġmid rash
Ġvol ga
Ġste fan
Ġinflu encing
Ġho ch
Ġdev out
Ġber ne
Ġpresent er
Ġlim p
Ġdu ct
Ġfield ing
Ġtake over
Ġtru ff
Ġoct avian
Ġbegin ners
Ġcost as
Ġexam ines
Ġexec uting
ude au
Ġconstant ius
Ġour selves
Ġimpro vis
Ġpsych otropic
Ġground ed
Ġnight mare
Ġdisp osition
Ġemb ar
Ġhero d
Ġmedic ines
Ġpack aged
Ġkil ograms
Ġens ued
Ġconsequ ent
Ġattrib ution
Ġflu ent
zz o
Ġsand stone
Ġmos quito
Ġstreng ths
Ġweight ed
Ġpick ups
Ġneut er
Ġstal ingrad
Ġdesert ed
Ġanaly sts
Ġmcc artney
Ġrod ents
Ġcheck ers
Ġpriest ly
Ġbrig ad
Ġpunish ments
Ġalk aline
Ġtag s
Ġmorm ons
Ġconfig urations
Ġchal k
Ġmassac res
Ġpip elines
Ġprompt ing
Ġpagan ism
Ġbak r
Ġgest ure
Ġinterse ct
Ġadhe rence
Ġero ded
Ġexcav ation
Ġgt p
Ġdisturb ed
Ġdefic its
Ġfreem asons
Ġnotorious ly
Ġilleg ally
Ġgd ynia
Ġposter ior
Ġcet ace
Ġrelie ve
Ġdisgu ise
Ġglob ular
Ġcentr ifug
Ġpanthe on
Ġpiz za
Ġexcerpt s
Ġverd ict
Ġhitt ite
Ġfus elage
Ġlago on
Ġharass ment
Ġprototy pes
Ġtraff icking
Ġplent y
Ġkauf man
Ġatre ides
Ġenvision ed
Ġwestphal ia
Ġisth mus
Ġinad vert
Ġredempt ion
Ġdepe che
Ġsolem n
Ġchekh ov
a o
l ian
p i
u cci
in ence
Ġc ured
on ies
Ġf ost
en ame
an cies
Ġb aux
Ġw mo
Ġd f
Ġh ither
Ġh iber
Ġre wards
Ġre appe
am on
st ate
st atic
Ġfor rest
Ġhe ine
ven s
Ġk c
Ġde fer
Ġmo g
pe ople
Ġus b
Ġar lington
all a
Ġpl uck
Ġam us
Ġam orph
Ġab et
Ġcan ber
Ġall a
Ġro ster
act or
Ġi w
Ġra ins
Ġmar coni
Ġper i
Ġper th
Ġcent s
Ġwe il
Ġkn it
Ġinto x
Ġac acia
Ġed dy
ys on
Ġexp ired
Ġty re
Ġes ter
Ġel s
Ġwhat soever
Ġmodern ism
Ġport fol
Ġdiv ination
Ġfree ze
Ġtr udeau
Ġartic ulation
Ġprop oses
que ous
Ġnat al
Ġsol v
Ġgl ider
Ġbus iest
Ġcy borg
Ġcle opatra
Ġbest owed
Ġcop ula
Ġpost ers
Ġnav arre
Ġsent ine
Ġcast les
Ġgal t
Ġgal ois
Ġire ne
Ġbank notes
Ġmicro phone
Ġacadem ia
Ġmix tures
Ġhill b
Ġgn utella
Ġans bach
Ġsin ks
Ġfundament als
Ġcas a
Ġrot ors
Ġcer es
Ġcer ium
Ġabb ots
Ġstreng thening
Ġassass ins
Ġcooper ate
Ġexc use
Ġstaff ord
Ġash croft
Ġari ane
Ġelectro de
Ġcarol ine
Ġobl ast
Ġped ag
Ġdeclar ations
Ġrit chie
Ġhamm ett
Ġrebell ious
Ġlan than
Ġconsult ed
Ġchlor opl
Ġpredict s
Ġtut or
Ġdir k
Ġcad illac
Ġmaxim ize
uv ial
Ġreich s
Ġalp aca
Ġrever end
Ġinaug uration
Ġconsolid ation
pro of
Ġjenn ings
Ġbasil ica
Ġnab okov
Ġapocaly ptic
Ġjagu ars
Ġalam os
Ġstereoty pes
Ġges ch
Ġpolynes ian
Ġeukary otes
Ġmonothe ism
Ġjol ie
Ġredund ant
Ġdiscl osure
Ġraz or
Ġzam enhof
Ġsno oker
Ġpog rom
Ġheracl ius
Ġapopt osis
Ġchromat ography
Ġpreca utions
Ġlandsl ide
Ġtsun ami
Ġresurrect ed
Ġindistinguish able
Ġdaven port
Ġheide gger
Ġiroqu ois
Ġruther ford
Ġbodhis att
f eller
g um
j ar
m orph
r ically
u et
Ġa eros
Ġo e
Ġc il
en i
en ko
at al
Ġb opp
Ġm ers
Ġm ies
Ġm cl
Ġm peg
Ġn r
Ġn ist
Ġn sa
Ġn ymph
Ġd ix
Ġe a
Ġh ats
Ġl ively
ing en
Ġto led
Ġg ud
ig ence
Ġre op
st own
ht on
Ġst it
Ġst out
Ġk t
Ġk ro
Ġde ed
Ġv hs
Ġv iolet
Ġun im
ian i
Ġar te
Ġcomp ares
Ġint end
Ġu h
ass ie
Ġres ume
Ġcol t
Ġco hes
Ġco ating
Ġph d
Ġmar co
Ġmar grave
Ġthere min
Ġgr at
Ġem manuel
Ġeng elb
Ġbl unt
Ġinf ocom
are th
Ġup side
Ġchar i
Ġap ology
Ġpop es
Ġbas ement
Ġany body
Ġunivers idade
Ġterm inated
Ġend owed
Ġfran ca
Ġexp os
Ġimp lements
Ġdem eter
az ar
Ġlit t
ters hire
Ġhar ness
Ġnorth ward
Ġrev ive
Ġmark ers
Ġmag ician
bo a
Ġtyp ing
Ġrele gated
Ġtake off
Ġwal tz
Ġast ounding
Ġsepar atist
Ġoct a
umb ling
Ġviol a
Ġviol ently
Ġpast oral
Ġsecret ariat
Ġbrother hood
Ġhydro lysis
ga ard
Ġjer icho
Ġbow ler
Ġcampaign ed
Ġangel a
Ġpoor er
cell ular
Ġboy cott
Ġextra v
Ġbomb ed
Ġlingu a
Ġscreen ing
Ġinitial s
Ġunf av
Ġbell s
Ġtou ches
Ġmr na
Ġcopyr ights
Ġalgorithm ic
Ġalexand ra
zy g
Ġhay es
Ġkilomet er
Ġfro do
Ġstephen son
Ġtig ris
Ġloyal ists
Ġgang ster
Ġforb es
Ġstim ulating
Ġinsert ing
Ġrid ges
Ġroy ale
Ġconstitu ents
Ġantiqu ities
Ġsubt it
Ġster il
Ġduc ati
Ġdh imm
Ġhi ros
Ġantib odies
Ġemit ting
Ġvig orous
Ġcarb ine
Ġdetermin ant
Ġbenedict ine
Ġcondens ation
Ġremn ant
Ġkidn apping
Ġdump ing
Ġborne o
Ġgast ro
Ġpiet ro
Ġunderm ined
Ġpuls es
Ġcess na
Ġjard ine
Ġhoy le
Ġscrut iny
Ġelis abeth
Ġleuk emia
Ġturkmen istan
Ġatroc ities
Ġmarad ona
Ġsurin ame
Ġunpredict able
Ġkonst ant
Ġbiomed ical
Ġpoore st
Ġcanber ra
d ar
p rodu
on ians
is al
Ġw im
Ġw ines
Ġp ipp
Ġm oll
Ġn il
Ġe j
Ġh os
Ġre iss
Ġnine ty
il ism
Ġst ole
ur ge
Ġk iel
Ġde ccan
est an
ab alus
Ġne on
Ġy i
Ġsh im
Ġsh ades
pt ure
ous es
ell en
ub ar
ru e
Ġi k
Ġco ex
Ġpr atche
Ġtra cy
Ġser ie
Ġem my
Ġrec o
Ġbl ending
Ġapp et
ced ent
Ġinter med
Ġma ury
Ġsm ok
Ġbr ute
cess ion
Ġexp osing
Ġsur rey
Ġcal iber
Ġpower book
Ġgod win
Ġins pection
Ġer ics
Ġdr ill
Ġhand les
Ġhy gi
Ġfree ware
enn y
enn es
Ġreal ities
Ġtele p
Ġho ffman
Ġber k
Ġgood by
Ġhal le
Ġblack wood
Ġpur ification
Ġmor avia
Ġcat ap
Ġnatural ism
Ġmal achi
Ġnews letter
lin ess
Ġexec utable
Ġcro ats
Ġfood stuff
Ġpast e
Ġsecret aries
Ġimpro ves
pr s
Ġdistrib ut
Ġweb log
Ġbul b
Ġfront iers
Ġreb elled
Ġrob es
Ġconfl u
Ġey ed
Ġna ive
ush u
Ġhtt ps
Ġcel ib
Ġbomb ay
Ġarth ritis
Ġrestrict ive
Ġign eous
Ġcapac ities
Ġolymp ia
Ġapart ments
Ġbol lywood
Ġelectro ph
Ġdarwin ism
Ġentertain ers
Ġss n
Ġrelat iv
Ġment or
Ġsympt om
Ġforth coming
Ġsingular ity
Ġtreas urer
anth a
Ġdoom ed
Ġaccum ulate
Ġconce aled
Ġtroll ing
Ġellip tical
pie ces
Ġry e
Ġevident ly
Ġfraction al
Ġferm at
Ġsubgroup s
Ġsecre cy
Ġdisrupt ed
Ġundergo es
Ġreward ed
Ġcondens ed
Ġleop ard
Ġhijack ers
Ġcyt os
ozo ic
Ġdoubled ay
Ġtransliter ated
Ġasym metric
Ġtutorial s
Ġanabapt ists
Ġskyl ine
Ġlid dell
Ġethyl ene
Ġetern ity
Ġtransgen der
Ġtajik istan
Ġcongen ital
Ġdisarm ament
Ġostens ibly
Ġparenthes es
Ġarbitr arily
Ġdres den
Ġpratche tt
b ows
j as
j ay
l io
n ic
p erson
s ay
Ġt rance
Ġa queous
Ġthe r
Ġf ats
Ġb g
Ġb p
Ġb ending
Ġb sa
Ġw l
Ġp ants
Ġm iz
Ġn ai
Ġg us
st ick
Ġst itch
Ġk ip
Ġk ron
Ġk la
Ġj ing
Ġr ue
Ġun ilateral
ge e
op rop
em e
Ġus able
Ġsh uff
Ġha vana
Ġam en
Ġint ricate
end om
Ġra gn
Ġcons erved
Ġye h
Ġqu atern
Ġfe eds
ced e
Ġoff s
Ġgu ido
Ġexp atri
Ġmed als
Ġgod father
Ġsecond ly
Ġfre i
Ġcr isp
Ġhand gun
Ġtr unc
Ġjew ell
ov an
Ġste ering
Ġste pping
Ġann ul
Ġblack well
Ġrece ip
Ġmult itas
yle tic
Ġara fat
Ġpal aces
Ġmer ry
Ġexpress ive
Ġsel ig
Ġdig raph
Ġroyal ties
Ġmicro organ
isl ava
Ġstra ined
Ġban anas
Ġalle gor
Ġkore ans
Ġamb ition
Ġamb ush
Ġsin clair
Ġacqu ainted
ken ess
Ġrank ings
Ġrot ten
Ġfant as
zz a
Ġrestrict ing
ias is
Ġded uct
Ġkenn y
Ġbarb arians
Ġqual itative
Ġconcert os
Ġbol tz
Ġenjoy ing
Ġnegot iating
Ġeliz a
Ġbear er
Ġdetect or
Ġsuppl anted
Ġnig el
Ġreprodu ced
Ġfab er
Ġton al
Ġacceler ate
Ġrecon qu
Ġern ie
Ġpig eon
Ġkra g
Ġphilipp ine
Ġfen der
Ġcass ette
Ġschedul es
Ġavo ids
Ġsher iff
Ġmaxim us
Ġphosph orus
Ġenlight ened
Ġprivile ged
Ġandre i
Ġpist ols
Ġteen ager
Ġsick ness
Ġeuph oria
Ġine fficient
Ġsurve ying
Ġsloven ian
Ġsang er
Ġpopul ist
Ġlisten ers
Ġraf ael
Ġana est
Ġomn ip
Ġprehist ory
Ġinterven ing
Ġwitch craft
Ġeph ra
Ġnutri ent
Ġalphab etic
Ġmour ning
Ġmv p
Ġfring e
Ġabdom inal
Ġtn t
Ġaffir med
Ġindict ment
Ġlol ita
Ġokina wa
Ġparach ute
Ġkand ahar
Ġike a
Ġgoss ip
Ġbrat islava
Ġneoclass ical
Ġmaimon ides
Ġmozamb ique
Ġedmon ton
Ġhygi ene
b als
g son
h off
o j
t ier
Ġt ic
Ġo mit
Ġs ik
Ġb oul
Ġw ak
Ġw ille
Ġp ause
Ġm uc
Ġd erm
Ġl ays
Ġto ast
Ġre claim
Ġis lets
st art
un ctions
Ġal o
Ġal as
ter ior
Ġk v
Ġr ale
Ġwith stand
and e
Ġex h
se us
ich ael
oc les
Ġsh ower
ary n
Ġman ners
Ġab acus
Ġsp am
Ġpart isans
Ġu pp
Ġsc ud
pl ess
Ġgo b
ath s
are z
Ġplay back
Ġup u
ron es
Ġbel grade
Ġstate hood
Ġimp over
Ġimp ressions
Ġhum il
Ġje op
Ġcor ona
Ġstr ive
ann ah
arch y
Ġval era
Ġmod ifying
Ġant imony
Ġisland er
Ġconf essions
Ġartic ulated
Ġroman ization
bo am
Ġgi ac
Ġdra ch
Ġwater way
Ġalb ion
Ġjud ea
Ġhal ley
Ġindividual ism
Ġru pert
Ġnovel l
Ġmac rom
Ġmac au
Ġprob abilities
mon aut
ban ks
Ġfig ur
[...]
