{"<s>":0,"<pad>":1,"</s>":2,"<unk>":3,"<mask>":4,"!":5,"\"":6,"#":7,"%":8,"&":9,"'":10,"(":11,")":12,",":13,"-":14,".":15,"/":16,"0":17,"1":18,"2":19,"3":20,"4":21,"5":22,"6":23,"7":24,"8":25,"9":26,":":27,";":28,"?":29,"@":30,"A":31,"B":32,"C":33,"D":34,"E":35,"F":36,"G":37,"H":38,"I":39,"J":40,"K":41,"L":42,"M":43,"N":44,"O":45,"P":46,"Q":47,"R":48,"S":49,"T":50,"U":51,"V":52,"W":53,"X":54,"Y":55,"Z":56,"[":57,"]":58,"a":59,"b":60,"c":61,"d":62,"e":63,"f":64,"g":65,"h":66,"i":67,"j":68,"k":69,"l":70,"m":71,"n":72,"o":73,"p":74,"q":75,"r":76,"s":77,"t":78,"u":79,"v":80,"w":81,"x":82,"y":83,"z":84,"¡":85,"£":86,"¨":87,"©":88,"ª":89,"«":90,"°":91,"±":92,"³":93,"¶":94,"¸":95,"º":96,"»":97,"¼":98,"¿":99,"Â":100,"Ã":101,"Ä":102,"Å":103,"â":104,"Ċ":105,"č":106,"Ġ":107,"Ģ":108,"ģ":109,"ĩ":110,"ī":111,"į":112,"ĵ":113,"Ķ":114,"ĺ":115,"Ļ":116,"ľ":117,"Ŀ":118,"Ł":119,"ł":120,"Ń":121,"de":122,"Ġde":123,"en":124,"Ġ\"":125,"os":126,"es":127,"er":128,"Ġl":129,"ci":130,"on":131,"Ġp":132,"ar":133,"Ġa":134,"Ġc":135,"Ġla":136,"or":137,"čĊ":138,"an":139,"Ġm":140,"al":141,"in":142,"Ġe":143,"Ġs":144,"Ã³":145,"Ġy":146,"ad":147,"re":148,"ue":149,"Ġen":150,"as":151,"Ġel":152,"ic":153,"ĠC":154,"am":155,"un":156,"aci":157,"at":158,"tr":159,"Ġcon":160,"Ã³n":161,"ÃŃ":162,"Ã¡":163,"to":164,"te":165,"Ġn":166,"Ã©":167,"cia":168,"Ġes":169,"Ġpr":170,"is":171,"ĠM":172,"que":173,"om":174,"ti":175,"Ġh":176,"encia":177,"Ġdel":178,"ut":179,"id":180,"ina":181,"fer":182,"Ġque":183,"ferencia":184,"onferencia":185,"Ġlos":186,"do":187,"Ġg":188,"Ġmat":189,"ĠP":190,"Ġmatut":191,"Ġmatutina":192,"bl":193,"Ġv":194,"Ġf":195,"ta":196,"Ġdes":197,"Ġd":198,"amos":199,"Ġre":200,"ol":201,"Ġpar":202,"im":203,"Ġun":204,"Ġse":205,"ĠConferencia":206,"ĠE":207,"aciÃ³n":208,"ĠS":209,"ob":210,"ĠA":211,"ur":212,"em":213,"il":214,"res":215,"ien":216,"ico":217,"Ġin":218,"Ġcom":219,"ĠN":220,"Ġpara":221,"tar":222,"Ġdesde":223,"ac":224,"ĠT":225,"ab":226,"Ġpor":227,"ia":228,"ens":229,"ir":230,"ec":231,"us":232,"Ġb":233,"ĠL":234,"io":235,"Ã±":236,"Ġtr":237,"acion":238,"Ġal":239,"el":240,"Ġlas":241,"ÃŃa":242,"ensa":243,"ica":244,"ul":245,"ern":246,"ici":247,"Ġno":248,"uc":249,"ado":250,"xico":251,"ĠMÃ©":252,"ĠG":253,"Ġme":254,"ĠĊ":255,"ĠMÃ©xico":256,"oy":257,"it":258,"iv":259,"ĠR":260,"den":261,"ud":262,"ig":263,"Ġpue":264,"ero":265,"ĠB":266,"oc":267,"ues":268,"aj":269,"acional":270,"Ġprensa":271,"Ã¡n":272,"ra":273,"Ãº":274,"idad":275,"ciÃ³n":276,"qu":277,"Ġpuebl":278,"for":279,"ador":280,"ĠJ":281,"Ġto":282,"ay":283,"st":284,"um":285,"ĠD":286,"Ã¡s":287,"Ġest":288,"ĠNacional":289,"ando":290,"Ġt":291,"uer":292,"lo":293,"ĠV":294,"ĠI":295,"eg":296,"Ġsu":297,"ers":298,"Ġpro":299,"ĠH":300,"Ġj":301,"tos":302,"Ġuna":303,"tes":304,"form":305,"ru":306,"emos":307,"Ġo":308,"la":309,"Ġac":310,"tro":311,"Ġpres":312,"Ġlo":313,"Ġpa":314,"Ġcomp":315,"ente":316,"ones":317,"co":318,"iden":319,"Ġpueblo":320,"gr":321,"Ġgob":322,"iÃ³n":323,"ora":324,"ro":325,"ĠPal":326,"pe":327,"ales":328,"ida":329,"le":330,"go":331,"ran":332,"rec":333,"acio":334,"imos":335,"Ġ1":336,"ĠmÃ¡s":337,"ados":338,"da":339,"Ġnues":340,"ĠF":341,"ter":342,"des":343,"Ġap":344,"Ġres":345,"ada":346,"ana":347,"Ġ2":348,"ĠPalacio":349,"aÃ±":350,"ist":351,"Ġam":352,"mos":353,"ios":354,"iz":355,"per":356,"tra":357,"pres":358,"Ġcons":359,"En":360,"dos":361,"ÃŃs":362,"Conferencia":363,"za":364,"der":365,"Ġdi":366,"ent":367,".\"":368,"ĠO":369,"Ġem":370,"Ġpresiden":371,"ienes":372,"Ġcomo":373,"El":374,"mo":375,"La":376,"ho":377,"Ġser":378,"tu":379,"ib":380,"abaj":381,"Ġcam":382,"Ġex":383,"Ġim":384,"iern":385,"ĠEst":386,"con":387,"ante":388,"era":389,"Ġnos":390,"ĠpaÃŃs":391,"ĠCh":392,"erm":393,"Ġmil":394,"ienestar":395,"Ġent":396,"tor":397,"anos":398,"ier":399,"ten":400,"Ġti":401,"Ġtrabaj":402,"Ãºbl":403,"ĠU":404,"ĠEs":405,"dad":406,"Ġcor":407,"Ġci":408,"Ġqu":409,"oci":410,"Ġr":411,"Ġsal":412,"iento":413,"Ġimp":414,"ierno":415,"gu":416,"Ġpo":417,"Ġpresidente":418,"uen":419,"udad":420,"ap":421,"rup":422,"vo":423,"adores":424,"Ġtodos":425,"Ġentre":426,"ario":427,"Ġsob":428,"emp":429,"ort":430,"hu":431,"tros":432,"arr":433,"ans":434,"usti":435,"ma":436,"tica":437,"ug":438,"ĠIn":439,"Ã©n":440,"lan":441,"gram":442,"xic":443,"ĠMar":444,"ble":445,"ĠRe":446,"tur":447,"ons":448,"Ġviv":449,"vis":450,"Ġ20":451,"Hoy":452,"ven":453,"ano":454,"Ġtrans":455,"Ġcu":456,"Ġgobern":457,"Ġpero":458,"Ġreun":459,"ĠEl":460,"formaciÃ³n":461,"ito":462,"ĠÂ":463,"Ġob":464,"Ġrec":465,"aciones":466,"Ġ#":467,"aremos":468,"ĠMe":469,"ido":470,"Ġan":471,"Ġmi":472,"Ġsin":473,"uch":474,"pl":475,"Ġdem":476,"ĠLa":477,"Ġgobierno":478,"Ġcompr":479,"ĠSan":480,"ĠaÃ±":481,"Ġman":482,"br":483,"ca":484,"ez":485,"na":486,"Ġderec":487,"olÃŃ":488,"usticia":489,"19":490,"icos":491,"ĠTr":492,"idades":493,"00":494,"Ġcorrup":495,"iudad":496,"ord":497,"Ġgente":498,"Ġsobre":499,"Ġll":500,"Ġas":501,"retar":502,"Ġsec":503,"bre":504,"raci":505,"va":506,"cip":507,"ĠCiudad":508,"Ġni":509,"Ã©s":510,"ruz":511,"itar":512,"rÃ¡":513,"Ġle":514,"fici":515,"paÃ±":516,"vers":517,"ene":518,"ĠpolÃŃ":519,"arÃ¡":520,"Ġesta":521,"Ġnuestro":522,"Ġapoy":523,"av":524,"ĠpÃºbl":525,"und":526,"ismo":527,"uv":528,"aron":529,"Ġsol":530,"ĠAl":531,"Con":532,"uar":533,"ores":534,"antes":535,"Ġmed":536,"ivers":537,"uy":538,"end":539,"Ġfr":540,"Ġjusticia":541,"\"\"":542,"ide":543,"ÃŃas":544,"Ġhac":545,"Ġcompar":546,"ĠUn":547,"ĠY":548,"Ġte":549,"ato":550,"Ġha":551,"ĠEn":552,"ĠVer":553,"Ġcomprom":554,"Ġpre":555,"Ġhay":556,"ĠestÃ¡":557,"Ġrespe":558,"af":559,"ĠSal":560,"ĠBienestar":561,"ugur":562,"Es":563,"ĠZ":564,"ener":565,"Ġ\"\"":566,"arios":567,"VI":568,"je":569,"aran":570,"Ġsi":571,"Ġmexic":572,"uel":573,"Ġprim":574,"Ġdis":575,"Ġmej":576,"Ġpueblos":577,"Ġtodo":578,"Ġempres":579,"ĠcorrupciÃ³n":580,"Re":581,"duc":582,"jo":583,"Ġcre":584,"Ġsus":585,"Ġsoci":586,"ĠAn":587,"arrol":588,"Ġdemoc":589,"OVI":590,"bi":591,"Ġparti":592,"aca":593,"acruz":594,"OVID":595,"zar":596,"Ġcar":597,"and":598,"Ġenc":599,"idos":600,"Ġor":601,"Ġecon":602,"rez":603,"ÃŃn":604,"Ġnue":605,"Ġdirec":606,"arrollo":607,"COVID":608,"ie":609,"tas":610,"Ġsalud":611,"ĠVeracruz":612,"los":613,"cib":614,"Ã³m":615,"Ġgobernador":616,"Ġderecho":617,"Est":618,"pec":619,"ara":620,"Ġhist":621,"Ġreg":622,"ermin":623,"ch":624,"Ġlib":625,"Ġmun":626,"hua":627,"No":628,"Ġco":629,"ĠpolÃŃtica":630,"aranti":631,"ax":632,"Ġaut":633,"Ġconstr":634,"Ġcomparto":635,"Ġar":636,"ento":637,"onal":638,"ĠCal":639,"Ġgran":640,"Ġeste":641,"Ġvis":642,"Ġbuen":643,"ĠRo":644,"grama":645,"ial":646,"âĢ":647,"ĠJu":648,"Ġvivo":649,"Ġmejor":650,"ita":651,"zo":652,"Ã©r":653,"iso":654,"Ġsecretar":655,"dem":656,"Ġaten":657,"anza":658,"Ġcontra":659,"Me":660,"oria":661,"Ġbien":662,"tin":663,"ate":664,"Ġdesarrollo":665,"Ġbienestar":666,"Ġprop":667,"if":668,"lar":669,"tad":670,"ĠQ":671,"ciones":672,"Ġpers":673,"ĠSon":674,"Ġcomun":675,"ultur":676,"Ãºn":677,"ĠEstado":678,"fr":679,"pas":680,"Ġpas":681,"Ġay":682,"Ġson":683,"ambi":684,"ĠMor":685,"axaca":686,"icas":687,"ĠCar":688,"untos":689,"omo":690,"ira":691,"Ġdej":692,"endo":693,"entar":694,"remos":695,"tegr":696,"tir":697,"tiv":698,"Ġmill":699,"ĠaÃ±os":700,"racia":701,"uvimos":702,"cal":703,"hora":704,"ias":705,"oa":706,"ĠCons":707,"amil":708,"Ġgaranti":709,"ĠGu":710,"uerto":711,"ĠOaxaca":712,"uguraciÃ³n":713,"Ġmexicanos":714,"Ġper":715,"alidad":716,"eneral":717,"gen":718,"iar":719,"miento":720,"Ġma":721,"Ġelec":722,"til":723,"Ġfue":724,"Ġinform":725,"pervis":726,"ĠSonora":727,"tras":728,"Ġfal":729,"Ġfamil":730,"aya":731,"aÃ±ana":732,"Ġamig":733,"ĠÂ¡":734,"ambiÃ©n":735,"Ina":736,"ce":737,"iÃ³":738,"Ġdeb":739,"eros":740,"ĠLe":741,"Ġnuestros":742,"Ġapoyo":743,"Ġesc":744,"Ġhum":745,"Ġseg":746,"ĠNo":747,"empre":748,"Ġcompromiso":749,"Ġab":750,"asco":751,"Ġhoy":752,"Ġsegu":753,"iendo":754,"Ġinv":755,"Ġimport":756,"Ġ3":757,"Ġcultur":758,"Ġdos":759,"acun":760,"Ġporque":761,"ĠtransformaciÃ³n":762,"Les":763,"bol":764,"ga":765,"ip":766,"ativ":767,"imo":768,"ĠAr":769,"ĠGuer":770,"Ġnuestra":771,"iversario":772,"Ġrespeto":773,"rero":774,"ino":775,"Ġfin":776,"paÃ±a":777,"Ġdemocracia":778,"das":779,"he":780,"lic":781,"Ġ'":782,"Ġpob":783,"Ġad":784,"Ã³r":785,"titu":786,"Ġhora":787,"Ġver":788,"Ġrel":789,"urs":790,"Ġinter":791,"elici":792,"istas":793,"Ġhacer":794,"Â»":795,"Ãģ":796,"cis":797,"cial":798,"ona":799,"Ġmo":800,"Ġmay":801,"Ġhab":802,"illa":803,"irm":804,"uesta":805,"ĠEstados":806,"Ġtiene":807,"Ġparticip":808,"ĠeconÃ³m":809,"Ġdirector":810,"InauguraciÃ³n":811,"ĠGuerrero":812,"ed":813,"van":814,"Ġej":815,"Ã¡rez":816,"Ã©d":817,"ista":818,"Ġhones":819,"ucciÃ³n":820,"ĠUnidos":821,"Ġmillones":822,"ex":823,"tern":824,"ing":825,"asta":826,"amente":827,"Ġconf":828,"Ġrepres":829,"ĠTab":830,"logo":831,"Ġpaz":832,"gramas":833,"pit":834,"Ġdef":835,"osa":836,"erg":837,"Ġperm":838,"Ġmar":839,"Ġya":840,"Ã¡r":841,"Ġgira":842,"ĠSe":843,"acÃ¡n":844,"eces":845,"ĠLu":846,"Ġop":847,"cibÃŃ":848,"nia":849,"Ġ(":850,"Ġles":851,"onter":852,"Ġcas":853,"amiento":854,"ĠdÃŃa":855,"ĠAc":856,"ĠLos":857,"ĠChia":858,"Ãºblica":859,"Ġpoder":860,"Ġliber":861,"Ġimportante":862,"ĠTabasco":863,"dr":864,"ospit":865,"adas":866,"atr":867,"uridad":868,"Ġind":869,"ĠGob":870,"aja":871,"Ġemb":872,"Ġsiempre":873,"ĠJuÃ¡rez":874,"ĠChiapas":875,"Pro":876,"gan":877,"ifor":878,"tico":879,"val":880,"Ġ4":881,"err":882,"Ġvacun":883,"Ġinici":884,"ular":885,"peraciÃ³n":886,"Ġtrabajo":887,"Ġsecretario":888,"et":889,"nos":890,"pa":891,"se":892,"ual":893,"Ġ5":894,"Ġ8":895,"Ġdo":896,"erv":897,"cias":898,"Ġsig":899,"Ã¡logo":900,"Ã©c":901,"tivo":902,"Ġten":903,"Ġprograma":904,"Ġtiemp":905,"Ġobra":906,"ĠCalifor":907,"ĠCalifornia":908,"NA":909,"cÃŃa":910,"gra":911,"ij":912,"iones":913,"entro":914,"cio":915,"Ġpe":916,"int":917,"Ġequ":918,"ĠCon":919,"Ġconv":920,"ÃŃo":921,"Ġesp":922,"Ã±a":923,"Ġestado":924,"egu":925,"Ġserv":926,"ĠÂ«":927,"ĠpÃºblica":928,"Ġempresarios":929,"Ġautor":930,"demÃ¡s":931,"In":932,"Nos":933,"Se":934,"ef":935,"gres":936,"hos":937,"Ġ7":938,"dep":939,"orte":940,"Ġsen":941,"ĠCom":942,"tim":943,"Ġgeneral":944,"Ġvida":945,"ĠSin":946,"ĠLes":947,"umpl":948,"ĠestÃ¡n":949,"Ġresp":950,"ĠcampaÃ±a":951,"ĠRep":952,"Ġsolo":953,"Ġhistoria":954,"ĠÃģ":955,"oso":956,"cion":957,"Ġca":958,"ĠdÃŃas":959,"olv":960,"ilidad":961,"ĠBaja":962,"ĠHoy":963,"ĠFran":964,"ĠconstrucciÃ³n":965,"ĠLuis":966,"ba":967,"las":968,"Ġmuy":969,"ĠCu":970,"ĠCan":971,"bles":972,"iente":973,"ĠNay":974,"Ã±o":975,"Ġtres":976,"ensaje":977,"Ġtodas":978,"Ġtermin":979,"uerdo":980,"ieron":981,"Ġcuando":982,"Ġreunimos":983,"ĠAniversario":984,"Estamos":985,"Ġmundo":986,"ific":987,"ade":988,"du":989,"par":990,"ve":991,"entes":992,"cir":993,"onde":994,"Ġplan":995,"arit":996,"Ġmuch":997,"inos":998,"ĠMaya":999,"ĠAm":1000,"ura":1001,"ĠBan":1002,"Ġcamb":1003,"ĠaÃ±o":1004,"andid":1005,"Ġayud":1006,"Ġembaj":1007,"ĠRepÃºblica":1008,"RE":1009,"cl":1010,"ena":1011,"Ã³ven":1012,"ĠCam":1013,"Ġneces":1014,"ompaÃ±":1015,"Ġhom":1016,"Ġvamos":1017,"ele":1018,"Ġestamos":1019,"uentro":1020,"ortal":1021,"ĠTren":1022,"Ġsocial":1023,"ĠQu":1024,"Ġgarantizar":1025,"Ã³venes":1026,"ejo":1027,"les":1028,"ton":1029,"Ġcr":1030,"Ġcumpl":1031,"uebl":1032,"ata":1033,"toy":1034,"tidad":1035,"Ġgan":1036,"ĠPuebl":1037,"iren":1038,"Ġbene":1039,"Ã±os":1040,"ĠJos":1041,"Ġactu":1042,"Ġ19":1043,"ĠserÃ¡":1044,"ĠChi":1045,"Ġquien":1046,"gua":1047,"ordin":1048,"Ġlleg":1049,"Ġfamiliar":1050,"Ġseguir":1051,"ep":1052,"fec":1053,"ique":1054,"iol":1055,"Ġ6":1056,"Ġ\"Â":1057,"cimiento":1058,"Ġahora":1059,"Ġcos":1060,"ine":1061,"trol":1062,"ima":1063,"erop":1064,"Ġaplic":1065,"Ġnuevo":1066,"huahua":1067,"Ġmaes":1068,"grade":1069,"ĠNayarit":1070,"ĠChihuahua":1071,"Ġfamiliares":1072,"ORE":1073,"gar":1074,"ras":1075,"Ġpes":1076,"inas":1077,"Ġsab":1078,"ĠCo":1079,"Ġhaci":1080,"Ġhasta":1081,"Ġgas":1082,"ĠPro":1083,"Ġdir":1084,"Ġref":1085,"Ġintegr":1086,"ĠTla":1087,"Ãºs":1088,"Ġciudad":1089,"Ġ201":1090,"ĠMexic":1091,"âĢĶ":1092,"Ġrepresent":1093,"Ġbenefici":1094,"ORENA":1095,"po":1096,"var":1097,"Ġpl":1098,"unca":1099,"isbol":1100,"idar":1101,"idas":1102,"ural":1103,"icio":1104,"icip":1105,"oyec":1106,"dencia":1107,"quÃŃ":1108,"ump":1109,"Ġemp":1110,"Ġexpres":1111,"Ġtrabajadores":1112,"racias":1113,"ĠeconÃ³mica":1114,"eropuerto":1115,"Ya":1116,"dia":1117,"entos":1118,"Ġmig":1119,"aloa":1120,"incip":1121,"ĠCol":1122,"ĠPr":1123,"Ġvo":1124,"Ġviol":1125,"Ġfortal":1126,"ĠAs":1127,"uro":1128,"ila":1129,"ĠNue":1130,"itamos":1131,"ĠtambiÃ©n":1132,"Ġjuntos":1133,"forma":1134,"rans":1135,"tura":1136,"Ġllam":1137,"Ġmunicip":1138,"Ġbuena":1139,"pervisiÃ³n":1140,"Ġpobres":1141,"ĠQuint":1142,"20":1143,"eder":1144,"ianza":1145,"uciÃ³n":1146,"Ġig":1147,"Ġlle":1148,"Ġluch":1149,"onas":1150,"Ġade":1151,"Ġcab":1152,"Ġcandid":1153,"Ġmes":1154,"ala":1155,"Ġsuc":1156,"Ġenv":1157,"ice":1158,"icar":1159,"unidad":1160,"Ġestar":1161,"ĠMORENA":1162,"Ġven":1163,"embre":1164,"Ġins":1165,"Ġcomb":1166,"iciÃ³n":1167,"ĠVal":1168,"ĠCarlos":1169,"ĠGobierno":1170,"ĠSinaloa":1171,"gel":1172,"ion":1173,"ior":1174,"operaciÃ³n":1175,"zamos":1176,"ĠK":1177,"erÃŃa":1178,"ĠmaÃ±ana":1179,"Ġenfr":1180,"unto":1181,"unque":1182,"Ġespe":1183,"Ġhan":1184,"ĠPor":1185,"Ġvol":1186,"Ġfor":1187,"Ġfuer":1188,"Ġfund":1189,"ĠJal":1190,"Ġproduc":1191,"ĠacompaÃ±":1192,"ĠreunÃŃ":1193,"ĠMorel":1194,"Ġamigos":1195,"Ġdebe":1196,"Ġhonestidad":1197,"eo":1198,"pu":1199,"up":1200,"ĠW":1201,"Ġcentro":1202,"Ġeduc":1203,"Ġprincip":1204,"iste":1205,"isco":1206,"Ġva":1207,"Ġinf":1208,"ĠTrans":1209,"Ġotras":1210,"Ġmanera":1211,"\"\".":1212,"RecibÃŃ":1213,"ĠcooperaciÃ³n":1214,"ĠPuebla":1215,"',":1216,"Plan":1217,"fo":1218,"iun":1219,"Ġide":1220,"Ġloc":1221,"Ġpos":1222,"Ġpan":1223,"Ġcan":1224,"ĠmÃ©d":1225,"aliz":1226,"inis":1227,"Ã³s":1228,"icho":1229,"atern":1230,"Ġhospit":1231,"Ġrecon":1232,"Ġparte":1233,"embr":1234,"ula":1235,"ucho":1236,"dades":1237,"Ġamor":1238,"Ġtransform":1239,"undial":1240,"ĠhistÃ³r":1241,"Ġmayor":1242,"Ġtiempo":1243,"Ġviolencia":1244,"Ġespecial":1245,"AN":1246,"Des":1247,"Vamos":1248,"ha":1249,"iel":1250,"tÃ³":1251,"uto":1252,"enos":1253,"Ġafec":1254,"icaciÃ³n":1255,"trat":1256,"Ġconvers":1257,"ÃŃc":1258,"omÃŃa":1259,"Ġrealidad":1260,"illo":1261,"Ġcomer":1262,"ocer":1263,"Ġprof":1264,"ĠjÃ³venes":1265,"Ġconserv":1266,"vista":1267,"uardia":1268,"Ġfronter":1269,"Ġprimero":1270,"ĠRoo":1271,"Ã©rica":1272,"Ġrefin":1273,"ĠQuintana":1274,"Ġvolun":1275,"ĠTransformaciÃ³n":1276,"Por":1277,"eza":1278,"iremos":1279,"me":1280,"uj":1281,"vol":1282,"Ġz":1283,"eno":1284,"endencia":1285,"erc":1286,"ermos":1287,"Ġpens":1288,"Ġcal":1289,"Ġmal":1290,"Ġenerg":1291,"Ã©isbol":1292,"ĠprÃ³":1293,"Ġpriv":1294,"Ġhec":1295,"idal":1296,"Ġgr":1297,"Ġfun":1298,"ecer":1299,"ecas":1300,"ecretar":1301,"ĠLo":1302,"Ãºl":1303,"ĠJes":1304,"Ġofici":1305,"Ġsober":1306,"ĠIntern":1307,"ĠreuniÃ³n":1308,"Ġfratern":1309,"ĠdemocrÃ¡":1310,"Ġencuentro":1311,"valu":1312,"dependencia":1313,"ĠBanco":1314,"Ġcambio":1315,"Ġdirig":1316,"Ġigual":1317,"ĠJalisco":1318,"gos":1319,"men":1320,"tados":1321,"dez":1322,"Ġmis":1323,"Ġmucho":1324,"Ġsur":1325,"ÃŃf":1326,"ĠnaciÃ³n":1327,"Ġproyec":1328,"tiva":1329,"ĠPR":1330,"ĠPe":1331,"ĠPo":1332,"ĠPres":1333,"Ġfav":1334,"Ġdonde":1335,"imiento":1336,"ĠTo":1337,"usto":1338,"Ġtriun":1339,"ĠGar":1340,"ĠGuardia":1341,"Ġpuede":1342,"uesto":1343,"adora":1344,"ĠDes":1345,"ĠDur":1346,"Ġapr":1347,"Ġrecord":1348,"Convers":1349,"Ġconfianza":1350,"Ġpermi":1351,"Ġequip":1352,"Ġcaus":1353,"ĠFrancis":1354,"ĠJesÃºs":1355,"ME":1356,"gun":1357,"Ġ/":1358,"ĠCuar":1359,"unes":1360,"atÃ¡n":1361,"Ġeso":1362,"ĠMan":1363,"Ġfelici":1364,"ach":1365,"iva":1366,"ĠTrump":1367,"Ġsector":1368,"Ġhace":1369,"ĠYuc":1370,"Ġdisc":1371,"erminamos":1372,"Ġescr":1373,"Ġhuman":1374,"ativa":1375,"Ġejemp":1376,"Programas":1377,"Ġautoridades":1378,"ĠJosÃ©":1379,"Ġhacia":1380,"Ġbeneficio":1381,"ĠMorelos":1382,"Ġtransformar":1383,"ĠFrancisco":1384,"Los":1385,"Si":1386,"ĠX":1387,"Ġina":1388,"Ġus":1389,"Ġded":1390,"Ġpon":1391,"Ġaus":1392,"ango":1393,"Ġmensaje":1394,"Ġep":1395,"ama":1396,"tel":1397,"Ġese":1398,"ĠMon":1399,"Ġsem":1400,"ulta":1401,"ulio":1402,"Ġtoda":1403,"ĠHidal":1404,"ental":1405,"ĠIntegr":1406,"Ġsino":1407,"peche":1408,"Ġatender":1409,"ĠLeÃ³n":1410,"Ġseguridad":1411,"ĠCampeche":1412,"Ġ2018":1413,"Ġemple":1414,"ĠCuarta":1415,"ĠYucatÃ¡n":1416,"ĠHidalgo":1417,"An":1418,"Su":1419,"au":1420,"eatr":1421,"iÃ¡logo":1422,"rc":1423,"ub":1424,"Ġleg":1425,"cil":1426,"ard":1427,"Ġavan":1428,"Ġch":1429,"adie":1430,"undo":1431,"tepec":1432,"ĠMicho":1433,"Ġuno":1434,"ĠAy":1435,"ĠinformaciÃ³n":1436,"ĠbÃ©isbol":1437,"ĠLuc":1438,"uls":1439,"itor":1440,"ĠJo":1441,"Ġotros":1442,"Ġlogr":1443,"Ġdif":1444,"Ġtrabajar":1445,"Ġcirc":1446,"Ġpobl":1447,"apul":1448,"Ġentrevista":1449,"ĠMarÃŃa":1450,"Ġrecu":1451,"Ġmedios":1452,"Ġprimer":1453,"Ġorg":1454,"ĠeconomÃŃa":1455,"Ġregres":1456,"tivos":1457,"Ġamigo":1458,"Ġcultura":1459,"ĠinterÃ©s":1460,"Ġlibertad":1461,"greso":1462,"Ġrespons":1463,"ĠTlax":1464,"Ġcabo":1465,"Ġlocal":1466,"ĠGarcÃŃa":1467,"MEC":1468,"eatriz":1469,"Segu":1470,"ces":1471,"eci":1472,"eti":1473,"ot":1474,"zas":1475,"Ġoc":1476,"ĠÃºl":1477,"enemos":1478,"orr":1479,"Ġev":1480,"Ġconocer":1481,"Ġnom":1482,"Ġnacional":1483,"ĠMig":1484,"Ġguer":1485,"ĠPem":1486,"blem":1487,"urante":1488,"ientos":1489,"abine":1490,"aje":1491,"Ġestuvimos":1492,"Ġacuerdo":1493,"tuoso":1494,"Ġquienes":1495,"ĠAlf":1496,"Ġhabl":1497,"Ġsociales":1498,"tituciÃ³n":1499,"Â».":1500,"ĠAmÃ©rica":1501,"ĠprÃ³x":1502,"Ġfavor":1503,"ĠMichoacÃ¡n":1504,"ĠPemex":1505,"abinete":1506,"Lam":1507,"able":1508,"bra":1509,"bano":1510,"lante":1511,"mem":1512,"nific":1513,"Ġ9":1514,"ĠÃ©":1515,"Ġdep":1516,"este":1517,"eron":1518,"arÃ¡n":1519,"ĠcÃ³":1520,"ancia":1521,"Ġmaf":1522,"uego":1523,"omos":1524,"Ġmater":1525,"ĠPar":1526,"Ġdist":1527,"Ġrecib":1528,"ĠSeg":1529,"ustr":1530,"elo":1531,"oco":1532,"ĠcompaÃ±":1533,"ierra":1534,"Ġimpunidad":1535,"ĠSanta":1536,"Ġderechos":1537,"ĠpÃºblicos":1538,"Ġhaya":1539,"afirm":1540,"ĠSalud":1541,"Ġnueva":1542,"ĠConsejo":1543,"ĠÃģn":1544,"ducir":1545,"Ġ\"Â¡":1546,"gradec":1547,"Ġrepresentantes":1548,"ĠNuevo":1549,"ĠeducaciÃ³n":1550,"Ġorgul":1551,"ĠÃºlti":1552,"ĠMiguel":1553,"Ġguerra":1554,"Ġmafia":1555,"..":1556,"Qu":1557,"SS":1558,"Un":1559,"lÃ¡n":1560,"dera":1561,"Ġpal":1562,"aria":1563,"Ġcol":1564,"Ã³g":1565,"ich":1566,"uniÃ³n":1567,"trib":1568,"Ġesper":1569,"Ġproc":1570,"ĠMade":1571,"idores":1572,"ĠPa":1573,"Ġdig":1574,"Ġsea":1575,"abor":1576,"Ġbel":1577,"ĠDe":1578,"ĠDel":1579,"Ġtan":1580,"Ġsub":1581,"Ġprote":1582,"Ġacto":1583,"Ġgobiern":1584,"Ġresc":1585,"Ġamb":1586,"ĠOr":1587,"Ġextr":1588,"Ġentreg":1589,"ĠMarina":1590,"Ġ202":1591,"Ġante":1592,"Ġley":1593,"ĠpÃºblico":1594,"Ġsolidar":1595,"ĠJuan":1596,"demia":1597,"ĠpropÃ³s":1598,"ĠcomunicaciÃ³n":1599,"Ġdoc":1600,"Ġgasol":1601,"ĠColima":1602,"Ġadelante":1603,"Ġfundam":1604,"ujer":1605,"ĠIntegrales":1606,"ĠMadero":1607,"Ac":1608,"DÃŃa":1609,"og":1610,"pos":1611,"tan":1612,"tla":1613,"uir":1614,"Ġdecis":1615,"enda":1616,"Ġaeropuerto":1617,"Ġaunque":1618,"orn":1619,"Ġpron":1620,"isl":1621,"isiÃ³n":1622,"omin":1623,"ĠPlan":1624,"olÃ³g":1625,"ientes":1626,"usc":1627,"ernÃ¡n":1628,"ĠBeatriz":1629,"ĠVamos":1630,"ĠVida":1631,"ĠVilla":1632,"laud":1633,"tener":1634,"Ġquer":1635,"rupo":1636,"ĠIndependencia":1637,"Ġgobernadores":1638,"uyendo":1639,"ĠZac":1640,"ReuniÃ³n":1641,"Ġencuesta":1642,"Estuvimos":1643,"Ġvisitar":1644,"ĠatenciÃ³n":1645,"Ġpersonal":1646,"Ġfalle":1647,"elicidades":1648,"ĠhabrÃ¡":1649,"Ġcandidato":1650,"Ġmeses":1651,"Ġpandemia":1652,"embrando":1653,"Ġfrontera":1654,"ĠrefinerÃŃa":1655,"Ġfuncion":1656,"ĠPRI":1657,"Ġdedic":1658,"ĠÃģngel":1659,"ĠpropÃ³sito":1660,"ernÃ¡ndez":1661,"Al":1662,"MSS":1663,"PN":1664,"Tenemos":1665,"Viva":1666,"cos":1667,"ea":1668,"ean":1669,"ge":1670,"gue":1671,"ible":1672,"ja":1673,"tÃ©":1674,"tamos":1675,"zÃ³n":1676,"zÃ¡":1677,"Ġtar":1678,"Ġera":1679,"Ġolv":1680,"demos":1681,"cid":1682,"ciales":1683,"arÃ©":1684,"Ġcap":1685,"anÃŃa":1686,"adÃ¡":1687,"Ġentr":1688,"ash":1689,"ĠCor":1690,"ĠCoa":1691,"ame":1692,"amnific":1693,"Ġcontin":1694,"Ġnat":1695,"Ġnadie":1696,"isis":1697,"ĠMaÃ±ana":1698,"tido":1699,"Ġherm":1700,"Ġvide":1701,"Ġdurante":1702,"Ġrep":1703,"Ġunivers":1704,"ĠEx":1705,"ĠSur":1706,"ileg":1707,"ĠNos":1708,"aco":1709,"abilidad":1710,"uli":1711,"ajo":1712,"Ġestud":1713,"ĠIMSS":1714,"egr":1715,"tera":1716,"teridad":1717,"Ġresul":1718,"izo":1719,"Ġcaminos":1720,"Ġquier":1721,"huila":1722,"Ġobras":1723,"Ġmand":1724,"ĠTrat":1725,"Ġtem":1726,"Ġdejar":1727,"cala":1728,"ĠConstituciÃ³n":1729,"Ġverdad":1730,"Ġenfrentar":1731,"Ġvoluntad":1732,"ĠenergÃ©":1733,"Ġigualdad":1734,"ĠPresiden":1735,"ĠDurango":1736,"ĠpoblaciÃ³n":1737,"Ġnombre":1738,"ĠcÃ³mo":1739,"ĠCoahuila":1740,"amnificados":1741,"De":1742,"edad":1743,"iaciÃ³n":1744,"lÃ¡":1745,"mia":1746,"mente":1747,"tens":1748,"enen":1749,"enta":1750,"erto":1751,"erem":1752,"erra":1753,"Ġpatr":1754,"Ġagua":1755,"Ġmismo":1756,"Ġmenos":1757,"ĠsÃŃ":1758,"ĠCas":1759,"atos":1760,"atar":1761,"trÃ³":1762,"Ġhon":1763,"Ġhizo":1764,"ĠPuerto":1765,"Ġval":1766,"Ġrealiz":1767,"ĠEm":1768,"ĠAdemÃ¡s":1769,"aba":1770,"eli":1771,"itos":1772,"Ġtom":1773,"ĠDÃŃa":1774,"forme":1775,"Ġactiv":1776,"Ġ15":1777,"Ġ100":1778,"ĠdiÃ¡logo":1779,"Ġpresidentes":1780,"ĠUr":1781,"Ġimpuls":1782,"ĠMart":1783,"ĠReforma":1784,"Ġcual":1785,"Ġantes":1786,"ĠasÃŃ":1787,"Ġasunto":1788,"uve":1789,"idemia":1790,"ĠZap":1791,"Ġprimera":1792,"Ġpersonas":1793,"Ġayer":1794,"urso":1795,"timas":1796,"Ġembajador":1797,"Ġpesos":1798,"Ġciudadanos":1799,"upuesto":1800,"Ġausteridad":1801,"Ġepidemia":1802,"Ġsemana":1803,"Ġlegisl":1804,"ĠTlaxcala":1805,"Lamento":1806,"memor":1807,"Ġsolidaridad":1808,"10":1809,"Tr":1810,"Terminamos":1811,"Vis":1812,"bar":1813,"lam":1814,"od":1815,"otros":1816,"rique":1817,"tal":1818,"uana":1819,"ver":1820,"ĠâĢĶ":1821,"ĠdecÃŃa":1822,"ertir":1823,"ciÃ³":1824,"ond":1825,"onia":1826,"onav":1827,"Ġpla":1828,"Ġaum":1829,"ĠademÃ¡s":1830,"Ġminis":1831,"Ġmujer":1832,"ĠCos":1833,"ĠComo":1834,"atecas":1835,"truc":1836,"ismos":1837,"ĠMi":1838,"uturo":1839,"ĠvÃŃc":1840,"Ġfon":1841,"Ġfirm":1842,"Ġdici":1843,"Ġdamnificados":1844,"Ġinvers":1845,"acÃŃf":1846,"ĠGon":1847,"itas":1848,"denas":1849,"ĠBen":1850,"stal":1851,"ĠDonal":1852,"ĠIs":1853,"Ġjef":1854,"Ġ10":1855,"derÃ³n":1856,"entamos":1857,"Ġcamino":1858,"ĠpaÃŃses":1859,"Ġtierra":1860,"apa":1861,"Ġempresa":1862,"Ġcarre":1863,"Ġcomunidades":1864,"Ġcultural":1865,"Ġpobre":1866,"ington":1867,"Ã©cn":1868,"Ġembajadores":1869,"elebr":1870,"Ġllev":1871,"Ġlucha":1872,"Ġsucurs":1873,"ĠWash":1874,"voluciÃ³n":1875,"ĠInternacional":1876,"Ġaprob":1877,"Ġcausas":1878,"Ġinaugur":1879,"SupervisiÃ³n":1880,"Ġevitar":1881,"guez":1882,"elipe":1883,"ĠWashington":1884,"Ay":1885,"DiÃ¡logo":1886,"abl":1887,"gin":1888,"pan":1889,"ux":1890,"enque":1891,"encias":1892,"cional":1893,"anj":1894,"inar":1895,"Ġevalu":1896,"Ġsido":1897,"adal":1898,"Ġenci":1899,"ĠCÃ¡r":1900,"ĠClaud":1901,"Ã¡m":1902,"Ġnada":1903,"Ġning":1904,"Ġestoy":1905,"Ġpromo":1906,"ĠMa":1907,"ĠMundial":1908,"tades":1909,"imp":1910,"ĠEd":1911,"ĠSembrando":1912,"Ġintel":1913,"Ġintens":1914,"ĠTe":1915,"ĠTij":1916,"irma":1917,"Ġtra":1918,"och":1919,"aju":1920,"quÃ©":1921,"Ġtur":1922,"ĠtÃ©cn":1923,"Ġsucia":1924,"Ġsupervis":1925,"Ġpresupuesto":1926,"Ġpais":1927,"ĠPalenque":1928,"pez":1929,"istad":1930,"Ġamistad":1931,"izaciÃ³n":1932,"Ġconsum":1933,"Ġnosotros":1934,"ĠEsc":1935,"Ġcomprometi":1936,"Ġsociedad":1937,"che":1938,"Ġcoordin":1939,"ĠautÃ©n":1940,"Ġarque":1941,"ĠCalderÃ³n":1942,"Ġgarantiz":1943,"Ġperio":1944,"Ġrelaciones":1945,"Ġmov":1946,"Ġvacunas":1947,"Ġintegrantes":1948,"puÃ©s":1949,"Ġgobiernos":1950,"Ġextranj":1951,"ĠZacatecas":1952,"eremonia":1953,"ĠvÃŃctimas":1954,"Ġdiciembre":1955,"ĠDonald":1956,"ĠCÃ¡rdenas":1957,"ĠTijuana":1958,"Cu":1959,"gers":1960,"mir":1961,"no":1962,"pular":1963,"rim":1964,"tre":1965,"tud":1966,"ticos":1967,"ude":1968,"zos":1969,"Ġra":1970,"Ġdecir":1971,"eric":1972,"Ġlug":1973,"Ġauto":1974,"Ġcora":1975,"anaju":1976,"alÃ¡":1977,"ase":1978,"ati":1979,"Ġcontrol":1980,"ÃŃgen":1981,"Ġnunca":1982,"Ġvez":1983,"Ġfra":1984,"Ġfeder":1985,"ĠrecibÃŃ":1986,"ĠEE":1987,"ĠEp":1988,"ĠSecretar":1989,"ĠAhora":1990,"iles":1991,"Ġinstal":1992,"irus":1993,"ece":1994,"ĠGeneral":1995,"ĠDod":1996,"ĠsupervisiÃ³n":1997,"Ġproblem":1998,"lez":1999,"rantes":2000,"ĠFelipe":2001,"ĠOl":2002,"ĠEstamos":2003,"toral":2004,"Ġcin":2005,"Ġobje":2006,"Ġases":2007,"ĠniÃ±os":2008,"Ã©same":2009,"ĠYunes":2010,"Ġorgan":2011,"ĠRodr":2012,"ĠGuanaju":2013,"Ġperd":2014,"tiliz":2015,"cep":2016,"Ġverda":2017,"ĠCanadÃ¡":2018,"Ġcrisis":2019,"Ġmaestra":2020,"Ġmigrantes":2021,"ĠValle":2022,"Ġinfl":2023,"ĠhistÃ³rico":2024,"Ġconservadores":2025,"Ġsureste":2026,"ĠPeÃ±a":2027,"Ġequipo":2028,"Ġejemplo":2029,"Ġempleos":2030,"Ġregreso":2031,"Ġdistin":2032,"Ġorgullo":2033,"Ġesperanza":2034,"zÃ¡lez":2035,"Trabaj":2036,"onavirus":2037,"ĠGonzÃ¡lez":2038,"ĠBenito":2039,"Ġsucursal":2040,"Ġencima":2041,"Ġlugar":2042,"ĠDodgers":2043,"ĠGuanajuato":2044,"'.":2045,"Felicidades":2046,"Gracias":2047,"Mensaje":2048,"Miren":2049,"Nues":2050,"cu":2051,"eta":2052,"iado":2053,"jalÃ¡":2054,"taciÃ³n":2055,"vi":2056,"vador":2057,"Ġk":2058,"Ġir":2059,"dero":2060,"ende":2061,"eral":2062,"ĠpÃ©same":2063,"ĠaquÃŃ":2064,"anqu":2065,"Ġmor":2066,"Ġsomos":2067,"Ã³pez":2068,"ĠCab":2069,"ĠCruz":2070,"amble":2071,"una":2072,"ator":2073,"ÃŃan":2074,"Ã¡b":2075,"ĠMiren":2076,"Ġhici":2077,"Ġgener":2078,"Ġgusto":2079,"Ġfe":2080,"Ġfel":2081,"Ġdar":2082,"Ġdio":2083,"ĠAp":2084,"Ġinc":2085,"ace":2086,"ech":2087,"usta":2088,"ĠLÃ³pez":2089,"iciones":2090,"iter":2091,"itÃ©":2092,"ĠRam":2093,"igmen":2094,"quier":2095,"ayun":2096,"Ġtend":2097,"ĠVic":2098,"ĠIbar":2099,"ĠHay":2100,"ĠHospit":2101,"Ġjulio":2102,"Ġexp":2103,"ocimiento":2104,"Ġrob":2105,"Ġentrega":2106,"Ġ2019":2107,"venciÃ³n":2108,"Ġtransm":2109,"Ġmedio":2110,"Ġnuev":2111,"ĠregiÃ³n":2112,"cha":2113,"Ġlibre":2114,"âĢľ":2115,"ĠQuer":2116,"ĠGuadal":2117,"ĠArm":2118,"Ġoport":2119,"Ã©ctr":2120,"Ġpetrol":2121,"Ġconvic":2122,"Ġmucha":2123,"Ġmuchos":2124,"ĠMexicana":2125,"Ġmigr":2126,"Ġfortalecer":2127,"icardo":2128,"Ġhospitales":2129,"Ġzona":2130,"Ġprivileg":2131,"ĠsoberanÃŃa":2132,"Ġtriunfo":2133,"Ġresponsabilidad":2134,"ĠprÃ³ximo":2135,"ĠSeguridad":2136,"Ġfundamental":2137,"ĠdecisiÃ³n":2138,"Ġactividades":2139,"ĠinversiÃ³n":2140,"ĠClaudia":2141,"ĠarqueolÃ³g":2142,"ÃŃgenas":2143,"ĠEpigmen":2144,"ĠSecretarÃŃa":2145,"Ġinstalaciones":2146,"Trabajamos":2147,"ĠIbarra":2148,"ĠEpigmenio":2149,"Cas":2150,"Como":2151,"Lo":2152,"Que":2153,"UU":2154,"ger":2155,"hn":2156,"hab":2157,"ies":2158,"iato":2159,"oto":2160,"uimos":2161,"ender":2162,"enaje":2163,"ong":2164,"oner":2165,"argo":2166,"Ġabr":2167,"Ġcelebr":2168,"Ġmuer":2169,"Ġsos":2170,"Ã³cal":2171,"Ġelabor":2172,"atu":2173,"atem":2174,"Ã³nica":2175,"ÃŃst":2176,"ÃŃrez":2177,"Ġnaciones":2178,"Ã©f":2179,"Ã©g":2180,"Ã©tar":2181,"Ã©xico":2182,"Ġprior":2183,"quez":2184,"utla":2185,"ĠPara":2186,"blic":2187,"tapa":2188,"Ġreci":2189,"Ġreafirm":2190,"ĠEPN":2191,"ĠSa":2192,"ĠSi":2193,"ĠAM":2194,"ĠAz":2195,"ĠAle":2196,"ĠAeropuerto":2197,"Ġincl":2198,"ecu":2199,"Ġbusc":2200,"Ġtrat":2201,"itu":2202,"ĠRec":2203,"ĠRÃŃo":2204,"stmo":2205,"ĠDef":2206,"ĠIstmo":2207,"egia":2208,"ĠHermos":2209,"leo":2210,"terior":2211,"Ġampl":2212,"enten":2213,"tuv":2214,"Ġtienen":2215,"Ġtrabajando":2216,"ĠquÃ©":2217,"Ġpopular":2218,"ĠRevoluciÃ³n":2219,"onso":2220,"venir":2221,"Ġmantener":2222,"ĠUnivers":2223,"ĠEnrique":2224,"Ġdirectivos":2225,"Ġgobernadora":2226,"Ġsecretaria":2227,"Ġhumanos":2228,"ativo":2229,"ĠrelaciÃ³n":2230,"Ġdefensa":2231,"Ġcasa":2232,"ĠAcapul":2233,"ĠindÃŃgenas":2234,"Ġtenemos":2235,"Ġtiempos":2236,"depend":2237,"Ġayuda":2238,"ĠMexicano":2239,"202":2240,"Ġprincipal":2241,"ĠmÃ©dicos":2242,"trategia":2243,"Ġhecho":2244,"ĠPotos":2245,"Conversamos":2246,"Ġdiscurso":2247,"Ġcircular":2248,"Ġrecuper":2249,"gradecÃŃ":2250,"ĠÃģngeles":2251,"Ġnatural":2252,"ĠenergÃ©tica":2253,"Ġpatria":2254,"Ġmovimiento":2255,"ĠcorazÃ³n":2256,"ĠRamÃŃrez":2257,"ĠHospital":2258,"ĠQuerÃ©tar":2259,"habil":2260,"Ã³calo":2261,"ĠDefensa":2262,"ĠHermosillo":2263,"ĠAcapulco":2264,"ĠQuerÃ©taro":2265,"As":2266,"Avan":2267,"II":2268,"MÃ©xico":2269,"can":2270,"cÃºn":2271,"gn":2272,"ite":2273,"ieg":2274,"ijo":2275,"ional":2276,"udo":2277,"ves":2278,"Ġdemos":2279,"entir":2280,"Ġagr":2281,"Ġcada":2282,"anci":2283,"Ġmundial":2284,"Ġsan":2285,"rem":2286,"uela":2287,"Ġencon":2288,"icamos":2289,"amo":2290,"amp":2291,"atal":2292,"atiz":2293,"Ġconferencia":2294,"Ġconven":2295,"ÃŃguez":2296,"Ġnorte":2297,"omb":2298,"Ġhor":2299,"utados":2300,"ĠdespuÃ©s":2301,"Ġdomin":2302,"Ġredes":2303,"Ġrehabil":2304,"ĠseÃ±":2305,"ĠSer":2306,"Ġingen":2307,"ĠTambiÃ©n":2308,"ĠTep":2309,"ensiÃ³n":2310,"Ġban":2311,"Ã±as":2312,"Ġtren":2313,"ultos":2314,"icion":2315,"Ġnoti":2316,"Ġnoche":2317,"ĠGr":2318,"ĠGran":2319,"ĠGabinete":2320,"itaciÃ³n":2321,"ĠRicardo":2322,"ĠBoc":2323,"egoci":2324,"Ġof":2325,"Ġacab":2326,"Ġconsulta":2327,"EnCas":2328,"Ġextra":2329,"Ġvivir":2330,"Ġ200":2331,"Ġmedidas":2332,"Ġtel":2333,"Ġtele":2334,"Este":2335,"Ġcreden":2336,"Ġvisitamos":2337,"Ġatend":2338,"ateEnCas":2339,"Ġcomunidad":2340,"Ġpaso":2341,"Ġelecto":2342,"ĠelecciÃ³n":2343,"Ġelecciones":2344,"tillo":2345,"Ġescuch":2346,"Ġ30":2347,"Ã©dateEnCas":2348,"Ġperman":2349,"Ġindustr":2350,"ĠGobern":2351,"Programa":2352,"Ġservicio":2353,"Ġservidores":2354,"ĠÃģl":2355,"Ġhombre":2356,"ĠPrograma":2357,"ĠAsÃŃ":2358,"Ġllamado":2359,"Ġform":2360,"Ġforma":2361,"ĠproducciÃ³n":2362,"Ġprofes":2363,"ermosa":2364,"Ġoficial":2365,"ĠdemocrÃ¡tico":2366,"ConversÃ©":2367,"ĠManuel":2368,"Ġhumanismo":2369,"ubo":2370,"ĠLuctuoso":2371,"ĠJohn":2372,"Ġlograr":2373,"Seguiremos":2374,"Ġmateria":2375,"QuÃ©dateEnCas":2376,"Ġambiente":2377,"ornada":2378,"Ġtarde":2379,"Ġresultados":2380,"Ġlegisladores":2381,"Ġministro":2382,"Ġcarretera":2383,"Ayer":2384,"ĠRodrÃŃguez":2385,"tuvimos":2386,"Ġencontr":2387,"QuÃ©dateEnCasa":2388,"Ap":2389,"Ceremonia":2390,"NE":2391,"Pl":2392,"To":2393,"bor":2394,"bres":2395,"drÃ¡":2396,"fir":2397,"hermosa":2398,"iano":2399,"iores":2400,"jand":2401,"mp":2402,"nidad":2403,"por":2404,"secretar":2405,"tero":2406,"tÃ¡n":2407,"tando":2408,"vÃŃa":2409,"zco":2410,"Ġur":2411,"ĠâĢľ":2412,"esti":2413,"eras":2414,"Ġluego":2415,"cido":2416,"Ġprec":2417,"ĠpacÃŃf":2418,"arnos":2419,"Ġav":2420,"orge":2421,"Ġmon":2422,"ĠmÃŃ":2423,"Ġsoy":2424,"adre":2425,"adres":2426,"adio":2427,"reas":2428,"redo":2429,"ĠCÃ¡m":2430,"unda":2431,"tral":2432,"Ġhij":2433,"Ġgrupo":2434,"Ġfran":2435,"Ġdeseo":2436,"ĠAd":2437,"ĠAquÃŃ":2438,"ĠAbra":2439,"ill":2440,"Ġindepend":2441,"ĠLat":2442,"Ġtranqu":2443,"ĠGracias":2444,"ital":2445,"ĠRos":2446,"dente":2447,"uda":2448,"ĠBar":2449,"ĠJorge":2450,"umbre":2451,"Ġestados":2452,"Ġprogramas":2453,"Ġprogreso":2454,"ĠHu":2455,"rude":2456,"Ġ18":2457,"ĠFernÃ¡ndez":2458,"Ġmilitar":2459,"Ġrecurs":2460,"Ġasamble":2461,"ĠSalinas":2462,"ĠSalvador":2463,"ĠZÃ³calo":2464,"Ġdistrib":2465,"ĠcreaciÃ³n":2466,"Ġorden":2467,"Ġgrandes":2468,"Ġvisita":2469,"âĢĿ":2470,"Ġadultos":2471,"Ġparticipar":2472,"ĠparticipaciÃ³n":2473,"Ġesposa":2474,"Ġhomenaje":2475,"Ġcumplir":2476,"Ġactuar":2477,"Ġmaestro":2478,"Ġvoto":2479,"Ġhospital":2480,"ĠmayorÃŃa":2481,"Ġgratu":2482,"ĠdemocrÃ¡tica":2483,"Ġproyecto":2484,"Ġproyectos":2485,"Ġtriunf":2486,"ĠdifÃŃ":2487,"ĠÃ©l":2488,"Ġpalab":2489,"Ġsubsecretar":2490,"Ġfallecimiento":2491,"ĠPRIAN":2492,"Ġvideo":2493,"ĠMartÃŃn":2494,"ĠCosta":2495,"tructura":2496,"Ġfraude":2497,"Ġasesin":2498,"ĠAlejand":2499,"entenario":2500,"ĠPotosÃŃ":2501,"Ġextraordin":2502,"ĠpacÃŃfica":2503,"Ġrecursos":2504,"ĠAlejandro":2505,"Com":2506,"Garanti":2507,"Las":2508,"Nunca":2509,"TambiÃ©n":2510,"ban":2511,"cel":2512,"cciÃ³n":2513,"cho":2514,"dida":2515,"ian":2516,"iti":2517,"pti":2518,"ticas":2519,"voc":2520,"Ġu":2521,"Ġder":2522,"Ġ\"'":2523,"eso":2524,"estructura":2525,"cito":2526,"ono":2527,"are":2528,"Ġcer":2529,"Ġmom":2530,"alapa":2531,"Ġsismos":2532,"rey":2533,"Ġellos":2534,"acienda":2535,"Ġconmemor":2536,"Ã¡c":2537,"teca":2538,"quel":2539,"ticip":2540,"Ġhe":2541,"Ġhijo":2542,"Ġqued":2543,"ĠPAN":2544,"Ġvuel":2545,"Ġfl":2546,"Ġdestin":2547,"Ġreducir":2548,"imen":2549,"ĠEj":2550,"ĠShe":2551,"ile":2552,"Ġinm":2553,"Ġinund":2554,"ĠTama":2555,"ĠTux":2556,"abr":2557,"ĠLig":2558,"Ġtrad":2559,"Ġtrav":2560,"ĠMÃ©r":2561,"itados":2562,"uestas":2563,"razo":2564,"raestructura":2565,"quis":2566,"umo":2567,"Ġproducir":2568,"ĠHacienda":2569,"Ġ16":2570,"Ġnuestras":2571,"teriores":2572,"Ġapar":2573,"Ġpresidencial":2574,"iba":2575,"Ġcampo":2576,"tores":2577,"ĠEsta":2578,"Ġciento":2579,"Ġsalir":2580,"Ġrecom":2581,"Ġcomprar":2582,"ĠniÃ±as":2583,"Ġapoyar":2584,"ĠYa":2585,"Ġmexicano":2586,"Ġmejores":2587,"Ġpartido":2588,"Ġcartas":2589,"Ġconstruir":2590,"ĠGuatem":2591,"Ġelectoral":2592,"Ġinforme":2593,"Ġfamilia":2594,"Ġinvito":2595,"Ġmayores":2596,"ĠeconÃ³mico":2597,"Ġmargin":2598,"ĠAcuerdo":2599,"Ġlibertades":2600,"Ġiniciamos":2601,"ĠpetrÃ³":2602,"Ġsentim":2603,"ĠCancÃºn":2604,"clus":2605,"Ġganar":2606,"Ġcosas":2607,"ĠaplicaciÃ³n":2608,"ĠNueva":2609,"Ġmunicipio":2610,"Ġmunicipios":2611,"Ġfuerza":2612,"Ġprincipios":2613,"Ġreconocimiento":2614,"Desde":2615,"Ġzonas":2616,"Ġfraternidad":2617,"ĠDesarrollo":2618,"Ġfelicidad":2619,"ĠÃºltimo":2620,"Ġgasolinas":2621,"Ġpronto":2622,"ĠVillahermosa":2623,"Ġuniversal":2624,"Ġquiere":2625,"Ġfondo":2626,"Ġintelig":2627,"Ġpaisanos":2628,"Cuando":2629,"Ġcinco":2630,"2024":2631,"iego":2632,"ĠTepic":2633,"Ġcredenciales":2634,"ĠGobernaciÃ³n":2635,"ĠCÃ¡mara":2636,"ĠGuatemala":2637,"ĠpetrÃ³leo":2638,"Ġsentimientos":2639,"Cons":2640,"FE":2641,"Habl":2642,"Pres":2643,"Para":2644,"Una":2645,"berto":2646,"cr":2647,"cor":2648,"cuentro":2649,"celo":2650,"dremos":2651,"fina":2652,"iales":2653,"jor":2654,"ka":2655,"lim":2656,"lica":2657,"ox":2658,"roc":2659,"reros":2660,"sa":2661,"vio":2662,"deres":2663,"Ġdecid":2664,"cios":2665,"ciendo":2666,"arg":2667,"arias":2668,"Ġatr":2669,"Ġcens":2670,"Ġclas":2671,"Ġlabor":2672,"orre":2673,"Ġmin":2674,"inba":2675,"Ġetapa":2676,"ĠCarr":2677,"ĠCuli":2678,"amentos":2679,"unst":2680,"Ġconc":2681,"Ġconst":2682,"ÃŃos":2683,"Ã¡zar":2684,"Ã¡reas":2685,"Ġestrategia":2686,"isos":2687,"ĠMil":2688,"ĠMonter":2689,"Ġhemos":2690,"Ġhubo":2691,"utu":2692,"dol":2693,"Ġgra":2694,"Ġgabinete":2695,"ĠPl":2696,"ĠPer":2697,"ĠPed":2698,"Ġvir":2699,"Ġvoy":2700,"Ġvidas":2701,"Ġfoto":2702,"tag":2703,"Ġdesaf":2704,"Ġdim":2705,"Ġrepu":2706,"ola":2707,"oliv":2708,"olog":2709,"uracÃ¡n":2710,"Ġintern":2711,"taron":2712,"ĠTex":2713,"ĠTrude":2714,"Ġporvenir":2715,"eca":2716,"Ġbaj":2717,"ĠbÃ¡s":2718,"iciamos":2719,"ĠRu":2720,"Ã¡nd":2721,"ĠJa":2722,"umento":2723,"ĠDos":2724,"ĠDan":2725,"Ġtu":2726,"ĠINE":2727,"Ġotro":2728,"Ġoper":2729,"Ġactos":2730,"Ġpresa":2731,"Ġ14":2732,"ĠFr":2733,"ĠFue":2734,"ĠFeder":2735,"Ġ21":2736,"Ġconstitu":2737,"Ġdip":2738,"ibe":2739,"Ġexpl":2740,"Ġexcep":2741,"Ġren":2742,"ĠInd":2743,"ĠIns":2744,"ĠMarcelo":2745,"Ġrecorr":2746,"ĠMeade":2747,"Ġanti":2748,"ordamos":2749,"Ġasuntos":2750,"Ġtema":2751,"Estoy":2752,"Ġdisentir":2753,"Ġcarta":2754,"Ġencab":2755,"Ġarte":2756,"Ġgrande":2757,"Ġvisit":2758,"Ġbuenas":2759,"tinu":2760,"Ġfalta":2761,"Ġabas":2762,"Ġabrazo":2763,"Ġadvers":2764,"Ġinteres":2765,"Ġvacuna":2766,"Ġinicio":2767,"Ġtengo":2768,"Ġconvertir":2769,"Informe":2770,"Ġsentido":2771,"olver":2772,"Ġactual":2773,"Ġllegar":2774,"Ġpesar":2775,"ĠProgramas":2776,"Ġcombusti":2777,"Ġdirigentes":2778,"ĠTodos":2779,"Ġejemplar":2780,"itorio":2781,"Ġcircunst":2782,"ĠrecuperaciÃ³n":2783,"ĠAlfredo":2784,"Ġhablamos":2785,"Ġdeporte":2786,"...":2787,"Ġdignidad":2788,"ĠDelfina":2789,"ĠentregÃ³":2790,"Ġgasolina":2791,"ĠPresidencia":2792,"ĠZapata":2793,"Ġpobreza":2794,"ĠtÃ©cnicos":2795,"Ġproblema":2796,"Ġoportun":2797,"Ġpetrolera":2798,"Ġnaturaleza":2799,"Ġhoras":2800,"Ġtelef":2801,"ĠSheinba":2802,"ĠtravÃ©s":2803,"ĠMÃ©rida":2804,"ĠCuliacÃ¡n":2805,"ĠMonterrey":2806,"Ġrepublic":2807,"ĠTrudeau":2808,"ĠSheinbaum":2809,"),":2810,"17":2811,"Am":2812,"Evalu":2813,"Hay":2814,"Nada":2815,"Sin":2816,"Seg":2817,"bro":2818,"car":2819,"dico":2820,"dido":2821,"ej":2822,"fuer":2823,"iero":2824,"iera":2825,"iÃ±o":2826,"ke":2827,"ler":2828,"minis":2829,"nif":2830,"nimo":2831,"ris":2832,"tado":2833,"tora":2834,"tada":2835,"vil":2836,"zan":2837,"Ġfer":2838,"ĠÃºn":2839,"Ġdeten":2840,"ĠlÃŃ":2841,"onos":2842,"Ġpu":2843,"Ġpoco":2844,"Ġagrade":2845,"ĠagradecÃŃ":2846,"orm":2847,"Ġmem":2848,"Ġmutu":2849,"incid":2850,"Ġsiste":2851,"Ġyo":2852,"rea":2853,"reg":2854,"real":2855,"Ġelem":2856,"ical":2857,"ĠCFE":2858,"unci":2859,"atit":2860,"atlÃ¡n":2861,"Ġcond":2862,"Ġne":2863,"Ġesa":2864,"Ġesfuer":2865,"Ġher":2866,"Ġharemos":2867,"uta":2868,"Ġgl":2869,"ĠPon":2870,"ĠPas":2871,"Ġve":2872,"Ġvoc":2873,"Ġvice":2874,"taÃ±a":2875,"Ġdesayun":2876,"Ġda":2877,"Ġdic":2878,"Ġreco":2879,"Ġreforma":2880,"ĠEcon":2881,"ĠEbr":2882,"ĠSu":2883,"ĠSil":2884,"ĠSierra":2885,"obern":2886,"resp":2887,"Ġincon":2888,"ĠNi":2889,"ĠNorte":2890,"aban":2891,"ustin":2892,"usias":2893,"ĠLÃ¡zar":2894,"Ġalim":2895,"Ġalegr":2896,"uca":2897,"oyo":2898,"ĠRaf":2899,"uestos":2900,"uestra":2901,"ajara":2902,"ĠIz":2903,"ĠIgn":2904,"ĠHo":2905,"Ġacciones":2906,"Ġacep":2907,"ĠFin":2908,"ĠFuer":2909,"presiden":2910,"Ġconsegu":2911,"Entre":2912,"ÃŃso":2913,"entÃŃf":2914,"Ġempe":2915,"Ġexterior":2916,"ĠChong":2917,"Ġentusias":2918,"Ġcoronavirus":2919,"Ġcorresp":2920,"ĠcientÃŃf":2921,"Ġpodemos":2922,"apar":2923,"apan":2924,"Ġentrev":2925,"Ġvivien":2926,"Ġcuar":2927,"ĠMejor":2928,"Ġaniversario":2929,"plÃ©n":2930,"Ġllena":2931,"ĠpolÃŃtico":2932,"Ġestable":2933,"Ġmedi":2934,"Ġcompromisos":2935,"ĠSala":2936,"Ġdisp":2937,"Ġempresas":2938,"Ġcrear":2939,"Ġorig":2940,"ÃŃnimo":2941,"ieto":2942,"Ġconstruyendo":2943,"Ġart":2944,"Ġbuenos":2945,"Ġpasado":2946,"ĠMoreno":2947,"ĠCaribe":2948,"Ġfallar":2949,"Ġfamilias":2950,"Ġhumil":2951,"Ġculturas":2952,"Ãģnimo":2953,"Ġhaber":2954,"erramos":2955,"Ġsignif":2956,"ĠCongreso":2957,"Ġplantas":2958,"ĠganÃ³":2959,"Ġhaciendo":2960,"varez":2961,"Ġvotos":2962,"Ġllevar":2963,"Ġcombate":2964,"Ġfueron":2965,"ĠacompaÃ±aron":2966,"Ġideales":2967,"ĠmÃ©dico":2968,"ÃŃcul":2969,"ercer":2970,"ercera":2971,"ĠpensiÃ³n":2972,"ĠInternet":2973,"Ġfraterna":2974,"Ġpermite":2975,"Ġpermitir":2976,"ĠMontaÃ±a":2977,"Ġavance":2978,"ĠLucÃŃa":2979,"Seguimos":2980,"otz":2981,"ĠAlfonso":2982,"ĠcompaÃ±ero":2983,"ĠPaz":2984,"Ġrescate":2985,"ulipas":2986,"ĠTratado":2987,"Ġtemas":2988,"Ġimpulsar":2989,"Ġcualquier":2990,"Ġextranjero":2991,"atiquÃ©":2992,"Ġcontrolar":2993,"Nuestro":2994,"Ġkil":2995,"atorio":2996,"Ġfeliz":2997,"Ġrobar":2998,"Ã©ctrica":2999,"Ġdemostr":3000,"ĠrehabilitaciÃ³n":3001,"Ġnoticia":3002,"ĠBocas":3003,"ĠtelÃ©f":3004,"Ġindustria":3005,"Ġprofesional":3006,"Ġurbano":3007,"Ġtranquilidad":3008,"Ġasamblea":3009,"ĠdistribuciÃ³n":3010,"ĠMartÃŃnez":3011,"ptiembre":3012,"ĠTamaulipas":3013,"abriel":3014,"Ġabasto":3015,"ministr":3016,"ĠEbrard":3017,"ĠLÃ¡zaro":3018,"ĠIgnacio":3019,").":3020,"Mi":3021,"Man":3022,"NU":3023,"Prim":3024,"Sig":3025,"ael":3026,"ait":3027,"agr":3028,"dp":3029,"dan":3030,"fic":3031,"gÃ³n":3032,"gamos":3033,"iantes":3034,"pes":3035,"rar":3036,"tam":3037,"ufici":3038,"Ġarr":3039,"ĠÃ¡r":3040,"enz":3041,"enado":3042,"encio":3043,"osufici":3044,"erÃŃas":3045,"cipl":3046,"Ġaquel":3047,"Ġcero":3048,"ancias":3049,"alco":3050,"inc":3051,"ind":3052,"Ġet":3053,"Ġsac":3054,"Ġsum":3055,"Ġsiendo":3056,"Ġsitu":3057,"Ã³p":3058,"Ã³cr":3059,"uegos":3060,"Ġenfer":3061,"Ġello":3062,"icamentos":3063,"uncia":3064,"uniden":3065,"acia":3066,"acidad":3067,"atro":3068,"trucciÃ³n":3069,"truyendo":3070,"Ġnaci":3071,"ĠesplÃ©n":3072,"iscal":3073,"ĠMo":3074,"ĠMin":3075,"ĠMac":3076,"ĠMÃ¡r":3077,"omex":3078,"timos":3079,"tirÃ¡":3080,"ĠhuracÃ¡n":3081,"Ġdeleg":3082,"ferencias":3083,"Ġgu":3084,"ĠPT":3085,"ĠPel":3086,"Ġvan":3087,"ĠvÃŃa":3088,"Ġfuturo":3089,"tap":3090,"Ġdesc":3091,"ĠdaÃ±":3092,"Ġdaremos":3093,"olo":3094,"olib":3095,"ime":3096,"Ġseis":3097,"ĠSam":3098,"ĠSegu":3099,"uros":3100,"uras":3101,"emoc":3102,"iliano":3103,"ĠTel":3104,"ĠTerminamos":3105,"ĠTorre":3106,"Ġbe":3107,"Ġbar":3108,"Ġbajo":3109,"Ġtro":3110,"Ġtras":3111,"Ġalto":3112,"Ġalgun":3113,"ell":3114,"icios":3115,"ĠGrupo":3116,"ivel":3117,"ĠRica":3118,"ĠRomo":3119,"ĠRural":3120,"Ġpueden":3121,"ĠBlan":3122,"ĠBoliv":3123,"Ãºa":3124,"ĠJusticia":3125,"ĠJulio":3126,"ĠJustin":3127,"Ġestos":3128,"uertos":3129,"uerdos":3130,"ĠVacun":3131,"ĠIx":3132,"Ġprovoc":3133,"ĠHernÃ¡ndez":3134,"Ġotra":3135,"Ġcompra":3136,"Ġcomple":3137,"rov":3138,"Ġ12":3139,"Ġ13":3140,"ĠFuturo":3141,"entÃ³":3142,"Ġpresidenta":3143,"ĠserÃ¡n":3144,"Ġima":3145,"ĠEsp":3146,"ĠrÃ©g":3147,"Ġsalario":3148,"guas":3149,"huac":3150,"ĠInforme":3151,"ĠMarÃŃas":3152,"turo":3153,"Ġ2020":3154,"venida":3155,"ĠElec":3156,"ĠÂ¿":3157,"Ġmiembr":3158,"ĠdemÃ¡s":3159,"Ġcorrupto":3160,"Ġcorruptos":3161,"avier":3162,"Continu":3163,"Ġmedicamentos":3164,"uyÃ³":3165,"\"\",":3166,"Ġpreferencia":3167,"Ġprecio":3168,"Ġprepar":3169,"Ġrespetar":3170,"Ġdiscipl":3171,"Ġcrecimiento":3172,"ĠAnton":3173,"ĠcariÃ±o":3174,"Ġregal":3175,"Ġregis":3176,"cher":3177,"Ġautosufici":3178,"ĠRogel":3179,"Ġmejorar":3180,"Ã©rcito":3181,"Ġpropuesta":3182,"tadas":3183,"entarÃ¡":3184,"ĠmillÃ³n":3185,"ĠperiÃ³":3186,"Ġsegundo":3187,"ĠArturo":3188,"Ġfinanci":3189,"licer":3190,"tituto":3191,"Ġmotivo":3192,"ĠhabÃŃa":3193,"Ġdefender":3194,"Ġopin":3195,"Ġcasi":3196,"drÃ©s":3197,"Ġsigu":3198,"Ġestadouniden":3199,"ĠCuau":3200,"Ġterminar":3201,"Ġnecesario":3202,"Ġhombres":3203,"Ġllegamos":3204,"Ġadelan":3205,"Ġcandidatos":3206,"Ġsucul":3207,"Ġinstitu":3208,"ĠacompaÃ±Ã³":3209,"Ġinfraestructura":3210,"Ġideal":3211,"Ġposible":3212,"ĠcanciÃ³n":3213,"Ġespecialistas":3214,"Ġconversamos":3215,"ĠconversaciÃ³n":3216,"Ġhechos":3217,"Ġuso":3218,"Ġavanz":3219,"ĠcompaÃ±ÃŃa":3220,"Ġbelle":3221,"Ġ2022":3222,"Acciones":3223,"Ġqueremos":3224,"Ġcapital":3225,"ĠTratamos":3226,"lÃ¡huac":3227,"Visitamos":3228,"Ġplaza":3229,"Ġmujeres":3230,"ĠIslas":3231,"ĠningÃºn":3232,"ĠEdomex":3233,"Ġtraicion":3234,"ĠautÃ©ntico":3235,"Ġperiod":3236,"Ġperiodo":3237,"Ġorganiz":3238,"Ġhicieron":3239,"ĠVicente":3240,"Ġnuevas":3241,"ĠGuadalajara":3242,"Ġmigratorio":3243,"Ġprivilegios":3244,"ÃŃstico":3245,"ecutivo":3246,"ĠUniversidad":3247,"ĠSerie":3248,"ĠÃģlvarez":3249,"PlatiquÃ©":3250,"Ġasesinato":3251,"Ġutiliz":3252,"HablÃ©":3253,"ĠdimensiÃ³n":3254,"ologÃŃa":3255,"ĠDaniel":3256,"ĠInstituto":3257,"Ġencabez":3258,"Ġcircunstancias":3259,"Ġrepublicana":3260,"EvaluaciÃ³n":3261,"incidimos":3262,"Ġelementos":3263,"Ġcondiciones":3264,"Ġneolib":3265,"Ġvicepresiden":3266,"ĠalegrÃŃa":3267,"ĠRafael":3268,"Ġconseguir":3269,"Ġentrevist":3270,"ĠSalazar":3271,"ĠtelÃ©fono":3272,"ĠÃ¡rbol":3273,"ĠMÃ¡rquez":3274,"ĠBolivia":3275,"ĠVacunaciÃ³n":3276,"ĠrÃ©gimen":3277,"Ġmiembros":3278,"ĠRogelio":3279,"Ġneoliberal":3280,"%,":3281,"Aten":3282,"Ahora":3283,"Can":3284,"Cerramos":3285,"Hace":3286,"OjalÃ¡":3287,"Quer":3288,"cer":3289,"ecimiento":3290,"gent":3291,"ht":3292,"jes":3293,"mas":3294,"ques":3295,"ron":3296,"tÃŃa":3297,"upe":3298,"vamos":3299,"Ġer":3300,"deb":3301,"Ġdec":3302,"Ġden":3303,"enas":3304,"erre":3305,"Ġlimp":3306,"cimos":3307,"Ġpaci":3308,"Ġpuntos":3309,"Ġpadres":3310,"ardo":3311,"arÃŃa":3312,"arlos":3313,"arial":3314,"Ġah":3315,"ĠaÃºn":3316,"Ġagen":3317,"Ġcrec":3318,"ork":3319,"anas":3320,"anca":3321,"ĠmÃŃnimo":3322,"Ġmdp":3323,"Ġsue":3324,"Ġsim":3325,"ĠelÃ©ctrica":3326,"ices":3327,"icÃ³p":3328,"ĠCultur":3329,"ĠCumbre":3330,"amala":3331,"amientos":3332,"americ":3333,"uncio":3334,"atura":3335,"Ġcong":3336,"Ġconoci":3337,"Ġnegoci":3338,"isc":3339,"isp":3340,"istos":3341,"omp":3342,"omiso":3343,"Ġho":3344,"Ġhel":3345,"ĠharÃ¡":3346,"Ġhip":3347,"inapa":3348,"Ġgen":3349,"Ġgrup":3350,"Ġgracias":3351,"ĠPero":3352,"Ġfom":3353,"tac":3354,"table":3355,"Ġdon":3356,"Ġreac":3357,"oles":3358,"Ġseptiembre":3359,"ĠEU":3360,"ĠSig":3361,"ĠSÃ¡n":3362,"ĠSoci":3363,"ĠSenado":3364,"ĠAgua":3365,"urr":3366,"ilat":3367,"Ġinj":3368,"Ġindependencia":3369,"ĠNunca":3370,"ĠTul":3371,"abrÃ¡":3372,"use":3373,"Ġbate":3374,"Ġbecas":3375,"Ġtramo":3376,"Ġalma":3377,"ĠallÃ¡":3378,"Ġalcan":3379,"elaciones":3380,"ĠGÃ³m":3381,"ĠGabriel":3382,"itlÃ¡huac":3383,"ivo":3384,"ĠRelaciones":3385,"ĠBiden":3386,"Ãºan":3387,"ĠJim":3388,"ĠJavier":3389,"umental":3390,"ĠDuar":3391,"ĠDiÃ¡logo":3392,"ĠDiego":3393,"ĠDemoc":3394,"Ġterr":3395,"Ġtuve":3396,"ĠVel":3397,"ĠIgu":3398,"Ġsup":3399,"ĠHarr":3400,"Ġjus":3401,"Ġjusta":3402,"Ġjornada":3403,"ĠacciÃ³n":3404,"Ġpresentamos":3405,"Ġpade":3406,"rop":3407,"Ġ11":3408,"Ġ17":3409,"ĠFern":3410,"Ġapos":3411,"dern":3412,"Ġdije":3413,"entan":3414,"entaciÃ³n":3415,"ĠONU":3416,"ibr":3417,"Ġcampes":3418,"ĠEstuvimos":3419,"ĠChapul":3420,"ĠEste":3421,"ĠEspaÃ±a":3422,"ĠEstoy":3423,"Ġrique":3424,"Ġobreros":3425,"ĠLagun":3426,"ĠTrabaj":3427,"itaria":3428,"ĠAlberto":3429,"uye":3430,"Ġfrut":3431,"ĠEnerg":3432,"Ġpregun":3433,"ĠSalina":3434,"Ġmexicana":3435,"ĠAnaya":3436,"biÃ³":3437,"Ġpartir":3438,"chez":3439,"Ġartes":3440,"Ġbienvenida":3441,"lares":3442,"ĠQue":3443,"Ġpersona":3444,"Ġpasamos":3445,"ĠpasiÃ³n":3446,"Ġdejaremos":3447,"ĠConsulta":3448,"ĠConstruyendo":3449,"tilla":3450,"Ġinformar":3451,"Ġabajo":3452,"Ġinvertir":3453,"Ġfinales":3454,"Ġadmir":3455,"Ġrelig":3456,"Â»,":3457,"Ġejer":3458,"Ġdefin":3459,"Ġmarzo":3460,"Ġmarcha":3461,"ĠvacunaciÃ³n":3462,"Ġ50":3463,"Ġ500":3464,"Ġsigue":3465,"Ġservir":3466,"Ġautoritar":3467,"ĠCuitlÃ¡huac":3468,"Ġterminamos":3469,"Ġcambia":3470,"elebro":3471,"ĠcumpliÃ³":3472,"Ġactuando":3473,"Ġ\"Â«":3474,"Ġsaber":3475,"ĠCoordin":3476,"Ġintegral":3477,"Ġplur":3478,"Ġllamada":3479,"Ġmunicipales":3480,"ĠenviÃ³":3481,"ĠKamala":3482,"Ġprofundo":3483,"Ġdirigente":3484,"ĠDesde":3485,"Ġrecordar":3486,"Ġrecordamos":3487,"ĠinauguraciÃ³n":3488,"Ġuste":3489,"Ġponer":3490,"ĠtodavÃŃa":3491,"Ġempleo":3492,"ciliaciÃ³n":3493,"ĠAyotz":3494,"ĠÃºltima":3495,"Ġtanto":3496,"Ġrescatar":3497,"Ġdocumental":3498,"Ġdedicado":3499,"Ġcontinuar":3500,"Ġhermanos":3501,"ĠExteriores":3502,"Ġestudiantes":3503,"egram":3504,"Ġquieren":3505,"Ġmandato":3506,"ĠPresidente":3507,"ĠCastillo":3508,"ĠEmiliano":3509,"ĠUrbano":3510,"Ġaumentar":3511,"Ġjefa":3512,"ĠevaluaciÃ³n":3513,"Ġninguna":3514,"Ġgarantizado":3515,"Ġfederal":3516,"Ġobjetivo":3517,"Ġverdadero":3518,"ĠtendrÃ¡":3519,"ĠconvicciÃ³n":3520,"Ġconvicciones":3521,"Ġabril":3522,"Ġmuerte":3523,"Ġelaborar":3524,"Ġprioridad":3525,"ĠParaÃŃso":3526,"AsÃŃ":3527,"Avanzamos":3528,"Ġacabar":3529,"Ġatendiendo":3530,"Ġpermanente":3531,"Ġhijos":3532,"ĠAbrazo":3533,"Ġpalabras":3534,"Ġsubsecretario":3535,"Garantizamos":3536,"ĠTuxtla":3537,"Ġinteligente":3538,"ĠatrÃ¡s":3539,"Ġclases":3540,"Ġgrave":3541,"ĠJaime":3542,"ĠFronter":3543,"Ġintereses":3544,"Ġcombustibles":3545,"Ġoportunidades":3546,"ĠlÃŃder":3547,"Ġmemoria":3548,"Ġsistema":3549,"atitlÃ¡n":3550,"Ġinconclus":3551,"ĠMejoramiento":3552,"Ġsignifica":3553,"ĠsituaciÃ³n":3554,"ĠMinatitlÃ¡n":3555,"ĠPellicer":3556,"ĠTelegram":3557,"ĠAntonio":3558,"Ġautosuficiencia":3559,"ĠperiÃ³dico":3560,"ĠCuauh":3561,"Ġvicepresidenta":3562,"Queremos":3563,"Ġagenda":3564,"americanos":3565,"ĠhelicÃ³p":3566,"Ġgrupos":3567,"ĠSÃ¡nchez":3568,"ĠGÃ³mez":3569,"ĠDuarte":3570,"ĠHarris":3571,"Ġcampesinos":3572,"ĠChapultepec":3573,"Ġriqueza":3574,"ĠAyotzinapa":3575,"11":3576,"30":3577,"50":3578,"85":3579,":\"":3580,"AdemÃ¡s":3581,"Aunque":3582,"CE":3583,"EP":3584,"Fue":3585,"Imp":3586,"Le":3587,"MaÃ±ana":3588,"Ni":3589,"Rec":3590,"Sal":3591,"VA":3592,"autla":3593,"bas":3594,"cn":3595,"di":3596,"eamos":3597,"etros":3598,"file":3599,"gm":3600,"gaciÃ³n":3601,"gado":3602,"hib":3603,"ix":3604,"iam":3605,"iÃ©":3606,"icia":3607,"lor":3608,"leg":3609,"moc":3610,"mula":3611,"pul":3612,"ros":3613,"rist":3614,"roso":3615,"sun":3616,"smo":3617,"tic":3618,"vÃ¡n":3619,"Ã¼":3620,"Ġbl":3621,"ĠÃ³r":3622,"del":3623,"enÃ³m":3624,"esiÃ³n":3625,"ercio":3626,"Ġlu":3627,"Ġlunes":3628,"onÃŃa":3629,"Ġpin":3630,"Ġpoc":3631,"ĠpÃ©r":3632,"Ġpuerto":3633,"arp":3634,"arse":3635,"Ġati":3636,"Ġatra":3637,"Ġcat":3638,"Ġcues":3639,"oro":3640,"anda":3641,"Ġmensa":3642,"Ġmiren":3643,"ald":3644,"all":3645,"alo":3646,"inaciÃ³n":3647,"Ġsierra":3648,"Ã³l":3649,"Ã³lo":3650,"Ã³lares":3651,"adamente":3652,"reto":3653,"icaciones":3654,"icentro":3655,"icomiso":3656,"amÃ¡s":3657,"acios":3658,"acismo":3659,"atz":3660,"aticamos":3661,"Ġcontrat":3662,"Ġcontag":3663,"ÃŃda":3664,"Ġnivel":3665,"Ã©ro":3666,"Ã©rez":3667,"Ã©rea":3668,"ĠprÃ¡c":3669,"tia":3670,"tiz":3671,"titud":3672,"Ġham":3673,"uth":3674,"Ġguar":3675,"Ġgaran":3676,"ĠPÃ©rez":3677,"Ġvia":3678,"Ġvarios":3679,"Ġveces":3680,"Ġfil":3681,"Ġfru":3682,"ĠfenÃ³m":3683,"Ġdesp":3684,"Ġdesapar":3685,"Ġdimos":3686,"Ġdice":3687,"ĠdÃ³lares":3688,"Ġreal":3689,"Ġretr":3690,"Ġunos":3691,"Ġunidad":3692,"ĠEr":3693,"ĠEduc":3694,"ĠSando":3695,"ĠAg":3696,"ĠAh":3697,"ilo":3698,"ilpan":3699,"ientras":3700,"Ġinten":3701,"ĠNaciÃ³n":3702,"ĠNatal":3703,"ĠNieto":3704,"tarÃ¡":3705,"ĠTierra":3706,"uston":3707,"useo":3708,"Ġbend":3709,"Ġbase":3710,"Ġbilat":3711,"ĠLas":3712,"Ġtrata":3713,"Ġalum":3714,"Ġalgo":3715,"icimos":3716,"icidad":3717,"Ġnovi":3718,"iten":3719,"itantes":3720,"ĠRob":3721,"denes":3722,"Ġpuedes":3723,"ĠBa":3724,"ĠBern":3725,"oche":3726,"Ġtoma":3727,"ayo":3728,"Ġtor":3729,"Ġtener":3730,"ega":3731,"Ġsuper":3732,"Ġprotes":3733,"Ġprodu":3734,"ĠHel":3735,"ĠHabl":3736,"ĠHarp":3737,"ĠHicimos":3738,"Ġjunto":3739,"Ġotor":3740,"Ġacuerdos":3741,"idente":3742,"ped":3743,"recht":3744,"teros":3745,"Ġ24":3746,"Ġamistos":3747,"izar":3748,"Encuentro":3749,"ĠdiÃ©s":3750,"entando":3751,"ĠEstÃ¡n":3752,"condido":3753,"antepec":3754,"tenemos":3755,"ĠUna":3756,"ĠEscondido":3757,"Ġciencia":3758,"ĠrÃŃo":3759,"Ġracismo":3760,"Ġimpos":3761,"Ġpoeta":3762,"uena":3763,"arriles":3764,"ĠInf":3765,"Ġcuid":3766,"Ġcuatro":3767,"Ġmanif":3768,"Ġmanejo":3769,"ĠpolÃŃticas":3770,"Ġestabl":3771,"ĠpÃºblicas":3772,"undir":3773,"Ġsold":3774,"ĠAlem":3775,"Ġfrente":3776,"ideicomiso":3777,"ĠYork":3778,"Ġtecn":3779,"Ġprefer":3780,"Ġprecios":3781,"Esta":3782,"uelas":3783,"Ġprimeros":3784,"ducciÃ³n":3785,"Ġpartidos":3786,"Ġcargo":3787,"Ã³metros":3788,"Ġlibres":3789,"Ġperse":3790,"ĠCarmen":3791,"ĠinformÃ³":3792,"Ġinformando":3793,"pervisamos":3794,"Inaugur":3795,"Ġdeber":3796,"Ġdebemos":3797,"ĠsegÃºn":3798,"Ġsegunda":3799,"Ġabier":3800,"Ġdosis":3801,"Ã³rmula":3802,"Ġrelaj":3803,"ĠintervenciÃ³n":3804,"Ġhonesto":3805,"Ġhonestos":3806,"Ġdefens":3807,"ĠopciÃ³n":3808,"Ġcaso":3809,"Ġcasti":3810,"Ġdoble":3811,"Ġequil":3812,"Inicio":3813,"gresos":3814,"Ġsenador":3815,"ĠComercio":3816,"Ġrespuesta":3817,"ĠFrancia":3818,"ĠCuba":3819,"Ġplanta":3820,"Ġmuchas":3821,"Ġnecesitados":3822,"ĠcrÃŃ":3823,"Ġganaremos":3824,"ĠseguirÃ¡":3825,"Ġ60":3826,"Ġ\"Â¿":3827,"Ġcosta":3828,"Ġaplicar":3829,"ĠCoincidimos":3830,"ĠProte":3831,"Ġ2017":3832,"ĠexpresÃ³":3833,"ĠProyec":3834,"Ġfortalecimiento":3835,"ĠAstros":3836,"Ġenviado":3837,"ĠestarÃ¡":3838,"Ġventa":3839,"ionado":3840,"ĠreconciliaciÃ³n":3841,"ĠhistÃ³rica":3842,"Ġafecto":3843,"Ġafectados":3844,"ĠrefinerÃŃas":3845,"Ġcalific":3846,"ĠenergÃŃa":3847,"Ġoficina":3848,"ĠTodo":3849,"Ġequipos":3850,"Ġcausa":3851,"ĠManzan":3852,"Ġescrit":3853,"Ġescrib":3854,"Ġpone":3855,"Ġepicentro":3856,"ĠMonreal":3857,"Ante":3858,"ĠAyer":3859,"Ġdifundir":3860,"blemente":3861,"Ġdistancia":3862,"afirmamos":3863,"gradecemos":3864,"Ġorgullos":3865,"Ġcolon":3866,"Ġdoctor":3867,"posiciÃ³n":3868,"Ġquerido":3869,"tÃ©moc":3870,"Ġreporte":3871,"Ġestudio":3872,"Ġhonor":3873,"Ġvaler":3874,"ĠDÃŃaz":3875,"ĠZapo":3876,"Ġembajadoras":3877,"Visita":3878,"Ġjefe":3879,"ĠaprobÃ³":3880,"Ġinaugurar":3881,"Ġevaluamos":3882,"Ġpromov":3883,"Ġsupervisamos":3884,"mirante":3885,"Ġfederales":3886,"Ġmoral":3887,"Ġhicimos":3888,"ĠgeneraciÃ³n":3889,"Ġnuevos":3890,"ĠGuadalupe":3891,"ĠArmada":3892,"ĠarqueolÃ³gicas":3893,"Ġtratamos":3894,"remio":3895,"atalla":3896,"Ġdomingo":3897,"Ġprecandid":3898,"ĠAdÃ¡n":3899,"Ġindependientes":3900,"ĠLatina":3901,"ĠBarb":3902,"Ġmilitares":3903,"ĠdifÃŃcil":3904,"Ġextraordinaria":3905,"Ġmomento":3906,"ĠEjÃ©rcito":3907,"Ġinundaciones":3908,"Ġrecomend":3909,"ĠCarrillo":3910,"ĠPedro":3911,"ĠbÃ¡sicos":3912,"ĠRuiz":3913,"Ġdiputados":3914,"ĠHouston":3915,"Ġentusiasmo":3916,"Ġorigin":3917,"ĠkilÃ³metros":3918,"Ġarriba":3919,"Ġetc":3920,"ĠSamsun":3921,"Ġbeisbol":3922,"Ġalgunos":3923,"Continuamos":3924,"Ġbelleza":3925,"ĠÃ¡rboles":3926,"debrecht":3927,"Ġreactiv":3928,"Ġjustas":3929,"ĠFernando":3930,"ĠLaguna":3931,"ĠTrabajo":3932,"ĠEnergÃŃa":3933,"Ġautoritarismo":3934,"Ġpluralidad":3935,"ĠFrontera":3936,"ĠCuauhtÃ©moc":3937,"ĠÃ³rdenes":3938,"Ġmensajes":3939,"Ġfruto":3940,"ĠSandoval":3941,"ĠNatalicio":3942,"Ġnoviembre":3943,"ĠdiÃ©sel":3944,"ĠSamsung":3945,"25":3946,"CA":3947,"Celebro":3948,"EPN":3949,"Gobern":3950,"LO":3951,"PR":3952,"Par":3953,"Pas":3954,"Sos":3955,"Somos":3956,"Termin":3957,"ables":3958,"coco":3959,"dio":3960,"dial":3961,"ficar":3962,"ham":3963,"ider":3964,"iÃ©n":3965,"iez":3966,"jar":3967,"mul":3968,"mada":3969,"ni":3970,"nas":3971,"pir":3972,"para":3973,"sen":3974,"sumo":3975,"ska":3976,"tÃ³n":3977,"taciones":3978,"tÃ¡reas":3979,"uÃ±o":3980,"vel":3981,"vez":3982,"ya":3983,"yn":3984,"yo":3985,"zqu":3986,"zones":3987,"Ãī":3988,"Ġ\"\"\"":3989,"esp":3990,"esta":3991,"Ġlig":3992,"Ġlargo":3993,"ciden":3994,"cidos":3995,"ciles":3996,"Ġpen":3997,"Ġpend":3998,"Ġped":3999,"Ġpelo":4000,"Ġpuertos":4001,"arme":4002,"Ġcen":4003,"ĠcÃŃ":4004,"Ġcerr":4005,"ania":4006,"anÃŃas":4007,"Ġmos":4008,"alc":4009,"alda":4010,"altad":4011,"alcos":4012,"Ġsana":4013,"Ġsismo":4014,"Ġsimp":4015,"Ã³st":4016,"red":4017,"rel":4018,"uev":4019,"Ġenero":4020,"Ġense":4021,"Ġella":4022,"icantes":4023,"icentenario":4024,"ĠCl":4025,"ĠCiv":4026,"ĠCona":4027,"ĠCentro":4028,"amÃ©rica":4029,"unicaciones":4030,"atoria":4031,"Ġconci":4032,"Ġcontrib":4033,"Ã³nimo":4034,"ÃŃz":4035,"ÃŃmp":4036,"Ã¡l":4037,"Ã¡tico":4038,"teles":4039,"Ġnerv":4040,"Ġesto":4041,"Ġprob":4042,"ĠMat":4043,"ĠMoc":4044,"omul":4045,"omÃ¡n":4046,"tiÃ³":4047,"tiÃ©r":4048,"tiendo":4049,"Ġhu":4050,"Ġhice":4051,"ĠhÃ¡b":4052,"idor":4053,"ĠPan":4054,"ĠPie":4055,"ĠPÃºblica":4056,"ĠPacÃŃf":4057,"Ġvolv":4058,"Ġvean":4059,"Ġfirma":4060,"ĠfÃ³rmula":4061,"Ġdestac":4062,"Ġdue":4063,"Ġdom":4064,"ĠdarÃ¡":4065,"Ġrevis":4066,"Ġrevol":4067,"ole":4068,"ĠSte":4069,"ĠSol":4070,"ĠSlim":4071,"ĠAug":4072,"ĠAÃ±o":4073,"ema":4074,"Ġcomis":4075,"Ġcomida":4076,"ĠNuÃ±o":4077,"ack":4078,"act":4079,"acul":4080,"ĠTec":4081,"ĠTÃº":4082,"ĠTula":4083,"ĠTati":4084,"Ġporfir":4085,"irÃ¡":4086,"irnos":4087,"irtiendo":4088,"ectu":4089,"echos":4090,"Ġben":4091,"Ġbus":4092,"Ġbarriles":4093,"ĠLÃŃ":4094,"ĠLib":4095,"ĠLinar":4096,"ĠLare":4097,"Ġtraf":4098,"Ġalmirante":4099,"itan":4100,"itero":4101,"ĠBon":4102,"ĠBel":4103,"idados":4104,"ĠJornada":4105,"ĠDN":4106,"ĠDom":4107,"Ġtuvimos":4108,"Ġtercera":4109,"ĠVen":4110,"ĠVir":4111,"ĠVean":4112,"eguridad":4113,"Ġsufici":4114,"Ġsufr":4115,"erse":4116,"ĠHue":4117,"ĠHist":4118,"ĠHond":4119,"ĠHabrÃ¡":4120,"Ġjo":4121,"Ġjun":4122,"Ġjug":4123,"Ġjard":4124,"formas":4125,"trop":4126,"Ġpresum":4127,"levamos":4128,"ĠFelicidades":4129,"ĠFox":4130,"teras":4131,"Ġresis":4132,"Ġresolver":4133,"iza":4134,"izado":4135,"pera":4136,"Ġconsci":4137,"Ġdiez":4138,"entado":4139,"ĠOro":4140,"ĠOjalÃ¡":4141,"ĠOdebrecht":4142,"ĠserÃŃa":4143,"tual":4144,"ibilidad":4145,"Ġcampe":4146,"Ġexper":4147,"ĠEstadio":4148,"consumo":4149,"toria":4150,"ieros":4151,"Ġtrabajos":4152,"ĠUNA":4153,"ĠEsto":4154,"Ġcordial":4155,"Ġrat":4156,"Ġrum":4157,"Ġries":4158,"Ġsaliendo":4159,"Ġimponer":4160,"Ġimpuestos":4161,"Ġpodr":4162,"Ġentregar":4163,"huantepec":4164,"anse":4165,"ĠRev":4166,"ĠReino":4167,"Ġviva":4168,"Ġviven":4169,"Ġtranspar":4170,"Ġgobernar":4171,"Ġreuniones":4172,"Ġsinc":4173,"plom":4174,"plica":4175,"brero":4176,"ordÃ©":4177,"ĠpolÃŃticos":4178,"Ġestaba":4179,"Ġapoya":4180,"Ġapoyos":4181,"Ġapoyando":4182,"Ġsolici":4183,"Conmemor":4184,"Ġmedal":4185,"Ġmedia":4186,"Ġmedici":4187,"Ġcompartir":4188,"ĠUnidad":4189,"ĠYo":4190,"Ġrespetuoso":4191,"afÃ©":4192,"Esto":4193,"ĠZona":4194,"Ġsiti":4195,"Recib":4196,"ĠAntes":4197,"Ġencar":4198,"Ġencuestas":4199,"ÃŃnea":4200,"Ġcoin":4201,"Ġarro":4202,"Ġmejoramiento":4203,"frut":4204,"ĠMorena":4205,"Ġdeja":4206,"ĠGutiÃ©r":4207,"Ġmag":4208,"Ġdebate":4209,"Ġescuelas":4210,"Ġseguro":4211,"Ġseguiremos":4212,"Ġinvesti":4213,"iputados":4214,"ativos":4215,"ativas":4216,"ĠArgent":4217,"Ġfinal":4218,"Ġadministr":4219,"Ġmayo":4220,"Ġyaquis":4221,"Ġindisp":4222,"erry":4223,"ĠiniciÃ³":4224,"Ġ80":4225,"Ġdoy":4226,"Ġtengan":4227,"Ġpeque":4228,"Ġconvier":4229,"Ġespacios":4230,"Ġespalda":4231,"Iniciamos":4232,"Ġsenadores":4233,"ĠComunidad":4234,"ĠcaÃŃda":4235,"Ġcost":4236,"ĠaplicarÃ¡":4237,"Ġmaestros":4238,"ĠCoatz":4239,"ĠintegraciÃ³n":4240,"ĠTlapa":4241,"Ġplante":4242,"ĠexpresiÃ³n":4243,"Ġvotar":4244,"Ġfortaleza":4245,"Ġenviar":4246,"Ġinseguridad":4247,"Ġcombat":4248,"ĠKerry":4249,"Ġenfrentando":4250,"Ġproductiva":4251,"ĠMorelia":4252,"Ġeducativa":4253,"Ġideas":4254,"Ġpostura":4255,"ĠhistÃ³ricas":4256,"Desayun":4257,"utop":4258,"Ġconversar":4259,"Ġvoluntades":4260,"Ġpensiones":4261,"Ġcalum":4262,"ĠhectÃ¡reas":4263,"Ġfraterno":4264,"Ġdirigido":4265,"ĠPRD":4266,"Ġescritor":4267,"Ġsembr":4268,"Antes":4269,"Supervisamos":4270,"Ġocurr":4271,"ĠhablÃ©":4272,"Ġmaterial":4273,"Ġrecibieron":4274,"Ġcolec":4275,"Ġproteger":4276,"ĠprotecciÃ³n":4277,"ĠOrtiz":4278,"Ġ2021":4279,"Ġ2023":4280,"Ġolvidar":4281,"Ġolvidados":4282,"ĠentraÃ±":4283,"Ġherman":4284,"Ġuniversidades":4285,"acoalcos":4286,"ĠenergÃ©tico":4287,"Ġtomar":4288,"lamamos":4289,"ginen":4290,"ĠMazo":4291,"Ġintelectu":4292,"ĠTepe":4293,"Ġconsumimos":4294,"Ġcomprometidos":4295,"ĠcoordinaciÃ³n":4296,"Ġextranjera":4297,"Ġproblemas":4298,"ĠOlga":4299,"ĠinflaciÃ³n":4300,"Nuestra":4301,"Ġkm":4302,"Ã¡bado":4303,"Ġfebrero":4304,"Ġtendremos":4305,"Ã©ctricas":4306,"ĠmigraciÃ³n":4307,"Ġprivilegio":4308,"Ġcelebramos":4309,"ĠelaboraciÃ³n":4310,"ĠSiempre":4311,"III":4312,"Ġingenieros":4313,"Ġbandera":4314,"Ġtrenes":4315,"ĠGrito":4316,"ĠGrandes":4317,"Ġofrec":4318,"Ġescuchar":4319,"Ġindependiente":4320,"ĠLatino":4321,"ĠRosario":4322,"âĢĿ.":4323,"Ġgratuita":4324,"ĠdifÃŃciles":4325,"Ġcerca":4326,"ĠLigas":4327,"Ġmarginadas":4328,"coronavirus":4329,"dolfo":4330,"Ġvirtud":4331,"ĠTexcoco":4332,"Ã¡ndonos":4333,"ĠFederal":4334,"Ġconstitucional":4335,"Ġexcepcional":4336,"ĠvisitÃ³":4337,"Ġadversidades":4338,"Amor":4339,"ĠÃºnico":4340,"ĠdetendrÃ¡":4341,"ĠPaso":4342,"Ġrecoger":4343,"ĠIztap":4344,"Ġcorresponde":4345,"ĠcientÃŃficos":4346,"Ġvivienda":4347,"Ġestablecido":4348,"ÃŃculo":4349,"Ġprofesionalismo":4350,"Sigue":4351,"ĠdaÃ±os":4352,"rovech":4353,"Ġimagen":4354,"Ġdisciplina":4355,"Ġregalaron":4356,"Ġdenuncia":4357,"Ġcongru":4358,"ĠSocial":4359,"ĠTulum":4360,"ĠDemocracia":4361,"ibrio":4362,"Ġustedes":4363,"ĠhelicÃ³ptero":4364,"Impuls":4365,"ĠpÃ©rdida":4366,"Ã©roes":4367,"ĠfenÃ³meno":4368,"Ġbilateral":4369,"ĠHablamos":4370,"Ġmanifes":4371,"Ġsoldados":4372,"Ġpersever":4373,"Inauguramos":4374,"Ġequilibrio":4375,"ĠProtecciÃ³n":4376,"ĠManzanillo":4377,"Particip":4378,"ĠcÃŃv":4379,"ĠCivil":4380,"Ġnervios":4381,"ĠhÃ¡bito":4382,"ĠPacÃŃfico":4383,"ĠAugusto":4384,"ĠTatiana":4385,"ĠLinares":4386,"ĠLaredo":4387,"Ġtraficantes":4388,"ĠHonduras":4389,"ĠjardÃŃn":4390,"ĠUNAM":4391,"ĠGutiÃ©rrez":4392,"ĠArgentina":4393,"Ġindispensa":4394,"ĠCoatzacoalcos":4395,"Ġintelectuales":4396,"ĠIztapalapa":4397,".,":4398,"15":4399,"200":4400,"48":4401,"500":4402,"Agradecemos":4403,"Cumpl":4404,"Em":4405,"Fal":4406,"Fortal":4407,"Firma":4408,"Hemos":4409,"Juntos":4410,"JÃ³venes":4411,"Jorn":4412,"Llevamos":4413,"Mientras":4414,"Reg":4415,"Tuvimos":4416,"Tuve":4417,"be":4418,"bo":4419,"berg":4420,"clo":4421,"damos":4422,"ft":4423,"gre":4424,"gas":4425,"ganza":4426,"huel":4427,"iencia":4428,"iaco":4429,"lad":4430,"my":4431,"mbre":4432,"mbol":4433,"nes":4434,"pre":4435,"pia":4436,"pana":4437,"ri":4438,"ses":4439,"sol":4440,"tl":4441,"tÃŃn":4442,"tamente":4443,"ui":4444,"ucion":4445,"viv":4446,"viles":4447,"wska":4448,"xto":4449,"ĠĠĊ":4450,"ĠÃ¡n":4451,"Ġran":4452,"ĠÃ¡reas":4453,"ĠÃī":4454,"enio":4455,"enita":4456,"esos":4457,"esper":4458,"estim":4459,"ert":4460,"eria":4461,"Ġluc":4462,"Ġluj":4463,"cicio":4464,"cidente":4465,"ondo":4466,"Ġpel":4467,"Ġpud":4468,"Ġpie":4469,"aro":4470,"Ġaf":4471,"Ġat":4472,"Ġagos":4473,"Ġce":4474,"Ġcay":4475,"Ġclar":4476,"Ġcalidad":4477,"Ġcosa":4478,"Ġceremonia":4479,"ĠcafÃ©":4480,"orado":4481,"anes":4482,"anzas":4483,"Ġmen":4484,"Ġmir":4485,"Ġmaya":4486,"Ġmuestra":4487,"alin":4488,"inero":4489,"Ġefic":4490,"Ġsat":4491,"Ġsom":4492,"ĠsÃº":4493,"Ġsent":4494,"Ġsiento":4495,"Ġsagr":4496,"ĠsÃ³lo":4497,"ĠsÃ¡bado":4498,"reve":4499,"uelo":4500,"icen":4501,"ĠClo":4502,"amor":4503,"amin":4504,"amanca":4505,"trina":4506,"Ġcontr":4507,"Ġcontar":4508,"Ġcontes":4509,"Ġconten":4510,"Ġconcl":4511,"Ã¡gen":4512,"Ã¡vez":4513,"tol":4514,"Ġprue":4515,"ĠprisiÃ³n":4516,"ĠMer":4517,"ĠMario":4518,"ĠMuseo":4519,"oma":4520,"tit":4521,"tima":4522,"tiene":4523,"Ġhid":4524,"Ġdelante":4525,"Ġges":4526,"Ġgus":4527,"ĠPre":4528,"ĠPino":4529,"blig":4530,"Ġvemos":4531,"Ġfar":4532,"ĠfÃ¡":4533,"Ġdesesper":4534,"Ġduc":4535,"Ġdiv":4536,"Ġdando":4537,"Ġdicho":4538,"Ġdatos":4539,"Ġdinero":4540,"Ġrefor":4541,"Ġrepe":4542,"Ġrepar":4543,"Ġreformas":4544,"Ġpararon":4545,"Ġparece":4546,"Ġune":4547,"Ġsed":4548,"Ġsex":4549,"Ġsepar":4550,"ĠSab":4551,"ĠServ":4552,"ĠAma":4553,"ĠAunque":4554,"ĠAguas":4555,"ĠAÃ©rea":4556,"ĠAdolfo":4557,"urales":4558,"urismo":4559,"ilar":4560,"ilco":4561,"ienen":4562,"ĠNada":4563,"ĠNav":4564,"ĠNegoci":4565,"ĠNorm":4566,"taria":4567,"aces":4568,"ĠTap":4569,"ĠTele":4570,"ense":4571,"irse":4572,"echo":4573,"uspana":4574,"Ġbr":4575,"Ġbas":4576,"Ġbaja":4577,"Ġbatalla":4578,"Ġtratar":4579,"Ġaltern":4580,"elÃ©ctricas":4581,"ernav":4582,"Ġnota":4583,"uco":4584,"ĠGal":4585,"ĠGol":4586,"itÃ¡n":4587,"ĠRen":4588,"ĠReg":4589,"igo":4590,"igna":4591,"eroesp":4592,"ĠBicentenario":4593,"oca":4594,"oceso":4595,"ajes":4596,"radez":4597,"qui":4598,"adoras":4599,"ĠJud":4600,"ĠJef":4601,"ĠJÃ³venes":4602,"ĠJuegos":4603,"ĠDr":4604,"ĠDec":4605,"ĠDav":4606,"ĠDiputados":4607,"Ġtera":4608,"Ġtestim":4609,"uera":4610,"ĠVil":4611,"ĠIr":4612,"Ġjuego":4613,"Ġoblig":4614,"Ġact":4615,"Ġacero":4616,"Ġacces":4617,"Ġacordamos":4618,"Ġactitud":4619,"Ġaccidente":4620,"Ġpag":4621,"Ġpaga":4622,"Ġcompl":4623,"orables":4624,"davÃŃa":4625,"ĠFiscal":4626,"Ġaprovech":4627,"Ġ25":4628,"istÃŃ":4629,"istencia":4630,"Ġameric":4631,"Ġconside":4632,"dose":4633,"Ġdiarios":4634,"Ġdijo":4635,"Ġdieron":4636,"entas":4637,"entalidad":4638,"ĠObr":4639,"ĠObre":4640,"ĠOje":4641,"ĠOcho":4642,"Ġpresidencia":4643,"tuve":4644,"Ġcamin":4645,"Ġcambi":4646,"Ġexista":4647,"Ġexiste":4648,"Ġimpres":4649,"ĠimÃ¡gen":4650,"ĠEstÃ¡":4651,"ĠChica":4652,"ĠChile":4653,"ĠChalco":4654,"ĠChÃ¡vez":4655,"Ġtimbre":4656,"Ġtrabajan":4657,"Ġtrabajamos":4658,"Ġciuda":4659,"Ġcierre":4660,"Ġquin":4661,"Ġquis":4662,"Ġrend":4663,"Ġsalvar":4664,"Ġsaludo":4665,"Ġsaldremos":4666,"Ġimplica":4667,"guar":4668,"ĠpodrÃ¡":4669,"Ġpoderes":4670,"huaca":4671,"turas":4672,"onstrucciÃ³n":4673,"visa":4674,"Ġcuidar":4675,"ĠElena":4676,"Ġobis":4677,"ĠMezqu":4678,"Ġanaliz":4679,"uchare":4680,"Ġdemand":4681,"ĠSantia":4682,"Ġllen":4683,"Ġlluv":4684,"itario":4685,"itarios":4686,"Ġlevan":4687,"uvieron":4688,"ĠAlc":4689,"ĠAlta":4690,"Conf":4691,"Contra":4692,"endio":4693,"Ġfrase":4694,"\"\".\"":4695,"Ġhacen":4696,"Ġhago":4697,"ĠEnsen":4698,"ĠVerÃ³nica":4699,"Ġcompromet":4700,"Ġpred":4701,"ĠprevenciÃ³n":4702,"Ġrespeta":4703,"Ġrespetu":4704,"ĠSalamanca":4705,"Ġdisfrut":4706,"Ġempresario":4707,"Reitero":4708,"ĠAndrÃ©s":4709,"Ġcargos":4710,"Ġoro":4711,"ÃŃnguez":4712,"Ġdirectora":4713,"EstÃ¡":4714,"Ġregular":4715,"chil":4716,"Ġbueno":4717,"Ġpropio":4718,"Ġpropie":4719,"laraciÃ³n":4720,"Ġcomunicar":4721,"Ãºnel":4722,"frend":4723,"ĠMoral":4724,"ĠMorales":4725,"Ġdejamos":4726,"ĠdejarÃ¡":4727,"tividad":4728,"calco":4729,"calientes":4730,"Ġmadera":4731,"Ġinformamos":4732,"Ġinformaron":4733,"Ġseguimos":4734,"Ġinvirtiendo":4735,"Ġmodo":4736,"Ġmodern":4737,"Ġparticipan":4738,"ediato":4739,"Ġejecutivo":4740,"Ġhonesta":4741,"terno":4742,"Ġconfiar":4743,"Ġconflic":4744,"ĠSeade":4745,"Ġopos":4746,"Ġliberales":4747,"Ġindica":4748,"Ġembargo":4749,"ganizaciÃ³n":4750,"Ġ400":4751,"Ġsiga":4752,"Ġpeti":4753,"Ġconviv":4754,"Ġconvoc":4755,"Ġespir":4756,"Ġservicios":4757,"Ġsenadora":4758,"ĠComisiÃ³n":4759,"cionales":4760,"ĠCuando":4761,"ĠCuernav":4762,"ĠBandera":4763,"ĠayudÃ³":4764,"ĠayudarÃ¡":4765,"ĠCampo":4766,"Ġcumplen":4767,"Ġganamos":4768,"ĠJosef":4769,"ĠJosep":4770,"Ġ197":4771,"gradezco":4772,"Ġsaben":4773,"ĠdirÃŃa":4774,"ĠTlahuel":4775,"Ġciudadano":4776,"ĠColomb":4777,"ĠColorado":4778,"ĠPrim":4779,"Ġfortalece":4780,"Ġluchar":4781,"Ġluchando":4782,"Ġsuced":4783,"ĠestarÃ©":4784,"Ġestaremos":4785,"Ġvenganza":4786,"Ġinstr":4787,"ĠValenz":4788,"ionales":4789,"Ġfuerte":4790,"Ġproductores":4791,"upaciÃ³n":4792,"Ġposibilidad":4793,"ĠmÃ©dica":4794,"alizaciÃ³n":4795,"Ġafectadas":4796,"tratÃ©g":4797,"ĠconversÃ©":4798,"Ġprofund":4799,"Ġfronteras":4800,"Ġpensamiento":4801,"Ġgrab":4802,"Ġsoberana":4803,"ĠsoberanÃŃas":4804,"ĠPoder":4805,"ĠPresa":4806,"ĠDurÃ¡n":4807,"Ġaprend":4808,"ĠpermitirÃ¡":4809,"Siempre":4810,"Ġaustero":4811,"ĠatenderÃ¡":4812,"Ġchoc":4813,"Ġregresar":4814,"Ġresponsable":4815,"Ġresponsables":4816,"ĠTlaxiaco":4817,"eciÃ³":4818,"Ġocas":4819,"ĠprÃ³xima":4820,"Ġdepor":4821,"ĠParticip":4822,"Ġrecibir":4823,"Ġrecibido":4824,"QuÃ©":4825,"Ġproceso":4826,"Ġdigo":4827,"Ġbella":4828,"ĠOrganizaciÃ³n":4829,"Ġdoctrina":4830,"Ġfuncionarios":4831,"Ġdedicados":4832,"Alf":4833,"Ġcontinu":4834,"Ġhermano":4835,"ĠExp":4836,"ĠCasa":4837,"Ġhonr":4838,"Ġhonradez":4839,"Ġvalores":4840,"Ġrealizado":4841,"ĠEmpres":4842,"Ġtomamos":4843,"Ġ150":4844,"Ġplazas":4845,"ĠfirmÃ³":4846,"Ġfirmamos":4847,"Ġllevaremos":4848,"ĠllevarÃ¡":4849,"Ġpromover":4850,"Ġintenso":4851,"ĠTehuantepec":4852,"Ġturismo":4853,"Ġsupervisar":4854,"Ġconsumar":4855,"Ġcomprometimos":4856,"ĠrazÃ³n":4857,"Ġautoconsumo":4858,"ĠperdÃ³n":4859,"tilizantes":4860,"Ġverdadera":4861,"ĠCabos":4862,"ĠVictoria":4863,"Ġtransmiti":4864,"Ġoportunidad":4865,"ĠarqueolÃ³gica":4866,"iatowska":4867,"Ġcelebrar":4868,"Ã©fico":4869,"ĠAzteca":4870,"Ġbuscar":4871,"ĠRecordÃ©":4872,"ĠReconstrucciÃ³n":4873,"AsistÃŃ":4874,"ĠseÃ±al":4875,"Ġingeniero":4876,"Apoy":4877,"Todos":4878,"Ġpalabra":4879,"Ġderroc":4880,"Ġconmemoramos":4881,"Ġvuelta":4882,"Ġinmediato":4883,"Ġcensura":4884,"Ġconstat":4885,"ĠMilitar":4886,"ĠPerÃº":4887,"ĠdesafÃŃo":4888,"Ġrecorrido":4889,"Ġgrandeza":4890,"ĠtelefÃ³nica":4891,"SegÃºn":4892,"risto":4893,"Ġagradecimos":4894,"Ġmutua":4895,"Ġesfuerzo":4896,"Ġesfuerzos":4897,"Ġglob":4898,"Ġgloria":4899,"ĠPoniatowska":4900,"ĠvocaciÃ³n":4901,"Ġvoceros":4902,"Ġdicha":4903,"ĠSilva":4904,"ĠSilvio":4905,"Ġcuarta":4906,"Ġmediante":4907,"ĠartÃŃculo":4908,"Ġsacar":4909,"Ġenfermos":4910,"ĠMacuspana":4911,"ĠdelegaciÃ³n":4912,"ĠSeguimos":4913,"ĠTorreÃ³n":4914,"Ġtrop":4915,"ĠBlanca":4916,"Ġopiniones":4917,"Ġestadounidense":4918,"Ġsuculenta":4919,"Ġinstituciones":4920,"Ġperiodistas":4921,"ĠentrevistÃ©":4922,"Ġeres":4923,"Ġcrecer":4924,"ĠEUA":4925,"ĠSigamos":4926,"Ġinjusti":4927,"Ġterritorio":4928,"ĠVelasco":4929,"ĠIguala":4930,"ropiaciÃ³n":4931,"Ġfrutales":4932,"Ġejercicio":4933,"ĠCoordinador":4934,"Ġatraves":4935,"ĠcatÃ³l":4936,"ĠprÃ¡ctica":4937,"Ġhambre":4938,"uthier":4939,"ĠgarantÃŃa":4940,"ĠEducaciÃ³n":4941,"Ġbenditas":4942,"ĠBernardo":4943,"Ġotorgar":4944,"Ġestablecer":4945,"ĠtecnologÃŃa":4946,"Ġpreferente":4947,"ĠProyecto":4948,"Ġcolonias":4949,"PRD":4950,"Sostuvimos":4951,"cidencias":4952,"Ġsimpatiz":4953,"Ã³stico":4954,"ĠenseÃ±":4955,"Ġrevolucion":4956,"Ġcomisionado":4957,"ĠbenÃ©fico":4958,"ĠLÃŃderes":4959,"ĠLibre":4960,"ĠDomÃŃnguez":4961,"Ġsuficientes":4962,"Ġjoven":4963,"Ġjunio":4964,"Ġconsciente":4965,"Ġratific":4966,"Ġriesgo":4967,"Ġtransparencia":4968,"ConmemoraciÃ³n":4969,"Recibimos":4970,"Ġcoincidencias":4971,"Ġcolectiva":4972,"ĠentraÃ±able":4973,"Ġhermandad":4974,"Impulsamos":4975,"Jornadas":4976,"ĠÃ¡nimo":4977,"Ġlujos":4978,"Ġagosto":4979,"ĠClouthier":4980,"ĠAguascalientes":4981,"ĠNegocios":4982,"ĠTelevisa":4983,"eroespaci":4984,"ĠDavid":4985,"Ġtestimon":4986,"Ġacceso":4987,"ĠObrador":4988,"ĠObregÃ³n":4989,"ĠOjeda":4990,"ĠOchoa":4991,"ĠimÃ¡genes":4992,"Ġciudades":4993,"uchareada":4994,"ĠSantiago":4995,"ĠEnsenada":4996,"Ġmaderables":4997,"ĠCuernavaca":4998,"ĠJoseph":4999,"ĠTlahuelilpan":5000,"ĠColombia":5001,"ĠValenzuela":5002,"!\"":5003,"38":5004,"94":5005,"?\"":5006,"AquÃŃ":5007,"Agradezco":5008,"Beatriz":5009,"Busc":5010,"Ex":5011,"Fel":5012,"Felici":5013,"Firm":5014,"HL":5015,"Ha":5016,"Ima":5017,"Lleg":5018,"Llamamos":5019,"Muy":5020,"Pr":5021,"Res":5022,"Roc":5023,"SM":5024,"SR":5025,"Sembrando":5026,"TE":5027,"Te":5028,"Tom":5029,"Tercera":5030,"Viv":5031,"ak":5032,"bio":5033,"bel":5034,"bilidad":5035,"cambi":5036,"dar":5037,"dios":5038,"ete":5039,"eira":5040,"eja":5041,"fÃŃa":5042,"gica":5043,"gales":5044,"gÃºn":5045,"gobern":5046,"han":5047,"hue":5048,"iÃ¡n":5049,"iamente":5050,"jas":5051,"jutla":5052,"ki":5053,"lu":5054,"len":5055,"lal":5056,"lÃŃ":5057,"lera":5058,"laremos":5059,"lores":5060,"man":5061,"mac":5062,"mica":5063,"mit":5064,"med":5065,"meca":5066,"nto":5067,"rera":5068,"ritu":5069,"son":5070,"sum":5071,"sula":5072,"tun":5073,"tzÃ¡":5074,"uvo":5075,"uido":5076,"vÃŃo":5077,"yen":5078,"zon":5079,"zal":5080,"zula":5081,"Â°":5082,"Ġ&":5083,"Ġiz":5084,"ĠÃŃn":5085,"Ġzo":5086,"Ġerr":5087,"Ġileg":5088,"Ġutop":5089,"ded":5090,"delo":5091,"dela":5092,"delar":5093,"deremos":5094,"enia":5095,"enzamos":5096,"ost":5097,"erta":5098,"erca":5099,"erva":5100,"erechos":5101,"Ġlen":5102,"cida":5103,"onto":5104,"onistas":5105,"onces":5106,"ontal":5107,"ontÃ¡n":5108,"Ġpid":5109,"Ġpol":5110,"Ġpena":5111,"Ġpele":5112,"Ġpudo":5113,"Ġpadre":5114,"Ġpiez":5115,"arde":5116,"arro":5117,"arga":5118,"Ġaj":5119,"Ġaz":5120,"Ġcob":5121,"Ġcarr":5122,"Ġcump":5123,"Ġcerc":5124,"Ġcuchareada":5125,"Ġlado":5126,"Ġlatin":5127,"ore":5128,"org":5129,"orta":5130,"ornos":5131,"anque":5132,"Ġmas":5133,"Ġmina":5134,"Ġmac":5135,"ĠmaÃ±":5136,"Ġmanos":5137,"Ġmano":5138,"ĠmÃºs":5139,"Ġmural":5140,"Ġmerc":5141,"Ġmadre":5142,"Ġmadres":5143,"Ġmajes":5144,"Ġmentalidad":5145,"ali":5146,"alcalco":5147,"inado":5148,"ingo":5149,"incu":5150,"iniciamos":5151,"Ġed":5152,"Ġeval":5153,"Ġefec":5154,"Ġeterno":5155,"Ġsil":5156,"Ġsir":5157,"Ġsusti":5158,"Ã³vil":5159,"adura":5160,"adurismo":5161,"reo":5162,"asteca":5163,"ĠCa":5164,"ĠCer":5165,"ĠCres":5166,"ĠCien":5167,"ĠCho":5168,"ĠCorr":5169,"ĠCentenario":5170,"ĠCristo":5171,"unta":5172,"acimiento":5173,"atarios":5174,"Ġconj":5175,"Ġconec":5176,"Ġconoc":5177,"Ġcontro":5178,"Ġconmem":5179,"Ġcondol":5180,"ÃŃamos":5181,"ÃŃritu":5182,"tem":5183,"ĠnÃº":5184,"Ġnorm":5185,"Ġnuncio":5186,"Ã©l":5187,"Ã©plica":5188,"Ġesti":5189,"Ġestruc":5190,"isa":5191,"ĠMic":5192,"ĠMit":5193,"ĠMuch":5194,"ĠMujer":5195,"ĠMÃ³nica":5196,"ĠMadre":5197,"omunicaciones":5198,"tieron":5199,"tienen":5200,"Ġhin":5201,"Ġdelincu":5202,"Ġger":5203,"Ġgig":5204,"Ġgusta":5205,"Ġgesti":5206,"ĠPin":5207,"ĠPolÃŃ":5208,"ĠPav":5209,"ĠPremio":5210,"Ġvul":5211,"ĠvÃŃs":5212,"Ġvend":5213,"Ġveci":5214,"Ġvarias":5215,"ĠfÃŃs":5216,"ĠfÃ©r":5217,"Ġfies":5218,"Ġfuimos":5219,"Ġfiscal":5220,"Ġfui":5221,"taba":5222,"taurante":5223,"Ġdesgr":5224,"Ġdester":5225,"Ġdro":5226,"Ġdivers":5227,"ĠdÃ©c":5228,"olate":5229,"Ġsel":5230,"ĠEvo":5231,"ĠSh":5232,"ĠSt":5233,"ĠSim":5234,"ĠSaf":5235,"ĠScher":5236,"obia":5237,"ĠAb":5238,"ĠAÃ±os":5239,"ĠAustr":5240,"uri":5241,"urar":5242,"urado":5243,"uriÃ³":5244,"eme":5245,"emo":5246,"embra":5247,"illas":5248,"resÃŃa":5249,"iene":5250,"Ġingres":5251,"Ġinicia":5252,"ĠcomitÃ©":5253,"ĠNe":5254,"ĠNues":5255,"ĠNaciones":5256,"ĠNeza":5257,"taremos":5258,"acer":5259,"acter":5260,"acoa":5261,"ĠTa":5262,"ĠTen":5263,"ĠTem":5264,"ĠThe":5265,"ĠTenos":5266,"ĠTenemos":5267,"ĠTlal":5268,"abe":5269,"abo":5270,"irÃ©":5271,"ecemos":5272,"eccion":5273,"ectura":5274,"ecomunicaciones":5275,"usa":5276,"uso":5277,"usos":5278,"usimos":5279,"ustÃŃn":5280,"Ġbon":5281,"Ġbomb":5282,"Ġbola":5283,"Ġbreve":5284,"Ġtriste":5285,"Ġalianza":5286,"Ġalberg":5287,"ule":5288,"ules":5289,"ulaciÃ³n":5290,"uck":5291,"ĠGra":5292,"ĠGerm":5293,"ĠGuel":5294,"ivid":5295,"ĠRom":5296,"ĠRiv":5297,"ĠRosa":5298,"Ġpuedo":5299,"ĠBl":5300,"ĠBÃ©isbol":5301,"ĠBach":5302,"ocresÃŃa":5303,"quÃŃn":5304,"quiera":5305,"ĠJap":5306,"ĠJuntos":5307,"ĠJoa":5308,"ĠJean":5309,"Ġtoc":5310,"ayas":5311,"uma":5312,"umanos":5313,"ĠDi":5314,"ĠDura":5315,"ĠDep":5316,"ĠDomin":5317,"ĠDerechos":5318,"Ġestas":5319,"Ġtam":5320,"ĠtÃ©r":5321,"ĠtÃºnel":5322,"uerte":5323,"lov":5324,"ĠVan":5325,"ĠVis":5326,"ĠVarg":5327,"ĠIma":5328,"ĠIVA":5329,"ĠISR":5330,"ĠItzÃ¡":5331,"Ġprotag":5332,"Ġprohib":5333,"ĠHa":5334,"ĠHasta":5335,"ĠHerr":5336,"ĠHumanos":5337,"Ġju":5338,"Ġjue":5339,"Ġjusto":5340,"laza":5341,"Ġacord":5342,"Ġpresentar":5343,"ĠpresentÃ³":5344,"ĠpresentarÃ¡":5345,"Ġpap":5346,"Ġpapa":5347,"roelÃ©ctricas":5348,"ĠPalm":5349,"pehu":5350,"lex":5351,"leciÃ³":5352,"rano":5353,"ĠForo":5354,"ĠFideicomiso":5355,"ĠFacul":5356,"Ġapas":5357,"Ġaport":5358,"Ġrestaurante":5359,"Ġ26":5360,"Ġ27":5361,"aÃ±a":5362,"Ġampar":5363,"pertura":5364,"Ġconsul":5365,"Ġconsecu":5366,"Ġconsej":5367,"Ġconsider":5368,"ÃŃsimo":5369,"Ġdiplom":5370,"entales":5371,"entada":5372,"ĠOc":5373,"ĠOfici":5374,"ĠOcos":5375,"Ġemo":5376,"ibun":5377,"Ġexig":5378,"ĠexposiciÃ³n":5379,"Ġexgobern":5380,"Ġimped":5381,"ĠChich":5382,"Ġentend":5383,"Ġentonces":5384,"Ġtrabaja":5385,"Ãºblicas":5386,"Ġcielo":5387,"Ġciviles":5388,"Ġquiero":5389,"Ġrad":5390,"Ġradio":5391,"ĠrÃ©plica":5392,"guÃ©":5393,"Ġpoema":5394,"uencias":5395,"apacidad":5396,"Ã©nez":5397,"ĠMarcha":5398,"ĠRedes":5399,"ĠReafirmamos":5400,"Ġvive":5401,"vispe":5402,"Ġcuida":5403,"ĠElenita":5404,"Ġobtener":5405,"Ġrecre":5406,"Ġrector":5407,"ĠMed":5408,"Ġanteriores":5409,"Ġanunci":5410,"ĠanÃ¡l":5411,"ĠsinÃ³nimo":5412,"uchamos":5413,"Ġdemuestra":5414,"Ġdemanda":5415,"ĠLaura":5416,"Ġmanda":5417,"Ġmanten":5418,"Ġmanip":5419,"ezuela":5420,"Ġderecha":5421,"Ġsobrevol":5422,"Ġnie":5423,"Ġleal":5424,"Ġestaban":5425,"Ġestabilidad":5426,"ĠAlvar":5427,"ĠAltÃ¡n":5428,"Concl":5429,"Ġfrij":5430,"Ġcompartimos":5431,"ĠUnidas":5432,"Ġtexto":5433,"Ġtepehu":5434,"Ġhagan":5435,"Ġpreoc":5436,"Ġpreven":5437,"Ġprevenir":5438,"Ġsiete":5439,"Ġsiembra":5440,"Ġcreo":5441,"Ġcaric":5442,"Ġcaracter":5443,"andÃ³n":5444,"Ġencarg":5445,"Ġorilla":5446,"ÃŃnsula":5447,"Ġnueve":5448,"Ġdirecto":5449,"EstÃ¡n":5450,"pectiva":5451,"Ġregiones":5452,"chon":5453,"Ġcoti":5454,"Ġconstruc":5455,"Ġarm":5456,"ĠRoja":5457,"Ġsecretarios":5458,"ĠsecretarÃŃas":5459,"Ġpropuestas":5460,"Ġpropuse":5461,"Ġpropusimos":5462,"larta":5463,"frenda":5464,"Ġpase":5465,"ĠMoreira":5466,"ĠCarden":5467,"Ġdejen":5468,"ĠdejÃ³":5469,"Ġdejaron":5470,"tivas":5471,"Ġperder":5472,"ĠmaÃŃz":5473,"Ġelectos":5474,"tilio":5475,"tiladores":5476,"Ġfuego":5477,"Ġfaltan":5478,"Ġfallaremos":5479,"ĠLealtad":5480,"ĠNogales":5481,"Ġabsol":5482,"Ġseguidores":5483,"Ġinvitar":5484,"Ġinvitados":5485,"Ġimportantes":5486,"ĠArce":5487,"Ġrelacion":5488,"Ġparticiparon":5489,"Ġparticipativa":5490,"Ã©dito":5491,"Ġconfirma":5492,"Ġrepresentar":5493,"Ġdefend":5494,"Ġmarinos":5495,"Ġopciones":5496,"Ġoptim":5497,"Ġcasilla":5498,"ĠAcordamos":5499,"Ġindivid":5500,"Ġ45":5501,"Ġiniciar":5502,"Ġiniciativa":5503,"etti":5504,"Ġ57":5505,"ĠdoÃ±a":5506,"Ġdolor":5507,"Ġsiglo":5508,"ĠConven":5509,"ĠespontÃ¡n":5510,"Ġservidor":5511,"Ġautoridad":5512,"Ġautoriz":5513,"Inv":5514,"ĠComitÃ©":5515,"ĠComalcalco":5516,"Ġrespond":5517,"Ġcaer":5518,"ĠFranco":5519,"ĠLuisa":5520,"ĠCuautla":5521,"ĠCandelar":5522,"ificar":5523,"dujo":5524,"Ġcambios":5525,"Ġayudar":5526,"Ġayudando":5527,"Ġnecesidad":5528,"Ġnecesidades":5529,"Ġnecesita":5530,"Ġnecesitamos":5531,"Ġnecesitan":5532,"Ġcriter":5533,"atao":5534,"ĠPueblo":5535,"Ġ1917":5536,"Ġ1985":5537,"Ġllega":5538,"ĠllegÃ³":5539,"Ġllegado":5540,"trolera":5541,"Ġpeso":5542,"Ġsabe":5543,"ĠsabrÃ¡":5544,"ĠCop":5545,"ĠProducciÃ³n":5546,"ĠMexicali":5547,"Ġrepresentante":5548,"Ġbeneficios":5549,"ĠexpresÃ©":5550,"Ġexpresiden":5551,"ĠPronto":5552,"Ġllama":5553,"Ġmunicipal":5554,"Ġcandidata":5555,"ĠenviÃ©":5556,"Ġventiladores":5557,"ĠVallarta":5558,"ionante":5559,"ĠacompaÃ±an":5560,"istece":5561,"ĠposesiÃ³n":5562,"Ã³stol":5563,"Ġreconoci":5564,"Desfile":5565,"Ġconservadurismo":5566,"Ġvoluntaria":5567,"mej":5568,"Ġprivado":5569,"Ġprivatiz":5570,"ĠfunciÃ³n":5571,"Ġsoberano":5572,"ĠPetrolera":5573,"Ġaprender":5574,"Ġfelicitar":5575,"achula":5576,"Ġsectores":5577,"Ġdiscrim":5578,"Ġescritorio":5579,"ĠXoch":5580,"ĠXalapa":5581,"Ġponch":5582,"Ġponiendo":5583,"ĠMonumento":5584,"ĠIntegral":5585,"Aniversario":5586,"AndrÃ©s":5587,"ĠJoe":5588,"ĠlogrÃ³":5589,"Ġlogramos":5590,"ecidos":5591,"ĠAlfaro":5592,"Lamenta":5593,"ĠÃ©p":5594,"ĠÃ©tica":5595,"Ġdepende":5596,"Ġmateriales":5597,"ĠcompaÃ±eros":5598,"ĠÃºltimos":5599,"Ġproces":5600,"Ġdigno":5601,"ĠDelgado":5602,"Ġproteg":5603,"Ġgobierna":5604,"Ġrescat":5605,"Ġleyes":5606,"Ġfundamentales":5607,"ogamos":5608,"tlahuaca":5609,"Ġdecisiones":5610,"ĠpronÃ³stico":5611,"olÃ³gica":5612,"ĠfalleciÃ³":5613,"Ġfuncionario":5614,"Ġdedicamos":5615,"Ġdedicada":5616,"Ġolvid":5617,"Ġcapaci":5618,"Ġcapacidad":5619,"Ġentristece":5620,"ĠCorzo":5621,"ĠCordero":5622,"Ġvideos":5623,"Ġreprim":5624,"Ġrepite":5625,"Ġestudios":5626,"ĠmandÃ³":5627,"ĠsÃŃmbol":5628,"Ġrealizada":5629,"ĠUrÃŃas":5630,"ĠMartÃŃ":5631,"lamentar":5632,"Ġplazo":5633,"Ġministros":5634,"ĠMike":5635,"Ġfondos":5636,"Ġjefes":5637,"Ġcarreteras":5638,"elebramos":5639,"Ġinauguramos":5640,"ĠMaur":5641,"Ġintensiva":5642,"ĠturÃŃst":5643,"ĠturÃŃstico":5644,"Ġpaisano":5645,"ĠEscuela":5646,"ĠEscandÃ³n":5647,"Ġcomprometida":5648,"ĠautÃ©ntica":5649,"Ġrazones":5650,"Ġfragm":5651,"ĠEEUU":5652,"Ġobjetivos":5653,"Ġobjetividad":5654,"Ġperdido":5655,"Ġperdieron":5656,"Ġverdader":5657,"Ġinfluy":5658,"Ġinfluencias":5659,"ĠdistinciÃ³n":5660,"Ġdistintivo":5661,"viamente":5662,"Ġmorales":5663,"ĠCabrera":5664,"Ġincendio":5665,"iteramos":5666,"quierda":5667,"Ġrobo":5668,"ĠArmadas":5669,"Ġmuertos":5670,"Ġsostuve":5671,"Ġreciente":5672,"ĠrecibiÃ³":5673,"ĠreafirmÃ©":5674,"Ġreafirmamos":5675,"Ġincluye":5676,"ĠampliaciÃ³n":5677,"Ġrecuperando":5678,"Avances":5679,"Ġagro":5680,"Ġagrado":5681,"Ġdominical":5682,"Ġrehabilitar":5683,"ĠseÃ±or":5684,"ĠseÃ±ora":5685,"Ġbanco":5686,"ĠBoca":5687,"Ġofre":5688,"ĠÃģlamos":5689,"Ġformar":5690,"Ġencontrar":5691,"Apoyo":5692,"Platicamos":5693,"Todo":5694,"ĠaviÃ³n":5695,"Ġavanza":5696,"ĠAdministr":5697,"ĠHuasteca":5698,"Ġgratuitos":5699,"Ġextraordinario":5700,"ĠquedÃ³":5701,"Ġflores":5702,"ĠEjecutivo":5703,"ĠLiga":5704,"ĠtradiciÃ³n":5705,"Ġinteligentes":5706,"PresentaciÃ³n":5707,"Presidente":5708,"limÃ¡tico":5709,"Ġconcreto":5710,"Ġconstancia":5711,"ĠPlaya":5712,"Ġinternacional":5713,"Ġinternet":5714,"ĠTexas":5715,"ĠRutilio":5716,"Ġoperaciones":5717,"Ġdiput":5718,"ĠIndustr":5719,"Ġvisitando":5720,"Ġconvertirse":5721,"Segundo":5722,"Ġfertilizantes":5723,"Ġpublic":5724,"Ġdesayunar":5725,"ĠEconomÃŃa":5726,"ĠSuÃ¡rez":5727,"Ġalimentos":5728,"ĠaceptÃ³":5729,"ĠFuerzas":5730,"Entrega":5731,"Ġviviendas":5732,"Ġdispon":5733,"Ġartistas":5734,"ĠCaribeÃ±os":5735,"Ġfallarle":5736,"Ġhumilde":5737,"Ġhumildes":5738,"ÃŃculos":5739,"Ġdemostrado":5740,"Mantenemos":5741,"Primer":5742,"Primera":5743,"tamin":5744,"Ġaquello":5745,"Ġsumar":5746,"ĠnaciÃ³":5747,"ĠesplÃ©ndida":5748,"ĠBlanco":5749,"Ġcompleta":5750,"ĠElectr":5751,"ĠElectoral":5752,"Ġregistro":5753,"ĠopiniÃ³n":5754,"Ġsiguiente":5755,"Ġsiguientes":5756,"Ġestadounidenses":5757,"Ġadelanto":5758,"Ġavanzando":5759,"Ġtraicionaremos":5760,"Ġorganizaciones":5761,"Ġpacificar":5762,"Ġahorr":5763,"ĠsueÃ±os":5764,"iscurso":5765,"Ġhotel":5766,"ĠhipÃ³cr":5767,"ĠhipocresÃŃa":5768,"Ġfomento":5769,"Ġalcanzar":5770,"ĠJimmy":5771,"ĠJimÃ©nez":5772,"Ġpreguntas":5773,"Ġartesanos":5774,"Ġreligios":5775,"ixÃ¡r":5776,"ristÃ³":5777,"Ġpocos":5778,"Ġcuesti":5779,"Ġdesaparecidos":5780,"ĠErnes":5781,"ĠAgustÃŃn":5782,"ĠAhÃŃ":5783,"Ġalumnos":5784,"ĠRoberto":5785,"ĠBavispe":5786,"Ġprotesta":5787,"ĠHelÃº":5788,"Ġamistosa":5789,"Ġimposible":5790,"Ġcuidado":5791,"ĠAlemania":5792,"Ġrelajemos":5793,"Ġdefensor":5794,"Ġcastigar":5795,"ĠcrÃŃtica":5796,"Ġescritora":5797,"Ġorgulloso":5798,"ĠZapotillo":5799,"ĠBarbosa":5800,"Gobernamos":5801,"Pasamos":5802,"Ġligas":5803,"Ġpendiente":5804,"ĠClima":5805,"Ġconciencia":5806,"ÃŃmpicos":5807,"Ġprobable":5808,"omulgaciÃ³n":5809,"Ġvolvimos":5810,"Ġrevisar":5811,"Ġbusca":5812,"ĠBonilla":5813,"ĠVenezuela":5814,"ĠOrozco":5815,"ĠcampeÃ³n":5816,"Ġsolicitud":5817,"Ġmedallas":5818,"ĠcompartirÃ©":5819,"Ġmagis":5820,"ĠpequeÃ±os":5821,"Ġcombatir":5822,"DesayunÃ©":5823,"Ġocurrido":5824,"ĠolvidarÃ©":5825,"Ġkms":5826,"ĠLatinoamericanos":5827,"Ġcongruencia":5828,"Participamos":5829,"Ġindispensable":5830,"Regres":5831,"ĠsÃºper":5832,"ĠhidroelÃ©ctricas":5833,"Ġsexenio":5834,"ĠSabinas":5835,"ĠTapachula":5836,"ĠGalvÃ¡n":5837,"ĠRenÃ©":5838,"Ġterapia":5839,"Ġquisieron":5840,"ĠAlcocer":5841,"ĠcomprometÃŃ":5842,"Ġregularizar":5843,"Ġpeticiones":5844,"ĠPrimer":5845,"Ġsucedido":5846,"Ġchocolate":5847,"ĠExpropiaciÃ³n":5848,"ĠEmpresarial":5849,"Ġtropical":5850,"Ġinjusticias":5851,"Ġsimpatizantes":5852,"ĠenseÃ±anza":5853,"eroespacial":5854,"Ġtestimonios":5855,"Feliz":5856,"Rock":5857,"Ġizquierda":5858,"Ġzop":5859,"ĠutopÃŃa":5860,"Ġpiezas":5861,"Ġcarrera":5862,"Ġevaluar":5863,"Ġsilencio":5864,"Ġsustitu":5865,"ĠCorral":5866,"Ġconmemora":5867,"Ġcondolencias":5868,"ĠnÃºm":5869,"Ġdelincuencia":5870,"Ġvuln":5871,"Ġdesterrar":5872,"Ġdrogas":5873,"ĠdÃ©cadas":5874,"ĠSafran":5875,"ĠScherer":5876,"ĠTenosique":5877,"ĠGermÃ¡n":5878,"ĠGuelatao":5879,"ĠJapÃ³n":5880,"ĠJoaquÃŃn":5881,"ĠtÃ©rm":5882,"ĠVargas":5883,"ĠFacultad":5884,"ĠOficina":5885,"ĠOcosingo":5886,"Ġexgobernador":5887,"ĠChichÃ©n":5888,"ĠanÃ¡lisis":5889,"ĠmanipulaciÃ³n":5890,"ĠAlvarado":5891,"ĠCandelaria":5892,"Ġfragmento":5893,"ĠAdministraciÃ³n":5894,"ĠErnesto":5895,"%.":5896,"%;":5897,"14":5898,"100":5899,"35":5900,"45":5901,"88":5902,"AM":5903,"Apl":5904,"Acep":5905,"AgradecÃŃ":5906,"BC":5907,"Cero":5908,"Cada":5909,"Ciudad":5910,"Camin":5911,"Celebramos":5912,"Dos":5913,"Deci":5914,"Discurso":5915,"ES":5916,"Fr":5917,"Fuimos":5918,"GR":5919,"Gu":5920,"Iz":5921,"Luego":5922,"Mo":5923,"Mem":5924,"MORENA":5925,"Muros":5926,"Neces":5927,"Nadie":5928,"Otra":5929,"Oaxaca":5930,"Per":5931,"Pero":5932,"PAN":5933,"Premio":5934,"RA":5935,"RI":5936,"Son":5937,"SBC":5938,"Ten":5939,"Trans":5940,"Tercer":5941,"Vean":5942,"Wal":5943,"Yo":5944,"ag":5945,"az":5946,"aque":5947,"auna":5948,"aguar":5949,"apertura":5950,"bal":5951,"bil":5952,"bemos":5953,"cen":5954,"cran":5955,"caria":5956,"cega":5957,"dd":5958,"dÃŃa":5959,"dra":5960,"donde":5961,"didas":5962,"ev":5963,"eas":5964,"eda":5965,"efici":5966,"eorg":5967,"fa":5968,"ff":5969,"fas":5970,"fil":5971,"fica":5972,"ficaciÃ³n":5973,"fuegos":5974,"fobia":5975,"gl":5976,"gÃ©n":5977,"garit":5978,"her":5979,"hÃŃculos":5980,"iu":5981,"iÃ¡":5982,"iamos":5983,"iÃ±":5984,"iqu":5985,"iarios":5986,"itivo":5987,"iÃ±a":5988,"ika":5989,"jen":5990,"jos":5991,"jada":5992,"jimo":5993,"kio":5994,"lico":5995,"mat":5996,"mÃ¡n":5997,"ne":5998,"nÃ¡":5999,"nta":6000,"naciÃ³n":6001,"oÃ©":6002,"oul":6003,"pr":6004,"pista":6005,"pÃºl":6006,"pola":6007,"prano":6008,"ric":6009,"rÃŃ":6010,"ramos":6011,"rum":6012,"rÃ©dito":6013,"so":6014,"sules":6015,"tÃŃ":6016,"tencia":6017,"tensa":6018,"tales":6019,"tamo":6020,"tentada":6021,"utr":6022,"uque":6023,"uencia":6024,"uero":6025,"uidos":6026,"vios":6027,"wixÃ¡r":6028,"xteca":6029,"yentes":6030,"zc":6031,"zaremos":6032,"zaron":6033,"zint":6034,"zquez":6035,"zuma":6036,"zaÃ±a":6037,"zmÃ¡n":6038,"znÃ¡":6039,"Ã¨":6040,"Ġida":6041,"Ġza":6042,"ĠwixÃ¡r":6043,"deud":6044,"Ġdejo":6045,"Ġdetener":6046,"Ġdetal":6047,"Ġdeuda":6048,"enc":6049,"enamiento":6050,"Ġ\"(":6051,"osos":6052,"esa":6053,"esor":6054,"eri":6055,"erdo":6056,"erales":6057,"Ġlici":6058,"Ġline":6059,"Ġliter":6060,"ĠlÃŃnea":6061,"cin":6062,"ciremos":6063,"ciona":6064,"ondr":6065,"ontaciÃ³n":6066,"Ġpien":6067,"Ġpit":6068,"Ġpiso":6069,"Ġpint":6070,"arca":6071,"ariales":6072,"arreg":6073,"Ġado":6074,"Ġata":6075,"Ġafici":6076,"Ġagra":6077,"ĠcÃ³n":6078,"Ġcla":6079,"Ġcoci":6080,"Ġcuen":6081,"Ġcuesta":6082,"Ġlaico":6083,"Ġlados":6084,"Ġlagar":6085,"Ġlagun":6086,"ori":6087,"orar":6088,"ortar":6089,"orio":6090,"orito":6091,"orme":6092,"orÃ¡nd":6093,"anc":6094,"ane":6095,"anti":6096,"aneros":6097,"antla":6098,"Ġmue":6099,"Ġmando":6100,"Ġmuro":6101,"Ġmentir":6102,"ĠmamÃ¡s":6103,"ĠmuriÃ³":6104,"aldo":6105,"alia":6106,"alla":6107,"alva":6108,"aliciÃ³n":6109,"almente":6110,"alÃŃmpicos":6111,"inita":6112,"inme":6113,"inaria":6114,"Ġec":6115,"ĠsÃ©":6116,"ĠsÃŃn":6117,"Ġsuerte":6118,"Ã³logo":6119,"reded":6120,"uele":6121,"uemos":6122,"uevo":6123,"ueva":6124,"Ġenter":6125,"Ġenrique":6126,"Ġendeud":6127,"Ġenorme":6128,"aso":6129,"asav":6130,"astepec":6131,"Ġelim":6132,"Ġeleg":6133,"icol":6134,"icano":6135,"icara":6136,"icamente":6137,"ĠCA":6138,"ĠCre":6139,"ĠCat":6140,"ĠCob":6141,"ĠCaj":6142,"ĠCaÃ±":6143,"ĠCent":6144,"ĠCOVID":6145,"ĠCÃ³r":6146,"ĠCerv":6147,"ĠCuev":6148,"ĠClimÃ¡tico":6149,"ĠCristÃ³":6150,"ames":6151,"amidades":6152,"ampo":6153,"amiÃ¡n":6154,"uno":6155,"unicaciÃ³n":6156,"acinta":6157,"atel":6158,"atales":6159,"atino":6160,"atha":6161,"aticano":6162,"tren":6163,"truir":6164,"Ġconform":6165,"Ġconfr":6166,"Ġcontun":6167,"Ġcontamin":6168,"ÃŃe":6169,"ÃŃvar":6170,"Ã¡p":6171,"Ã¡zquez":6172,"tei":6173,"temos":6174,"tezuma":6175,"Ġneg":6176,"Ġneo":6177,"Ġnub":6178,"Ġnutr":6179,"Ã©ut":6180,"Ã©tera":6181,"ĠespaÃ±":6182,"ĠestratÃ©g":6183,"Ġpru":6184,"Ġprom":6185,"Ġpract":6186,"ĠMal":6187,"ĠMis":6188,"ĠMur":6189,"ĠMay":6190,"ĠMap":6191,"ĠMate":6192,"ĠMira":6193,"ĠMach":6194,"ĠMundo":6195,"ĠMoch":6196,"ĠMoto":6197,"ĠMesa":6198,"quete":6199,"queda":6200,"queza":6201,"ompe":6202,"omÃŃas":6203,"tita":6204,"tira":6205,"ticiÃ³n":6206,"tiremos":6207,"titÃ¡n":6208,"Ġhas":6209,"Ġhit":6210,"ĠharÃ©":6211,"ĠhÃ©roes":6212,"Ġdelito":6213,"Ġdelitos":6214,"utin":6215,"dole":6216,"doba":6217,"Ġgol":6218,"Ġgana":6219,"ĠgÃ©n":6220,"ĠPÃ¡n":6221,"ĠPay":6222,"ĠPers":6223,"ĠPap":6224,"ĠPatr":6225,"ĠPinos":6226,"ĠPilar":6227,"ĠPlaza":6228,"ĠPGR":6229,"blo":6230,"Ġvig":6231,"Ġviern":6232,"ĠvÃŃas":6233,"Ġfut":6234,"Ġfara":6235,"Ġfif":6236,"Ġfideicomiso":6237,"Ġfauna":6238,"tabr":6239,"Ġdese":6240,"Ġdesig":6241,"Ġdesper":6242,"Ġdesarrol":6243,"Ġdesfile":6244,"Ġdor":6245,"Ġdan":6246,"ĠdÃ©":6247,"Ġdado":6248,"Ġreel":6249,"ĠreducciÃ³n":6250,"Ġrebel":6251,"Ġreiniciamos":6252,"Ġredujo":6253,"olar":6254,"olas":6255,"oluca":6256,"Ġpartes":6257,"Ġpareci":6258,"Ġpartic":6259,"imes":6260,"imir":6261,"imilco":6262,"Ġunas":6263,"Ġunirnos":6264,"Ġsean":6265,"Ġsepul":6266,"ĠEug":6267,"ĠEuro":6268,"ĠEcu":6269,"ĠEgresos":6270,"ĠSC":6271,"ĠSun":6272,"ĠSÃŃ":6273,"ĠSob":6274,"ĠSud":6275,"ĠSerg":6276,"ĠSup":6277,"ĠAT":6278,"ĠAten":6279,"ĠAna":6280,"ĠAtl":6281,"uraciÃ³n":6282,"ienza":6283,"iental":6284,"ĠinÃº":6285,"Ġingreso":6286,"Ġinmej":6287,"ĠcomÃºn":6288,"ĠcomisiÃ³n":6289,"Ġcomenz":6290,"Ġcomienza":6291,"ĠNes":6292,"ĠNig":6293,"ĠNeg":6294,"ĠNoso":6295,"acal":6296,"acora":6297,"acapul":6298,"ĠTV":6299,"ĠTu":6300,"ĠTer":6301,"ĠTan":6302,"ĠTal":6303,"ĠTam":6304,"ĠTom":6305,"ĠTur":6306,"ĠTres":6307,"ĠTermin":6308,"ĠTerr":6309,"ĠTorr":6310,"ĠTamp":6311,"ĠTercer":6312,"ĠToluca":6313,"enso":6314,"iro":6315,"ecen":6316,"ecciÃ³n":6317,"usan":6318,"usieron":6319,"Ġbin":6320,"Ġbol":6321,"ĠbÃºs":6322,"Ġbron":6323,"ĠLl":6324,"ĠLona":6325,"ĠLabor":6326,"ĠLiÃ©":6327,"ĠLleg":6328,"ĠLÃŃnea":6329,"ĠLectura":6330,"ĠLerdo":6331,"Ã±ado":6332,"Ã±ez":6333,"Ġaltos":6334,"Ġaltas":6335,"Ġalej":6336,"Ġalreded":6337,"eler":6338,"ella":6339,"ulo":6340,"ulpas":6341,"icil":6342,"icial":6343,"iciÃ³":6344,"Ġnoble":6345,"ucan":6346,"ĠMÃ©len":6347,"ĠGo":6348,"ĠGer":6349,"ĠGait":6350,"ĠGiam":6351,"ĠGesta":6352,"ĠGeorg":6353,"itic":6354,"itud":6355,"itores":6356,"itual":6357,"itativa":6358,"ĠRa":6359,"ĠRamos":6360,"ĠRoc":6361,"ĠRay":6362,"ĠRum":6363,"ĠRich":6364,"ĠRÃŃos":6365,"dennos":6366,"igos":6367,"Ġpueda":6368,"eroica":6369,"ĠBo":6370,"ĠBas":6371,"ĠBras":6372,"ĠBot":6373,"ĠBase":6374,"ĠBÃ©l":6375,"ocÃŃ":6376,"ocemos":6377,"Ã¡nta":6378,"Ã¡nico":6379,"Ã¡ndose":6380,"Ãºcar":6381,"Ãºchil":6382,"Ãºdennos":6383,"quiz":6384,"quito":6385,"forzamos":6386,"ĠJer":6387,"ĠJames":6388,"Ġtolera":6389,"aymas":6390,"ayucan":6391,"umal":6392,"umbres":6393,"ĠDamiÃ¡n":6394,"ĠestÃ©n":6395,"Ġestuve":6396,"Ġestadio":6397,"Ġestuvo":6398,"Ġestatales":6399,"Ġtre":6400,"Ġterm":6401,"Ġtub":6402,"Ġtrem":6403,"Ġterre":6404,"uerta":6405,"ĠVa":6406,"ĠVide":6407,"ĠVila":6408,"ĠVill":6409,"ĠVega":6410,"ĠVlad":6411,"ĠVaticano":6412,"ĠIl":6413,"ĠIm":6414,"ĠIvÃ¡n":6415,"egas":6416,"ĠsubiÃ³":6417,"ĠHe":6418,"ĠHaremos":6419,"ĠHait":6420,"ĠHÃ©roes":6421,"ĠHSBC":6422,"ĠHeroica":6423,"Ġjur":6424,"Ġjusti":6425,"Ġjaguar":6426,"ĠoperaciÃ³n":6427,"Ġodios":6428,"Ġaclar":6429,"Ġactiva":6430,"Ġacerca":6431,"troquÃŃ":6432,"Ġpresencia":6433,"Ġcomport":6434,"Ġcompet":6435,"idencia":6436,"ĠFra":6437,"ĠFlores":6438,"term":6439,"terio":6440,"tercambi":6441,"Ġapeg":6442,"Ġresuel":6443,"Ġrespec":6444,"Ġresiste":6445,"Ġreserva":6446,"Ġ23":6447,"Ġ210":6448,"isten":6449,"Ġamo":6450,"Ġamena":6451,"izaco":6452,"Ġconsagr":6453,"Ġconsigna":6454,"Enc":6455,"Enfr":6456,"Ġdial":6457,"Ġdiferencias":6458,"Ġdialo":6459,"entÃ©":6460,"ĠOb":6461,"ĠOs":6462,"ĠOme":6463,"Ġemerg":6464,"Ġpresidenciales":6465,"moto":6466,"Ġseri":6467,"Ġseres":6468,"Ġserie":6469,"tudes":6470,"tuvo":6471,"tuario":6472,"tubre":6473,"Ġcamion":6474,"Ġcaminar":6475,"Ġexhib":6476,"Ġimper":6477,"Ġimpera":6478,"ĠChina":6479,"ĠChet":6480,"ĠChrist":6481,"Ġmilitantes":6482,"ierto":6483,"tengo":6484,"Ġtit":6485,"Ġtierr":6486,"Ġtrabajador":6487,"ĠUru":6488,"ĠUSM":6489,"ĠUsum":6490,"ĠUcran":6491,"ĠEse":6492,"ĠEstrategia":6493,"Ġcorr":6494,"Ġcoras":6495,"Ġcierto":6496,"Ġcivil":6497,"Ġciclo":6498,"Ġquitar":6499,"ĠquiÃ©n":6500,"ociaciÃ³n":6501,"ĠrÃ©c":6502,"Ġrural":6503,"Ġreno":6504,"Ġrenta":6505,"Ġruta":6506,"ĠrÃ¡p":6507,"Ġsalva":6508,"Ġimporta":6509,"guo":6510,"guis":6511,"Ġpodamos":6512,"Ġpotencia":6513,"uentes":6514,"Ġsobornos":6515,"ortistas":6516,"huat":6517,"arril":6518,"ĠMarte":6519,"ĠMarco":6520,"ĠMartin":6521,"ĠMargar":6522,"ĠMarcos":6523,"ĠMargarit":6524,"bledo":6525,"ĠRef":6526,"ĠReina":6527,"ĠRepres":6528,"ĠRefrend":6529,"Ġcub":6530,"Ġcuentan":6531,"Ġgobernantes":6532,"Ġobviamente":6533,"Ġrecuerdo":6534,"Ġanh":6535,"ĠdemÃ³cr":6536,"ĠSanto":6537,"ĠSantan":6538,"Ġmaneras":6539,"ĠTriun":6540,"ĠTribun":6541,"ordar":6542,"ordina":6543,"Ġllenos":6544,"Ġletra":6545,"Ġapoyan":6546,"Ġsolid":6547,"ĠAlb":6548,"ĠAld":6549,"ĠAlto":6550,"ĠAltos":6551,"ĠAlator":6552,"Conclus":6553,"uaro":6554,"uardo":6555,"uyen":6556,"Ġfrac":6557,"Ġhacemos":6558,"ĠUniÃ³n":6559,"ĠUnido":6560,"Ġhaga":6561,"ĠhazaÃ±a":6562,"ĠEncuentro":6563,"Ġprem":6564,"Ġpreci":6565,"Ġrespetamos":6566,"ĠSalÃ³n":6567,"ĠSaldremos":6568,"ĠSalgado":6569,"ĠZa":6570,"ĠZald":6571,"ĠZoÃ©":6572,"eneraciÃ³n":6573,"Ġsiquiera":6574,"ueltas":6575,"uelPresidente":6576,"Ġdisf":6577,"ĠdisposiciÃ³n":6578,"Ġempresarial":6579,"Ġempresariales":6580,"Reafirmamos":6581,"Reforzamos":6582,"Ġcreador":6583,"ĠcreciÃ³":6584,"Ġcreciendo":6585,"Ġcreyentes":6586,"Ġsustentada":6587,"ĠAnd":6588,"Ġcarden":6589,"andard":6590,"andros":6591,"Ġencargo":6592,"Ġorien":6593,"Ġdirecta":6594,"iet":6595,"Ã³mico":6596,"Estuve":6597,"Ġregional":6598,"Ġregionales":6599,"chetti":6600,"ĠcoaliciÃ³n":6601,"Ġcoquiz":6602,"Ġcoordina":6603,"Ġarg":6604,"Ġarreg":6605,"ĠCalak":6606,"Ġvisto":6607,"ĠRobledo":6608,"ialogamos":6609,"âĢĵ":6610,"âĢĻ":6611,"Ã©rito":6612,"Ġatendemos":6613,"atepec":6614,"Ġpropa":6615,"laro":6616,"ĠQues":6617,"Ġperspectiva":6618,"Ġpasar":6619,"ĠpasÃ³":6620,"Ġayu":6621,"Ġdejemos":6622,"entaria":6623,"Ġmillon":6624,"Ġgarantiza":6625,"Ġgarantizamos":6626,"ĠGuzmÃ¡n":6627,"ĠGuasav":6628,"ĠGuaymas":6629,"Ġpervers":6630,"Ġperfec":6631,"iaria":6632,"Ġelecta":6633,"Ġinforma":6634,"Ġinformativa":6635,"ĠinformarÃ©":6636,"Ġfalsa":6637,"ĠLee":6638,"Ġescolar":6639,"Ġhumana":6640,"Ġinvit":6641,"ĠinvitÃ©":6642,"Ġimportancia":6643,"Ġ36":6644,"Ġ300":6645,"Ġculturales":6646,"ĠAriz":6647,"Ġfinanzas":6648,"Ġadquis":6649,"Ã³rico":6650,"Ġveracruz":6651,"Â».\"":6652,"Ġmod":6653,"Ġmotor":6654,"Ġmodelo":6655,"Ġmayas":6656,"Ġhabitantes":6657,"irme":6658,"Ġparticipa":6659,"ĠparticipÃ³":6660,"Ġparticipamos":6661,"Ġparticipado":6662,"ĠeconÃ³micas":6663,"edia":6664,"edro":6665,"Ġejercer":6666,"Ã©ditos":6667,"exo":6668,"Ġconfi":6669,"ĠrepresentarÃ¡":6670,"Ġmartes":6671,"Ġmargen":6672,"Ã¡rcega":6673,"ĠSepÃºl":6674,"ĠAcayucan":6675,"Ġpoderosa":6676,"Ġliberal":6677,"Prop":6678,"valeciÃ³":6679,"Ġ40":6680,"Ġ42":6681,"Ġ47":6682,"Ġvacunar":6683,"eth":6684,"etta":6685,"Ġ58":6686,"Ġsiglos":6687,"Ġsignific":6688,"Ã©ctor":6689,"Ġtenga":6690,"grafÃŃa":6691,"ĠpetroquÃŃ":6692,"Ġequivo":6693,"Ġequitativa":6694,"ĠConvenciÃ³n":6695,"Ġconver":6696,"ĠespÃŃritu":6697,"Ġ75":6698,"ĠComunicaciÃ³n":6699,"Ġrespaldo":6700,"ĠFrank":6701,"ĠCantabr":6702,"ĠNayar":6703,"ĠterminÃ³":6704,"Ġterminado":6705,"Ġterminando":6706,"Ġterminaremos":6707,"ĠterminarÃ¡":6708,"ificaciÃ³n":6709,"parto":6710,"veda":6711,"Ġplanes":6712,"ĠAmÃ©r":6713,"ĠAmeric":6714,"ĠBancaria":6715,"ĠCambio":6716,"ompaÃ±Ã©":6717,"ĠcrÃ©ditos":6718,"Ġcumplimos":6719,"Ġcumplido":6720,"Ġcumpliendo":6721,"Ġcumplimiento":6722,"ĠganarÃ¡":6723,"ĠPueblos":6724,"Ġactualidad":6725,"Ġ1910":6726,"ĠllegarÃ¡":6727,"ĠseguirÃ¡n":6728,"Ġ68":6729,"Ġcosto":6730,"Ġcostas":6731,"Ġaplicando":6732,"Ġmaestras":6733,"ĠCoatlÃ¡n":6734,"ĠCoalc":6735,"Ġrefug":6736,"Ġciudadana":6737,"âĢĶ,":6738,"ĠrepresentaciÃ³n":6739,"Ġplena":6740,"Ġplural":6741,"Ġplenas":6742,"Ġplayas":6743,"Ġexpresar":6744,"Ġexpresamos":6745,"Ġexpresaron":6746,"Ġexpresidente":6747,"ĠPrincip":6748,"ĠPrieto":6749,"ĠPromulgaciÃ³n":6750,"ĠAsamble":6751,"ĠAsociaciÃ³n":6752,"Ġllamamos":6753,"ĠQuintÃŃn":6754,"Ġigles":6755,"Ġlleva":6756,"Ġadecu":6757,"Ġcabal":6758,"ĠenvÃŃo":6759,"Ġvencer":6760,"Ġinsta":6761,"Ġinspir":6762,"Ġcombinado":6763,"ĠVald":6764,"ionada":6765,"ĠKen":6766,"Ġforjada":6767,"Ġfuerzas":6768,"ĠfundaciÃ³n":6769,"ĠJalapa":6770,"Ġprincipio":6771,"Ġprincipales":6772,"Ġidea":6773,"Ġlocales":6774,"Ġposi":6775,"Ġcanal":6776,"Ġcancil":6777,"Ġcancel":6778,"hagÃºn":6779,"iela":6780,"ieles":6781,"tÃ³lico":6782,"Ġafectada":6783,"Ġcomerci":6784,"Ġcomercial":6785,"Ġcomercio":6786,"Ġprofunda":6787,"ĠconservaciÃ³n":6788,"Ġconservador":6789,"Ġconservadora":6790,"Ġpensar":6791,"Ġpensando":6792,"Ġcall":6793,"Ġcalor":6794,"Ġcalamidades":6795,"Ġmalandros":6796,"ĠprÃ³jimo":6797,"Ġprivados":6798,"Ġprivada":6799,"ĠLoz":6800,"Ġoficio":6801,"ĠmisiÃ³n":6802,"Ġmisma":6803,"ĠPeÃ±":6804,"ĠPoor":6805,"ĠTodavÃŃa":6806,"ĠTokio":6807,"Ġrecordando":6808,"Ġ//":6809,"ĠMandela":6810,"ĠfelicitaciÃ³n":6811,"Ġfelicitaciones":6812,"achuca":6813,"Ġdiscapacidad":6814,"Ġdisculpas":6815,"Ġhumanas":6816,"Ġhumanista":6817,"Ġavances":6818,"Ġchica":6819,"ĠAyala":6820,"itorial":6821,"ĠJojutla":6822,"Ġdifuntos":6823,"cesa":6824,"Ġocul":6825,"Ġoctubre":6826,"Ġ90":6827,"ĠParÃŃs":6828,"ĠPartido":6829,"Ġreciben":6830,"ĠSaludos":6831,"ĠSaludable":6832,"Ġpalanca":6833,"Ġcolabor":6834,"icholes":6835,"ĠPaÃŃs":6836,"Ġbello":6837,"Ġtanta":6838,"Ġambos":6839,"Ġambiental":6840,"ĠOrden":6841,"Ġentregamos":6842,"Ġentregando":6843,"Ġentregaron":6844,"Ġleyenda":6845,"Ġsolidaria":6846,"Acuerdo":6847,"Acabo":6848,"postamos":6849,"Ġqueridos":6850,"Ġfallecidos":6851,"Ġfuncionado":6852,"Ġfuncionando":6853,"Ġtarea":6854,"Ġentrada":6855,"ĠCorrup":6856,"ĠCorea":6857,"ĠcontinÃºa":6858,"Ġnaturales":6859,"ĠExpres":6860,"Ġresultado":6861,"Ġmandatarios":6862,"Ġtempor":6863,"Ġtemprano":6864,"Ġvale":6865,"Ġactividad":6866,"Ġimpulsa":6867,"ĠMartha":6868,"Ġlegisladoras":6869,"109":6870,"Ġaumento":6871,"Ġaumentos":6872,"ĠMixteca":6873,"ĠIsla":6874,"Ġllevando":6875,"ĠaprobaciÃ³n":6876,"Ġaprobado":6877,"Ġinauguraremos":6878,"inarias":6879,"Ġpromotor":6880,"impi":6881,"ĠEdznÃ¡":6882,"ĠEduardo":6883,"Ġintensidad":6884,"Ġintensificar":6885,"ochtit":6886,"ĠtÃ©cnico":6887,"ĠtÃ©cnica":6888,"Ġsupervisando":6889,"Ġconsumo":6890,"ĠEscuch":6891,"ĠEscÃ¡rcega":6892,"Ġcoordinadores":6893,"ĠautÃ©nticos":6894,"Ġautopista":6895,"Ġorganismos":6896,"ĠVallejo":6897,"Ġirre":6898,"ĠirÃ¡":6899,"Ġgeneraciones":6900,"Ġfelices":6901,"Ġdarle":6902,"ĠApoyo":6903,"ĠApizaco":6904,"Ġincrem":6905,"Ġincomp":6906,"iterÃ©":6907,"Ġexplo":6908,"Ġexponer":6909,"ĠArmando":6910,"ĠarqueolÃ³gicos":6911,"Ġsostuvimos":6912,"Ġprioritario":6913,"Ġrecinto":6914,"Ġreafirmar":6915,"ĠSahagÃºn":6916,"ĠAMLO":6917,"ĠAzc":6918,"ĠAzul":6919,"Ġincluyendo":6920,"ĠincluyÃ³":6921,"Ġbuscamos":6922,"Ġbuscaron":6923,"Ġtratado":6924,"Ġamplia":6925,"Ġpopulares":6926,"ĠUniversal":6927,"ĠUniversidades":6928,"2021":6929,"Ġrecuperar":6930,"itemos":6931,"Ġsanitaria":6932,"Ġsangre":6933,"Ġhoriz":6934,"ĠSerÃ¡":6935,"Ġbanda":6936,"icionales":6937,"Ġnoticias":6938,"ĠGrace":6939,"ĠGrande":6940,"ĠacabÃ³":6941,"Ġ2006":6942,"Ġtelecomunicaciones":6943,"Ġtelevis":6944,"Ġescuchando":6945,"ĠformaciÃ³n":6946,"ĠencontrÃ©":6947,"Ġencontrarlos":6948,"Ġprecurs":6949,"Ġhijas":6950,"Ġfranqueza":6951,"ĠAbrazos":6952,"ĠRoss":6953,"ĠBarran":6954,"Ġasambleas":6955,"Ġsubsecretaria":6956,"Garantizaremos":6957,"Ġutil":6958,"Ġderro":6959,"Ġmomentos":6960,"Ġconmemorar":6961,"Ġquedaron":6962,"Ġflor":6963,"Ġflora":6964,"Ġdestino":6965,"Ġdestinar":6966,"ĠinundaciÃ³n":6967,"ĠTuxpan":6968,"Ġapartadas":6969,"ĠmarginaciÃ³n":6970,"Presentamos":6971,"rocarril":6972,"Ġdecidir":6973,"Ġdecidido":6974,"Ġcenso":6975,"Ġcensurado":6976,"Ġlaboral":6977,"Ġlaborales":6978,"Ġmineros":6979,"Ġminuto":6980,"ĠMilpa":6981,"Ġvirtual":6982,"ĠdesafÃŃos":6983,"Ġdesafuero":6984,"Ġ140":6985,"ĠFederaciÃ³n":6986,"Ġrenacimiento":6987,"Ġrecorrer":6988,"Ġantigua":6989,"Ġadversarios":6990,"Ġinteresante":6991,"Ġcombustible":6992,"Ġgasolinazo":6993,"ĠtelefÃ³n":6994,"ĠtelefonÃŃa":6995,"risti":6996,"Ġferrocarril":6997,"ĠÃºnica":6998,"Ġagradecimiento":6999,"Ġmutuamente":7000,"Ġveda":7001,"ĠvehÃŃculos":7002,"Ġdesayunando":7003,"Ġrecog":7004,"ĠNiÃ±os":7005,"Ġalimentaria":7006,"ĠFink":7007,"ĠFuerza":7008,"Ġempezar":7009,"Ġempezamos":7010,"Ġentusiasmada":7011,"Ġcorrespond":7012,"ĠcientÃŃfico":7013,"Ġcuarteles":7014,"ĠmedianÃŃa":7015,"Ġoriginarias":7016,"ManuelPresidente":7017,"Sigamos":7018,"incul":7019,"Ġsuma":7020,"Ġenferm":7021,"ĠesplÃ©ndido":7022,"ĠMoham":7023,"ĠMacron":7024,"Ġdescanse":7025,"ĠSeguiremos":7026,"Ġbarata":7027,"ĠIxtlahuaca":7028,"Ġcompleto":7029,"Ġimaginen":7030,"Ġpreparando":7031,"Ġpreparativos":7032,"Ġregistr":7033,"Ġadelantar":7034,"Ġsuculento":7035,"Ġinstitucional":7036,"Ġavanzado":7037,"Ġutilizar":7038,"Ġutilizando":7039,"Ġencabezo":7040,"Ġentrevistamos":7041,"Atendemos":7042,"Ġlimpias":7043,"ĠCultura":7044,"ĠCultural":7045,"Ġconocido":7046,"Ġnegocios":7047,"Ġnegociador":7048,"iscales":7049,"Ġfomentar":7050,"Ġbatear":7051,"ĠGabriela":7052,"Ġsupuesta":7053,"ĠapostÃ³lico":7054,"dernizaciÃ³n":7055,"ĠinvertirÃ¡n":7056,"ĠadmiraciÃ³n":7057,"ĠCoordinaciÃ³n":7058,"Ġinconclusa":7059,"Ġinconclusas":7060,"Recon":7061,"diana":7062,"gmatiz":7063,"rosoft":7064,"ticamente":7065,"Ġblanque":7066,"Ġlujo":7067,"Ġpintor":7068,"Ġatiende":7069,"aloapan":7070,"Ġcontagios":7071,"Ġguarij":7072,"Ġviaj":7073,"Ġviaje":7074,"Ġrealmente":7075,"Ġretroceso":7076,"ĠAgatha":7077,"ilotes":7078,"Ġtortil":7079,"ĠInfraestructura":7080,"ĠAlemÃ¡n":7081,"Ġabierto":7082,"Ġventaja":7083,"ĠcalificaciÃ³n":7084,"Ġcalificadora":7085,"ĠescribiÃ³":7086,"Ġdifundirlo":7087,"ĠZapopan":7088,"Ġinaugurarlo":7089,"Ġpromoviendo":7090,"Ġprecandidato":7091,"ĠrecomendaciÃ³n":7092,"Ġoriginarios":7093,"ĠetcÃ©tera":7094,"Ġreactivar":7095,"TerminÃ³":7096,"ĠpenÃŃnsula":7097,"Ġpelota":7098,"Ġcentral":7099,"ĠmostrÃ³":7100,"ĠConago":7101,"ĠMatamor":7102,"ĠMocorito":7103,"ĠMoctezuma":7104,"Ġhuicholes":7105,"Ġdomicil":7106,"ĠSteinme":7107,"ĠSolalin":7108,"ackRock":7109,"Ġporfirista":7110,"Ġporfiriato":7111,"ĠVirgen":7112,"ĠVirtual":7113,"Ġsufrimiento":7114,"ĠHuetamo":7115,"ĠHistoria":7116,"Ġpresumir":7117,"Ġresistir":7118,"Ġexpertos":7119,"Ġrumor":7120,"ĠpodrÃŃa":7121,"ĠRevilla":7122,"ĠRevueltas":7123,"Ġsincero":7124,"Ġmedicina":7125,"Ġmedicinas":7126,"Ġsitio":7127,"Ġsitios":7128,"Ġencarcel":7129,"Ġarrojo":7130,"Ġinvestigar":7131,"Ġconvierte":7132,"Ġcostumbre":7133,"Ġcostumbres":7134,"Ġcalumnia":7135,"ĠTepetitÃ¡n":7136,"ĠofrecÃŃ":7137,"Ġperseverancia":7138,"ĠcÃŃvico":7139,"ĠcÃŃvica":7140,"FalleciÃ³":7141,"Fortalecemos":7142,"ĠÃīl":7143,"Ġceiba":7144,"ĠcayÃ³":7145,"Ġeficacia":7146,"ĠsaturaciÃ³n":7147,"ĠcontestÃ³":7148,"Ġconcluir":7149,"Ġprueba":7150,"ĠMerce":7151,"Ġgestas":7152,"Ġfarmac":7153,"ĠfÃ¡cil":7154,"Ġdesesperados":7155,"Ġductos":7156,"ĠdivisiÃ³n":7157,"Ġrepetir":7158,"Ġseparar":7159,"ĠAmazon":7160,"ĠNormalidad":7161,"Ġalternativas":7162,"ĠGolfo":7163,"ĠJudicial":7164,"ĠDeclaraciÃ³n":7165,"ĠactÃºan":7166,"Ġcomplicidad":7167,"ĠFiscalÃŃa":7168,"Ġconsidero":7169,"Ġcambiar":7170,"Ġimpresionante":7171,"Ġquiniela":7172,"Ġobispo":7173,"ĠMezquitic":7174,"Ġanalizar":7175,"Ġdemandas":7176,"Ġlluvia":7177,"Ġrespetuosos":7178,"Ġconfiarnos":7179,"Ġconflicto":7180,"Ġespiritual":7181,"Ġprofundamente":7182,"ĠParticipa":7183,"Alfonso":7184,"Apoyamos":7185,"Ġderroche":7186,"Ġconstatamos":7187,"Ġglobal":7188,"Ġatravesamos":7189,"ĠcatÃ³licos":7190,"Ġratificado":7191,"Firmamos":7192,"Ġajeno":7193,"Ġcumpla":7194,"Ġlatinos":7195,"Ġmacane":7196,"ĠmaÃ±an":7197,"ĠmÃºsica":7198,"Ġmercado":7199,"ĠCerro":7200,"ĠCresencio":7201,"ĠCienfuegos":7202,"Ġconjunto":7203,"Ġcontrovers":7204,"Ġestigmatiz":7205,"ĠMicrosoft":7206,"ĠMitla":7207,"ĠMujeres":7208,"Ġgigante":7209,"ĠgestiÃ³n":7210,"ĠPinchetti":7211,"ĠPolÃŃtica":7212,"ĠvendiÃ³":7213,"Ġdesgracia":7214,"Ġdiversidad":7215,"ĠStandard":7216,"ĠSimÃ³n":7217,"ĠNuestro":7218,"ĠTemacapul":7219,"Ġalbergues":7220,"ucker":7221,"ĠGraue":7222,"ĠBlackRock":7223,"ĠDurazo":7224,"ĠDepor":7225,"ĠDomingo":7226,"Ġtamales":7227,"ĠtÃºneles":7228,"ĠImagen":7229,"Ġprotagonistas":7230,"ĠHerrera":7231,"Ġconsecuente":7232,"Ġconsejeros":7233,"Ġexige":7234,"Ġimpedir":7235,"ĠrecreaciÃ³n":7236,"Concluimos":7237,"Ġfrijol":7238,"ĠpreocupaciÃ³n":7239,"Ġcotidiana":7240,"ĠarmonÃŃa":7241,"Ġabsoluto":7242,"Ġoptimista":7243,"Ġindividual":7244,"Ġcriterio":7245,"ĠCoppola":7246,"Ġexpresidentes":7247,"ĠdiscriminaciÃ³n":7248,"ĠXochimilco":7249,"AndrÃ©sManuelPresidente":7250,"Ġcapacidades":7251,"ĠsÃŃmbolo":7252,"ĠMauricio":7253,"Ġverdaderamente":7254,"Ġinfluyent":7255,"ĠElectricidad":7256,"ĠhipÃ³crita":7257,"Ġmagisterio":7258,"Ġzopilotes":7259,"Ġsustituir":7260,"Ġvulnera":7261,"ĠtÃ©rminos":7262,"AMLO":7263,"Aplicamos":7264,"Izamiento":7265,"ModernizaciÃ³n":7266,"Necesitamos":7267,"Walter":7268,"mattei":7269,"zintla":7270,"Ġlineamientos":7271,"Ġpitcher":7272,"Ġpintado":7273,"Ġagravios":7274,"ĠcÃ³nsules":7275,"Ġclave":7276,"Ġcuenta":7277,"orÃ¡ndum":7278,"Ġendeudar":7279,"ĠCatacora":7280,"ĠCobÃ¡":7281,"ĠCajeme":7282,"ĠCentla":7283,"ĠCÃ³rdoba":7284,"ĠCervantes":7285,"ĠCuevas":7286,"ĠCristÃ³bal":7287,"Ġconformidad":7288,"ĠconfrontaciÃ³n":7289,"Ġcontundente":7290,"Ġnubes":7291,"Ã©utica":7292,"Ġpracticar":7293,"ĠMurat":7294,"ĠMapastepec":7295,"ĠMachado":7296,"ĠMochis":7297,"ĠMotozintla":7298,"ĠgÃ©nero":7299,"ĠPÃ¡nuco":7300,"ĠPayÃ¡n":7301,"ĠPersonas":7302,"Ġviernes":7303,"Ġparticular":7304,"ĠEugenia":7305,"ĠEcuador":7306,"ĠSergio":7307,"ĠinÃºtil":7308,"Ġinmejorables":7309,"ĠNosotros":7310,"Ġbronce":7311,"ĠLiÃ©bano":7312,"Ġalrededor":7313,"ĠMÃ©lenchon":7314,"ĠGaitÃ¡n":7315,"ĠGiammattei":7316,"ĠRichard":7317,"ĠBrasil":7318,"ĠBÃ©lgica":7319,"Ġtermina":7320,"Ġtremendo":7321,"ĠVladimir":7322,"ĠHaitÃŃ":7323,"Ġcomportamiento":7324,"Ġcompetencia":7325,"Ġamenazas":7326,"ĠOmetepec":7327,"ĠChetumal":7328,"Ġtierras":7329,"ĠUSMCA":7330,"ĠUsumacinta":7331,"ĠUcrania":7332,"ĠrÃ©cord":7333,"ĠMargarita":7334,"ĠMargaritas":7335,"ĠSantander":7336,"ĠTribunal":7337,"ĠAlatorre":7338,"ConclusiÃ³n":7339,"ĠZaldÃŃvar":7340,"Ġcoquizadora":7341,"ĠCalakmul":7342,"ĠGuasave":7343,"ĠSepÃºlveda":7344,"ĠCantabria":7345,"ĠCoalcomÃ¡n":7346,"ĠAsamblea":7347,"Ġcanciller":7348,"ĠcolaboraciÃ³n":7349,"ochtitlan":7350,"ĠMatamoros":7351,"ĠSteinmeier":7352,"ĠSolalinde":7353,"ĠfarmacÃ©utica":7354,"ĠTemacapulÃŃn":7355,"':":7356,"'d":7357,"'s":7358,"--":7359,"12":7360,"13":7361,"18":7362,"125":7363,"46":7364,"82":7365,"95":7366,":\"\"":7367,"AC":7368,"Av":7369,"Agua":7370,"Abra":7371,"Aban":7372,"Apostamos":7373,"BA":7374,"Bien":7375,"Bienestar":7376,"Buen":7377,"Bend":7378,"BVA":7379,"Buena":7380,"CI":7381,"Cen":7382,"CÃ³":7383,"Cla":7384,"Cuar":7385,"CVI":7386,"Cultur":7387,"Cambi":7388,"CAN":7389,"Claud":7390,"Chan":7391,"CrÃ©dito":7392,"DH":7393,"Dar":7394,"Dec":7395,"Dimos":7396,"Danza":7397,"Dice":7398,"EME":7399,"FA":7400,"Fes":7401,"For":7402,"Felipe":7403,"Foro":7404,"GI":7405,"General":7406,"Gabriel":7407,"He":7408,"Her":7409,"Haremos":7410,"Hasta":7411,"Hacia":7412,"HabrÃ¡":7413,"IN":7414,"IT":7415,"IFA":7416,"JN":7417,"Ju":7418,"Jos":7419,"Justicia":7420,"Luc":7421,"Luchamos":7422,"LAC":7423,"LCAN":7424,"Mar":7425,"Mis":7426,"MÃ¡s":7427,"NI":7428,"NO":7429,"NTE":7430,"OS":7431,"Otro":7432,"Ofrenda":7433,"Pe":7434,"Po":7435,"Paci":7436,"PolÃŃ":7437,"Peti":7438,"Proc":7439,"Ricardo":7440,"SA":7441,"SC":7442,"Ser":7443,"SÃŃ":7444,"Solo":7445,"TA":7446,"Tul":7447,"Tama":7448,"Tian":7449,"Utiliz":7450,"Val":7451,"Voy":7452,"Volv":7453,"Yunes":7454,"auguraciÃ³n":7455,"bamos":7456,"bur":7457,"bay":7458,"bran":7459,"bido":7460,"bord":7461,"buj":7462,"byn":7463,"bacoa":7464,"cter":7465,"cada":7466,"ctor":7467,"cÃ©s":7468,"cend":7469,"como":7470,"ctura":7471,"centa":7472,"colo":7473,"coles":7474,"cerse":7475,"canse":7476,"catepec":7477,"don":7478,"dic":7479,"dÃ³n":7480,"dica":7481,"dund":7482,"dismo":7483,"darios":7484,"dinaria":7485,"eb":7486,"edo":7487,"eter":7488,"edencia":7489,"fy":7490,"fem":7491,"foc":7492,"frez":7493,"feder":7494,"fred":7495,"flu":7496,"gÃ©":7497,"gencia":7498,"gina":7499,"gones":7500,"gaÃ±":7501,"gÃ¼":7502,"guera":7503,"gedia":7504,"hi":7505,"hr":7506,"hor":7507,"hum":7508,"hones":7509,"hensiÃ³n":7510,"hacer":7511,"ik":7512,"ire":7513,"ius":7514,"iform":7515,"iana":7516,"iante":7517,"iÃ©c":7518,"iadora":7519,"itido":7520,"jÃ³":7521,"jil":7522,"jÃ¡n":7523,"jate":7524,"ks":7525,"ken":7526,"kin":7527,"kist":7528,"lando":7529,"lÃŃs":7530,"ladores":7531,"lund":7532,"leros":7533,"lende":7534,"lace":7535,"ller":7536,"lÃºa":7537,"mes":7538,"mar":7539,"mad":7540,"mÃ³n":7541,"mito":7542,"micos":7543,"mira":7544,"mentar":7545,"ner":7546,"nar":7547,"nal":7548,"nam":7549,"nol":7550,"nacional":7551,"ngo":7552,"ndad":7553,"ok":7554,"ov":7555,"otas":7556,"oft":7557,"put":7558,"pens":7559,"pÃ¡n":7560,"pados":7561,"pita":7562,"rs":7563,"rad":7564,"rat":7565,"rÃ©":7566,"rom":7567,"rÃ¡n":7568,"san":7569,"ste":7570,"strucciÃ³n":7571,"sayo":7572,"tina":7573,"tadores":7574,"tismo":7575,"tamiento":7576,"tice":7577,"uk":7578,"uz":7579,"uos":7580,"uÃŃ":7581,"uqu":7582,"uales":7583,"uario":7584,"ujo":7585,"uÃ±a":7586,"uanas":7587,"vas":7588,"vando":7589,"vemos":7590,"vila":7591,"vech":7592,"vecho":7593,"wit":7594,"wait":7595,"xito":7596,"xeno":7597,"yes":7598,"yÃ³":7599,"yac":7600,"yva":7601,"yles":7602,"zol":7603,"zob":7604,"zado":7605,"zados":7606,"zcal":7607,"zgos":7608,"zatlÃ¡n":7609,"zÃºa":7610,"ÄŁ":7611,"Åį":7612,"Ġ.":7613,"Ġ0":7614,"Ġ;":7615,"Ġ[":7616,"ĠĠ":7617,"Ġta":7618,"Ġol":7619,"Ġiden":7620,"ĠÃ©s":7621,"Ġzar":7622,"ĠÃ¡m":7623,"Ġtapa":7624,"Ġxeno":7625,"decor":7626,"determ":7627,"Ġdecl":7628,"Ġdetuvimos":7629,"Ġdecor":7630,"enes":7631,"entr":7632,"enciones":7633,"enista":7634,"enciales":7635,"entral":7636,"Ġ\"#":7637,"osi":7638,"osiÃ³n":7639,"osper":7640,"osques":7641,"ostÃ³n":7642,"esÃŃa":7643,"esca":7644,"erci":7645,"erÃ³n":7646,"erÃ¡n":7647,"ervo":7648,"ericas":7649,"ertura":7650,"Ġli":7651,"Ġlic":7652,"Ġllan":7653,"ĠlÃŃn":7654,"Ġlista":7655,"Ġlech":7656,"cita":7657,"cist":7658,"one":7659,"onen":7660,"onic":7661,"onte":7662,"onados":7663,"onda":7664,"onder":7665,"onga":7666,"ontales":7667,"Ġpm":7668,"Ġpeg":7669,"Ġple":7670,"Ġpante":7671,"Ġpier":7672,"Ġpido":7673,"Ġpato":7674,"Ġpistas":7675,"Ġpion":7676,"Ġpunto":7677,"Ġpuesto":7678,"Ġpuestos":7679,"ĠpiÃ±a":7680,"Ġpusieron":7681,"arco":7682,"arito":7683,"Ġaun":7684,"Ġater":7685,"Ġavis":7686,"Ġabre":7687,"Ġatin":7688,"Ġaval":7689,"Ġagres":7690,"Ġaerop":7691,"Ġagradec":7692,"Ġatrib":7693,"ĠaÃ©rea":7694,"Ġatem":7695,"Ġaeroespacial":7696,"Ġcl":7697,"Ġcaci":7698,"Ġcel":7699,"Ġcul":7700,"Ġcuc":7701,"Ġcuer":7702,"Ġcemp":7703,"Ġcans":7704,"Ġcruz":7705,"ĠcarÃ¡":7706,"Ġcena":7707,"Ġcele":7708,"Ġceno":7709,"Ġcach":7710,"Ġcoco":7711,"Ġcoch":7712,"Ġcentenario":7713,"Ġcerramos":7714,"Ġlan":7715,"Ġladr":7716,"Ġlamentar":7717,"orres":7718,"orÃŃa":7719,"oracio":7720,"orrup":7721,"orÃŃas":7722,"orosa":7723,"orcio":7724,"ann":7725,"anim":7726,"anales":7727,"antil":7728,"anea":7729,"anke":7730,"Ġmm":7731,"Ġmic":7732,"Ġmam":7733,"ĠmÃ©":7734,"Ġmens":7735,"Ġmec":7736,"Ġmero":7737,"Ġmund":7738,"ĠmÃ¡r":7739,"Ġmulta":7740,"Ġmuseo":7741,"Ġmoche":7742,"ĠmÃ³vil":7743,"ĠmÃ©rito":7744,"alÃŃ":7745,"alte":7746,"allar":7747,"ini":7748,"inn":7749,"inde":7750,"ines":7751,"inam":7752,"inacional":7753,"inamente":7754,"inosa":7755,"iniciÃ³":7756,"Ġeven":7757,"Ġefici":7758,"Ġeje":7759,"Ġevan":7760,"Ġegres":7761,"Ġedi":7762,"Ġsien":7763,"Ġsens":7764,"Ġsano":7765,"Ġsuel":7766,"Ġsarg":7767,"Ġsaque":7768,"adr":7769,"adig":7770,"adira":7771,"adilla":7772,"reÃŃ":7773,"reta":7774,"rema":7775,"retera":7776,"requete":7777,"rehensiÃ³n":7778,"uecos":7779,"Ġeno":7780,"Ġenti":7781,"Ġenem":7782,"Ġentidad":7783,"Ġenfo":7784,"ĠengaÃ±":7785,"Ġenlace":7786,"Ġenalte":7787,"ases":7788,"asÃºchil":7789,"Ġele":7790,"ican":7791,"icac":7792,"icul":7793,"icados":7794,"icciones":7795,"ĠCI":7796,"ĠCis":7797,"ĠCel":7798,"ĠCero":7799,"ĠCada":7800,"ĠCort":7801,"ĠCÃ©s":7802,"ĠCamil":7803,"ĠCed":7804,"ĠCorte":7805,"ĠCatar":7806,"ĠCatem":7807,"ĠCueva":7808,"ĠCiro":7809,"ĠCNTE":7810,"ĠCentral":7811,"amÃ¡":7812,"ampaÃ±a":7813,"ambay":7814,"unciÃ³n":7815,"untamiento":7816,"ath":7817,"atas":7818,"atur":7819,"atÃŃa":7820,"atural":7821,"aticar":7822,"ation":7823,"atible":7824,"aterales":7825,"tres":7826,"tran":7827,"trico":7828,"trora":7829,"trales":7830,"trona":7831,"tritos":7832,"truimos":7833,"trices":7834,"Ġcono":7835,"Ġconden":7836,"Ġconqu":7837,"Ġconduc":7838,"Ġcontras":7839,"Ġconce":7840,"Ġcongres":7841,"Ġconcil":7842,"Ġcontamos":7843,"Ġconcu":7844,"Ġconocimiento":7845,"Ġcontral":7846,"Ġconferencias":7847,"Ġcondecor":7848,"Ã³nde":7849,"Ã³nico":7850,"Ã³noma":7851,"Ã³nzal":7852,"ÃŃdo":7853,"ÃŃmul":7854,"Ã¡tica":7855,"Ã¡fr":7856,"Ã¡ticos":7857,"Ã¡huat":7858,"todo":7859,"topos":7860,"tomas":7861,"tocolo":7862,"tea":7863,"teg":7864,"teza":7865,"Ġnep":7866,"Ġnegr":7867,"ĠnÃ¡huat":7868,"Ã©z":7869,"Ġesos":7870,"Ġestr":7871,"Ġesencia":7872,"Ġespec":7873,"Ġescal":7874,"Ġestim":7875,"ĠprÃ³s":7876,"isti":7877,"isab":7878,"isario":7879,"istir":7880,"isgÃ³n":7881,"ĠMC":7882,"ĠMc":7883,"ĠMen":7884,"ĠMol":7885,"ĠMul":7886,"ĠMando":7887,"ĠMora":7888,"ĠMax":7889,"ĠMendo":7890,"ĠMena":7891,"ĠMich":7892,"ĠMatos":7893,"ĠMalin":7894,"ĠMÃ³vil":7895,"quebran":7896,"omÃ©":7897,"omistas":7898,"omine":7899,"tiÃ¡n":7900,"tida":7901,"tiguo":7902,"tify":7903,"Ġhim":7904,"ĠharÃ¡n":7905,"Ġhorn":7906,"Ġhuev":7907,"Ġhrs":7908,"utos":7909,"idy":7910,"fera":7911,"ferentes":7912,"Ġqueda":7913,"Ġquehacer":7914,"doles":7915,"Ġgo":7916,"Ġgub":7917,"ĠPen":7918,"ĠPol":7919,"ĠPab":7920,"ĠPet":7921,"ĠPaco":7922,"ĠPensiÃ³n":7923,"ĠPiti":7924,"ĠPapan":7925,"ĠPiÃ±":7926,"ĠPutin":7927,"ĠPachuca":7928,"ĠPEME":7929,"ĠPicac":7930,"Ġmatutinas":7931,"blos":7932,"blor":7933,"blica":7934,"Ġvi":7935,"Ġvar":7936,"Ġvac":7937,"Ġvers":7938,"Ġvimos":7939,"Ġviento":7940,"Ġvano":7941,"Ġvial":7942,"Ġvaya":7943,"Ġvino":7944,"Ġvolver":7945,"Ġvicios":7946,"Ġvienen":7947,"Ġvincul":7948,"Ġfac":7949,"Ġfus":7950,"ĠfÃº":7951,"Ġfier":7952,"Ġfug":7953,"Ġfiscales":7954,"tape":7955,"Ġdesin":7956,"Ġdesem":7957,"Ġdescon":7958,"Ġdescu":7959,"Ġdeseamos":7960,"Ġdesped":7961,"Ġdesplom":7962,"Ġdestruir":7963,"Ġdesbord":7964,"Ġdeshones":7965,"Ġdestape":7966,"Ġdamos":7967,"Ġdul":7968,"Ġdanza":7969,"Ġdura":7970,"Ġduda":7971,"Ġduros":7972,"ĠdÃ³nde":7973,"Ġrev":7974,"Ġreaf":7975,"Ġretras":7976,"Ġrememor":7977,"ĠrevoluciÃ³n":7978,"Ġrequier":7979,"Ġremed":7980,"Ġreiteramos":7981,"Ġreapertura":7982,"Ġredund":7983,"Ġremes":7984,"oln":7985,"olid":7986,"olit":7987,"ollam":7988,"oltita":7989,"ĠparÃ³":7990,"Ġparque":7991,"Ġparada":7992,"Ġparejo":7993,"Ġparlamentar":7994,"Ġparadig":7995,"imas":7996,"Ġunidades":7997,"Ġunidos":7998,"Ġuniform":7999,"Ġunanim":8000,"ĠEvalu":8001,"ĠEche":8002,"ĠEvel":8003,"ĠSos":8004,"ĠSoy":8005,"ĠSie":8006,"ĠSRE":8007,"ĠSique":8008,"ĠSpo":8009,"ĠSomos":8010,"ĠSEP":8011,"ĠSusan":8012,"ĠSput":8013,"obil":8014,"obel":8015,"obje":8016,"ĠAf":8017,"ĠAde":8018,"ĠAut":8019,"ĠAud":8020,"ĠAla":8021,"ĠAvan":8022,"ĠAdr":8023,"ĠAdu":8024,"ĠAgradecÃŃ":8025,"ĠAgradecemos":8026,"ĠAplica":8027,"ĠAutop":8028,"ĠAeroespacial":8029,"ĠAÃ±ado":8030,"ury":8031,"uramos":8032,"urador":8033,"urita":8034,"urinacional":8035,"emente":8036,"empres":8037,"emÃŃnimo":8038,"emne":8039,"ilio":8040,"iland":8041,"ilapa":8042,"ilberto":8043,"iendas":8044,"iendan":8045,"icotepec":8046,"Ġinci":8047,"Ġintro":8048,"Ġinolv":8049,"Ġingresos":8050,"Ġinefici":8051,"Ġingl":8052,"Ġinquebran":8053,"Ġinobje":8054,"Ġcoman":8055,"Ġcometi":8056,"Ġcomenzamos":8057,"ĠNor":8058,"ĠNÃº":8059,"ĠNadie":8060,"ĠNarro":8061,"ĠNanc":8062,"ĠNervo":8063,"ĠNatural":8064,"ĠNobel":8065,"ĠparaÃŃso":8066,"tario":8067,"tarÃŃa":8068,"tarios":8069,"acto":8070,"acho":8071,"activo":8072,"acomul":8073,"ĠTat":8074,"ĠTig":8075,"ĠTra":8076,"ĠTay":8077,"ĠTend":8078,"ĠTienen":8079,"ĠTLCAN":8080,"ĠTorres":8081,"abia":8082,"abel":8083,"abra":8084,"abando":8085,"abiol":8086,"abind":8087,"abuena":8088,"Ġportuario":8089,"Ġporcenta":8090,"iablos":8091,"irr":8092,"iros":8093,"irle":8094,"irva":8095,"irino":8096,"ecados":8097,"ecuciÃ³n":8098,"usiÃ³n":8099,"usura":8100,"ustÃ³":8101,"Ġba":8102,"Ġbur":8103,"Ġbasta":8104,"Ġboliv":8105,"Ġbesos":8106,"Ġbimes":8107,"Ġbecados":8108,"ĠLen":8109,"ĠLor":8110,"ĠLÃ¡s":8111,"ĠLarr":8112,"ĠLula":8113,"ĠLunes":8114,"ĠLinc":8115,"ĠLlamamos":8116,"iotismo":8117,"Ã±irnos":8118,"ĠtrÃ¡":8119,"Ġtramos":8120,"Ġtrato":8121,"Ġtrajo":8122,"Ġalta":8123,"Ġaleg":8124,"Ġalent":8125,"Ġaltura":8126,"Ġalbor":8127,"ĠallÃŃ":8128,"Ġaleccion":8129,"elas":8130,"ello":8131,"elle":8132,"elada":8133,"elet":8134,"elÃ©ctrica":8135,"elanda":8136,"ullo":8137,"ernos":8138,"icie":8139,"iciar":8140,"icional":8141,"Ġnovel":8142,"uces":8143,"uctÃŃ":8144,"ĠGl":8145,"ĠGan":8146,"ĠGay":8147,"ĠGana":8148,"ĠGuy":8149,"ĠGand":8150,"ĠGusta":8151,"ĠGÃ¼":8152,"ĠGert":8153,"ĠGÃ³nzal":8154,"ĠGilberto":8155,"Ġmeta":8156,"Ġmezcal":8157,"oya":8158,"itÃ¡c":8159,"ive":8160,"ivos":8161,"ivas":8162,"ivoc":8163,"ĠRes":8164,"ĠRinc":8165,"ĠRabind":8166,"udaciÃ³n":8167,"udita":8168,"igios":8169,"iguen":8170,"igadas":8171,"igenista":8172,"Ġpuedas":8173,"Ġpuedan":8174,"ĠBe":8175,"ĠBal":8176,"ĠBÃ¡":8177,"ĠBaj":8178,"ĠBra":8179,"ĠBlas":8180,"ĠBusc":8181,"ĠBoch":8182,"ĠBomb":8183,"ĠBuena":8184,"ĠBatalla":8185,"ĠBert":8186,"ĠBacal":8187,"ĠBBVA":8188,"ĠBosques":8189,"ĠBadira":8190,"ocas":8191,"ocracia":8192,"uestamente":8193,"ajas":8194,"rapu":8195,"quil":8196,"quir":8197,"quÃŃa":8198,"queros":8199,"quila":8200,"quiles":8201,"quite":8202,"quidy":8203,"ĠJar":8204,"ĠJuch":8205,"ĠJerem":8206,"ĠJunta":8207,"ĠJiqu":8208,"Ġtotal":8209,"Ġtotopos":8210,"stenciones":8211,"umada":8212,"ĠDa":8213,"ĠDol":8214,"ĠDra":8215,"ĠDios":8216,"ĠDice":8217,"ĠDamnificados":8218,"ĠDiam":8219,"ĠDicen":8220,"ĠDHL":8221,"ĠDuque":8222,"ĠDialogamos":8223,"ĠDiablos":8224,"Ã¡squez":8225,"ĠestaciÃ³n":8226,"Ġestrec":8227,"Ġestuvieron":8228,"Ġton":8229,"Ġtal":8230,"Ġtas":8231,"ĠtÃº":8232,"Ġtum":8233,"Ġtamp":8234,"Ġtuvieron":8235,"ĠtostÃ³n":8236,"uerda":8237,"uerdan":8238,"logos":8239,"ĠVoy":8240,"ĠVÃŃc":8241,"ĠVÃ¡zquez":8242,"ĠViet":8243,"ĠVÃ¡squez":8244,"ĠII":8245,"ĠINA":8246,"ĠItal":8247,"ĠIcel":8248,"ĠICA":8249,"ĠIrapu":8250,"egaciÃ³n":8251,"Ġprogram":8252,"Ġprovecho":8253,"Ġprotocolo":8254,"ĠHen":8255,"ĠHer":8256,"ĠHid":8257,"ĠHemos":8258,"ĠHubo":8259,"ĠHuracÃ¡n":8260,"ĠHechos":8261,"ĠHuerta":8262,"ĠHÃ©ctor":8263,"ĠHoracio":8264,"Ġjuar":8265,"Ġjod":8266,"ĠjamÃ¡s":8267,"formo":8268,"rute":8269,"Ġopres":8270,"ĠojalÃ¡":8271,"Ġofrenda":8272,"Ġotrora":8273,"Ġaccion":8274,"Ġacaba":8275,"Ġactores":8276,"Ġacapar":8277,"Ġaceler":8278,"Ġpresento":8279,"Ġprestaron":8280,"Ġpresenciales":8281,"Ġcompos":8282,"onesia":8283,"grÃŃa":8284,"graremos":8285,"orable":8286,"roempres":8287,"ĠPalabra":8288,"pea":8289,"pecial":8290,"peÃ±o":8291,"pezamos":8292,"idable":8293,"letas":8294,"goza":8295,"rang":8296,"ranza":8297,"ranath":8298,"recto":8299,"rectiva":8300,"Ġ120":8301,"daz":8302,"ĠFa":8303,"ĠFal":8304,"ĠFre":8305,"ĠFama":8306,"ĠFace":8307,"ĠFlor":8308,"ĠFondo":8309,"ĠFIFA":8310,"ĠFisgÃ³n":8311,"ĠFabiol":8312,"Ġaplica":8313,"Ġapag":8314,"Ġaportar":8315,"ĠaprehensiÃ³n":8316,"Ġresolv":8317,"Ġresistencia":8318,"adable":8319,"Ġ22":8320,"aÃ±o":8321,"izas":8322,"izada":8323,"izca":8324,"perar":8325,"peras":8326,"trable":8327,"Ġconsis":8328,"Ġconsol":8329,"Ġconsiste":8330,"Ġconsenso":8331,"EnvÃŃo":8332,"ÃŃsimos":8333,"deramiento":8334,"dernidad":8335,"Ġdij":8336,"Ġdiario":8337,"Ġdiferentes":8338,"entud":8339,"entantes":8340,"ĠOj":8341,"ĠOHL":8342,"ĠOfrez":8343,"Ġemoci":8344,"Ġpresidentas":8345,"motivo":8346,"ĠserÃ©":8347,"Ġseremos":8348,"tub":8349,"tuaremos":8350,"tuosa":8351,"Ġcamas":8352,"Ġcamis":8353,"Ġcampos":8354,"Ġexit":8355,"Ġextens":8356,"Ġexoner":8357,"Ġexcel":8358,"ĠEstud":8359,"ĠEstÃŃmul":8360,"contrat":8361,"ĠChico":8362,"ĠChontal":8363,"ĠChampo":8364,"ĠChristi":8365,"erme":8366,"Ġmiles":8367,"Ġentero":8368,"ieres":8369,"ierre":8370,"tenden":8371,"tengan":8372,"Ġtienes":8373,"Ġtrabajadora":8374,"ĠUU":8375,"ĠUres":8376,"ĠUlÃºa":8377,"ĠEso":8378,"ĠEstratÃ©g":8379,"dadas":8380,"Ġcoraje":8381,"Ġcorpor":8382,"Ġcorred":8383,"Ġcim":8384,"Ġcien":8385,"ĠcitÃ©":8386,"Ġcierta":8387,"Ġras":8388,"Ġrun":8389,"Ġrico":8390,"Ġracional":8391,"ĠrarÃ¡":8392,"Ġrama":8393,"Ġriego":8394,"ĠrÃŃos":8395,"Ġrurales":8396,"Ġrusos":8397,"Ġrompe":8398,"Ġrinde":8399,"Ġriendas":8400,"Ġsalin":8401,"Ġsalida":8402,"Ġsalvo":8403,"Ġsalarios":8404,"Ġsalvando":8405,"Ġimpug":8406,"Ġimpuesta":8407,"Ġimpuso":8408,"Ġimpacto":8409,"guay":8410,"guato":8411,"guila":8412,"Ġpodremos":8413,"Ġpopul":8414,"Ġpozol":8415,"ĠpoemÃŃnimo":8416,"apÃ©":8417,"apotz":8418,"apole":8419,"ĠentreguÃ©":8420,"ortalidad":8421,"huy":8422,"ansiÃ³n":8423,"ustiano":8424,"ĠInvers":8425,"ĠIndia":8426,"ĠInauguraciÃ³n":8427,"lano":8428,"ĠMark":8429,"ĠMarx":8430,"ĠMarquel":8431,"ĠReafirm":8432,"ĠReiterÃ©":8433,"ĠReyes":8434,"Ġvivos":8435,"ĠviviÃ³":8436,"vistar":8437,"Ġ209":8438,"venciones":8439,"Ġtransforma":8440,"ĠtransiciÃ³n":8441,"ĠtransgÃ©n":8442,"Ġcubano":8443,"Ġcuyo":8444,"Ġcuentas":8445,"ĠcuÃ¡nta":8446,"Ġcuotas":8447,"Ġgobernada":8448,"Ġgobernabilidad":8449,"Ġreunirme":8450,"ĠEllos":8451,"ĠEliÃ©c":8452,"Ġobtuvo":8453,"Ġrecha":8454,"Ġrectitud":8455,"Ġrecuerda":8456,"ĠMetro":8457,"ĠMedel":8458,"ĠMedio":8459,"ĠMetrop":8460,"Ġano":8461,"Ġanim":8462,"Ġantir":8463,"Ġanterior":8464,"Ġanuncio":8465,"Ġanoche":8466,"Ġmix":8467,"Ġmiel":8468,"ĠmiÃ©r":8469,"Ġsindic":8470,"uchin":8471,"pliaciÃ³n":8472,"ĠLaur":8473,"Ġmantenemos":8474,"Ġmantiene":8475,"brar":8476,"brica":8477,"briÃ³":8478,"ezcan":8479,"Ġsobreviv":8480,"Ġllenas":8481,"Ġasum":8482,"Ġaseg":8483,"Ġasoci":8484,"Ġasumo":8485,"Ġastrona":8486,"Ġsecreto":8487,"vables":8488,"rÃ¡tica":8489,"Ġleer":8490,"Ġletras":8491,"Ġleves":8492,"Ġlealtad":8493,"ficio":8494,"ficit":8495,"ficios":8496,"ĠapoyÃ³":8497,"uventud":8498,"ĠsoluciÃ³n":8499,"Ġsolemne":8500,"ĠAlma":8501,"ĠAlcal":8502,"ĠAlianza":8503,"ĠAlonso":8504,"ĠAllende":8505,"ConocÃŃ":8506,"Ġmedida":8507,"Ġfruta":8508,"Ġfrases":8509,"ĠfructÃŃ":8510,"\"\";":8511,"idemos":8512,"Ġhacernos":8513,"ĠYax":8514,"ĠYanqu":8515,"ĠYesca":8516,"ĠEntre":8517,"ĠEnvÃŃo":8518,"ĠVerde":8519,"ĠVerdu":8520,"Ġprev":8521,"Ġprecip":8522,"Ġrespetando":8523,"ĠSalto":8524,"ĠSaltillo":8525,"Esc":8526,"ĠZara":8527,"ĠZelanda":8528,"ĠZitÃ¡c":8529,"Ġmexicaneros":8530,"uelos":8531,"Ġprima":8532,"Ġdistritos":8533,"Reforma":8534,"Refrend":8535,"Reiteramos":8536,"ducto":8537,"Ġcrea":8538,"Ġcreen":8539,"Ġcreado":8540,"Ġcreando":8541,"Ġcreados":8542,"ĠcrearÃ¡n":8543,"Ġcreencias":8544,"Ġsocios":8545,"ĠAndr":8546,"ĠAntrop":8547,"ĠAnexo":8548,"ĠAntiguo":8549,"biÃ©n":8550,"Ġpartida":8551,"Ġpartidarios":8552,"zarÃ¡n":8553,"Ġcard":8554,"Ġcarteras":8555,"andona":8556,"Ġeconomistas":8557,"ĠdirecciÃ³n":8558,"ieta":8559,"ieza":8560,"Ġsaludar":8561,"Ġgobernadoras":8562,"Estados":8563,"pecuario":8564,"Ġhistori":8565,"Ġregla":8566,"chos":8567,"Ġlibr":8568,"Ġlibro":8569,"Ġlibros":8570,"Ġcoincidimos":8571,"Ġcoerci":8572,"Ġauton":8573,"Ġarma":8574,"Ġarch":8575,"Ġargent":8576,"ĠCalvo":8577,"ĠCalkin":8578,"Ġestemos":8579,"Ġvista":8580,"ĠvisiÃ³n":8581,"ĠvisitÃ©":8582,"ĠRoger":8583,"zog":8584,"Ġsecretarias":8585,"demÃ³cr":8586,"Ġatentos":8587,"tines":8588,"tinÃºan":8589,"Ġpropor":8590,"Ġpropia":8591,"Ġproponer":8592,"tadura":8593,"Ġperson":8594,"Ġpersegu":8595,"ĠpersecuciÃ³n":8596,"Ġcomunic":8597,"Ġcomunista":8598,"pasados":8599,"Ġpasos":8600,"ĠpasÃ©":8601,"Ġpasiones":8602,"ĠCaro":8603,"ĠCarranza":8604,"omovemos":8605,"Ġdejes":8606,"ĠdejÃ©":8607,"tirse":8608,"tival":8609,"Ġperfor":8610,"Ġperten":8611,"Ġperderemos":8612,"Ġmader":8613,"Ġmagn":8614,"Ġinformo":8615,"ĠinformÃ©":8616,"Ġinformados":8617,"Ġfaltar":8618,"Ġfalten":8619,"Ġamiga":8620,"iÃ³tica":8621,"Ġdeben":8622,"Ġdebat":8623,"ĠLeona":8624,"ĠLeyva":8625,"ĠescapÃ©":8626,"Ġhumor":8627,"Ġhumano":8628,"Ġabus":8629,"Ġabog":8630,"Ġabordar":8631,"Ġabstenciones":8632,"Ġinvitamos":8633,"ĠinvitaciÃ³n":8634,"Ġ32":8635,"Ġ35":8636,"Ġ37":8637,"bolismo":8638,"ipar":8639,"ĠArgan":8640,"ĠArmen":8641,"ĠArnol":8642,"ĠArabia":8643,"ĠGuerra":8644,"Ġfing":8645,"Ġfinados":8646,"Ġfincada":8647,"Ġadver":8648,"Ġadher":8649,"Ġadmira":8650,"Ġaduanas":8651,"Ġadquir":8652,"Ã³rica":8653,"Ġinterior":8654,"Ġinterpre":8655,"Ġintervenciones":8656,"Â»\"":8657,"Â»:":8658,"cisiÃ³n":8659,"Ġmodernidad":8660,"ĠhabÃŃan":8661,"ĠhabÃŃamos":8662,"irmar":8663,"ĠeconÃ³micos":8664,"Ġdirectores":8665,"edamos":8666,"Ġejec":8667,"Ġejidal":8668,"ĠejÃ©rcito":8669,"ĠrepresiÃ³n":8670,"Ġdefien":8671,"Ġdefra":8672,"Ġdefende":8673,"Ġpermita":8674,"Ġpermiso":8675,"Ġpermiten":8676,"Ġmares":8677,"Ġmarco":8678,"Ġmarch":8679,"Ġyaqui":8680,"Ã¡ramos":8681,"Ã¡rqu":8682,"ĠSebas":8683,"ĠLujÃ¡n":8684,"Ġ(...":8685,"Ġcasos":8686,"Ġcasas":8687,"Ġcasual":8688,"ĠAcuerdos":8689,"ĠAcompaÃ±Ã©":8690,"ĠAcuÃ±a":8691,"ĠAcambay":8692,"Ġliberar":8693,"dras":8694,"ganda":8695,"Ġ43":8696,"Ġ44":8697,"Ġ46":8698,"Ġvacunado":8699,"Ġvacunarse":8700,"Ġiniciado":8701,"ĠiniciarÃ¡":8702,"Ġ52":8703,"Ġ550":8704,"Ġ82":8705,"Ġsiguen":8706,"ĠtenÃŃa":8707,"Ġtenden":8708,"ijalva":8709,"Ġequidad":8710,"Ġequivoc":8711,"ĠContamos":8712,"ĠConfeder":8713,"ĠConchos":8714,"Ġespero":8715,"Ġespion":8716,"ĠautorÃŃa":8717,"InformaciÃ³n":8718,"Intercambi":8719,"Informo":8720,"Septiembre":8721,"Ġ70":8722,"Ġ74":8723,"Ġ700":8724,"Ġsentir":8725,"Ġsencil":8726,"ĠCompos":8727,"ĠComunicaciones":8728,"ĠComitÃ¡n":8729,"ĠCompr":8730,"ĠComparto":8731,"ĠSinhue":8732,"Ġrespald":8733,"Ġresponder":8734,"ĠRepÃºblicas":8735,"ĠÃģvila":8736,"ĠÃģguila":8737,"ĠCanal":8738,"ĠCananea":8739,"ĠCanelas":8740,"Ġtermine":8741,"Ġterminal":8742,"ĠterminÃ©":8743,"Ġplane":8744,"Ġplanicie":8745,"ĠmuchÃŃsimo":8746,"ĠAmado":8747,"ĠAmericas":8748,"Ġayudado":8749,"ĠayudarÃ¡n":8750,"Ġayudarnos":8751,"Ġembajadora":8752,"Ġnecesaria":8753,"ompaÃ±amos":8754,"Ġhome":8755,"ĠsocialdemÃ³cr":8756,"ĠQuirino":8757,"Ġcruel":8758,"Ġcrimen":8759,"toyuca":8760,"Ġ1911":8761,"Ġ1948":8762,"Ġ1938":8763,"Ġ1994":8764,"Ġ1988":8765,"Ġ1946":8766,"Ġllegan":8767,"Ġllegando":8768,"Ġ64":8769,"Ġ69":8770,"Ġ600":8771,"Ġcostilla":8772,"Ġaplican":8773,"Ġaplicada":8774,"Ġaplicaremos":8775,"ĠaplicÃ¡ndose":8776,"Ġpeste":8777,"ĠsabÃŃa":8778,"Ġsabios":8779,"Ġsabros":8780,"Ġsabroso":8781,"Ġsabatino":8782,"Ġgasto":8783,"Ġgastos":8784,"Ġreflex":8785,"Ġintegran":8786,"Ġintegrada":8787,"ĠciudadanÃŃa":8788,"ĠMexicanos":8789,"Ġrepresentando":8790,"Ġpleno":8791,"Ġplaticamos":8792,"Ġplaticar":8793,"ĠplÃ¡tica":8794,"Ġempr":8795,"Ġempiez":8796,"Ġempieza":8797,"Ġmigajas":8798,"ĠProc":8799,"ĠProceso":8800,"Ġvoz":8801,"Ġvotaron":8802,"Ġfortaleci":8803,"ĠAspe":8804,"ĠAsesor":8805,"ilaquiles":8806,"Ġllamar":8807,"ĠQuintero":8808,"ederos":8809,"Ġign":8810,"Ġcabe":8811,"Ġcabecer":8812,"ĠenvÃŃa":8813,"Ġvence":8814,"Ġvenga":8815,"Ġvencida":8816,"ĠinstituciÃ³n":8817,"Ġinstruc":8818,"Ġcombinar":8819,"ĠcombustÃ³":8820,"ĠValles":8821,"ĠVallad":8822,"ionistas":8823,"ĠKuri":8824,"Ġenfrenta":8825,"Ġenfrentamos":8826,"Ġespeci":8827,"ĠPorfir":8828,"Ġfuera":8829,"Ġfueros":8830,"ĠfundÃ³":8831,"Ġfundador":8832,"Ġproduce":8833,"ĠproducÃŃa":8834,"Ġproductos":8835,"ĠacompaÃ±ado":8836,"ĠacompaÃ±ando":8837,"ĠacompaÃ±antes":8838,"pujil":8839,"ĠWal":8840,"ĠWil":8841,"ĠWilla":8842,"ĠWill":8843,"istema":8844,"Ġvagones":8845,"Ġinfund":8846,"Ġinfinita":8847,"ĠideolÃ³g":8848,"Ġpanistas":8849,"Ġcanasta":8850,"Ġcantidad":8851,"Ġcantada":8852,"ĠmÃ©dicas":8853,"ĠhospitalizaciÃ³n":8854,"Ġreconocer":8855,"ĠreconstrucciÃ³n":8856,"ĠhistÃ³ricos":8857,"Ġespecializado":8858,"Ġespecializada":8859,"Deseo":8860,"DespuÃ©s":8861,"Deseamos":8862,"Ġafectar":8863,"ĠafectÃ³":8864,"Ġconversado":8865,"Ġfronteriza":8866,"Ġfronterizas":8867,"ĠzÃ³calo":8868,"ĠpensarÃŃa":8869,"Ġcaliente":8870,"Ġmalv":8871,"Ġmalos":8872,"Ġmalas":8873,"ĠenergÃŃas":8874,"Ġgrata":8875,"Ġgratit":8876,"Ġgritan":8877,"Ġfunciones":8878,"Ġfunciona":8879,"Ġoficiales":8880,"Ġoficinas":8881,"Ġfraternos":8882,"ĠdemocrÃ¡ticos":8883,"menda":8884,"Ġmismos":8885,"Ġsurge":8886,"Ġsurreal":8887,"Ġproyectar":8888,"ĠPetro":8889,"ĠPepe":8890,"ĠPoza":8891,"ĠPopular":8892,"ĠPresupuesto":8893,"Ġfavorables":8894,"Ġfavorable":8895,"ĠTodas":8896,"ĠGarza":8897,"ĠDespuÃ©s":8898,"ĠDeseamos":8899,"ĠDescanse":8900,"ĠDurante":8901,"ĠrecordÃ³":8902,"ĠrecordarÃ©":8903,"Ġrecordaba":8904,"Ġequipar":8905,"Ġcausado":8906,"ĠfelicitÃ©":8907,"achicol":8908,"Ġdiscre":8909,"Ġhumanidad":8910,"Ġhumanitaria":8911,"ĠXX":8912,"ĠXi":8913,"ĠXicotepec":8914,"ĠXpujil":8915,"Ġusar":8916,"Ġusados":8917,"Ġdedico":8918,"tell":8919,"ĠMonclo":8920,"Anunci":8921,"Ġlegado":8922,"Ġlegalidad":8923,"ardier":8924,"Ġavanzar":8925,"Ġavanzamos":8926,"Ġchatar":8927,"Ġchontales":8928,"Ġchilaquiles":8929,"ĠAyuda":8930,"ĠAyox":8931,"ĠLucas":8932,"Ġlogro":8933,"Ġpoblanos":8934,"ĠregresÃ©":8935,"Ġlocalidades":8936,"otada":8937,"otismo":8938,"otlÃ¡n":8939,"Ġocho":8940,"Ġocup":8941,"ĠocupaciÃ³n":8942,"Ġevita":8943,"Ġevitemos":8944,"Ġnacionales":8945,"Ġhablo":8946,"Ġhablar":8947,"ĠprÃ³ximos":8948,"Ġ98":8949,"ĠÃ©xito":8950,"Ġdeportistas":8951,"ĠcÃ³d":8952,"ĠPark":8953,"ĠPardo":8954,"ĠParalÃŃmpicos":8955,"ĠSegal":8956,"ĠSegÃºn":8957,"ĠSeguro":8958,"ĠSaludamos":8959,"ĠÃģnimo":8960,"Quieres":8961,"Ġcoloc":8962,"Ġesperando":8963,"Ġprocl":8964,"Ġproceder":8965,"Ġproclam":8966,"Ġprocedencia":8967,"ĠPablo":8968,"ĠPakist":8969,"Ġdigna":8970,"Ġbellos":8971,"ĠbellÃŃs":8972,"ĠDebe":8973,"ĠDelegaciÃ³n":8974,"Ġsube":8975,"Ġsubir":8976,"Ġsubcontrat":8977,"Ġprotege":8978,"Ġproteja":8979,"Ġprotector":8980,"Ġambiciones":8981,"ĠOriz":8982,"ĠOrdinaria":8983,"ĠOrdaz":8984,"Ġentregado":8985,"Ġantepasados":8986,"ĠleyÃ³":8987,"Ġdocumento":8988,"Ġfundamento":8989,"AcompaÃ±amos":8990,"ogando":8991,"Ġdecisivo":8992,"Ġpronta":8993,"ĠZacap":8994,"Ġvisitaron":8995,"Ġvisitaremos":8996,"Ġpersonalmente":8997,"Ġfuncionan":8998,"ĠfuncionarÃ¡":8999,"Ġfuncionamiento":9000,"Ġolvida":9001,"Ġolvido":9002,"Ġentradas":9003,"Ġentrenamiento":9004,"ĠCorpor":9005,"ĠCorbyn":9006,"Ġcontinuemos":9007,"Ġnatal":9008,"Ġhermana":9009,"Ġvideoc":9010,"Ġvideollam":9011,"ĠrepÃºblica":9012,"ĠrepÃºblicas":9013,"Ġuniversidad":9014,"ĠExiste":9015,"ĠSureste":9016,"ĠresultÃ³":9017,"Ġmandan":9018,"Ġtemblor":9019,"ĠPresidencial":9020,"Debemos":9021,"DeSeptiembre":9022,"Ġpatriotismo":9023,"ĠCasas":9024,"Ġhonroso":9025,"Ġrealiza":9026,"ĠrealizÃ³":9027,"Ġrealizamos":9028,"Ġrealizaremos":9029,"Ġtomado":9030,"Ġtomada":9031,"ĠUrge":9032,"ĠUrquidy":9033,"ĠimpulsÃ³":9034,"105":9035,"108":9036,"Trump":9037,"Visitar":9038,"vertiremos":9039,"ondremos":9040,"onavit":9041,"Ġaumentado":9042,"Ġfonda":9043,"Ġfirme":9044,"Ġfirmar":9045,"Ġinversionistas":9046,"stalaciÃ³n":9047,"ĠIsabel":9048,"Ġ106":9049,"ĠllevÃ³":9050,"Ġllevamos":9051,"Ġllevaron":9052,"Ġsucursales":9053,"Ġaprobar":9054,"Ġaprobaron":9055,"Ġinaugurando":9056,"AyÃºdennos":9057,"uxtepec":9058,"uxtla":9059,"Ġevaluando":9060,"ĠClaudio":9061,"Ã¡monos":9062,"Ġpromotores":9063,"ĠMazatlÃ¡n":9064,"ĠEdgar":9065,"Ġintensamente":9066,"ĠTequila":9067,"ĠtraiciÃ³n":9068,"Ġtragedia":9069,"Ġturb":9070,"Ġturistas":9071,"Ġconsumidores":9072,"Ġcomprometido":9073,"Ġcoordinado":9074,"Ġcoordinador":9075,"Ġcoordinadora":9076,"ĠautÃ©nticas":9077,"Ġgarantizan":9078,"Ġgarantizaremos":9079,"ĠgarantizarÃ¡":9080,"Ġmovilidad":9081,"Ġrazas":9082,"ĠraÃŃz":9083,"Ġautomo":9084,"Ġautodeterm":9085,"Ġcorazones":9086,"ĠrecibÃŃan":9087,"ĠOlÃŃmp":9088,"ĠOlmeca":9089,"ĠOlimpi":9090,"Ġcintur":9091,"Ġasesores":9092,"Ġorganismo":9093,"ĠorganizaciÃ³n":9094,"ĠRodrigo":9095,"Ġperdamos":9096,"Ġinfluencia":9097,"Ġdistinto":9098,"Ġdistingu":9099,"Ġdistintivos":9100,"Ġlugares":9101,"ĠCabo":9102,"ĠCabeza":9103,"atorios":9104,"Ã¡bamos":9105,"Ġgenerar":9106,"Ġdarse":9107,"ĠApoy":9108,"ĠAprov":9109,"ĠApÃ³stol":9110,"ĠincreÃŃ":9111,"ĠVicario":9112,"Ġexport":9113,"ĠexpansiÃ³n":9114,"Ġtransmit":9115,"Ġtransmito":9116,"ĠtransmisiÃ³n":9117,"Ġtransmiten":9118,"ĠmediodÃŃa":9119,"Ġlibrepens":9120,"âĢľ.":9121,"Ġpetrolero":9122,"Ġpetroleros":9123,"Lograremos":9124,"ieso":9125,"Ġabrir":9126,"Ġsostienen":9127,"Ġsostengo":9128,"Ġprioritarios":9129,"Ġrecientes":9130,"ĠSaudita":9131,"ĠAlex":9132,"Ġincluidos":9133,"Ġbuscando":9134,"ituales":9135,"ĠRecon":9136,"ĠRecordamos":9137,"Ġampliar":9138,"dependiente":9139,"ĠPotosina":9140,"Ġrecupere":9141,"Ġrecuperado":9142,"MÃ©xicoDeci":9143,"ĠdemostrÃ³":9144,"Ġdemostrable":9145,"Ġagradable":9146,"anciero":9147,"ancingo":9148,"Ġsanas":9149,"Ġconvencimiento":9150,"Ġconvenciendo":9151,"Ġconvencionales":9152,"ĠTepuxtepec":9153,"ĠGral":9154,"ĠGrijalva":9155,"Ġcredencial":9156,"Ġatendieron":9157,"Ġescucha":9158,"ĠescucharÃ¡":9159,"Ġpermanezcan":9160,"Ġindustrias":9161,"ĠGobernadores":9162,"Ġformas":9163,"ĠformarÃ¡n":9164,"Ġprofesionales":9165,"ĠJohnson":9166,"Ġencontrarnos":9167,"TodavÃŃa":9168,"firista":9169,"porfirista":9170,"Ġurban":9171,"ĠprecampaÃ±a":9172,"Ġaviones":9173,"Ġmonumento":9174,"ĠmonÃ¡rqu":9175,"ĠmÃŃtines":9176,"Ġhija":9177,"Ġfranca":9178,"Ġfranja":9179,"Ġfrancesa":9180,"ĠfrancÃ©s":9181,"ĠAbraham":9182,"ĠRosarito":9183,"ĠHuautla":9184,"rudeza":9185,"ĠmilitarizaciÃ³n":9186,"Ġdistribuir":9187,"Ġordenar":9188,"ĠordenÃ³":9189,"Ġhospitalaria":9190,"Ġgratuito":9191,"Ġtriunfar":9192,"Ġtriunfaremos":9193,"Ġtriunfaron":9194,"Ġsubsecretarios":9195,"Ġasesinado":9196,"Comimos":9197,"Comiendo":9198,"Comenzamos":9199,"ptimo":9200,"Ġderrum":9201,"Ġcerti":9202,"Ġcerteza":9203,"Ġmomias":9204,"Ġconmemorativo":9205,"Ġquedado":9206,"Ġvuelto":9207,"Ġvuelvo":9208,"Ġvuelve":9209,"Ġflujo":9210,"Ġdestinado":9211,"ĠdestinarÃ¡n":9212,"Ġinmobil":9213,"ĠTamazula":9214,"ĠLigero":9215,"Ġtraduc":9216,"Ġtradiciones":9217,"Ġtradicionales":9218,"ĠproducirÃ¡n":9219,"Ġapartados":9220,"Ġapariencia":9221,"ĠEstaba":9222,"Ġrecomiendo":9223,"Ġrecomiendan":9224,"ĠconstruirÃ¡":9225,"ĠconstruirÃ¡n":9226,"Ġmarginados":9227,"Consider":9228,"Construimos":9229,"Hablamos":9230,"Ġdecidimos":9231,"Ġatractivo":9232,"ĠminorÃŃas":9233,"Ġminutos":9234,"Ġconcuerdan":9235,"Ġconstatar":9236,"Ġgraves":9237,"ĠPliego":9238,"ĠPlurinacional":9239,"ĠPerdÃ³n":9240,"Ġvirtudes":9241,"ĠfotografÃŃa":9242,"ologÃŃas":9243,"Ġinterno":9244,"Ġbajas":9245,"Ġbajamos":9246,"ĠbÃ¡sica":9247,"Ġtuvo":9248,"ĠINEGI":9249,"Ġoperando":9250,"Ġoperativo":9251,"ĠFederico":9252,"Ġ211":9253,"Ġconstituyen":9254,"ĠconstituyÃ³":9255,"Ġexplor":9256,"Ġexplico":9257,"Ġexplica":9258,"ĠexplosiÃ³n":9259,"Ġexcepto":9260,"ĠexcepciÃ³n":9261,"Ġrenuncia":9262,"ĠIndigenista":9263,"ĠIndonesia":9264,"Ġrecorridos":9265,"Ġantiguas":9266,"Ġencabeza":9267,"olveremos":9268,"Ġcircunstancia":9269,"Ġoportuno":9270,"AmpliaciÃ³n":9271,"key":9272,"ĠlÃŃmit":9273,"Ġpuente":9274,"Ġagradezco":9275,"Ġmutuo":9276,"Ġsistemas":9277,"unciar":9278,"Ġheridos":9279,"Ġheredamos":9280,"Ġherederos":9281,"ĠPoniente":9282,"ĠPoncho":9283,"Ġdesayuno":9284,"Ġdictadura":9285,"ĠEconomÃŃas":9286,"ĠEconÃ³mico":9287,"Ġalimento":9288,"ĠIzÃºcar":9289,"ĠFinanciero":9290,"ĠFuerte":9291,"Entrevista":9292,"ĠempeÃ±o":9293,"Ġestableci":9294,"Ġdispuesta":9295,"ĠfallarÃ©":9296,"Ġhumildad":9297,"Ġsignifique":9298,"Ġkilos":9299,"Ġdemostrar":9300,"Ġdemostrando":9301,"ficados":9302,"ficaciones":9303,"Ġaquella":9304,"Ġaquellos":9305,"Ġetn":9306,"Ġsacri":9307,"Ġnacimiento":9308,"ĠesplÃ©ndidas":9309,"Ġdelegaciones":9310,"Ġdescans":9311,"Ġdescentr":9312,"ĠSamuel":9313,"Ġbeb":9314,"Ġbarbacoa":9315,"Ġtropas":9316,"Ġtrovador":9317,"Ġtrascen":9318,"Ġalgunas":9319,"ellÃ³n":9320,"ĠIxtepec":9321,"Ġprovocaciones":9322,"ĠEspino":9323,"ĠEspri":9324,"ĠEspinosa":9325,"Ġdisciplinas":9326,"ĠregalÃ³":9327,"ĠregistrÃ³":9328,"Ġfinanciar":9329,"Ġfinancieros":9330,"Ġfinanciamiento":9331,"Ġbellezas":9332,"Ġtraicionar":9333,"ĠtraicionarÃ©":9334,"Ġperiodismo":9335,"Ġperiodista":9336,"Ġorganizada":9337,"Ġencabezar":9338,"Ġencabezado":9339,"Ġneoliberalismo":9340,"Atenderemos":9341,"Canel":9342,"CanadÃ¡":9343,"CancÃºn":9344,"Ġerario":9345,"Ġdeclar":9346,"Ġlimpia":9347,"Ġlimpiar":9348,"Ġpaciencia":9349,"ĠahÃŃ":9350,"Ġcrece":9351,"ĠsueÃ±o":9352,"Ġsimul":9353,"Ġsimpl":9354,"Ġsimbolismo":9355,"ĠCulturas":9356,"Ġgenial":9357,"ĠSigue":9358,"ĠTulancingo":9359,"ĠDemocrÃ¡tica":9360,"ĠIgual":9361,"Ġsupuestamente":9362,"Ġpadece":9363,"ropiado":9364,"Ġapostamos":9365,"Ġapostando":9366,"entanilla":9367,"ibramiento":9368,"ĠEsteban":9369,"Ġfrutos":9370,"Ġartesanales":9371,"ĠQuemada":9372,"ĠreligiÃ³n":9373,"Ġreligiones":9374,"Ġejerciendo":9375,"Ġdefinir":9376,"ĠdefiniciÃ³n":9377,"Ġusted":9378,"ĠhelicÃ³pteros":9379,"CELAC":9380,"EPA":9381,"SalÃŃ":9382,"Ġblind":9383,"dell":9384,"Ġluz":9385,"Ġpintura":9386,"Ġpocas":9387,"Ġatienda":9388,"Ġatrapados":9389,"Ġcueste":9390,"Ġcontratos":9391,"Ġcontratar":9392,"Ġcontagio":9393,"Ġcontagiado":9394,"Ġhamaca":9395,"Ġguardan":9396,"Ġgarantice":9397,"ĠdesapariciÃ³n":9398,"Ġrealidades":9399,"ĠEducativa":9400,"ĠAhumada":9401,"Ġintento":9402,"ĠintenciÃ³n":9403,"ĠBernal":9404,"Ġtenerle":9405,"Ġsuperar":9406,"Ġsuperflu":9407,"Ġprotestar":9408,"Ġproduciremos":9409,"ĠHelguera":9410,"Ġamistoso":9411,"ĠimposiciÃ³n":9412,"ĠInfonavit":9413,"ĠcuidÃ¡ndonos":9414,"Ġestablece":9415,"ĠtecnologÃŃas":9416,"Ġabierta":9417,"Ġabiertos":9418,"Ġrelajar":9419,"Ġdefensores":9420,"Ġcastigo":9421,"ĠcrÃŃticos":9422,"ĠProyectos":9423,"Ġescritores":9424,"ĠescribÃŃ":9425,"Ġpromovemos":9426,"Ġprecandidatura":9427,"ĠBarbacoa":9428,"ĠrecomendÃ©":9429,"Ġoriginan":9430,"Ġbeisbolistas":9431,"ĠreactivaciÃ³n":9432,"TerminÃ©":9433,"nik":9434,"parable":9435,"Ġpendientes":9436,"Ġpeloteros":9437,"Ġmostr":9438,"rellas":9439,"religios":9440,"ĠConagua":9441,"ĠCentroamÃ©rica":9442,"Ġcontribuir":9443,"Ġhuachicol":9444,"ĠPanamericanos":9445,"ĠPanamÃ¡":9446,"ĠPietro":9447,"ĠPiedra":9448,"ĠPiedras":9449,"Ġdestacado":9450,"Ġdestacados":9451,"Ġduele":9452,"ĠdueÃ±o":9453,"ĠdueÃ±os":9454,"Ġdomina":9455,"ĠTecomÃ¡n":9456,"Ġbusque":9457,"ĠBelice":9458,"ĠBelisario":9459,"ĠVenustiano":9460,"ĠHistÃ³rico":9461,"Ġjugando":9462,"Ġjugada":9463,"ĠpresumÃŃ":9464,"Ġresistido":9465,"Ġexperiencia":9466,"Ġrumores":9467,"ĠpodrÃ¡n":9468,"Ġsincera":9469,"Ġmedalla":9470,"Ġencarn":9471,"Ġarroz":9472,"ĠinvestigaciÃ³n":9473,"ĠadministraciÃ³n":9474,"ĠpequeÃ±o":9475,"Ġconvierta":9476,"Ġplanteamientos":9477,"ĠenviarÃ©":9478,"Ġenviarnos":9479,"Ġcalumn":9480,"Ġsembrar":9481,"ĠTepeyac":9482,"ĠLatinoamÃ©rica":9483,"ĠmanifestÃ³":9484,"ĠmanifestaciÃ³n":9485,"Ġperseverantes":9486,"Ġnerviosos":9487,"Ġnerviosismo":9488,"Ġindispensables":9489,"Cumplimos":9490,"Cumpliremos":9491,"Empezamos":9492,"Faltan":9493,"book":9494,"tlÃ©":9495,"Ġrango":9496,"Ġluctuoso":9497,"Ġpelele":9498,"Ġpudimos":9499,"Ġpudieron":9500,"Ġafanes":9501,"Ġatletas":9502,"ĠceÃ±irnos":9503,"Ġcayendo":9504,"Ġclaro":9505,"Ġmentira":9506,"Ġmirar":9507,"Ġeficaces":9508,"Ġsatis":9509,"Ġsometi":9510,"Ġsentencia":9511,"Ġsagrado":9512,"Ġsagrada":9513,"amorada":9514,"Ġcontrario":9515,"Ġcontento":9516,"Ġcontentos":9517,"Ġpruebas":9518,"titlÃ¡n":9519,"Ġguste":9520,"ĠPrecios":9521,"ĠPrevaleciÃ³":9522,"Ġfarsa":9523,"ĠfÃ¡brica":9524,"Ġdesesperada":9525,"Ġducto":9526,"Ġdivorcio":9527,"ĠrepeticiÃ³n":9528,"Ġreparto":9529,"ĠServicios":9530,"ĠAmaury":9531,"ĠNavidad":9532,"ĠNavarro":9533,"ĠNormal":9534,"Ġbrind":9535,"Ġbases":9536,"Ġtratarse":9537,"ĠRegina":9538,"ĠJefa":9539,"ĠJefe":9540,"ĠVillar":9541,"ĠIrma":9542,"Ġobliga":9543,"ĠpagarÃ¡":9544,"Ġaprovechar":9545,"Ġaprovechamos":9546,"Ġamericana":9547,"Ġamericano":9548,"Ġcaminan":9549,"Ġimprescin":9550,"ĠChicago":9551,"Ġrendimos":9552,"Ġcuidarnos":9553,"Ġobispos":9554,"ĠMezquital":9555,"Ġanalizamos":9556,"Ġllenar":9557,"Ġlluvias":9558,"Confiamos":9559,"Confieso":9560,"Ġpredomin":9561,"Ġpredomine":9562,"Ġrespetables":9563,"Ġrespetuosa":9564,"Ġdisfruten":9565,"chilÃ¡n":9566,"Ġpropiedad":9567,"Ġpropiedades":9568,"Ġcomunicarnos":9569,"ĠmodernizaciÃ³n":9570,"Ġconflictos":9571,"ĠoposiciÃ³n":9572,"Ġopositor":9573,"Ġconvivencia":9574,"Ġconvivimos":9575,"Ġconvocatoria":9576,"Ġespirituales":9577,"ĠJosefa":9578,"ĠJosefina":9579,"Ġinstrum":9580,"Ġinstrumento":9581,"Ġgrabar":9582,"ĠgrabÃ©":9583,"Ġaprendices":9584,"ĠocasiÃ³n":9585,"Ġocasiones":9586,"Ġdeportes":9587,"Ġdeportiva":9588,"Alfredo":9589,"Ġcontinuidad":9590,"Ġhonrado":9591,"Ġderrocar":9592,"ĠconstatÃ©":9593,"Ġglobales":9594,"ĠcatÃ³lico":9595,"Ġrevolucionario":9596,"ĠratificÃ³":9597,"Buscamos":9598,"Felicitaciones":9599,"Hagamos":9600,"Imaginen":9601,"Llegando":9602,"Promovemos":9603,"Respe":9604,"Vivos":9605,"Vivan":9606,"ĠÃŃndole":9607,"Ġerror":9608,"Ġerrores":9609,"Ġilegal":9610,"Ġilegalidad":9611,"Ġlengua":9612,"Ġpidiendo":9613,"Ġpolilla":9614,"Ġpoliti":9615,"Ġpelea":9616,"Ġpelearme":9617,"Ġazu":9618,"Ġmasivo":9619,"Ġsirve":9620,"ĠChoi":9621,"Ġnormalidad":9622,"Ġestructur":9623,"Ġestructuras":9624,"ĠMucha":9625,"Ġhinco":9626,"Ġhinca":9627,"Ġgerente":9628,"Ġgerentes":9629,"ĠPavÃ³n":9630,"ĠPavlov":9631,"ĠvÃŃspera":9632,"ĠvÃŃsperas":9633,"Ġvecino":9634,"Ġvecindad":9635,"ĠfÃŃsico":9636,"ĠfÃŃsica":9637,"ĠfÃ©rreas":9638,"Ġfiesta":9639,"Ġfiestas":9640,"Ġselva":9641,"Ġseleccion":9642,"ĠAustria":9643,"ĠAustralia":9644,"emoÃ±a":9645,"ĠNew":9646,"ĠTailand":9647,"ĠTenochtitlan":9648,"ĠTlalpan":9649,"Ġbondad":9650,"Ġbombeo":9651,"Ġtristeza":9652,"ĠRomero":9653,"ĠRivera":9654,"ĠRiviera":9655,"ĠBachelet":9656,"Ġtocayo":9657,"ĠDirectiva":9658,"ĠVisitamos":9659,"ĠHagamos":9660,"Ġjugo":9661,"Ġjueves":9662,"ĠacordÃ³":9663,"Ġpresentaron":9664,"Ġpapel":9665,"ĠpapÃ¡s":9666,"ĠPalmillas":9667,"Ġapasionado":9668,"ĠaportaciÃ³n":9669,"Ġamparo":9670,"Ġamparos":9671,"ĠdiplomÃ¡ticos":9672,"Ġentendimiento":9673,"Ġradical":9674,"Ġanunciamos":9675,"ĠmantenÃŃan":9676,"Ġsobrevolamos":9677,"Ġnietos":9678,"Ġnieve":9679,"Ġtepehuanos":9680,"Ġpreventivo":9681,"Ġcaricatura":9682,"Ġcaricatur":9683,"Ġcaracterizado":9684,"Ġconstructor":9685,"Ġconstructivo":9686,"ĠCardenal":9687,"ĠCardenales":9688,"Ġrelacionados":9689,"Ġdefendieron":9690,"Ġ575":9691,"Ġdoloroso":9692,"ĠConvenimos":9693,"ĠespontÃ¡neo":9694,"ĠespontÃ¡nea":9695,"ĠautorizÃ³":9696,"Invitamos":9697,"InvitÃ©":9698,"Ġrespondiendo":9699,"ĠprivatizÃ³":9700,"Lamentable":9701,"Lamentablemente":9702,"ĠÃ©poca":9703,"ĠÃ©pocas":9704,"Ġprocesar":9705,"Ġprotegerme":9706,"Ġrescatistas":9707,"ĠturÃŃstica":9708,"ĠturÃŃsticas":9709,"Ġagropecuario":9710,"ĠofreciÃ³":9711,"Ġinternacionales":9712,"Ġdiputado":9713,"Ġdiputada":9714,"ĠIndustrial":9715,"ĠpublicÃ³":9716,"Ġdisponible":9717,"Ġreligiosa":9718,"ĠcuestiÃ³n":9719,"Regresar":9720,"ĠnÃºmero":9721,"ĠnÃºmeros":9722,"Caminamos":9723,"Frente":9724,"Guadal":9725,"MemorÃ¡ndum":9726,"Tengo":9727,"Transmito":9728,"iÃ¡trico":9729,"Ġzap":9730,"ĠwixÃ¡rika":9731,"Ġdetalles":9732,"ĠlicitaciÃ³n":9733,"Ġliteratura":9734,"ondrÃ©":9735,"Ġpiensa":9736,"Ġadop":9737,"Ġaficionados":9738,"Ġcocina":9739,"Ġlagarto":9740,"Ġlagunas":9741,"Ġmueve":9742,"ĠecolÃ³gica":9743,"ĠsÃŃntomas":9744,"Ġenriquecerse":9745,"Ġeliminar":9746,"Ġelegido":9747,"ĠCaÃ±as":9748,"Ġnegativa":9749,"Ġneoporfirista":9750,"ĠestratÃ©gicos":9751,"Ġprudencia":9752,"Ġpromis":9753,"ĠMalpas":9754,"Ġgolpe":9755,"ĠPatriÃ³tica":9756,"ĠPilares":9757,"Ġvigor":9758,"Ġfutbol":9759,"ĠfifÃŃ":9760,"Ġdeseos":9761,"Ġdesigual":9762,"Ġdesperd":9763,"Ġdesarrolladores":9764,"Ġdormir":9765,"ĠdÃ©ficit":9766,"ĠreelecciÃ³n":9767,"Ġparecida":9768,"ĠEuropea":9769,"ĠSCJN":9770,"ĠSungan":9771,"ĠSobre":9772,"ĠSudÃ¡fr":9773,"ĠSuprema":9774,"ĠAtenciÃ³n":9775,"ĠAtlacomul":9776,"ĠcomenzÃ³":9777,"ĠNestlÃ©":9778,"ĠNigrom":9779,"ĠNegras":9780,"ĠTantoyuca":9781,"ĠTampa":9782,"ĠTurÃŃstico":9783,"ĠTerminaremos":9784,"ĠTorruco":9785,"ĠTampico":9786,"Ġboleta":9787,"ĠbÃºsqueda":9788,"ĠLaborista":9789,"Ġalejarlos":9790,"ĠGerardo":9791,"ĠRocÃŃo":9792,"ĠRumorosa":9793,"ĠBotÃŃn":9794,"ĠJerez":9795,"Ġtremenda":9796,"Ġterremoto":9797,"ĠVideo":9798,"ĠVillegas":9799,"ĠjurÃŃ":9800,"ĠFrayles":9801,"Ġapego":9802,"Ġresuelve":9803,"Ġrespecto":9804,"Enfrentamos":9805,"Ġdialogando":9806,"Ġdialogar":9807,"Ġemergencia":9808,"Ġcamioneta":9809,"Ġtitular":9810,"ĠUruapan":9811,"Ġrenovables":9812,"Ġrentable":9813,"ĠRepresentantes":9814,"ĠRefrendÃ©":9815,"Ġcubierto":9816,"Ġanhelada":9817,"ĠdemÃ³crata":9818,"ĠTriunfo":9819,"Ġsolidario":9820,"Ġfracaso":9821,"ĠZaid":9822,"Ġdisfrute":9823,"ĠAndy":9824,"ĠorientaciÃ³n":9825,"Ġargum":9826,"Ġpropaganda":9827,"ĠQuesada":9828,"Ġayudes":9829,"Ġmillonarias":9830,"Ġperfeccion":9831,"ĠinvitÃ³":9832,"ĠArizona":9833,"ĠadquisiciÃ³n":9834,"Ġveracruzanos":9835,"Ġconfiemos":9836,"Propuesta":9837,"ĠequivoquÃ©":9838,"ĠconvertirÃ¡":9839,"ĠAmÃ©ricas":9840,"ĠPrincipales":9841,"Ġiglesias":9842,"Ġcaballo":9843,"Ġinstaurar":9844,"Ġinspiran":9845,"ĠValdÃ©s":9846,"Ġposiblemente":9847,"Ġcancelar":9848,"Ġcomerciantes":9849,"ĠcallÃ©":9850,"ĠLozoya":9851,"ĠPeÃ±itas":9852,"Ġtemporada":9853,"ĠEscuchen":9854,"Ġirreparable":9855,"Ġincompatible":9856,"ĠAzcapotz":9857,"Ġhorizontal":9858,"ĠtelevisiÃ³n":9859,"Ġprecursor":9860,"ĠBarranca":9861,"Ġutilidades":9862,"ĠtelefÃ³nicas":9863,"Ġcorrespondiente":9864,"Ġenfermeras":9865,"ĠguarijÃŃos":9866,"Ġdomiciliaria":9867,"ĠMercedes":9868,"Ġcontroversias":9869,"Ġestigmatizar":9870,"ĠDeportes":9871,"Ġindividualismo":9872,"Ġinfluyentismo":9873,"Ġvulnerable":9874,"Avanza":9875,"Abrazo":9876,"Abanderamiento":9877,"Cenamos":9878,"CÃ³mo":9879,"Clausura":9880,"Cambiamos":9881,"Claudio":9882,"Chaneca":9883,"Herzog":9884,"PeÃ±a":9885,"PeticiÃ³n":9886,"Tulum":9887,"Tamazula":9888,"Tianguis":9889,"Utilizamos":9890,"Volvimos":9891,"burgo":9892,"cendido":9893,"gÃ©lica":9894,"horabuena":9895,"ratado":9896,"vechito":9897,"Ġidentidad":9898,"Ġxenofobia":9899,"Ġlicencia":9900,"ĠlÃŃneas":9901,"ĠlechÃ³n":9902,"cistas":9903,"Ġpionero":9904,"Ġaterr":9905,"Ġaeropuertos":9906,"Ġagradecer":9907,"Ġatemperar":9908,"Ġcelular":9909,"ĠcempasÃºchil":9910,"ĠcarÃ¡cter":9911,"Ġcelebra":9912,"ĠladrÃ³n":9913,"ankees":9914,"Ġmicroempres":9915,"ĠmÃ©todo":9916,"Ġmundiales":9917,"Ġeficiente":9918,"Ġegresado":9919,"Ġedificios":9920,"Ġsargento":9921,"Ġentidades":9922,"Ġenemigos":9923,"ĠCÃ©sar":9924,"ĠCatarino":9925,"ĠCatemaco":9926,"Ġconquista":9927,"Ġconductas":9928,"Ġcongresistas":9929,"Ġconciliadora":9930,"ĠconcuÃ±o":9931,"Ġcontralor":9932,"Ġnepotismo":9933,"ĠnÃ¡huatl":9934,"ĠMolina":9935,"ĠMendoza":9936,"ĠMichelle":9937,"Ġhimno":9938,"Ġhorno":9939,"Ġhuevos":9940,"Ġgubern":9941,"ĠPabellÃ³n":9942,"ĠPetatlÃ¡n":9943,"ĠPitiquito":9944,"ĠPapantla":9945,"ĠPEMEX":9946,"ĠPicachos":9947,"ĠvacÃŃo":9948,"ĠvolverÃ¡":9949,"Ġfusil":9950,"Ġfierreros":9951,"ĠdescubriÃ³":9952,"Ġdesplome":9953,"Ġdulce":9954,"Ġreafirma":9955,"Ġretraso":9956,"Ġrequiere":9957,"Ġremedio":9958,"Ġredundante":9959,"Ġremesas":9960,"olitana":9961,"Ġparlamentarios":9962,"Ġparadigma":9963,"Ġuniformado":9964,"Ġunanimidad":9965,"ĠEvaluamos":9966,"ĠEchev":9967,"ĠEvelyn":9968,"ĠSiete":9969,"ĠSiqueiros":9970,"ĠSpotify":9971,"ĠSputnik":9972,"ĠAduanas":9973,"ĠAutopista":9974,"Ġinolvidable":9975,"ĠinglÃ©s":9976,"Ġinquebrantable":9977,"Ġinobjetable":9978,"ĠNÃºÃ±ez":9979,"ĠNancy":9980,"ĠTayoltita":9981,"Ġboliviano":9982,"ĠLÃ¡stima":9983,"ĠLarry":9984,"ĠLincoln":9985,"Ġnovela":9986,"ĠGanadero":9987,"ĠGandhi":9988,"ĠGustavo":9989,"ĠGÃ¼ell":9990,"ĠGertz":9991,"ĠGÃ³nzalez":9992,"ĠRincÃ³n":9993,"ĠRabindranath":9994,"ĠBravo":9995,"ĠBochil":9996,"ĠBombardier":9997,"ĠBuenavista":9998,"ĠBertha":9999,"ĠBacalar":10000,"ĠBadiraguato":10001,"quitectura":10002,"ĠJuchitÃ¡n":10003,"ĠJeremy":10004,"ĠJiquilpan":10005,"Ġtampoco":10006,"ĠVietnam":10007,"ĠINAH":10008,"ĠIcela":10009,"ĠIrapuato":10010,"ĠjodiÃ³":10011,"Ġopresor":10012,"Ġaccionista":10013,"Ġacaparamiento":10014,"ĠFacebook":10015,"ĠFlorencio":10016,"ĠFabiola":10017,"ĠOfrezco":10018,"Ġemocion":10019,"ĠexonerÃ³":10020,"ĠEstÃŃmulos":10021,"ĠChampotÃ³n":10022,"ĠEstratÃ©gica":10023,"Ġcorporaciones":10024,"Ġcorredor":10025,"ĠrarÃ¡m":10026,"Ġrompeolas":10027,"Ġpopulismo":10028,"apoleÃ³n":10029,"ĠMarquelia":10030,"ĠReafirmÃ©":10031,"ĠEliÃ©cer":10032,"ĠMetropolitana":10033,"Ġantirreligios":10034,"ĠmiÃ©rcoles":10035,"Ġsobrevivientes":10036,"Ġastronauta":10037,"ĠAlcalde":10038,"ĠYaxchilÃ¡n":10039,"ĠYanquis":10040,"ĠVerdugo":10041,"ĠZaragoza":10042,"ĠZitÃ¡cuaro":10043,"Refrendamos":10044,"ĠAntropologÃŃa":10045,"Ġhistoriador":10046,"Ġcoercitivas":10047,"ĠCalkinÃŃ":10048,"Ġmagnitud":10049,"ĠArganis":10050,"Ġadherirse":10051,"Ġadmirable":10052,"Ġdefenderemos":10053,"ĠSebastiÃ¡n":10054,"Ġ(...)":10055,"ĠConfederaciÃ³n":10056,"Ġespionaje":10057,"Ġempiezan":10058,"Ġcabeceras":10059,"ĠcombustÃ³leo":10060,"ĠValladolid":10061,"ĠPorfiriato":10062,"ĠWilliam":10063,"ĠideolÃ³gicas":10064,"Ġgratitud":10065,"Ġsurrealista":10066,"ĠMonclova":10067,"Anunciamos":10068,"Ġchatarra":10069,"ĠAyoxuxtla":10070,"ĠPakistÃ¡n":10071,"ĠsubcontrataciÃ³n":10072,"ĠCorporation":10073,"Ġvideollamada":10074,"ĠautodeterminaciÃ³n":10075,"ĠOlÃŃmpico":10076,"ĠAprovecho":10077,"ĠincreÃŃble":10078,"Ġlibrepensadores":10079,"MÃ©xicoDecide":10080,"Ġinmobiliarios":10081,"ĠlÃŃmites":10082,"Ġsacrificio":10083,"ĠdescentralizaciÃ³n":10084,"Ġtrascendente":10085,"ĠEspriÃº":10086,"Ġsuperfluos":10087,"ĠPavlovich":10088,"ĠTailandia":10089,"Ġcaricaturista":10090,"ĠSudÃ¡frica":10091,"ĠAtlacomulco":10092,"ĠNigromante":10093,"ĠFraylesca":10094,"ĠAzcapotzalco":10095,"!\"\"":10096,"!\"\".":10097,"!Â»\"":10098,"'!":10099,"';":10100,",\"":10101,"-&":10102,".;":10103,"06":10104,"16":10105,"110":10106,"150":10107,"148":10108,"21":10109,"24":10110,"210":10111,"211":10112,"215":10113,"238":10114,"212":10115,"37":10116,"310":10117,"42":10118,"58":10119,"550":10120,"65":10121,"68":10122,"642":10123,"72":10124,"77":10125,"83":10126,"84":10127,"800":10128,"96":10129,";\"":10130,"?Â»":10131,"?âĢĿ.":10132,"AF":10133,"AS":10134,"Ag":10135,"Ah":10136,"Aus":10137,"Agr":10138,"Ana":10139,"Alar":10140,"AÃºn":10141,"AÃ±o":10142,"Apertura":10143,"AristÃ³":10144,"ABA":10145,"BR":10146,"Ben":10147,"Ban":10148,"Big":10149,"Bate":10150,"Basta":10151,"Becas":10152,"Bajo":10153,"Bicentenario":10154,"Breve":10155,"BSC":10156,"CM":10157,"CP":10158,"Ch":10159,"Cl":10160,"Car":10161,"Cor":10162,"Cal":10163,"Cre":10164,"Cic":10165,"CompaÃ±":10166,"Cala":10167,"Cach":10168,"Comb":10169,"Cumbre":10170,"Centenario":10171,"Corre":10172,"Cola":10173,"Carlos":10174,"CCE":10175,"Call":10176,"CafÃ©":10177,"Cristo":10178,"Creo":10179,"Claro":10180,"Cedro":10181,"Cristi":10182,"DA":10183,"DE":10184,"DM":10185,"DN":10186,"DP":10187,"Di":10188,"Don":10189,"Dan":10190,"Dis":10191,"Dur":10192,"Dir":10193,"Diar":10194,"Donde":10195,"Dejo":10196,"Deti":10197,"Democ":10198,"Diputados":10199,"Dicen":10200,"DiÃ¡":10201,"Dialogamos":10202,"EA":10203,"EG":10204,"EN":10205,"EU":10206,"Era":10207,"Epo":10208,"Edd":10209,"Efem":10210,"Emotivo":10211,"FC":10212,"FL":10213,"Feder":10214,"Futuro":10215,"Fabr":10216,"Fox":10217,"Feria":10218,"Fuera":10219,"Flu":10220,"Fieles":10221,"GM":10222,"GU":10223,"Gr":10224,"Gob":10225,"Gra":10226,"Guardia":10227,"HP":10228,"Hon":10229,"Han":10230,"Had":10231,"Hom":10232,"Hac":10233,"Homo":10234,"Hospit":10235,"HarÃ©":10236,"HÃ©ctor":10237,"Hallar":10238,"HCP":10239,"IV":10240,"IX":10241,"ISM":10242,"JD":10243,"JF":10244,"Junto":10245,"Julio":10246,"JamÃ¡s":10247,"Kh":10248,"KEA":10249,"Lif":10250,"Llam":10251,"Limp":10252,"Latino":10253,"Limpi":10254,"Libramiento":10255,"MC":10256,"MF":10257,"MO":10258,"MS":10259,"Mor":10260,"Mal":10261,"Min":10262,"Mig":10263,"MÃ¡n":10264,"Mario":10265,"Mala":10266,"Micho":10267,"Mucho":10268,"MuriÃ³":10269,"Ning":10270,"Nuevo":10271,"NapoleÃ³n":10272,"OP":10273,"OT":10274,"Ob":10275,"Of":10276,"Ol":10277,"Op":10278,"Or":10279,"Oy":10280,"Obr":10281,"ONE":10282,"ONU":10283,"Odebrecht":10284,"OIT":10285,"PS":10286,"PT":10287,"Pa":10288,"Pon":10289,"Pan":10290,"Pre":10291,"Pue":10292,"Pens":10293,"Pap":10294,"Puerto":10295,"Pasta":10296,"Pich":10297,"PÃ©same":10298,"PensiÃ³n":10299,"Pej":10300,"Pron":10301,"PEP":10302,"Pachuca":10303,"Pierre":10304,"PJD":10305,"Ra":10306,"Rum":10307,"Rosa":10308,"Recu":10309,"Resp":10310,"ST":10311,"Sr":10312,"Sob":10313,"Sac":10314,"Soy":10315,"Sum":10316,"Serv":10317,"Saba":10318,"SesiÃ³n":10319,"STE":10320,"Suele":10321,"Sirva":10322,"Sistema":10323,"SEN":10324,"Th":10325,"Tl":10326,"Tan":10327,"Tam":10328,"Tab":10329,"Tern":10330,"Tand":10331,"Tata":10332,"Tras":10333,"Tub":10334,"Tard":10335,"Tienen":10336,"Tarde":10337,"Tiene":10338,"TRA":10339,"Teler":10340,"UA":10341,"UES":10342,"Va":10343,"Ven":10344,"Vic":10345,"Via":10346,"Voc":10347,"Vacun":10348,"Villa":10349,"Vincul":10350,"Ventanilla":10351,"Willa":10352,"WBSC":10353,"XII":10354,"XIV":10355,"Yves":10356,"Yankees":10357,"Zur":10358,"Zac":10359,"Zap":10360,"ah":10361,"aun":10362,"afor":10363,"ahu":10364,"ahora":10365,"agres":10366,"aine":10367,"ague":10368,"ablemente":10369,"audaciÃ³n":10370,"auchin":10371,"bd":10372,"bes":10373,"bÃ³n":10374,"bien":10375,"bia":10376,"bec":10377,"boy":10378,"boc":10379,"bada":10380,"bito":10381,"bicos":10382,"baron":10383,"bara":10384,"biente":10385,"buro":10386,"bach":10387,"bender":10388,"bill":10389,"beca":10390,"buros":10391,"ball":10392,"buena":10393,"back":10394,"cre":10395,"cat":10396,"cÃŃ":10397,"com":10398,"camos":10399,"cente":10400,"cro":10401,"ctur":10402,"cano":10403,"carÃ¡":10404,"cores":10405,"cara":10406,"canza":10407,"cadas":10408,"centes":10409,"compaÃ±":10410,"coch":10411,"crel":10412,"camin":10413,"cuchareada":10414,"cadura":10415,"cusa":10416,"caÃ±a":10417,"dro":10418,"dimos":10419,"danos":10420,"dicos":10421,"dores":10422,"dira":10423,"dip":10424,"distas":10425,"dona":10426,"damente":10427,"dieron":10428,"dice":10429,"dible":10430,"dame":10431,"diano":10432,"dumbre":10433,"diti":10434,"duras":10435,"dondo":10436,"digna":10437,"dman":10438,"dÃ¡bamos":10439,"ee":10440,"ede":10441,"eal":10442,"eado":10443,"eando":10444,"eados":10445,"even":10446,"ebr":10447,"etas":10448,"eing":10449,"eval":10450,"eve":10451,"eaba":10452,"edero":10453,"eong":10454,"eite":10455,"edente":10456,"ealco":10457,"evel":10458,"etaria":10459,"equito":10460,"ehr":10461,"etario":10462,"far":10463,"fÃ³":10464,"fad":10465,"fico":10466,"fac":10467,"fig":10468,"fra":10469,"fiz":10470,"fano":10471,"fund":10472,"fif":10473,"firm":10474,"fgan":10475,"fique":10476,"ficamos":10477,"fait":10478,"ficia":10479,"flores":10480,"facer":10481,"fabe":10482,"flex":10483,"fÃ³rica":10484,"gg":10485,"gt":10486,"gy":10487,"gon":10488,"gÃ³":10489,"gil":10490,"gac":10491,"gia":10492,"gio":10493,"gues":10494,"gÃ¡n":10495,"gÃº":10496,"gla":10497,"gora":10498,"gida":10499,"garemos":10500,"gato":10501,"gÃŃn":10502,"gip":10503,"gilidad":10504,"gura":10505,"gine":10506,"gÃŃst":10507,"gayo":10508,"ganse":10509,"gÃ©l":10510,"gÃ¡ndose":10511,"galÃŃ":10512,"hm":10513,"hen":10514,"har":10515,"hÃ³":10516,"hun":10517,"haci":10518,"hat":10519,"hom":10520,"hol":10521,"hil":10522,"hens":10523,"hir":10524,"hÃŃa":10525,"hoy":10526,"hay":10527,"herm":10528,"hanos":10529,"hort":10530,"hez":10531,"hie":10532,"hima":10533,"hÃ³s":10534,"hich":10535,"hno":10536,"hech":10537,"hibe":10538,"hisp":10539,"hesiÃ³n":10540,"hecho":10541,"hman":10542,"hwait":10543,"iq":10544,"iy":10545,"iÄ":10546,"iob":10547,"ium":10548,"iando":10549,"ides":10550,"iord":10551,"iaron":10552,"iadas":10553,"ibles":10554,"iach":10555,"itivos":10556,"iquÃ©":10557,"iech":10558,"iÃ¨":10559,"ihuat":10560,"itirse":10561,"iatorios":10562,"jk":10563,"jan":10564,"jam":10565,"jÃ³n":10566,"jÃ©":10567,"jÃŃa":10568,"jud":10569,"jero":10570,"jana":10571,"jÃŃas":10572,"jÃ©r":10573,"jing":10574,"josa":10575,"jadas":10576,"jup":10577,"jau":10578,"jitos":10579,"jamo":10580,"jare":10581,"jaban":10582,"juelas":10583,"jamin":10584,"junta":10585,"jlund":10586,"juqu":10587,"jemoÃ±a":10588,"ky":10589,"kar":10590,"kan":10591,"kam":10592,"kut":10593,"kaj":10594,"kle":10595,"kax":10596,"kij":10597,"kmul":10598,"kov":10599,"khir":10600,"li":10601,"ls":10602,"lon":10603,"lin":10604,"lamos":10605,"lem":10606,"lado":10607,"lay":10608,"lada":10609,"lene":10610,"lie":10611,"late":10612,"liÃ³":10613,"ling":10614,"lint":10615,"lme":10616,"luego":10617,"leric":10618,"lian":10619,"layo":10620,"lusos":10621,"mer":10622,"mal":10623,"mÃ³":10624,"mun":10625,"mante":10626,"mend":10627,"mand":10628,"mita":10629,"micas":10630,"mex":10631,"merÃŃa":10632,"meo":10633,"mÃ³s":10634,"mecas":10635,"mundo":10636,"mientos":10637,"misiÃ³n":10638,"mond":10639,"matiz":10640,"marÃŃa":10641,"migo":10642,"mentalidad":10643,"meth":10644,"mburo":10645,"nado":10646,"neg":10647,"nante":10648,"nito":10649,"nidos":10650,"neros":10651,"ninis":10652,"nub":10653,"not":10654,"neta":10655,"nuevo":10656,"neth":10657,"nuchin":10658,"op":10659,"oq":10660,"ote":10661,"oque":10662,"oqu":10663,"oda":10664,"oper":10665,"oax":10666,"ofo":10667,"otados":10668,"ozco":10669,"oamericanos":10670,"ofoc":10671,"oducto":10672,"odell":10673,"ohun":10674,"pina":10675,"pac":10676,"pel":10677,"pado":10678,"pero":10679,"paj":10680,"pra":10681,"pador":10682,"pando":10683,"pito":10684,"pido":10685,"polÃŃ":10686,"pira":10687,"pias":10688,"ping":10689,"pidar":10690,"patÃ¡n":10691,"ptaciÃ³n":10692,"pende":10693,"pleo":10694,"pamentos":10695,"ptemos":10696,"piciar":10697,"plano":10698,"phens":10699,"ry":10700,"ral":10701,"rÃ³n":10702,"rens":10703,"rÃŃa":10704,"racional":10705,"rada":10706,"rib":10707,"ricos":10708,"rarÃ¡":10709,"radas":10710,"rump":10711,"rich":10712,"rame":10713,"rileg":10714,"renaje":10715,"rÃ³nimo":10716,"rgica":10717,"rabe":10718,"runo":10719,"riet":10720,"ruces":10721,"si":10722,"su":10723,"ser":10724,"sin":10725,"str":10726,"sÃŃ":10727,"sto":10728,"sur":10729,"sien":10730,"saf":10731,"stitu":10732,"sex":10733,"sÃŃo":10734,"samo":10735,"sAp":10736,"stia":10737,"sack":10738,"sificaciÃ³n":10739,"sste":10740,"siguen":10741,"sburgo":10742,"sky":10743,"tz":10744,"tÃ¡":10745,"tto":10746,"tis":10747,"ters":10748,"tÃŃs":10749,"tante":10750,"tanos":10751,"tÃ©r":10752,"talidad":10753,"tbol":10754,"tlic":10755,"tista":10756,"tula":10757,"tativa":10758,"tame":10759,"tatu":10760,"tcho":10761,"tÃ¡c":10762,"tamentos":10763,"tska":10764,"tule":10765,"tzc":10766,"tulo":10767,"tÃ³rico":10768,"tLif":10769,"thwait":10770,"uad":10771,"uÃ±":10772,"uden":10773,"uente":10774,"uaciones":10775,"uamente":10776,"upa":10777,"upar":10778,"uiremos":10779,"uable":10780,"uidores":10781,"uzos":10782,"utral":10783,"uÃ¡nd":10784,"uaces":10785,"ufem":10786,"uwait":10787,"uinamente":10788,"uilapa":10789,"uTub":10790,"ufac":10791,"vim":10792,"vera":10793,"vano":10794,"vido":10795,"vuel":10796,"vial":10797,"viar":10798,"viendo":10799,"verg":10800,"vimiento":10801,"vich":10802,"volver":10803,"vuelo":10804,"vÃŃe":10805,"wer":10806,"win":10807,"way":10808,"wau":10809,"ward":10810,"xe":10811,"xim":10812,"xem":10813,"xca":10814,"xtlahuaca":10815,"xiqu":10816,"xtina":10817,"xkut":10818,"xmal":10819,"yan":10820,"yera":10821,"yita":10822,"yot":10823,"yong":10824,"ydro":10825,"ymand":10826,"zi":10827,"zat":10828,"zur":10829,"zra":10830,"zando":10831,"zgo":10832,"zada":10833,"zana":10834,"zano":10835,"zadas":10836,"zgar":10837,"zadora":10838,"zaba":10839,"zno":10840,"zcan":10841,"zamientos":10842,"zomp":10843,"£o":10844,"ªdo":10845,"¶ller":10846,"¸jlund":10847,"Â¡":10848,"Â¿":10849,"Ã£o":10850,"Ãªdo":10851,"Ã¶ller":10852,"Ã¸jlund":10853,"Åł":10854,"Ġ%":10855,"Ġ-":10856,"Ġ@":10857,"ĠÃ³":10858,"ĠÃŃ":10859,"ĠÃ¡":10860,"Ġom":10861,"Ġil":10862,"Ġul":10863,"Ġxico":10864,"Ġru":10865,"Ġib":10866,"Ġrup":10867,"ĠÃ©n":10868,"Ġido":10869,"Ġaran":10870,"ĠâĢ":10871,"Ġonde":10872,"Ġordin":10873,"Ġiremos":10874,"Ġub":10875,"Ġiles":10876,"Ġital":10877,"Ġiba":10878,"Ġtap":10879,"Ġques":10880,"Ġost":10881,"Ġ%.":10882,"ĠâĢĵ":10883,"Ġ--":10884,"Ġrudeza":10885,"ĠÅł":10886,"dee":10887,"deci":10888,"deÃ³":10889,"deando":10890,"derec":10891,"deza":10892,"deca":10893,"deÃ±a":10894,"decimiento":10895,"Ġdetr":10896,"Ġdeud":10897,"Ġdeda":10898,"Ġdeje":10899,"Ġdepar":10900,"ĠdevoluciÃ³n":10901,"Ġdecep":10902,"Ġdeterior":10903,"Ġdecida":10904,"Ġdetuvo":10905,"Ġdevuel":10906,"enar":10907,"enal":10908,"enti":10909,"enaciÃ³n":10910,"enden":10911,"enidad":10912,"enle":10913,"enadores":10914,"enarios":10915,"enzar":10916,"ence":10917,"enistas":10918,"enles":10919,"enango":10920,"enzas":10921,"endemos":10922,"enarnos":10923,"encuentro":10924,"entirÃ¡":10925,"entiz":10926,"enni":10927,"enTl":10928,"Ġ\"âĢľ":10929,"Ġ\"...":10930,"osas":10931,"osis":10932,"osque":10933,"osta":10934,"osio":10935,"osidad":10936,"osera":10937,"osca":10938,"ospec":10939,"osped":10940,"osEsc":10941,"oscano":10942,"osevel":10943,"osfÃ³rica":10944,"esÃ³":10945,"esado":10946,"esidad":10947,"esco":10948,"estra":10949,"esita":10950,"esiones":10951,"estaciÃ³n":10952,"estado":10953,"estÃŃa":10954,"estirse":10955,"estival":10956,"eril":10957,"erres":10958,"ertos":10959,"erla":10960,"erran":10961,"ermo":10962,"ervis":10963,"erato":10964,"erÃŃn":10965,"ering":10966,"erba":10967,"ereci":10968,"erancia":10969,"ertido":10970,"erabilidad":10971,"eritas":10972,"ertilizantes":10973,"Ġlin":10974,"Ġlid":10975,"Ġlim":10976,"Ġlien":10977,"Ġlec":10978,"Ġllo":10979,"Ġlist":10980,"Ġlide":10981,"Ġlima":10982,"Ġluto":10983,"ĠlÃ³g":10984,"ĠlÃ¡m":10985,"Ġlarg":10986,"Ġlistos":10987,"Ġloro":10988,"Ġlema":10989,"Ġlicen":10990,"Ġlarga":10991,"Ġlisa":10992,"Ġlectura":10993,"Ġllov":10994,"ĠlecciÃ³n":10995,"ciado":10996,"ciero":10997,"cianos":10998,"cidad":10999,"cirÃ¡":11000,"cioso":11001,"cientes":11002,"cidez":11003,"cieron":11004,"ciende":11005,"cinto":11006,"cifra":11007,"onar":11008,"onÃ¡":11009,"onio":11010,"onado":11011,"onfor":11012,"onente":11013,"onco":11014,"ongo":11015,"onera":11016,"onaremos":11017,"onismo":11018,"onato":11019,"onista":11020,"ongos":11021,"onja":11022,"onapa":11023,"onferencias":11024,"onjÃŃas":11025,"onrÃ³n":11026,"Ġpun":11027,"ĠpÃŃ":11028,"ĠpÃ¡":11029,"Ġpim":11030,"Ġpur":11031,"Ġpec":11032,"Ġpig":11033,"Ġpuer":11034,"Ġpiden":11035,"Ġpez":11036,"Ġpene":11037,"Ġpura":11038,"Ġpique":11039,"Ġpiel":11040,"Ġpatos":11041,"Ġpude":11042,"Ġpuros":11043,"Ġpuse":11044,"ĠpÃ³st":11045,"ĠpÃ¡nico":11046,"Ġpuerta":11047,"Ġpuentes":11048,"Ġpirr":11049,"Ġpizca":11050,"ares":11051,"aras":11052,"araciÃ³n":11053,"arlo":11054,"arle":11055,"arter":11056,"arma":11057,"arano":11058,"arÃŃas":11059,"arip":11060,"arilla":11061,"arcir":11062,"arejo":11063,"arrea":11064,"arÅį":11065,"arquÃŃa":11066,"arburos":11067,"armante":11068,"arwin":11069,"Ġate":11070,"Ġaur":11071,"Ġaud":11072,"Ġaero":11073,"Ġafor":11074,"Ġagu":11075,"Ġatur":11076,"Ġaton":11077,"Ġaula":11078,"Ġaisl":11079,"Ġaver":11080,"Ġaux":11081,"Ġatre":11082,"Ġaves":11083,"Ġaguas":11084,"Ġatrop":11085,"Ġagre":11086,"Ġaeroespaci":11087,"Ġagencia":11088,"Ġaire":11089,"Ġahuy":11090,"Ġagilidad":11091,"ĠcÃ©":11092,"Ġcur":11093,"Ġcoc":11094,"ĠcÃº":11095,"Ġcru":11096,"ĠcaÃ±":11097,"Ġcera":11098,"Ġcuel":11099,"ĠcÃŃn":11100,"ĠcÃ³m":11101,"Ġcate":11102,"Ġcep":11103,"Ġcha":11104,"Ġcusto":11105,"Ġceci":11106,"Ġclaud":11107,"Ġcuna":11108,"Ġcultos":11109,"Ġcoyo":11110,"Ġcelebro":11111,"Ġcarriles":11112,"ĠcÃ¡l":11113,"Ġcact":11114,"ĠclimÃ¡tico":11115,"Ġcedro":11116,"Ġcrudeza":11117,"Ġlamen":11118,"Ġlazos":11119,"Ġlapidar":11120,"orde":11121,"oran":11122,"oral":11123,"oras":11124,"oric":11125,"ordo":11126,"orien":11127,"orden":11128,"orro":11129,"orados":11130,"orda":11131,"orpres":11132,"orial":11133,"orias":11134,"oramente":11135,"orancia":11136,"ortarÃ¡":11137,"orrecto":11138,"orzadas":11139,"orongos":11140,"anh":11141,"ank":11142,"anta":11143,"antar":11144,"anero":11145,"antos":11146,"anco":11147,"ander":11148,"anismo":11149,"antin":11150,"anistas":11151,"ancial":11152,"ancio":11153,"anejo":11154,"anton":11155,"ances":11156,"anich":11157,"anadÃ¡":11158,"anÃ¡b":11159,"anguis":11160,"anzadora":11161,"andecimiento":11162,"ĠmÃ³":11163,"ĠmÃ¡":11164,"Ġmico":11165,"Ġmus":11166,"ĠmÃŃa":11167,"Ġmul":11168,"Ġmit":11169,"Ġmap":11170,"Ġmuel":11171,"ĠmÃŃn":11172,"Ġmira":11173,"Ġmorr":11174,"Ġmond":11175,"Ġmoch":11176,"Ġmuros":11177,"ĠmÃŃstico":11178,"Ġmuse":11179,"Ġmientras":11180,"Ġmole":11181,"Ġmacul":11182,"Ġmerca":11183,"Ġmdd":11184,"Ġmadr":11185,"Ġmortalidad":11186,"ĠmuÃ±":11187,"Ġmereci":11188,"ale":11189,"alÃ³n":11190,"alto":11191,"alero":11192,"alidades":11193,"alias":11194,"aleros":11195,"alistas":11196,"aled":11197,"aliente":11198,"altepec":11199,"alismos":11200,"alpan":11201,"aluca":11202,"almirante":11203,"alfabe":11204,"aluable":11205,"ink":11206,"ins":11207,"inz":11208,"inÃ³":11209,"inic":11210,"into":11211,"inte":11212,"inol":11213,"inio":11214,"init":11215,"inados":11216,"inda":11217,"incon":11218,"inito":11219,"inarios":11220,"inie":11221,"ince":11222,"inet":11223,"iniones":11224,"incl":11225,"inerÃŃa":11226,"inarÃ¡n":11227,"inomin":11228,"inalÃ¡":11229,"inamp":11230,"incher":11231,"infa":11232,"inorar":11233,"inantla":11234,"incesa":11235,"inken":11236,"instalaciÃ³n":11237,"independiente":11238,"inping":11239,"Ġeti":11240,"Ġeco":11241,"Ġech":11242,"ĠevoluciÃ³n":11243,"ĠeÃ³l":11244,"Ġegresos":11245,"Ġefica":11246,"Ġeufem":11247,"Ġsaci":11248,"Ġsit":11249,"Ġsoc":11250,"ĠsÃŃs":11251,"Ġsaf":11252,"Ġsentar":11253,"Ġsilla":11254,"Ġsorte":11255,"Ġsiren":11256,"Ġstados":11257,"Ġsentamos":11258,"Ġsenten":11259,"Ġsumo":11260,"Ġsarga":11261,"Ġsoft":11262,"Ġshort":11263,"Ġsofoc":11264,"Ġstatu":11265,"Ġsesiones":11266,"Ġsorpres":11267,"Ã³lica":11268,"Ã³tam":11269,"Ã³teles":11270,"Ã³dice":11271,"Ã³yot":11272,"Ġyaca":11273,"adam":11274,"adici":11275,"aduc":11276,"adando":11277,"adona":11278,"adual":11279,"adieron":11280,"aduro":11281,"adiciÃ³n":11282,"adarlos":11283,"adÃŃsimo":11284,"adines":11285,"adrang":11286,"recia":11287,"remo":11288,"retas":11289,"reles":11290,"regar":11291,"reves":11292,"reola":11293,"ued":11294,"uez":11295,"uecia":11296,"ueta":11297,"ueco":11298,"ueca":11299,"uega":11300,"ueba":11301,"uebles":11302,"ueve":11303,"uebe":11304,"uehue":11305,"ueducto":11306,"Ġenaj":11307,"Ġenlo":11308,"Ġengr":11309,"Ġenro":11310,"Ġengan":11311,"Ġentera":11312,"Ġenarde":11313,"Ġenfoc":11314,"Ġensayo":11315,"Ġenamorada":11316,"Ġenfad":11317,"Ġenmend":11318,"asque":11319,"asico":11320,"asia":11321,"asiÃ³n":11322,"asada":11323,"ascon":11324,"asez":11325,"astas":11326,"astre":11327,"asiado":11328,"aseca":11329,"asall":11330,"ascin":11331,"assan":11332,"astlic":11333,"Ġelab":11334,"Ġellas":11335,"ĠelÃ©ctricas":11336,"ick":11337,"icem":11338,"icÃŃa":11339,"icales":11340,"icana":11341,"icadores":11342,"icaremos":11343,"icultur":11344,"iche":11345,"icaliz":11346,"ictiva":11347,"iccar":11348,"ictamente":11349,"icori":11350,"icerÃ³n":11351,"ichuy":11352,"ĠCuc":11353,"ĠCra":11354,"ĠCuen":11355,"ĠCap":11356,"ĠCuch":11357,"ĠClar":11358,"ĠCasta":11359,"ĠCint":11360,"ĠCade":11361,"ĠCep":11362,"ĠCice":11363,"ĠCisco":11364,"ĠCiti":11365,"ĠCoyo":11366,"ĠCelebro":11367,"ĠCCE":11368,"ĠCiÃ©n":11369,"ĠCact":11370,"ĠCoca":11371,"ĠCeja":11372,"ĠCreo":11373,"ĠCelebramos":11374,"ĠCRI":11375,"ĠCrÃŃ":11376,"ĠCrÃ©dito":11377,"ĠClaro":11378,"ĠCierre":11379,"ĠCEPA":11380,"ĠCDM":11381,"ĠCONE":11382,"ĠCeval":11383,"ĠCruces":11384,"ĠCÃ³dice":11385,"ĠCicerÃ³n":11386,"amer":11387,"aman":11388,"amal":11389,"amat":11390,"amina":11391,"amora":11392,"ampe":11393,"ammo":11394,"ampl":11395,"amand":11396,"ampit":11397,"ampar":11398,"amula":11399,"amental":11400,"amarÃ©":11401,"amayas":11402,"amantla":11403,"amÃºchil":11404,"amaloapan":11405,"ammad":11406,"unas":11407,"unÃ¡":11408,"unia":11409,"untes":11410,"undos":11411,"under":11412,"uncil":11413,"untan":11414,"unciÃ³":11415,"untamente":11416,"unnar":11417,"unemente":11418,"ungrÃŃa":11419,"undadas":11420,"aciosa":11421,"acitados":11422,"aciadamente":11423,"acificaciÃ³n":11424,"atamos":11425,"atus":11426,"atario":11427,"atlan":11428,"atarÃ¡":11429,"atif":11430,"atistas":11431,"atÃŃo":11432,"atiremos":11433,"ataba":11434,"atya":11435,"atinamente":11436,"atenango":11437,"trom":11438,"trid":11439,"trob":11440,"trando":11441,"treras":11442,"truyÃ³":11443,"track":11444,"tronic":11445,"tricciones":11446,"trÃ³nico":11447,"tradici":11448,"Ġconte":11449,"Ġconur":11450,"Ġcongo":11451,"Ġconvo":11452,"Ġconje":11453,"Ġconex":11454,"Ġconforma":11455,"Ġconces":11456,"ĠcontÃ©":11457,"Ġconcep":11458,"Ġcontuvimos":11459,"Ġcontando":11460,"Ġcontaron":11461,"Ġcontac":11462,"ĠcontarÃ¡":11463,"Ġcongresos":11464,"Ġconnacional":11465,"Ġcontadores":11466,"Ġcontub":11467,"Ġconmigo":11468,"Ã³nimos":11469,"ÃŃen":11470,"ÃŃac":11471,"ÃŃter":11472,"ÃŃdos":11473,"ÃŃcito":11474,"ÃŃlica":11475,"ÃŃtimos":11476,"ÃŃtima":11477,"ÃŃmica":11478,"ÃŃpr":11479,"ÃŃblica":11480,"ÃŃdame":11481,"ÃŃtulo":11482,"Ã¡Ã±":11483,"Ã¡ce":11484,"Ã¡les":11485,"Ã¡cito":11486,"Ã¡Ã±ez":11487,"Ã¡jate":11488,"Ã¡tzc":11489,"tomo":11490,"toma":11491,"toton":11492,"tojitos":11493,"teo":11494,"tela":11495,"teco":11496,"tece":11497,"tepa":11498,"teaban":11499,"tejÃ³n":11500,"Ġnarr":11501,"Ġnativa":11502,"ĠnadÃ¡":11503,"Ġnaz":11504,"Ġnicara":11505,"Ġnarco":11506,"Ġnahu":11507,"Ġnadando":11508,"Ã©st":11509,"Ã©pec":11510,"Ã©qui":11511,"Ã©meth":11512,"Ġestro":11513,"Ġestrib":11514,"Ġestructura":11515,"Ġestren":11516,"Ġesmer":11517,"Ġprosa":11518,"Ġprian":11519,"Ġprole":11520,"ĠpromulgaciÃ³n":11521,"Ġprosper":11522,"Ġprospec":11523,"Ġprincesa":11524,"ĠprÃ©st":11525,"ise":11526,"isor":11527,"isan":11528,"isir":11529,"istro":11530,"isma":11531,"isÃ©s":11532,"ispo":11533,"issum":11534,"isionada":11535,"ĠME":11536,"ĠMut":11537,"ĠMem":11538,"ĠMir":11539,"ĠMÃº":11540,"ĠMÃ¡s":11541,"ĠMier":11542,"ĠMarr":11543,"ĠMans":11544,"ĠMons":11545,"ĠMonde":11546,"ĠMila":11547,"ĠMucho":11548,"ĠMenos":11549,"ĠMuna":11550,"ĠMolo":11551,"ĠMuertos":11552,"ĠMomp":11553,"ĠMÃ¼":11554,"ĠMald":11555,"ĠMientras":11556,"ĠMAS":11557,"ĠMPJD":11558,"ĠMnuchin":11559,"ĠMaduro":11560,"ĠMaseca":11561,"ĠMammad":11562,"queÃ±a":11563,"quetado":11564,"queteros":11565,"omina":11566,"omien":11567,"omel":11568,"omist":11569,"omios":11570,"omara":11571,"ompaÃ±a":11572,"ombra":11573,"ombar":11574,"omaro":11575,"omeados":11576,"omsky":11577,"omonÃ¡":11578,"tio":11579,"tier":11580,"tiÃ³n":11581,"tires":11582,"tile":11583,"tiza":11584,"tible":11585,"tizo":11586,"ticias":11587,"tientes":11588,"tija":11589,"tiaban":11590,"tificar":11591,"tibil":11592,"tifica":11593,"tidismo":11594,"tigio":11595,"tiplano":11596,"tianguis":11597,"Ġhol":11598,"Ġhig":11599,"Ġhero":11600,"ĠhÃº":11601,"Ġhuer":11602,"Ġhet":11603,"Ġhermos":11604,"Ġhermosa":11605,"ĠhÃ©ro":11606,"Ġhalc":11607,"Ġhalla":11608,"Ġhuele":11609,"Ġhuevo":11610,"Ġhuecos":11611,"Ġhosped":11612,"Ġdelica":11613,"Ġdelinc":11614,"Ġdelicia":11615,"Ġdelictiva":11616,"utaciÃ³n":11617,"utum":11618,"utaron":11619,"utaria":11620,"idur":11621,"idia":11622,"idora":11623,"idiÃ³":11624,"idieron":11625,"idge":11626,"idÃ¡c":11627,"idÃŃculo":11628,"idatarios":11629,"idÃŃculos":11630,"iduos":11631,"iduamente":11632,"idanta":11633,"inauguraciÃ³n":11634,"inaga":11635,"inacatepec":11636,"fero":11637,"fermerÃŃa":11638,"Ġquede":11639,"Ġqueques":11640,"Ġquejas":11641,"ĠquejÃ³":11642,"ĠquemarÃŃa":11643,"dobl":11644,"doptemos":11645,"Ġgans":11646,"Ġgord":11647,"ĠgrÃ¡":11648,"Ġgav":11649,"Ġgato":11650,"Ġgracia":11651,"Ġguardia":11652,"Ġgace":11653,"Ġgoles":11654,"Ġgesta":11655,"Ġgole":11656,"Ġmatar":11657,"ĠPur":11658,"ĠPico":11659,"ĠPud":11660,"ĠPum":11661,"ĠPera":11662,"ĠPÃºbl":11663,"ĠPort":11664,"ĠParr":11665,"ĠPÃ©n":11666,"ĠPons":11667,"ĠPito":11668,"ĠPif":11669,"ĠPicas":11670,"ĠPasta":11671,"ĠPij":11672,"ĠPRE":11673,"ĠPine":11674,"ĠPlante":11675,"ĠPoco":11676,"ĠPich":11677,"ĠPapa":11678,"ĠPase":11679,"ĠPutla":11680,"ĠPadre":11681,"ĠPadres":11682,"ĠPolo":11683,"ĠPost":11684,"ĠPunta":11685,"ĠPuma":11686,"ĠPES":11687,"ĠPompe":11688,"ĠPadilla":11689,"ĠPondremos":11690,"ĠPfiz":11691,"ĠPuente":11692,"ĠPÃ³tam":11693,"ĠPacificaciÃ³n":11694,"ĠPÃ¡tzc":11695,"ĠPomonÃ¡":11696,"ĠPutum":11697,"blas":11698,"blana":11699,"blique":11700,"blecer":11701,"blime":11702,"blanque":11703,"blecemos":11704,"blÃ¡ramos":11705,"Ġvs":11706,"Ġvon":11707,"Ġvil":11708,"Ġvit":11709,"ĠvÃ¡s":11710,"Ġveg":11711,"Ġvienes":11712,"Ġvib":11713,"ĠvÃ©n":11714,"Ġviendo":11715,"Ġvieron":11716,"Ġvientos":11717,"Ġvelo":11718,"Ġvesti":11719,"Ġvill":11720,"Ġvuelo":11721,"Ġviene":11722,"ĠveneraciÃ³n":11723,"Ġventanilla":11724,"Ġvestirse":11725,"Ġvicem":11726,"Ġfamos":11727,"Ġfres":11728,"Ġfec":11729,"Ġfues":11730,"Ġflo":11731,"Ġfla":11732,"Ġfrec":11733,"Ġfort":11734,"ĠfrÃ¡":11735,"Ġfores":11736,"Ġfax":11737,"Ġfij":11738,"Ġfiel":11739,"Ġfango":11740,"Ġfama":11741,"Ġfeste":11742,"Ġflam":11743,"ĠfÃ¡b":11744,"Ġfabr":11745,"Ġfobia":11746,"Ġfoul":11747,"Ġfieles":11748,"ĠfuÃŃ":11749,"ĠfosfÃ³rica":11750,"Ġfestival":11751,"Ġfascin":11752,"tagram":11753,"tagos":11754,"tavio":11755,"tablemente":11756,"tacalco":11757,"Ġdespe":11758,"Ġdesent":11759,"Ġdesier":11760,"Ġdesgar":11761,"Ġdespo":11762,"Ġdesfo":11763,"ĠdestituciÃ³n":11764,"Ġdesea":11765,"Ġdesean":11766,"Ġdesvi":11767,"Ġdesech":11768,"Ġdescar":11769,"Ġdesagr":11770,"ĠdestrucciÃ³n":11771,"Ġdestap":11772,"Ġdesalo":11773,"Ġdesesta":11774,"Ġdespectiva":11775,"Ġdestina":11776,"Ġdesafor":11777,"ĠdesvÃŃe":11778,"Ġdesorden":11779,"Ġdesastre":11780,"Ġdesampar":11781,"ĠdestruyÃ³":11782,"Ġdia":11783,"Ġdud":11784,"ĠdÃ¡n":11785,"Ġdada":11786,"Ġdato":11787,"ĠdarÃ©":11788,"Ġdaba":11789,"Ġdorm":11790,"Ġdaban":11791,"Ġdrenaje":11792,"ĠdidÃ¡c":11793,"Ġrey":11794,"Ġreiv":11795,"Ġretro":11796,"Ġreales":11797,"Ġreada":11798,"Ġretor":11799,"Ġrevers":11800,"Ġretir":11801,"Ġreino":11802,"Ġrevan":11803,"Ġretrat":11804,"Ġrevista":11805,"Ġretrib":11806,"ĠretÃ©":11807,"ĠretrÃ³":11808,"Ġrebas":11809,"Ġreitero":11810,"Ġreviv":11811,"Ġrequiera":11812,"Ġredonde":11813,"Ġrequete":11814,"Ġretira":11815,"Ġremoto":11816,"ĠreiterÃ©":11817,"ĠreiniciÃ³":11818,"Ġreorien":11819,"Ġretomo":11820,"Ġredobl":11821,"olin":11822,"olÃ¡":11823,"olica":11824,"oluc":11825,"olco":11826,"olana":11827,"olvers":11828,"olsa":11829,"olik":11830,"olini":11831,"olfgan":11832,"olls":11833,"Ġparamos":11834,"Ġparez":11835,"Ġparecer":11836,"Ġparques":11837,"ĠpareciÃ³":11838,"Ġpareja":11839,"ĠparalÃŃmpicos":11840,"Ġparecen":11841,"iman":11842,"imamente":11843,"imentos":11844,"imental":11845,"imientos":11846,"imbra":11847,"imiliano":11848,"imondo":11849,"imonio":11850,"Ġunen":11851,"Ġunir":11852,"ĠuniÃ³n":11853,"Ġunida":11854,"ĠuniÃ³":11855,"Ġuniendo":11856,"Ġunieron":11857,"Ġunirse":11858,"ĠunÃ¡monos":11859,"Ġsede":11860,"Ġseamos":11861,"Ġsemej":11862,"ĠEres":11863,"ĠEru":11864,"ĠEva":11865,"ĠEvi":11866,"ĠEcha":11867,"ĠEterno":11868,"ĠENI":11869,"ĠEcatepec":11870,"ĠEmotivo":11871,"ĠEST":11872,"ĠEgip":11873,"ĠEtcho":11874,"ĠSel":11875,"ĠSul":11876,"ĠSco":11877,"ĠSter":11878,"ĠSada":11879,"ĠSana":11880,"ĠSib":11881,"ĠSemp":11882,"ĠSara":11883,"ĠSimo":11884,"ĠSilla":11885,"ĠSed":11886,"ĠSing":11887,"ĠSpit":11888,"ĠSosa":11889,"ĠSerr":11890,"ĠSila":11891,"ĠSha":11892,"ĠSach":11893,"ĠSau":11894,"ĠSabor":11895,"ĠStan":11896,"ĠSusc":11897,"ĠSaba":11898,"ĠStre":11899,"ĠSola":11900,"ĠSaban":11901,"ĠSolo":11902,"ĠSesiÃ³n":11903,"ĠSÃ³lo":11904,"ĠSÃ¡bado":11905,"ĠSmit":11906,"ĠSemo":11907,"ĠSule":11908,"ĠSuerte":11909,"ĠSoft":11910,"ĠSirva":11911,"ĠSistema":11912,"ĠSABA":11913,"ĠSDP":11914,"ĠSHCP":11915,"ĠSote":11916,"ĠSenadores":11917,"ĠSuecia":11918,"oba":11919,"obales":11920,"obantes":11921,"obras":11922,"ĠAra":11923,"ĠAqu":11924,"ĠAgr":11925,"ĠAro":11926,"ĠAgu":11927,"ĠAhu":11928,"ĠAlan":11929,"ĠAvis":11930,"ĠAven":11931,"ĠArÃ¡":11932,"ĠApar":11933,"ĠAtoy":11934,"ĠAuto":11935,"ĠAtepec":11936,"ĠAcala":11937,"ĠAbar":11938,"ĠAfir":11939,"ĠAquis":11940,"ĠAvil":11941,"ĠAdel":11942,"ĠArel":11943,"ĠAbo":11944,"ĠAgradezco":11945,"ĠAdela":11946,"ĠAES":11947,"ĠApostamos":11948,"ĠACI":11949,"ĠAdoles":11950,"ĠAtoton":11951,"ĠAdoptemos":11952,"uris":11953,"urab":11954,"urla":11955,"urados":11956,"uraremos":11957,"urarÃ¡":11958,"urian":11959,"urris":11960,"urnal":11961,"urlian":11962,"urpador":11963,"emal":11964,"emita":11965,"eming":11966,"ementan":11967,"emÃ©rito":11968,"emÃ¶ller":11969,"ili":11970,"ilos":11971,"iler":11972,"ilaciÃ³n":11973,"ilit":11974,"ilando":11975,"iliz":11976,"ilma":11977,"ilidades":11978,"ilismo":11979,"ilaron":11980,"ilÃŃn":11981,"illos":11982,"ilita":11983,"ilate":11984,"illar":11985,"ilip":11986,"iling":11987,"ilancia":11988,"ilanes":11989,"ilotada":11990,"ildee":11991,"resde":11992,"reses":11993,"respe":11994,"restan":11995,"rescos":11996,"resMan":11997,"ienta":11998,"ienten":11999,"iencias":12000,"ientan":12001,"icovi":12002,"Ġinig":12003,"Ġinoc":12004,"Ġinst":12005,"Ġintu":12006,"Ġinven":12007,"Ġinfr":12008,"Ġindeb":12009,"Ġinev":12010,"Ġintensa":12011,"Ġinhum":12012,"ĠinhÃ³s":12013,"Ġinters":12014,"Ġinundadas":12015,"Ġintrom":12016,"Ġcome":12017,"Ġcomal":12018,"Ġcomimos":12019,"Ġcomand":12020,"Ġcomentar":12021,"Ġcomed":12022,"ĠcomentÃ³":12023,"Ġcomenc":12024,"ĠcomentÃ©":12025,"Ġcometer":12026,"Ġcomenzar":12027,"ĠNL":12028,"ĠNY":12029,"ĠNam":12030,"ĠNac":12031,"ĠNel":12032,"ĠNgu":12033,"ĠNoria":12034,"ĠNiel":12035,"ĠNaje":12036,"ĠNich":12037,"ĠNaco":12038,"ĠNuestra":12039,"ĠNivel":12040,"ĠNEP":12041,"ĠNautla":12042,"ĠNoche":12043,"ĠNeri":12044,"ĠNicol":12045,"ĠNicara":12046,"ĠNuno":12047,"ĠNBA":12048,"ĠNIN":12049,"ĠNapoleÃ³n":12050,"ĠNAF":12051,"ĠNFL":12052,"ĠNah":12053,"ĠNinfa":12054,"ĠNÃ©meth":12055,"Ġparader":12056,"Ġparafr":12057,"Ġparadero":12058,"tares":12059,"tarle":12060,"tarias":12061,"tarse":12062,"tarismos":12063,"tariado":12064,"tarric":12065,"tarella":12066,"acan":12067,"acta":12068,"acac":12069,"acÃŃa":12070,"acciÃ³n":12071,"acro":12072,"accar":12073,"acandona":12074,"acamayas":12075,"ĠTim":12076,"ĠTaj":12077,"ĠTran":12078,"ĠTienes":12079,"ĠTemp":12080,"ĠTlan":12081,"ĠTez":12082,"ĠTav":12083,"ĠTaf":12084,"ĠTara":12085,"ĠTonal":12086,"ĠTulio":12087,"ĠTÃ©cn":12088,"ĠTech":12089,"ĠTutu":12090,"ĠTlÃ¡huac":12091,"ĠTEP":12092,"ĠTole":12093,"ĠTurismo":12094,"ĠTÃºnel":12095,"ĠTuvo":12096,"ĠTRI":12097,"ĠTesor":12098,"ĠTucker":12099,"ĠTwit":12100,"ĠTicul":12101,"ĠTEU":12102,"ĠTUA":12103,"ĠThom":12104,"ĠTzomp":12105,"ĠToscano":12106,"ĠTarÅį":12107,"abie":12108,"abeza":12109,"absburgo":12110,"abarter":12111,"abunia":12112,"Ġporra":12113,"ĠporquÃ©":12114,"Ġportando":12115,"iable":12116,"iapan":12117,"iaoq":12118,"ensen":12119,"ensiones":12120,"ensiva":12121,"irut":12122,"irst":12123,"irlo":12124,"irano":12125,"irÃŃan":12126,"irules":12127,"eco":12128,"ecÃ³n":12129,"ecta":12130,"ector":12131,"ecable":12132,"ecolÃ³gica":12133,"usen":12134,"usia":12135,"usse":12136,"usual":12137,"usiones":12138,"ustan":12139,"ushn":12140,"ustada":12141,"ustamente":12142,"uskey":12143,"ushima":12144,"Ġbat":12145,"Ġbra":12146,"Ġbienes":12147,"ĠbÃ¡r":12148,"Ġbach":12149,"Ġbanqu":12150,"Ġbill":12151,"Ġbeso":12152,"Ġbrazo":12153,"Ġbox":12154,"Ġborre":12155,"Ġbonos":12156,"Ġburr":12157,"Ġbalc":12158,"ĠbÃ¡l":12159,"Ġbui":12160,"Ġbuque":12161,"Ġbisab":12162,"Ġbirr":12163,"ĠbaÃ±o":12164,"Ġbipar":12165,"Ġboda":12166,"Ġbuzos":12167,"Ġbosque":12168,"Ġborde":12169,"Ġbalero":12170,"Ġbreves":12171,"ĠbÃŃblica":12172,"Ġbombar":12173,"ĠLeg":12174,"ĠLez":12175,"ĠLlos":12176,"ĠLara":12177,"ĠLira":12178,"ĠLima":12179,"ĠLuego":12180,"ĠLond":12181,"ĠLuna":12182,"ĠLech":12183,"ĠLiter":12184,"ĠLuth":12185,"ĠLlevamos":12186,"ĠLoma":12187,"ĠLarga":12188,"ĠLore":12189,"ĠLibramiento":12190,"ĠLXIV":12191,"ĠLarrea":12192,"ĠLins":12193,"ĠLammo":12194,"ĠLissum":12195,"ĠLomel":12196,"ĠLidia":12197,"ĠLilita":12198,"ĠLacandona":12199,"iodistas":12200,"Ã±or":12201,"Ã±al":12202,"Ã±ados":12203,"Ã±eda":12204,"Ġtrit":12205,"Ġtraj":12206,"Ġtrump":12207,"Ġtraje":12208,"ĠtrÃ³p":12209,"Ġtrilat":12210,"Ġtrajes":12211,"Ġtribun":12212,"Ġtrimes":12213,"Ġtripar":12214,"Ġtronco":12215,"Ġtrances":12216,"Ġtrampe":12217,"Ġalel":12218,"Ġalud":12219,"Ġalter":12220,"Ġalza":12221,"Ġalgu":12222,"Ġalca":12223,"Ġaline":12224,"Ġaliado":12225,"ĠalÃŃan":12226,"ĠalgÃºn":12227,"Ġalmac":12228,"Ġalerta":12229,"Ġalquil":12230,"Ġalcanza":12231,"Ġalebr":12232,"Ġalarmante":12233,"Ġalientan":12234,"Ġaltares":12235,"ela":12236,"eland":12237,"eladas":12238,"icahua":12239,"icazos":12240,"ulina":12241,"ulado":12242,"ultra":12243,"ultas":12244,"ullos":12245,"ulicas":12246,"ulgar":12247,"ulfo":12248,"ultÃ©":12249,"uller":12250,"ultora":12251,"ultÃ³rico":12252,"ulosis":12253,"ulatinamente":12254,"ulacro":12255,"erno":12256,"erner":12257,"ernio":12258,"ernura":12259,"icias":12260,"iciales":12261,"iciada":12262,"icina":12263,"icidades":12264,"icidio":12265,"icidios":12266,"Ġnove":12267,"Ġnovio":12268,"Ġnotable":12269,"Ġnotarios":12270,"Ġnoctur":12271,"ucado":12272,"ucena":12273,"ucalco":12274,"ĠMÃ©dico":12275,"ĠMÃ©dica":12276,"ĠGas":12277,"ĠGina":12278,"ĠGig":12279,"ĠGro":12280,"ĠGraci":12281,"ĠGuar":12282,"ĠGaran":12283,"ĠGaranti":12284,"ĠGau":12285,"ĠGian":12286,"ĠGCE":12287,"ĠGuev":12288,"ĠGore":12289,"ĠGabo":12290,"ĠGeneraciÃ³n":12291,"ĠGhez":12292,"ĠGiord":12293,"ĠGorda":12294,"ĠGunnar":12295,"ĠGabunia":12296,"Ġmetros":12297,"Ġmetido":12298,"ĠmetiÃ³":12299,"Ġmetieron":12300,"Ġmegac":12301,"Ġmexiqu":12302,"oyan":12303,"oyta":12304,"itz":12305,"ites":12306,"itada":12307,"itaciones":12308,"iterr":12309,"itler":12310,"ivados":12311,"ivier":12312,"ivadas":12313,"ivisiÃ³n":12314,"ĠRend":12315,"ĠRand":12316,"ĠRip":12317,"ĠRique":12318,"ĠRup":12319,"ĠRash":12320,"ĠRuta":12321,"ĠRuth":12322,"ĠRomÃ¡n":12323,"ĠRigo":12324,"ĠRemo":12325,"ĠRusa":12326,"ĠRIT":12327,"ĠRius":12328,"ĠRonen":12329,"ĠRadilla":12330,"ĠRyong":12331,"ĠRadam":12332,"ĠRiccar":12333,"ĠRidÃŃculos":12334,"ĠRusia":12335,"ĠRulfo":12336,"dena":12337,"dense":12338,"denles":12339,"denbender":12340,"udamos":12341,"udillo":12342,"udiremos":12343,"udable":12344,"udarÃ©":12345,"udÃŃos":12346,"iga":12347,"igi":12348,"igentes":12349,"igrar":12350,"igdio":12351,"iguera":12352,"ignante":12353,"iguaciones":12354,"igerancia":12355,"iginarios":12356,"iguez":12357,"igreses":12358,"erogÃ©n":12359,"ĠBay":12360,"ĠBlo":12361,"ĠBran":12362,"ĠBuen":12363,"ĠBarr":12364,"ĠBolÃŃ":12365,"ĠBaran":12366,"ĠBet":12367,"ĠBÃºs":12368,"ĠBecas":12369,"ĠBusto":12370,"ĠBich":12371,"ĠBajo":12372,"ĠBrem":12373,"ĠBill":12374,"ĠBÃ¡c":12375,"ĠBej":12376,"ĠBell":12377,"ĠBÃ¼":12378,"ĠBesos":12379,"ĠBorg":12380,"ĠBabe":12381,"ĠBatel":12382,"ĠBÃºcar":12383,"ĠBrad":12384,"ĠBuk":12385,"ĠBruno":12386,"ĠBoric":12387,"ĠBolsa":12388,"ĠBulgar":12389,"ocen":12390,"ocan":12391,"ocus":12392,"ocera":12393,"ochos":12394,"ocot":12395,"ocesos":12396,"ocaliente":12397,"uestan":12398,"uestran":12399,"ajj":12400,"ajÃ³n":12401,"ajera":12402,"ajuca":12403,"ajolo":12404,"ajardo":12405,"ajgalÃŃ":12406,"ajalÃ³n":12407,"ajinic":12408,"ajicori":12409,"Ã¡nica":12410,"Ã¡ntro":12411,"Ã¡neo":12412,"Ã¡ndoles":12413,"rael":12414,"raga":12415,"rablemente":12416,"rauz":12417,"razados":12418,"razgos":12419,"raigadas":12420,"ragÃ¡n":12421,"rahman":12422,"Ãºen":12423,"Ãºpul":12424,"Ãºdanos":12425,"Ãºpido":12426,"Ãºrgica":12427,"idadosa":12428,"querÃŃa":12429,"quivel":12430,"quinaria":12431,"quÃŃsimos":12432,"quenle":12433,"quicias":12434,"forta":12435,"ĠJr":12436,"ĠJon":12437,"ĠJug":12438,"ĠJord":12439,"ĠJama":12440,"ĠJuego":12441,"ĠJamÃ¡s":12442,"ĠJiu":12443,"ĠJuventud":12444,"ĠJeong":12445,"ĠJenni":12446,"ĠJinping":12447,"Ġtoque":12448,"Ġtomo":12449,"Ġtoca":12450,"Ġtome":12451,"ĠtoquÃ©":12452,"Ġtoler":12453,"Ġtotalidad":12454,"ayma":12455,"ayendo":12456,"ayacÃ¡n":12457,"ayeri":12458,"stados":12459,"statamos":12460,"umen":12461,"umos":12462,"umaciÃ³n":12463,"umador":12464,"umaremos":12465,"umbr":12466,"umular":12467,"umka":12468,"umisa":12469,"umrad":12470,"umann":12471,"ĠDE":12472,"ĠDF":12473,"ĠDon":12474,"ĠDimos":12475,"ĠDist":12476,"ĠDÃŃas":12477,"ĠDed":12478,"ĠDerr":12479,"ĠDejo":12480,"ĠDame":12481,"ĠDisc":12482,"ĠDiscurso":12483,"ĠDuele":12484,"ĠDalÃŃ":12485,"ĠDinam":12486,"ĠDjam":12487,"ĠDarwin":12488,"ĠDilma":12489,"ĠDresde":12490,"ĠDirÃŃan":12491,"ĠDucado":12492,"ĠestÃ©":12493,"ĠestÃ¡s":12494,"Ġestando":12495,"Ġestaciones":12496,"Ġestuv":12497,"Ġestatiz":12498,"Ġestallar":12499,"Ġestrellas":12500,"Ġesteril":12501,"Ġestampit":12502,"ĠestÃºpido":12503,"Ġtus":12504,"Ġtent":12505,"Ġtort":12506,"Ġtzo":12507,"Ġthe":12508,"Ġterc":12509,"Ġtatem":12510,"Ġtubo":12511,"Ġtesti":12512,"Ġtercer":12513,"ĠtentaciÃ³n":12514,"Ġtlay":12515,"Ġtermo":12516,"Ġtinie":12517,"ĠtÃŃter":12518,"Ġternura":12519,"uertas":12520,"lojar":12521,"lodip":12522,"ĠVI":12523,"ĠVe":12524,"ĠVales":12525,"ĠVaca":12526,"ĠVasco":12527,"ĠVentos":12528,"ĠVice":12529,"ĠVidal":12530,"ĠVientos":12531,"ĠVenta":12532,"ĠVoto":12533,"ĠVenado":12534,"ĠVanes":12535,"ĠViene":12536,"ĠVinn":12537,"ĠVizca":12538,"ĠVascon":12539,"ĠVidanta":12540,"ĠIX":12541,"ĠIda":12542,"ĠIÃ±a":12543,"ĠISS":12544,"ĠIKEA":12545,"ĠIfig":12546,"ĠIvano":12547,"egan":12548,"egÃ©":12549,"egir":12550,"egario":12551,"egorÃŃa":12552,"Ġsuje":12553,"Ġsupo":12554,"Ġsuger":12555,"Ġsublime":12556,"Ġsuicidio":12557,"erslund":12558,"Ġprogres":12559,"ĠHerm":12560,"ĠHug":12561,"ĠHino":12562,"ĠHach":12563,"ĠHong":12564,"ĠHijo":12565,"ĠHall":12566,"ĠHondo":12567,"ĠHonda":12568,"ĠHsien":12569,"ĠHydro":12570,"ĠHÃ¸jlund":12571,"ĠHank":12572,"ĠHassan":12573,"ĠHungrÃŃa":12574,"ĠHeming":12575,"ĠHabsburgo":12576,"ĠHitler":12577,"ĠHajj":12578,"ĠHuertas":12579,"Ġjine":12580,"Ġjub":12581,"Ġjorn":12582,"Ġjudo":12583,"Ġjuegos":12584,"Ġjuventud":12585,"ĠjonrÃ³n":12586,"Ġjorongos":12587,"ĠjudÃŃos":12588,"tosÃŃs":12589,"tese":12590,"tesis":12591,"formar":12592,"rujo":12593,"rutia":12594,"Ġojo":12595,"Ġoax":12596,"Ġocio":12597,"Ġoeste":12598,"Ġodio":12599,"Ġojos":12600,"ĠoÃŃdos":12601,"lahuaca":12602,"lazamientos":12603,"laisir":12604,"Ġactor":12605,"Ġacons":12606,"Ġacento":12607,"Ġactivo":12608,"Ġactivos":12609,"Ġacude":12610,"Ġacech":12611,"Ġacred":12612,"ĠacordÃ©":12613,"Ġacost":12614,"Ġacusa":12615,"Ġacuso":12616,"Ġacaso":12617,"Ġacusan":12618,"Ġaconte":12619,"Ġactrices":12620,"Ġaceite":12621,"Ġachich":12622,"ĠacrÃ³nimo":12623,"Ġacueducto":12624,"ĠacatarÃ¡":12625,"ĠacompaÃ±a":12626,"Ġacusen":12627,"Ġacumular":12628,"trogen":12629,"Ġpreso":12630,"Ġpresos":12631,"Ġpresas":12632,"Ġprestar":12633,"Ġpresente":12634,"Ġpreside":12635,"Ġpreserv":12636,"Ġpresentes":12637,"Ġpresion":12638,"Ġpresumo":12639,"ĠpresentaciÃ³n":12640,"Ġpreserva":12641,"ĠpresentÃ©":12642,"Ġprestigio":12643,"ĠlociÃ³n":12644,"Ġlotes":12645,"Ġlogra":12646,"Ġlogre":12647,"ĠlogÃŃst":12648,"Ġpago":12649,"Ġpavo":12650,"Ġpagan":12651,"Ġpavim":12652,"Ġpaulatinamente":12653,"Ġcompuesta":12654,"Ġcomponer":12655,"Ġcompendio":12656,"Ġcomponente":12657,"idenciales":12658,"gros":12659,"grado":12660,"grada":12661,"gradarlos":12662,"rovis":12663,"rovi":12664,"roteg":12665,"roelÃ©ctrica":12666,"roxim":12667,"ĠPaladines":12668,"peal":12669,"peÃ³n":12670,"petu":12671,"peya":12672,"pejemoÃ±a":12673,"lea":12674,"lebre":12675,"lejero":12676,"godon":12677,"gotÃ¡":12678,"rani":12679,"rancar":12680,"rancistas":12681,"rancarÃ¡":12682,"recemos":12683,"rectora":12684,"ĠmÃ¡scara":12685,"daga":12686,"daÃ±o":12687,"daÃ±os":12688,"dazal":12689,"ĠFe":12690,"ĠFerm":12691,"ĠFund":12692,"ĠFamil":12693,"ĠFelici":12694,"ĠFed":12695,"ĠFeli":12696,"ĠFirma":12697,"ĠFuimos":12698,"ĠFÃ³rmula":12699,"ĠFeria":12700,"ĠFore":12701,"ĠFoul":12702,"ĠFalla":12703,"ĠFuentes":12704,"ĠFiscales":12705,"ĠFuk":12706,"ĠFonda":12707,"ĠFunciÃ³n":12708,"ĠFEPA":12709,"ĠFDN":12710,"ĠFMF":12711,"ĠFlint":12712,"ĠFertilizantes":12713,"ĠForzadas":12714,"ĠFastlic":12715,"ĠFÃ©qui":12716,"ĠFilip":12717,"ĠFocus":12718,"terven":12719,"terano":12720,"terial":12721,"terpre":12722,"terramos":12723,"teresado":12724,"desh":12725,"despaj":12726,"Ġapto":12727,"Ġapretar":12728,"Ġapuesta":12729,"Ġapunto":12730,"Ġapog":12731,"Ġaplaud":12732,"Ġapell":12733,"Ġapega":12734,"ĠapÃ³stol":12735,"Ġapertura":12736,"Ġapropiado":12737,"Ġapague":12738,"ĠaportarÃ¡":12739,"Ġapuntan":12740,"Ġapuestan":12741,"Ġaproxim":12742,"Ġresto":12743,"Ġrestar":12744,"Ġresist":12745,"Ġresista":12746,"Ġresumo":12747,"Ġrestable":12748,"Ġresidencia":12749,"Ġresisten":12750,"Ġresarcir":12751,"Ġrestricciones":12752,"Ġresiduos":12753,"Ġresolvers":12754,"Ġresumen":12755,"Ġresidenciales":12756,"adables":12757,"Ġ28":12758,"Ġ29":12759,"Ġ230":12760,"Ġ285":12761,"aÃ±ar":12762,"aÃ±as":12763,"istÃ³teles":12764,"istlahuaca":12765,"Ġamar":12766,"Ġamado":12767,"Ġamados":12768,"Ġamante":12769,"Ġamate":12770,"Ġamural":12771,"Ġamable":12772,"Ġamarga":12773,"Ġamule":12774,"Ġamablemente":12775,"Ġaminorar":12776,"iosa":12777,"ioso":12778,"izÃ³":12779,"izÃ¡":12780,"izando":12781,"izarÃ¡":12782,"izaje":12783,"peramos":12784,"perio":12785,"peremos":12786,"peraremos":12787,"perimental":12788,"traiga":12789,"presarios":12790,"Ġconste":12791,"Ġconsejo":12792,"ĠconsomÃ©":12793,"ĠconsentirÃ¡":12794,"Ġconsienten":12795,"Ġconsustan":12796,"Enrique":12797,"Ensayo":12798,"Enhorabuena":12799,"EntÃ©r":12800,"ÃŃsenles":12801,"deras":12802,"derÃ©":12803,"derson":12804,"derivadas":12805,"derÃºrgica":12806,"Ġdiera":12807,"Ġdiarias":12808,"Ġdiabe":12809,"Ġdibuj":12810,"entados":12811,"entÃŃn":12812,"entino":12813,"entamientos":12814,"enturados":12815,"ĠOtra":12816,"ĠOug":12817,"ĠOax":12818,"ĠOpos":12819,"ĠOmit":12820,"ĠOks":12821,"ĠOmar":12822,"ĠOÄŁ":12823,"ĠOrang":12824,"ĠOMS":12825,"ĠOPEP":12826,"ĠOtto":12827,"ĠOxkut":12828,"ĠOlea":12829,"Ġemblem":12830,"Ġempez":12831,"Ġemitido":12832,"Ġemigrar":12833,"ElFuturo":12834,"motos":12835,"moÃ±a":12836,"moelÃ©ctrica":12837,"mojaban":12838,"LaCons":12839,"Laurita":12840,"LaHomo":12841,"hourlian":12842,"Ġseris":12843,"Ġseria":12844,"Ġserio":12845,"Ġserrano":12846,"ĠsermÃ³n":12847,"Ġserenarnos":12848,"tuamos":12849,"tugues":12850,"tuosidad":12851,"ibo":12852,"iberto":12853,"ibrar":12854,"ibov":12855,"ibutaria":12856,"ibilidades":12857,"Ġcampec":12858,"Ġcamell":12859,"ĠcambiÃ³":12860,"Ġcampamentos":12861,"Ġextern":12862,"Ġexcl":12863,"Ġexces":12864,"Ġexitos":12865,"Ġextre":12866,"Ġexquis":12867,"Ġexdi":12868,"Ġexistencia":12869,"Ġextensa":12870,"Ġexterm":12871,"Ġexisten":12872,"Ġexistir":12873,"Ġexcusa":12874,"Ġexhibe":12875,"Ġexonera":12876,"ĠEstos":12877,"ĠEstuve":12878,"ĠEstuvieron":12879,"ĠEsther":12880,"ĠEstrellas":12881,"continu":12882,"Ġnostal":12883,"ĠChito":12884,"ĠChicas":12885,"ĠChoch":12886,"ĠCheca":12887,"ĠChema":12888,"ĠChigna":12889,"ĠChak":12890,"ĠChev":12891,"ĠChinam":12892,"ĠChilapa":12893,"ĠChivas":12894,"ĠChry":12895,"ĠChenal":12896,"ĠChinantla":12897,"ĠChueca":12898,"ĠChamula":12899,"ĠChomsky":12900,"ĠCheco":12901,"Ġentornos":12902,"torio":12903,"ierÃŃa":12904,"tenÃŃa":12905,"tenimiento":12906,"tenango":12907,"tengamos":12908,"tentable":12909,"Ġtiran":12910,"Ġtipo":12911,"Ġtirar":12912,"Ġtiramos":12913,"ĠtirÃ©":12914,"Ġtitub":12915,"Ġtierno":12916,"ĠtrabajÃ³":12917,"Ġtrabajado":12918,"ĠtrabajarÃ¡":12919,"Ġtrabajaron":12920,"ĠUNE":12921,"ĠUso":12922,"ĠUNI":12923,"ĠUNO":12924,"ĠUFC":12925,"ĠUxmal":12926,"ĠUayma":12927,"ĠEspaÃ±":12928,"ĠEscal":12929,"ĠEstaremos":12930,"ĠEslov":12931,"ĠEspecial":12932,"ĠEstell":12933,"ĠEsquivel":12934,"ĠEsperamos":12935,"Ġcorta":12936,"Ġcorra":12937,"Ġcorran":12938,"Ġcorea":12939,"Ġcorreg":12940,"Ġcorreo":12941,"Ġcorrecto":12942,"Ġcoreaba":12943,"Ġcita":12944,"Ġcimiento":12945,"Ġcientos":12946,"Ġciencias":12947,"Ġcilin":12948,"Ġciertos":12949,"Ġquo":12950,"Ġquie":12951,"Ġquita":12952,"ĠquerÃŃa":12953,"Ġquite":12954,"Ġquiera":12955,"Ġquinc":12956,"ĠquizÃ¡":12957,"ociales":12958,"ocidas":12959,"ocidio":12960,"Ġrica":12961,"Ġricos":12962,"Ġrato":12963,"Ġring":12964,"Ġromp":12965,"Ġroca":12966,"Ġrentas":12967,"Ġrusa":12968,"Ġrieles":12969,"Ġrosca":12970,"Ġrampl":12971,"ĠridÃŃculo":12972,"Ġsala":12973,"Ġsalas":12974,"Ġsaldo":12975,"Ġsalimos":12976,"Ġsalido":12977,"ĠsaliÃ³":12978,"Ġsalvan":12979,"Ġsaliente":12980,"Ġsaliva":12981,"ĠsaldrÃ¡":12982,"Ġsalarial":12983,"Ġimpara":12984,"Ġimpuestas":12985,"Ġimplor":12986,"ĠimplÃŃ":12987,"Ġimportar":12988,"Ġimpusieron":12989,"Ġimplem":12990,"Ġimpunemente":12991,"ĠimpidiÃ³":12992,"Ġimpecable":12993,"Ġimprovis":12994,"guen":12995,"guenos":12996,"guaje":12997,"Ġpozos":12998,"ĠpodÃŃa":12999,"ĠpoesÃŃa":13000,"ĠpoquÃŃsimos":13001,"uentra":13002,"uentren":13003,"apÃ¡":13004,"apur":13005,"apred":13006,"apaces":13007,"apacitados":13008,"appeal":13009,"Ġentregan":13010,"Ġentrevistar":13011,"Ġentretenimiento":13012,"Ġsobran":13013,"ortÃ©":13014,"ortados":13015,"hupo":13016,"huala":13017,"huatlÃ¡n":13018,"huapan":13019,"hualc":13020,"huarip":13021,"arrÃŃa":13022,"arrones":13023,"ansmisiÃ³n":13024,"mael":13025,"ĠIngen":13026,"ĠIncl":13027,"ĠInquis":13028,"ĠInclus":13029,"ĠIniciamos":13030,"ĠIntercambi":13031,"ĠInvas":13032,"ĠInvertiremos":13033,"ĠIndaga":13034,"ĠInterpre":13035,"Ã©nz":13036,"Ã©nica":13037,"Ã©ndez":13038,"Ã©ntral":13039,"Ã©nense":13040,"Ã©ndose":13041,"Ã©ndira":13042,"lanto":13043,"landa":13044,"lanejo":13045,"landia":13046,"lanueva":13047,"xicanas":13048,"xicaneros":13049,"ĠMara":13050,"ĠMarta":13051,"ĠMaria":13052,"ĠMarav":13053,"ĠMarie":13054,"ĠMarine":13055,"ĠMarius":13056,"ĠMariach":13057,"ĠMarlene":13058,"ĠMaradona":13059,"ĠMarichuy":13060,"ĠReal":13061,"ĠReed":13062,"ĠRecibÃŃ":13063,"ĠReuniÃ³n":13064,"ĠRehabil":13065,"ĠReyn":13066,"ĠReiniciÃ³":13067,"ĠRebeca":13068,"ĠRedondo":13069,"ĠRecinto":13070,"turÃŃstico":13071,"onsabilidad":13072,"Ġvivan":13073,"ĠvivÃŃa":13074,"Ġvivido":13075,"Ġviveros":13076,"Ġviviendo":13077,"Ġvivientes":13078,"visto":13079,"vismo":13080,"Ġ2094":13081,"ventes":13082,"venidos":13083,"Ġtransa":13084,"Ġtransitor":13085,"Ġtranspor":13086,"ĠcuÃ±a":13087,"Ġcuenten":13088,"Ġcuya":13089,"Ġcuanti":13090,"Ġcuidemos":13091,"Ġcuantos":13092,"Ġcuadrang":13093,"Ġcuidadosa":13094,"Ġgobernamos":13095,"Ġgobernando":13096,"ĠgobernarÃ¡":13097,"Ġgobernaron":13098,"Ġreunido":13099,"ĠreuniÃ³":13100,"Ġreunirnos":13101,"ĠreunirÃ©":13102,"ĠElÃŃas":13103,"ĠElba":13104,"ĠElabor":13105,"ĠElke":13106,"ĠElisab":13107,"Ġobrero":13108,"Ġobtuv":13109,"Ġobtuvimos":13110,"Ġobvio":13111,"Ġobses":13112,"Ġobtiene":13113,"Ġobtienen":13114,"Ġobtengan":13115,"Ġobnub":13116,"Ġobesidad":13117,"Ġrecurso":13118,"Ġrecurr":13119,"Ġrecabando":13120,"ĠrecaudaciÃ³n":13121,"Ġrecetas":13122,"Ġreclusos":13123,"ĠrecÃŃpr":13124,"Ġrectificar":13125,"ĠMetapa":13126,"ĠMejÃŃa":13127,"ĠMetLif":13128,"ĠMexe":13129,"ĠMeymand":13130,"ĠMetrob":13131,"Ġando":13132,"Ġanda":13133,"Ġanual":13134,"Ġanima":13135,"Ġancho":13136,"Ġanticip":13137,"Ġanimen":13138,"Ġantic":13139,"Ġantrop":13140,"Ġandamos":13141,"Ġandar":13142,"ĠandÃ¡bamos":13143,"Ġangora":13144,"Ġantis":13145,"Ġancianos":13146,"Ġanalfabe":13147,"ĠanÃ³nimos":13148,"Ġantojitos":13149,"Ġmiedo":13150,"Ġsinies":13151,"Ġsincer":13152,"ĠsintiÃ³":13153,"ucha":13154,"uchas":13155,"plos":13156,"plice":13157,"plÃ¡cito":13158,"Ġdemasiado":13159,"Ġdemuestran":13160,"ĠLago":13161,"ĠLagar":13162,"ĠLagos":13163,"ĠLauck":13164,"ĠLaks":13165,"ĠLazur":13166,"Ġcompras":13167,"Ġcompramos":13168,"Ġcomprando":13169,"Ġcomprados":13170,"Ġcomprendo":13171,"Ġcomprende":13172,"Ġcomprobantes":13173,"ĠSang":13174,"ĠSanidad":13175,"ĠSantos":13176,"ĠSantil":13177,"ĠSantam":13178,"ĠaÃ±ej":13179,"ĠaÃ±orados":13180,"Ġmantas":13181,"Ġmantuvimos":13182,"Ġmantienen":13183,"Ġmaneas":13184,"Ġmananti":13185,"Ġmaniob":13186,"Ġmanufac":13187,"Ġmanzana":13188,"bros":13189,"brado":13190,"breros":13191,"bridge":13192,"caz":13193,"cazar":13194,"cazgos":13195,"ezcamos":13196,"ezyera":13197,"ezolana":13198,"190":13199,"1917":13200,"1938":13201,"1982":13202,"1995":13203,"1977":13204,"ĠTrono":13205,"ĠTrumka":13206,"ĠTributaria":13207,"ĠTruchas":13208,"Ġcorruptas":13209,"Ġcorrupcion":13210,"ordia":13211,"ordial":13212,"Ġsobrepre":13213,"Ġsobrevuelo":13214,"Ġlleno":13215,"ĠllÃ©g":13216,"Ġllorar":13217,"Ġlloran":13218,"Ġasada":13219,"Ġaspec":13220,"Ġasusta":13221,"Ġasilo":13222,"Ġaspir":13223,"Ġasistencia":13224,"Ġasistir":13225,"Ġasqueros":13226,"Ġascendido":13227,"Ġasciende":13228,"Ġasiduamente":13229,"Ġasilaron":13230,"Ġasustada":13231,"Ġasentamientos":13232,"Ġsecuaces":13233,"Ġsectarismos":13234,"vazado":13235,"ĠCiudadana":13236,"ĠCiudadano":13237,"ĠniÃ±o":13238,"itarias":13239,"rÃ¡ulicas":13240,"Ġlee":13241,"ĠleÃŃda":13242,"Ġlejos":13243,"ĠleÃŃdo":13244,"versiÃ³n":13245,"Ġestables":13246,"Ġestabas":13247,"Ġapoye":13248,"Ġapoyado":13249,"Ġapoyador":13250,"Ġapoyarnos":13251,"ĠapoyÃ¡ndonos":13252,"avÃ³n":13253,"avera":13254,"avilla":13255,"avala":13256,"averitas":13257,"aventurados":13258,"aroncito":13259,"Ġsola":13260,"Ġsolos":13261,"Ġsolas":13262,"Ġsoltaron":13263,"Ġsolteros":13264,"Ġsolares":13265,"ĠAli":13266,"ĠAllÃ¡":13267,"ĠAlux":13268,"ĠAltam":13269,"ĠAltamin":13270,"ĠAlire":13271,"ĠAlzÃºa":13272,"ĠAlsto":13273,"ĠAltiplano":13274,"ĠAlegan":13275,"ĠAlgodon":13276,"ĠAlcazar":13277,"Control":13278,"Contamos":13279,"Convoc":13280,"Conviv":13281,"ContinÃºan":13282,"Convertiremos":13283,"Concamin":13284,"Contradici":13285,"Constatamos":13286,"Ġmedir":13287,"Ġmedias":13288,"ĠmediciÃ³n":13289,"iversidades":13290,"uya":13291,"uyeron":13292,"endan":13293,"endas":13294,"endado":13295,"endios":13296,"endidos":13297,"endiÃ³":13298,"ĠfrÃŃa":13299,"Ġfrasco":13300,"Ġfrenar":13301,"\"\"\"":13302,"idero":13303,"Ġhacerse":13304,"Ġhacendado":13305,"Ġcomparo":13306,"Ġcomparan":13307,"ĠcomparaciÃ³n":13308,"Ġcomparado":13309,"Ġcomparten":13310,"Ġcomparaciones":13311,"ĠcompartiÃ³":13312,"Ġcompartiremos":13313,"ĠUnite":13314,"ĠUnivisiÃ³n":13315,"ĠYe":13316,"ĠYon":13317,"ĠYau":13318,"ĠYong":13319,"ĠYorio":13320,"ĠYankees":13321,"ĠYerres":13322,"ĠYÃ¡Ã±ez":13323,"ĠYajalÃ³n":13324,"Ġtecho":13325,"Ġtejen":13326,"Ġtejate":13327,"Ġhagamos":13328,"ĠEnfr":13329,"ĠEngel":13330,"ĠEncu":13331,"ĠEncar":13332,"ĠEntren":13333,"ĠEnhorabuena":13334,"ĠEngine":13335,"ĠEnfermerÃŃa":13336,"ĠVerdad":13337,"ĠVerkam":13338,"Ġpreval":13339,"Ġprefir":13340,"Ġprevio":13341,"Ġpreferencias":13342,"ĠprevaleciÃ³":13343,"Ġpretenden":13344,"ĠprecisiÃ³n":13345,"Ġpregon":13346,"Ġprehisp":13347,"Ġpredeci":13348,"Ġprevisto":13349,"Ġhayan":13350,"ĠestÃ¡bamos":13351,"Ġrespete":13352,"Ġrespetado":13353,"Ġrespetada":13354,"Ġrespetable":13355,"Ġrespetemos":13356,"afras":13357,"ĠSalvo":13358,"ĠSalce":13359,"ĠSalces":13360,"ĠSaludo":13361,"ĠSalutaciÃ³n":13362,"Esa":13363,"Estrategia":13364,"EsplÃ©n":13365,"EspÃ¡n":13366,"Especial":13367,"Esperemos":13368,"ĠZump":13369,"ĠZea":13370,"ĠZong":13371,"ĠZieg":13372,"ĠZÃ³l":13373,"ĠZucker":13374,"ĠZarco":13375,"ĠZurita":13376,"ĠZhen":13377,"ĠZihuat":13378,"ĠZamora":13379,"ĠZinacatepec":13380,"ĠZurab":13381,"ĠZavala":13382,"Ġ\"\"Â¡":13383,"jetas":13384,"Ġmexicanas":13385,"Ġmexicanismo":13386,"Ġprimor":13387,"Ġprimordial":13388,"Ġdisco":13389,"Ġdisip":13390,"Ġdispos":13391,"Ġdistraiga":13392,"Ġmejora":13393,"Ġempresarias":13394,"Reed":13395,"Reiniciamos":13396,"Reapertura":13397,"Reflex":13398,"Repito":13399,"Reencuentro":13400,"ReinstalaciÃ³n":13401,"ReinauguraciÃ³n":13402,"ductiva":13403,"joa":13404,"jovel":13405,"Ġcree":13406,"Ġcreer":13407,"Ġcrean":13408,"Ġcreativ":13409,"Ġcreativo":13410,"Ġcrecido":13411,"Ġcrecimos":13412,"Ġcreativos":13413,"Ġcreativas":13414,"Ġcrediti":13415,"Ġsuscep":13416,"Ġsuscr":13417,"Ġsuspende":13418,"Ġsustentable":13419,"ĠAnte":13420,"ĠAngel":13421,"ĠAngÃ©lica":13422,"ĠAnderson":13423,"biel":13424,"bible":13425,"zari":13426,"zarena":13427,"zarreta":13428,"ĠcartÃ³n":13429,"ĠcariÃ±":13430,"ĠcarbÃ³n":13431,"ĠcarestÃŃa":13432,"Ġcarisma":13433,"Ġcarrancistas":13434,"andre":13435,"andonaremos":13436,"Ġencomien":13437,"Ġencuentren":13438,"Ġorales":13439,"Ġorques":13440,"Ġoreja":13441,"Ġorillas":13442,"ĠordeÃ±a":13443,"ĠeconomÃŃas":13444,"ÃŃno":13445,"ÃŃnas":13446,"ÃŃnicas":13447,"iedad":13448,"ieva":13449,"ĠsaludÃ©":13450,"Ġsaludamos":13451,"Ġsaludando":13452,"Ġsaludaron":13453,"Ġsaludable":13454,"Ġsaludarnos":13455,"Ã³mica":13456,"Estas":13457,"pecÃ©":13458,"pectivas":13459,"Ġhistorias":13460,"Ġregar":13461,"Ġregula":13462,"Ġreglamentar":13463,"chera":13464,"chÃ©n":13465,"chaca":13466,"chinol":13467,"Ġcoincid":13468,"Ġcofund":13469,"Ġcohecho":13470,"Ġcooper":13471,"ĠautÃ³noma":13472,"Ġautenti":13473,"Ġconstruimos":13474,"ĠconstruyÃ³":13475,"Ġconstruye":13476,"Ġconstruido":13477,"Ġconstruidos":13478,"Ġconstruyen":13479,"Ġconstruiremos":13480,"Ġarmada":13481,"Ġaroma":13482,"Ġarzob":13483,"Ġarquitectura":13484,"Ġarrestan":13485,"Ġarraigadas":13486,"ĠarrancarÃ¡":13487,"ĠCalle":13488,"ĠCaliente":13489,"ĠCalpul":13490,"Ġgranos":13491,"Ġgranjas":13492,"Ġestelar":13493,"Ġvisas":13494,"Ġvisiones":13495,"Ġvisitas":13496,"ĠvistiÃ³":13497,"Ġvistieron":13498,"Ġvisitemos":13499,"ĠRojo":13500,"ĠRobles":13501,"ĠRoton":13502,"ĠRodolfo":13503,"ĠRojas":13504,"ĠRojos":13505,"ĠRojk":13506,"ĠRoosevel":13507,"ĠRousse":13508,"ĠJuremos":13509,"ĠJuxtlahuaca":13510,"Ġmejoren":13511,"Ġmejorando":13512,"itable":13513,"itaba":13514,"Ã©ramos":13515,"Ã©rides":13516,"democracia":13517,"Ġatentar":13518,"Ġatenuar":13519,"Ġatenciones":13520,"Ġatentaremos":13521,"Ġcontrapar":13522,"Ġcontrapes":13523,"Mexico":13524,"Meade":13525,"Mejor":13526,"Mexicanas":13527,"Ġbienaventurados":13528,"tinamos":13529,"tinuemos":13530,"Ġpropias":13531,"Ġpropuesto":13532,"Ġproposi":13533,"Ġpropone":13534,"Ġproponen":13535,"ĠpropondrÃ©":13536,"Ġpropiciada":13537,"ifas":13538,"ifica":13539,"lardo":13540,"larlo":13541,"larse":13542,"larecer":13543,"larecimiento":13544,"ĠQiu":13545,"Ġpersiguen":13546,"Ġpersuad":13547,"Ġperspectivas":13548,"ĠSong":13549,"ĠSonoyta":13550,"Ġcomunistas":13551,"Ġcomunicamos":13552,"Ġcomunitaria":13553,"Ġcomunicaciones":13554,"frente":13555,"frido":13556,"Ġpasa":13557,"Ġpasen":13558,"Ġpasando":13559,"Ġpasados":13560,"Ġpasaremos":13561,"ĠpasarÃ¡":13562,"Ġpasara":13563,"Ġpasadas":13564,"Ġpastel":13565,"Ġpastores":13566,"Ġpasillos":13567,"Ġpasajera":13568,"Ġayude":13569,"ĠayÃºdennos":13570,"Ġayuntamiento":13571,"ĠsonÃ³":13572,"Ġsonado":13573,"Ġsonris":13574,"Ġsonoramente":13575,"ĠMorista":13576,"ĠMorisco":13577,"ĠMorne":13578,"ĠMoretta":13579,"ĠCarter":13580,"ĠCariÃ±o":13581,"ĠCardel":13582,"ĠCarner":13583,"ĠCarnal":13584,"ĠCarretera":13585,"ĠCardona":13586,"omod":13587,"Ġdejan":13588,"Ġdejado":13589,"entaron":13590,"entarÃ©":13591,"entaremos":13592,"tegro":13593,"tivando":13594,"tivamente":13595,"Ġmillas":13596,"calate":13597,"calzi":13598,"calanton":13599,"ĠConsuelo":13600,"ĠConsultora":13601,"ĠConsumaciÃ³n":13602,"ĠConsidero":13603,"ĠGuach":13604,"ĠGuich":13605,"ĠGuill":13606,"ĠGuamÃºchil":13607,"ĠGuajardo":13608,"Ġperdemos":13609,"Ġperfil":13610,"Ġperjud":13611,"Ġperpetu":13612,"iarÃ¡n":13613,"Ġmague":13614,"Ġmaquil":13615,"Ġmazat":13616,"Ġmaistro":13617,"Ġmaquinaria":13618,"Ġelector":13619,"ĠelectrÃ³nico":13620,"tilleros":13621,"tilaterales":13622,"Ġinformado":13623,"Ġinformaremos":13624,"Ġinformarnos":13625,"Ġinformativas":13626,"pervisando":13627,"pervisora":13628,"Ġfalte":13629,"Ġfallo":13630,"Ġfalla":13631,"ĠfalsificaciÃ³n":13632,"cedente":13633,"cebible":13634,"iÃ³s":13635,"iÃ³logo":13636,"iÃ³logos":13637,"ĠdebÃŃa":13638,"Ġdebido":13639,"ĠdeberÃŃa":13640,"ĠLea":13641,"ĠLeal":13642,"ĠLeones":13643,"ĠLeerla":13644,"Ġescucho":13645,"Ġescudo":13646,"Ġescuela":13647,"Ġescenarios":13648,"Ġescasez":13649,"ĠescultÃ³rico":13650,"Ġesclarecer":13651,"Ġsegura":13652,"Ġseguros":13653,"Ġseguras":13654,"Ġsegundos":13655,"ĠNoh":13656,"ĠNoam":13657,"ĠNoel":13658,"ĠNotre":13659,"ĠNoticias":13660,"Ġabra":13661,"Ġabono":13662,"Ġabuelo":13663,"Ġabusos":13664,"Ġabuelos":13665,"Ġabandona":13666,"Ġabneg":13667,"Ġabordo":13668,"Ġabomina":13669,"Ġabandonaremos":13670,"ĠseguÃŃa":13671,"Ġseguidos":13672,"Ġseguimiento":13673,"Ġseguidor":13674,"ĠinventÃ³":13675,"Ġinventan":13676,"Ġinviten":13677,"Ġinvertido":13678,"Ġinvaluable":13679,"Ġinvadieron":13680,"ĠinvasiÃ³n":13681,"Ġinvoluc":13682,"Ġinviable":13683,"Ġinvocan":13684,"ĠimportaciÃ³n":13685,"Ġimportaciones":13686,"Ġ33":13687,"Ġ350":13688,"Ġ385":13689,"Ġ315":13690,"Ġ348":13691,"Ġ388":13692,"gazo":13693,"iptores":13694,"ipilÃŃn":13695,"ativismo":13696,"ĠArio":13697,"ĠArgel":13698,"ĠAriel":13699,"ĠArtem":13700,"ĠArzob":13701,"ĠArquitectura":13702,"ĠArgy":13703,"ĠArtÃŃs":13704,"ĠArreola":13705,"ĠArrancar":13706,"ĠAristÃ³teles":13707,"ĠGuerreros":13708,"Ġfines":13709,"Ġfingen":13710,"lich":13711,"Ġaduana":13712,"Ġadicionales":13713,"Ġadicciones":13714,"ĠadhesiÃ³n":13715,"Ã³rzano":13716,"ĠverÃ¡n":13717,"Ġverlo":13718,"Ġverla":13719,"Ġverano":13720,"Ġvertientes":13721,"Ġrelativo":13722,"Ġrelataba":13723,"ĠrelÃ¡jate":13724,"Ġinterferencia":13725,"Ġinteract":13726,"Ġintercambi":13727,"Ġintermed":13728,"Ġinterrump":13729,"Ġhacerlo":13730,"Ġhacerla":13731,"Ġhacerle":13732,"cista":13733,"Ġmoda":13734,"Ġmojo":13735,"ĠmoÃ±o":13736,"Ġmoja":13737,"ĠmoÃ±as":13738,"Ġmotule":13739,"Ġmayos":13740,"Ġhabida":13741,"Ġhabremos":13742,"Ġhabiendo":13743,"Ġhabitados":13744,"ĠhabrÃŃa":13745,"Ġhabitaciones":13746,"irmamos":13747,"Ġparticipen":13748,"ĠparticipÃ©":13749,"ĠparticiparÃ©":13750,"edor":13751,"edios":13752,"edieron":13753,"vantamos":13754,"Ġejidos":13755,"Ġejecu":13756,"Ġejidatarios":13757,"exa":13758,"ingÃ¡n":13759,"ingada":13760,"ingiÃ³":13761,"ĠconfÃŃo":13762,"Ġconfunda":13763,"ĠconfusiÃ³n":13764,"Ġconfirmar":13765,"ĠconfesÃ³":13766,"Ġconfirmamos":13767,"Ġrepresa":13768,"Ġrepresente":13769,
[...]
