{"<s>":0,"<pad>":1,"</s>":2,"<unk>":3,"<mask>":4,"a":5,"b":6,"c":7,"d":8,"e":9,"f":10,"g":11,"h":12,"i":13,"j":14,"k":15,"l":16,"m":17,"n":18,"o":19,"p":20,"q":21,"r":22,"s":23,"t":24,"u":25,"v":26,"w":27,"x":28,"y":29,"z":30,"Ġ":31,"Ġt":32,"Ġa":33,"in":34,"he":35,"Ġo":36,"er":37,"Ġs":38,"Ġthe":39,"re":40,"Ġc":41,"on":42,"Ġf":43,"en":44,"is":45,"at":46,"an":47,"Ġb":48,"Ġw":49,"Ġp":50,"it":51,"ed":52,"Ġof":53,"es":54,"or":55,"al":56,"Ġin":57,"Ġm":58,"Ġn":59,"Ġan":60,"ar":61,"Ġon":62,"ic":63,"Ġd":64,"Ġe":65,"ou":66,"Ġh":67,"Ġand":68,"Ġl":69,"ion":70,"ing":71,"Ġone":72,"as":73,"Ġth":74,"Ġto":75,"ro":76,"le":77,"Ġg":78,"ve":79,"ine":80,"ent":81,"ig":82,"Ġre":83,"Ġz":84,"ero":85,"om":86,"Ġzero":87,"ly":88,"Ġnine":89,"us":90,"ct":91,"il":92,"Ġis":93,"Ġse":94,"Ġbe":95,"ol":96,"am":97,"st":98,"Ġtw":99,"Ġtwo":100,"un":101,"im":102,"ht":103,"ive":104,"ation":105,"ce":106,"ra":107,"Ġst":108,"Ġfor":109,"ch":110,"ight":111,"id":112,"ver":113,"Ġas":114,"ot":115,"ut":116,"ur":117,"Ġal":118,"et":119,"our":120,"ir":121,"el":122,"ist":123,"ow":124,"Ġcon":125,"ad":126,"ree":127,"ul":128,"Ġhe":129,"ven":130,"ter":131,"Ġeight":132,"Ġk":133,"ith":134,"Ġwh":135,"Ġj":136,"Ġde":137,"Ġwas":138,"Ġit":139,"Ġby":140,"Ġr":141,"Ġor":142,"Ġfive":143,"Ġthree":144,"ay":145,"ix":146,"os":147,"Ġthat":148,"Ġcom":149,"Ġwith":150,"her":151,"Ġfour":152,"Ġpro":153,"Ġv":154,"Ġch":155,"and":156,"um":157,"Ġsix":158,"Ġun":159,"ers":160,"Ġseven":161,"Ġmo":162,"ge":163,"if":164,"Ġex":165,"op":166,"ri":167,"rom":168,"Ġare":169,"em":170,"Ġsu":171,"th":172,"est":173,"oun":174,"Ġat":175,"res":176,"ain":177,"ate":178,"ac":179,"ab":180,"ity":181,"qu":182,"ian":183,"ies":184,"od":185,"pe":186,"Ġfrom":187,"se":188,"Ġus":189,"Ġne":190,"ment":191,"ich":192,"ld":193,"Ġar":194,"oc":195,"ical":196,"ess":197,"Ġen":198,"iv":199,"Ġhis":200,"ill":201,"art":202,"ant":203,"Ġy":204,"ia":205,"ort":206,"ial":207,"ud":208,"Ġle":209,"all":210,"og":211,"Ġnot":212,"Ġthis":213,"ap":214,"ard":215,"Ġwhich":216,"ish":217,"ak":218,"Ġwor":219,"ag":220,"ther":221,"Ġsh":222,"ber":223,"der":224,"ip":225,"Ġpl":226,"Ġha":227,"Ġcomp":228,"ction":229,"Ġam":230,"ure":231,"ated":232,"so":233,"ary":234,"ie":235,"pp":236,"pt":237,"ame":238,"ome":239,"Ġman":240,"ous":241,"Ġcl":242,"ast":243,"Ġalso":244,"oug":245,"rit":246,"Ġad":247,"ere":248,"Ġab":249,"Ġcont":250,"cl":251,"per":252,"ire":253,"Ġcan":254,"ong":255,"ust":256,"ell":257,"age":258,"Ġint":259,"ran":260,"Ġhave":261,"Ġsp":262,"cc":263,"ect":264,"ks":265,"Ġhas":266,"Ġwhe":267,"Ġwere":268,"Ġother":269,"ally":270,"Ġall":271,"ore":272,"ition":273,"end":274,"ence":275,"ound":276,"iz":277,"Ġim":278,"ib":279,"Ġaf":280,"Ġpart":281,"ry":282,"Ġbut":283,"Ġu":284,"Ġcomm":285,"ations":286,"ory":287,"Ġro":288,"fer":289,"ide":290,"tern":291,"erm":292,"ub":293,"Ġsc":294,"du":295,"ult":296,"ass":297,"ough":298,"Ġte":299,"Ġdis":300,"ang":301,"ren":302,"ign":303,"Ġits":304,"Ġind":305,"av":306,"ru":307,"ph":308,"act":309,"Ġi":310,"Ġsy":311,"pl":312,"ould":313,"Ġtheir":314,"vers":315,"Ġres":316,"ars":317,"Ġnew":318,"Ġsome":319,"Ġgo":320,"ke":321,"Ġfir":322,"Ġra":323,"ord":324,"land":325,"Ġcol":326,"out":327,"Ġno":328,"Ġco":329,"ime":330,"Ġbec":331,"ount":332,"Ġme":333,"ates":334,"Ġhad":335,"Ġthey":336,"vel":337,"Ġso":338,"orm":339,"Ġfirst":340,"ism":341,"Ġform":342,"Ġgen":343,"ican":344,"Ġmost":345,"ces":346,"Ġbo":347,"Ġph":348,"Ġag":349,"own":350,"red":351,"Ġmar":352,"ue":353,"ack":354,"able":355,"Ġpo":356,"Ġmore":357,"ater":358,"ice":359,"Ġper":360,"Ġthere":361,"ress":362,"Ġpr":363,"ions":364,"Ġwho":365,"ose":366,"Ġgr":367,"ict":368,"Ġdes":369,"Ġtra":370,"Ġcent":371,"ics":372,"ond":373,"Ġwe":374,"Ġcons":375,"ach":376,"Ġye":377,"Ġamer":378,"Ġspe":379,"Ġbeen":380,"Ġser":381,"ite":382,"ff":383,"Ġem":384,"Ġrel":385,"ile":386,"ens":387,"Ġrec":388,"ace":389,"Ġele":390,"Ġsuch":391,"Ġpe":392,"ok":393,"Ġqu":394,"Ġmany":395,"Ġeng":396,"olog":397,"Ġkn":398,"clud":399,"ors":400,"ath":401,"ational":402,"ance":403,"te":404,"Ġfe":405,"Ġact":406,"Ġused":407,"ited":408,"Ġpol":409,"Ġafter":410,"Ġbl":411,"les":412,"ase":413,"hed":414,"ts":415,"Ġinclud":416,"port":417,"Ġhow":418,"one":419,"Ġover":420,"ular":421,"Ġinf":422,"Ġli":423,"ubl":424,"we":425,"Ġear":426,"Ġsee":427,"Ġpre":428,"Ġwhen":429,"Ġdo":430,"Ġapp":431,"Ġmay":432,"ced":433,"Ġla":434,"amp":435,"Ġout":436,"Ġtime":437,"wn":438,"reat":439,"ten":440,"Ġamerican":441,"low":442,"ans":443,"Ġinto":444,"ual":445,"ious":446,"Ġpres":447,"Ġthese":448,"Ġhist":449,"are":450,"Ġjo":451,"aus":452,"Ġwar":453,"Ġthan":454,"ents":455,"Ġinter":456,"Ġplay":457,"ied":458,"Ġbet":459,"ind":460,"Ġonly":461,"Ġup":462,"stem":463,"ft":464,"Ġworld":465,"ug":466,"ved":467,"Ġacc":468,"ings":469,"Ġunder":470,"Ġreg":471,"Ġchar":472,"ative":473,"Ġsystem":474,"Ġgener":475,"Ġsub":476,"Ġass":477,"Ġoff":478,"Ġma":479,"Ġnum":480,"Ġatt":481,"Ġap":482,"Ġev":483,"int":484,"Ġpop":485,"Ġcount":486,"Ġwill":487,"very":488,"Ġmus":489,"ons":490,"uring":491,"Ġcall":492,"Ġac":493,"Ġed":494,"Ġcar":495,"Ġwould":496,"rib":497,"Ġdef":498,"Ġfl":499,"Ġbas":500,"Ġsec":501,"Ġuni":502,"ll":503,"ific":504,"ys":505,"Ġhig":506,"rans":507,"Ġrep":508,"Ġlar":509,"vern":510,"Ġtrans":511,"uc":512,"Ġdif":513,"ever":514,"ade":515,"oth":516,"ution":517,"dition":518,"ject":519,"Ġprodu":520,"Ġart":521,"Ġlin":522,"Ġthem":523,"ists":524,"Ġgovern":525,"Ġlo":526,"ween":527,"Ġpar":528,"Ġhowever":529,"Ġbetween":530,"iet":531,"Ġinc":532,"Ġpeop":533,"old":534,"Ġinst":535,"Ġher":536,"Ġabout":537,"gr":538,"ric":539,"ep":540,"ident":541,"Ġmet":542,"Ġwork":543,"Ġlang":544,"Ġmin":545,"Ġuse":546,"gan":547,"Ġob":548,"ake":549,"Ġstates":550,"Ġpubl":551,"Ġif":552,"Ġhim":553,"iss":554,"Ġsim":555,"erman":556,"Ġx":557,"Ġeu":558,"ient":559,"orn":560,"ron":561,"oup":562,"Ġpos":563,"ood":564,"Ġmon":565,"ild":566,"Ġwrit":567,"Ġlangu":568,"Ġthr":569,"Ġyears":570,"ays":571,"Ġpeople":572,"als":573,"Ġmem":574,"ually":575,"Ġduring":576,"cial":577,"ities":578,"ince":579,"Ġknown":580,"ail":581,"Ġrem":582,"Ġunited":583,"Ġinv":584,"ily":585,"io":586,"Ġany":587,"lish":588,"cept":589,"Ġcalled":590,"ral":591,"Ġfil":592,"Ġwhere":593,"ert":594,"Ġfol":595,"ower":596,"Ġfin":597,"urn":598,"Ġsm":599,"hes":600,"cy":601,"ury":602,"Ġgu":603,"Ġaut":604,"Ġbel":605,"Ġunivers":606,"Ġbrit":607,"Ġbr":608,"ife":609,"ause":610,"Ġthrough":611,"Ġgerman":612,"Ġsch":613,"Ġsa":614,"Ġvar":615,"Ġpers":616,"ology":617,"Ġsupp":618,"ward":619,"Ġcap":620,"con":621,"Ġext":622,"ating":623,"Ġoften":624,"Ġent":625,"Ġsou":626,"Ġstate":627,"Ġdist":628,"ne":629,"ible":630,"li":631,"ures":632,"ments":633,"Ġterm":634,"Ġconst":635,"Ġend":636,"hem":637,"rist":638,"Ġhistory":639,"raph":640,"Ġfran":641,"Ġge":642,"Ġfam":643,"imes":644,"Ġest":645,"ck":646,"ise":647,"Ġeuro":648,"ically":649,"ames":650,"Ġgroup":651,"Ġdiffer":652,"Ġmain":653,"ick":654,"Ġbro":655,"Ġelect":656,"velop":657,"Ġsoc":658,"Ġmat":659,"Ġwhile":660,"ale":661,"Ġking":662,"Ġintern":663,"form":664,"Ġnor":665,"Ġhigh":666,"Ġwell":667,"igin":668,"Ġrefer":669,"cess":670,"Ġlike":671,"Ġset":672,"Ġdevelop":673,"Ġfollow":674,"Ġfound":675,"hip":676,"Ġcity":677,"ages":678,"Ġagain":679,"ble":680,"Ġorigin":681,"Ġbeing":682,"Ġexp":683,"Ġair":684,"Ġfun":685,"ished":686,"Ġthen":687,"ost":688,"tle":689,"hn":690,"Ġnumber":691,"Ġdisc":692,"Ġboth":693,"Ġmade":694,"uss":695,"fore":696,"Ġimp":697,"Ġchrist":698,"man":699,"Ġenglish":700,"ider":701,"Ġhum":702,"Ġty":703,"ians":704,"Ġlaw":705,"ctions":706,"Ġrom":707,"ather":708,"iel":709,"Ġgovernment":710,"Ġcommon":711,"ah":712,"ines":713,"Ġmed":714,"ted":715,"Ġshe":716,"Ġeurope":717,"Ġeff":718,"Ġprov":719,"Ġlong":720,"ature":721,"Ġstud":722,"Ġsur":723,"Ġlater":724,"Ġpolit":725,"Ġfilm":726,"Ġcur":727,"Ġdire":728,"ract":729,"its":730,"ton":731,"Ġdep":732,"bers":733,"other":734,"Ġbu":735,"Ġloc":736,"Ġmil":737,"ins":738,"Ġcre":739,"Ġname":740,"ural":741,"omet":742,"ized":743,"Ġnational":744,"Ġcommun":745,"Ġje":746,"Ġclass":747,"Ġarm":748,"Ġsince":749,"Ġjohn":750,"Ġcentury":751,"Ġmu":752,"Ġdec":753,"Ġcal":754,"Ġsign":755,"Ġcor":756,"Ġsever":757,"Ġstr":758,"ful":759,"ds":760,"iew":761,"Ġret":762,"ty":763,"Ġcolle":764,"Ġmaj":765,"Ġdem":766,"Ġgreat":767,"Ġbecause":768,"ving":769,"Ġke":770,"az":771,"rent":772,"Ġuniversity":773,"Ġlead":774,"Ġleg":775,"ample":776,"ann":777,"ision":778,"Ġlife":779,"Ġbritish":780,"ined":781,"ork":782,"Ġearly":783,"row":784,"Ġpartic":785,"led":786,"Ġeven":787,"arch":788,"Ġright":789,"conom":790,"Ġlarge":791,"Ġyear":792,"Ġmajor":793,"Ġconsider":794,"Ġlit":795,"Ġlist":796,"Ġcontro":797,"ograph":798,"Ġown":799,"Ġpower":800,"Ġsame":801,"Ġday":802,"Ġcomple":803,"Ġir":804,"Ġeconom":805,"Ġequ":806,"Ġsing":807,"ros":808,"Ġmusic":809,"Ġgod":810,"ger":811,"Ġval":812,"Ġcharact":813,"xt":814,"Ġincluding":815,"Ġexample":816,"Ġcontin":817,"amm":818,"Ġes":819,"Ġsecond":820,"chn":821,"Ġgre":822,"ility":823,"Ġeach":824,"ues":825,"Ġcomput":826,"Ġbecame":827,"lo":828,"Ġocc":829,"Ġlanguage":830,"ium":831,"Ġop":832,"ier":833,"Ġgeneral":834,"Ġdesc":835,"Ġspec":836,"ves":837,"elf":838,"ences":839,"Ġdeath":840,"Ġalth":841,"Ġalthough":842,"Ġdet":843,"Ġmod":844,"Ġel":845,"Ġoper":846,"Ġdirect":847,"ives":848,"ters":849,"Ġimport":850,"Ġdifferent":851,"Ġseveral":852,"Ġfre":853,"Ġmoder":854,"ange":855,"ik":856,"Ġappe":857,"Ġant":858,"pect":859,"ulation":860,"Ġisland":861,"Ġpri":862,"Ġbat":863,"Ġstand":864,"ning":865,"Ġphil":866,"Ġhar":867,"Ġmuch":868,"Ġins":869,"Ġsmall":870,"Ġorgan":871,"Ġbefore":872,"Ġvery":873,"Ġtechn":874,"rench":875,"ience":876,"urch":877,"ica":878,"Ġconf":879,"gy":880,"Ġresult":881,"Ġsouth":882,"Ġnow":883,"Ġwhat":884,"Ġfrench":885,"vent":886,"Ġnorth":887,"Ġsw":888,"Ġer":889,"hen":890,"Ġprogr":891,"Ġaust":892,"Ġoffic":893,"atic":894,"Ġpublic":895,"ool":896,"Ġland":897,"Ġsl":898,"Ġpa":899,"els":900,"Ġii":901,"Ġrev":902,"ants":903,"ock":904,"Ġdesign":905,"Ġagainst":906,"Ġold":907,"ought":908,"ital":909,"Ġfact":910,"Ġcould":911,"Ġcult":912,"Ġbelie":913,"Ġgra":914,"Ġbar":915,"ains":916,"ternal":917,"Ġthose":918,"Ġlinks":919,"rop":920,"Ġcour":921,"Ġmodern":922,"Ġback":923,"ruct":924,"ouse":925,"Ġdr":926,"Ġorder":927,"ional":928,"Ġperson":929,"gest":930,"ained":931,"Ġbased":932,"Ġlat":933,"ute":934,"up":935,"aim":936,"aking":937,"Ġcr":938,"Ġunt":939,"Ġport":940,"Ġmark":941,"ave":942,"Ġposs":943,"osed":944,"ina":945,"Ġanother":946,"ries":947,"olution":948,"Ġexternal":949,"ived":950,"Ġdiv":951,"Ġhand":952,"ting":953,"Ġhy":954,"Ġhuman":955,"Ġmy":956,"Ġrecord":957,"Ġshow":958,"de":959,"Ġsomet":960,"Ġpresident":961,"Ġauth":962,"way":963,"Ġcountry":964,"Ġnon":965,"ode":966,"get":967,"ull":968,"Ġyou":969,"Ġref":970,"Ġseries":971,"ared":972,"Ġpat":973,"Ġfree":974,"ccess":975,"Ġgame":976,"ament":977,"Ġbook":978,"Ġpopular":979,"Ġexpl":980,"Ġstill":981,"Ġrequ":982,"ield":983,"oy":984,"Ġconc":985,"Ġeffect":986,"Ġav":987,"Ġtradition":988,"Ġinternational":989,"oph":990,"ged":991,"Ġsupport":992,"Ġuntil":993,"Ġserv":994,"Ġter":995,"Ġdid":996,"Ġprot":997,"ense":998,"bert":999,"Ġchurch":1000,"Ġstat":1001,"Ġrun":1002,"Ġtr":1003,"iod":1004,"Ġinfl":1005,"Ġdom":1006,"enn":1007,"Ġinform":1008,"Ġjew":1009,"Ġjust":1010,"Ġline":1011,"ired":1012,"Ġartic":1013,"ased":1014,"ently":1015,"min":1016,"Ġrad":1017,"Ġvers":1018,"Ġarg":1019,"Ġsuccess":1020,"Ġmilit":1021,"ason":1022,"ret":1023,"ization":1024,"ley":1025,"Ġwest":1026,"Ġmill":1027,"Ġpass":1028,"Ġnet":1029,"ius":1030,"Ġway":1031,"Ġschool":1032,"Ġpoint":1033,"Ġfa":1034,"ories":1035,"ided":1036,"Ġcharacter":1037,"Ġpolitical":1038,"Ġopp":1039,"Ġprop":1040,"ov":1041,"Ġdi":1042,"Ġadd":1043,"Ġcompan":1044,"que":1045,"Ġusually":1046,"Ġreal":1047,"Ġsk":1048,"ams":1049,"Ġparty":1050,"Ġfo":1051,"Ġprocess":1052,"Ġallow":1053,"Ġrelig":1054,"ner":1055,"Ġcrit":1056,"Ġbre":1057,"Ġincre":1058,"ices":1059,"Ġamong":1060,"ene":1061,"Ġbir":1062,"Ġmag":1063,"ised":1064,"Ġroman":1065,"Ġdown":1066,"bo":1067,"por":1068,"mber":1069,"Ġbi":1070,"ross":1071,"bs":1072,"ank":1073,"ms":1074,"Ġtyp":1075,"Ġrele":1076,"Ġgree":1077,"Ġmid":1078,"Ġhistor":1079,"Ġadv":1080,"Ġeas":1081,"Ġlet":1082,"iation":1083,"Ġcoun":1084,"Ġnat":1085,"Ġfore":1086,"ified":1087,"ness":1088,"Ġperiod":1089,"Ġopen":1090,"Ġlast":1091,"yn":1092,"co":1093,"Ġarea":1094,"ator":1095,"Ġnear":1096,"Ġsol":1097,"ark":1098,"Ġevery":1099,"ides":1100,"Ġaround":1101,"Ġchild":1102,"Ġview":1103,"Ġphys":1104,"ases":1105,"Ġofficial":1106,"Ġleft":1107,"Ġgl":1108,"Ġtheory":1109,"Ġrepres":1110,"Ġarch":1111,"ilar":1112,"Ġinclude":1113,"Ġshort":1114,"Ġtri":1115,"Ġauthor":1116,"Ġang":1117,"Ġep":1118,"inc":1119,"Ġmembers":1120,"Ġfar":1121,"Ġclaim":1122,"iety":1123,"Ġgi":1124,"ister":1125,"Ġhead":1126,"Ġthough":1127,"Ġdra":1128,"Ġsimilar":1129,"Ġexper":1130,"ably":1131,"Ġusing":1132,"yl":1133,"Ġparticular":1134,"Ġvol":1135,"ata":1136,"Ġeast":1137,"Ġmove":1138,"Ġhouse":1139,"ball":1140,"Ġfollowing":1141,"Ġpress":1142,"day":1143,"amed":1144,"Ġruss":1145,"Ġjap":1146,"iving":1147,"Ġide":1148,"ze":1149,"Ġwithin":1150,"ets":1151,"Ġcurrent":1152,"Ġbra":1153,"Ġbod":1154,"Ġtem":1155,"Ġmilitary":1156,"Ġmean":1157,"iction":1158,"imate":1159,"Ġjapan":1160,"ware":1161,"ued":1162,"Ġprof":1163,"Ġta":1164,"Ġhun":1165,"Ġrest":1166,"Ġpopulation":1167,"Ġcanad":1168,"Ġste":1169,"Ġinflu":1170,"Ġhel":1171,"Ġtele":1172,"ec":1173,"Ġbus":1174,"Ġchristian":1175,"ash":1176,"Ġimportant":1177,"Ġlight":1178,"Ġlab":1179,"Ġstandard":1180,"Ġwater":1181,"Ġdel":1182,"Ġappro":1183,"ize":1184,"Ġsocial":1185,"Ġve":1186,"Ġconsidered":1187,"me":1188,"au":1189,"ese":1190,"Ġdue":1191,"Ġcir":1192,"Ġho":1193,"Ġalb":1194,"ps":1195,"Ġless":1196,"Ġvi":1197,"gin":1198,"Ġphilos":1199,"Ġexist":1200,"Ġcomputer":1201,"ript":1202,"Ġperform":1203,"ertain":1204,"Ġaccord":1205,"Ġinformation":1206,"Ġhome":1207,"Ġciv":1208,"Ġsour":1209,"Ġfamily":1210,"erv":1211,"Ġri":1212,"dom":1213,"Ġjud":1214,"ument":1215,"ony":1216,"akes":1217,"Ġeuropean":1218,"Ġcy":1219,"Ġpract":1220,"Ġsometimes":1221,"ane":1222,"Ġdoes":1223,"ended":1224,"Ġsym":1225,"rodu":1226,"Ġstart":1227,"Ġword":1228,"Ġassoc":1229,"Ġdev":1230,"ography":1231,"Ġber":1232,"ths":1233,"ats":1234,"Ġwes":1235,"Ġwithout":1236,"hing":1237,"Ġann":1238,"Ġproble":1239,"Ġgiven":1240,"Ġwin":1241,"Ġtimes":1242,"Ġcivil":1243,"Ġmake":1244,"epend":1245,"par":1246,"Ġread":1247,"Ġrepresent":1248,"Ġpresent":1249,"Ġplace":1250,"Ġindepend":1251,"Ġcle":1252,"Ġestab":1253,"Ġrepubl":1254,"Ġfur":1255,"ler":1256,"Ġlim":1257,"Ġgood":1258,"Ġfew":1259,"Ġemp":1260,"Ġshould":1261,"Ġborn":1262,"tic":1263,"ither":1264,"Ġlevel":1265,"Ġhal":1266,"Ġdescrib":1267,"Ġthir":1268,"Ġblack":1269,"tal":1270,"Ġaddition":1271,"Ġcentral":1272,"Ġspace":1273,"Ġcirc":1274,"Ġcase":1275,"oss":1276,"Ġital":1277,"oks":1278,"Ġaustral":1279,"Ġred":1280,"Ġmeth":1281,"Ġscience":1282,"ological":1283,"Ġage":1284,"Ġcontrol":1285,"eng":1286,"Ġtop":1287,"Ġled":1288,"Ġappl":1289,"Ġpur":1290,"ission":1291,"Ġca":1292,"Ġrul":1293,"empt":1294,"Ġunion":1295,"Ġda":1296,"lect":1297,"Ġthus":1298,"ential":1299,"ency":1300,"bn":1301,"ration":1302,"Ġyork":1303,"read":1304,"ster":1305,"Ġvarious":1306,"na":1307,"une":1308,"ison":1309,"Ġvis":1310,"Ġlanguages":1311,"Ġaff":1312,"Ġcountries":1313,"Ġearth":1314,"less":1315,"istic":1316,"Ġarticle":1317,"Ġbecome":1318,"Ġmust":1319,"amb":1320,"Ġver":1321,"ination":1322,"aced":1323,"Ġisbn":1324,"Ġbest":1325,"Ġcomb":1326,"Ġmass":1327,"ott":1328,"Ġothers":1329,"ple":1330,"omen":1331,"Ġaccording":1332,"Ġsuper":1333,"Ġsystems":1334,"Ġder":1335,"Ġreturn":1336,"Ġwestern":1337,"Ġresp":1338,"Ġrece":1339,"Ġmor":1340,"cing":1341,"Ġtreat":1342,"che":1343,"ots":1344,"Ġnever":1345,"Ġhol":1346,"Ġcat":1347,"ried":1348,"Ġmen":1349,"Ġcop":1350,"ling":1351,"Ġchang":1352,"Ġanim":1353,"Ġcamp":1354,"Ġtit":1355,"Ġspecial":1356,"Ġworks":1357,"Ġbegan":1358,"Ġgenerally":1359,"Ġtest":1360,"Ġhen":1361,"Ġindust":1362,"over":1363,"ink":1364,"Ġproper":1365,"Ġneed":1366,"Ġsong":1367,"ivid":1368,"Ġwritten":1369,"Ġoriginal":1370,"Ġiss":1371,"Ġobject":1372,"Ġsum":1373,"eder":1374,"Ġden":1375,"Ġsal":1376,"urg":1377,"Ġformer":1378,"Ġeth":1379,"Ġknow":1380,"Ġfoot":1381,"Ġstruct":1382,"ae":1383,"Ġimm":1384,"Ġgeor":1385,"ways":1386,"son":1387,"Ġforce":1388,"Ġmethod":1389,"Ġpost":1390,"Ġprim":1391,"Ġturn":1392,"Ġindivid":1393,"ones":1394,"Ġattempt":1395,"Ġlog":1396,"Ġche":1397,"Ġsingle":1398,"Ġfurther":1399,"Ġdevelopment":1400,"Ġconstit":1401,"Ġanc":1402,"Ġkill":1403,"Ġplayer":1404,"uted":1405,"ior":1406,"Ġlow":1407,"gress":1408,"Ġintrodu":1409,"lex":1410,"Ġliter":1411,"Ġrelations":1412,"Ġevent":1413,"line":1414,"Ġbuild":1415,"Ġpet":1416,"Ġfrance":1417,"Ġmult":1418,"Ġet":1419,"Ġident":1420,"Ġwide":1421,"Ġkingdom":1422,"Ġvir":1423,"ove":1424,"alth":1425,"be":1426,"Ġband":1427,"ality":1428,"Ġkm":1429,"Ġindividual":1430,"Ġgroups":1431,"Ġlate":1432,"ring":1433,"Ġengland":1434,"Ġposition":1435,"self":1436,"Ġliber":1437,"Ġson":1438,"Ġcell":1439,"Ġreport":1440,"olic":1441,"Ġgreek":1442,"Ġrather":1443,"Ġbody":1444,"Ġalong":1445,"Ġlond":1446,"wards":1447,"Ġobs":1448,"Ġinvol":1449,"Ġlondon":1450,"Ġdav":1451,"ively":1452,"Ġjan":1453,"Ġengine":1454,"Ġscient":1455,"cially":1456,"ival":1457,"ges":1458,"yle":1459,"Ġcourt":1460,"Ġanal":1461,"Ġmic":1462,"air":1463,"Ġbeh":1464,"ances":1465,"Ġdu":1466,"Ġfunction":1467,"cul":1468,"Ġaug":1469,"Ġgermany":1470,"Ġmot":1471,"Ġsea":1472,"Ġrepl":1473,"Ġnatural":1474,"Ġdata":1475,"Ġnamed":1476,"Ġbal":1477,"Ġbase":1478,"Ġpublished":1479,"Ġoccur":1480,"Ġstar":1481,"Ġsaid":1482,"Ġara":1483,"tt":1484,"rael":1485,"Ġgames":1486,"Ġmathem":1487,"Ġcapital":1488,"Ġbattle":1489,"Ġnort":1490,"ches":1491,"Ġfield":1492,"Ġpal":1493,"by":1494,"Ġcertain":1495,"ma":1496,"Ġrese":1497,"Ġsoft":1498,"app":1499,"Ġdecl":1500,"Ġcaus":1501,"aster":1502,"Ġju":1503,"Ġmillion":1504,"ague":1505,"cil":1506,"Ġmal":1507,"Ġstrong":1508,"Ġempire":1509,"Ġmer":1510,"Ġinterest":1511,"Ġsun":1512,"Ġproject":1513,"Ġnews":1514,"Ġeconomic":1515,"Ġcollege":1516,"Ġarmy":1517,"Ġcompany":1518,"Ġeither":1519,"ends":1520,"Ġversion":1521,"ention":1522,"Ġtake":1523,"ob":1524,"Ġisrael":1525,"ites":1526,"Ġcath":1527,"work":1528,"Ġsyn":1529,"Ġhard":1530,"Ġfem":1531,"ote":1532,"ogn":1533,"ern":1534,"aining":1535,"Ġgrow":1536,"Ġfr":1537,"Ġservice":1538,"Ġeduc":1539,"idence":1540,"Ġbill":1541,"Ġproduct":1542,"Ġdeveloped":1543,"Ġfull":1544,"ification":1545,"Ġmeans":1546,"Ġfather":1547,"Ġhom":1548,"Ġteam":1549,"han":1550,"ids":1551,"most":1552,"aken":1553,"Ġamerica":1554,"raft":1555,"gen":1556,"Ġwal":1557,"itive":1558,"Ġmater":1559,"Ġwilli":1560,"ctor":1561,"Ġphilosoph":1562,"Ġtoday":1563,"Ġyoun":1564,"Ġnorm":1565,"Ġespe":1566,"Ġheld":1567,"Ġru":1568,"Ġlib":1569,"Ġlocal":1570,"Ġsat":1571,"Ġsug":1572,"Ġwhite":1573,"Ġespecially":1574,"Ġsov":1575,"Ġball":1576,"Ġtotal":1577,"Ġbooks":1578,"Ġcare":1579,"ured":1580,"Ġsociety":1581,"ilt":1582,"Ġaugust":1583,"Ġchem":1584,"Ġast":1585,"Ġill":1586,"Ġthird":1587,"Ġsoviet":1588,"Ġsound":1589,"Ġsepar":1590,"Ġtown":1591,"Ġforces":1592,"Ġdest":1593,"Ġside":1594,"rew":1595,"Ġce":1596,"aps":1597,"Ġconcept":1598,"anish":1599,"Ġprev":1600,"Ġrepublic":1601,"Ġtext":1602,"Ġps":1603,"Ġsubject":1604,"Ġpossible":1605,"Ġnovel":1606,"Ġinstit":1607,"Ġtru":1608,"dle":1609,"ication":1610,"Ġdemoc":1611,"ox":1612,"Ġtook":1613,"Ġfamous":1614,"ught":1615,"Ġfrequ":1616,"Ġrock":1617,"Ġchildren":1618,"ergy":1619,"iated":1620,"yal":1621,"uary":1622,"Ġdeb":1623,"Ġbor":1624,"Ġq":1625,"Ġregard":1626,"arian":1627,"Ġcenter":1628,"Ġhaving":1629,"lin":1630,"Ġdefin":1631,"osition":1632,"Ġstory":1633,"Ġhimself":1634,"Ġcame":1635,"Ġactiv":1636,"ruction":1637,"Ġappear":1638,"Ġprinc":1639,"Ġdiff":1640,"Ġcomplete":1641,"ander":1642,"Ġmaterial":1643,"mer":1644,"Ġmount":1645,"verse":1646,"Ġprincip":1647,"Ġhold":1648,"Ġwords":1649,"Ġtransl":1650,"Ġcard":1651,"Ġtro":1652,"Ġsex":1653,"Ġenc":1654,"Ġriver":1655,"Ġislands":1656,"Ġcouncil":1657,"Ġanti":1658,"aw":1659,"iness":1660,"Ġfall":1661,"Ġmeas":1662,"Ġlittle":1663,"idge":1664,"Ġship":1665,"Ġemper":1666,"Ġdon":1667,"emb":1668,"Ġtre":1669,"Ġfra":1670,"Ġoct":1671,"Ġbegin":1672,"Ġbroad":1673,"Ġaccept":1674,"Ġabove":1675,"ability":1676,"ops":1677,"Ġexpress":1678,"etic":1679,"Ġuk":1680,"ember":1681,"Ġfinal":1682,"Ġkey":1683,"Ġmac":1684,"Ġgold":1685,"Ġdece":1686,"Ġvict":1687,"yr":1688,"Ġplan":1689,"Ġitself":1690,"Ġupon":1691,"Ġseen":1692,"ored":1693,"Ġculture":1694,"Ġfind":1695,"Ġreferences":1696,"reme":1697,"Ġavail":1698,"vision":1699,"Ġcross":1700,"Ġdays":1701,"ai":1702,"ising":1703,"Ġprom":1704,"Ġlargest":1705,"Ġjewish":1706,"Ġwind":1707,"Ġonce":1708,"und":1709,"Ġterrit":1710,"Ġinit":1711,"Ġcreated":1712,"mit":1713,"Ġrole":1714,"hern":1715,"Ġalmost":1716,"Ġforeign":1717,"Ġjames":1718,"Ġprofess":1719,"Ġregion":1720,"Ġrich":1721,"ief":1722,"Ġhelp":1723,"Ġcode":1724,"Ġtype":1725,"Ġsoftware":1726,"Ġreligious":1727,"Ġlatin":1728,"Ġnav":1729,"Ġmach":1730,"osp":1731,"Ġbc":1732,"Ġnumbers":1733,"Ġsel":1734,"ying":1735,"Ġalex":1736,"Ġjanuary":1737,"Ġmember":1738,"uck":1739,"Ġalbum":1740,"Ġsite":1741,"Ġliving":1742,"sequ":1743,"craft":1744,"Ġdig":1745,"Ġdou":1746,"Ġcost":1747,"Ġareas":1748,"acks":1749,"Ġtur":1750,"Ġimage":1751,"ications":1752,"Ġhit":1753,"ensive":1754,"aces":1755,"ille":1756,"Ġdavid":1757,"Ġmiss":1758,"Ġren":1759,"Ġcommunity":1760,"Ġquest":1761,"Ġclose":1762,"bol":1763,"Ġancient":1764,"val":1765,"Ġess":1766,"ators":1767,"Ġfri":1768,"oms":1769,"go":1770,"sel":1771,"ax":1772,"Ġrelated":1773,"Ġthought":1774,"Ġsource":1775,"Ġplayed":1776,"Ġleague":1777,"Ġrights":1778,"ald":1779,"Ġmovement":1780,"Ġpain":1781,"Ġproduction":1782,"let":1783,"Ġredu":1784,"Ġdied":1785,"Ġresearch":1786,"iate":1787,"rict":1788,"Ġchange":1789,"ploy":1790,"Ġterms":1791,"Ġenergy":1792,"cer":1793,"rian":1794,"Ġminister":1795,"Ġtal":1796,"Ġdomin":1797,"Ġmov":1798,"Ġexam":1799,"Ġtour":1800,"Ġnorthern":1801,"Ġmarch":1802,"Ġmeaning":1803,"umb":1804,"here":1805,"Ġparli":1806,"ending":1807,"Ġconn":1808,"Ġestabl":1809,"hers":1810,"Ġfeder":1811,"Ġcomplex":1812,"Ġfire":1813,"side":1814,"ford":1815,"ril":1816,"aries":1817,"Ġdecember":1818,"Ġadmin":1819,"Ġmight":1820,"Ġproduced":1821,"Ġmarket":1822,"rug":1823,"ingu":1824,"Ġearli":1825,"Ġpriv":1826,"Ġsent":1827,"Ġexec":1828,"Ġcanada":1829,"Ġpolic":1830,"Ġwilliam":1831,"Ġpap":1832,"Ġmaking":1833,"asing":1834,"Ġhor":1835,"ead":1836,"ca":1837,"ples":1838,"inese":1839,"Ġprob":1840,"Ġstyle":1841,"ected":1842,"Ġmiddle":1843,"Ġcover":1844,"Ġnext":1845,"Ġwon":1846,"Ġforms":1847,"ude":1848,"ificant":1849,"Ġenv":1850,"Ġparliament":1851,"Ġprogramm":1852,"Ġstre":1853,"Ġgreen":1854,"Ġavailable":1855,"Ġprogram":1856,"Ġdoc":1857,"Ġjapanese":1858,"cle":1859,"Ġsay":1860,"Ġabs":1861,"ria":1862,"Ġeastern":1863,"Ġcann":1864,"put":1865,"Ġwomen":1866,"Ġchinese":1867,"Ġreleased":1868,"Ġbecom":1869,"ints":1870,"oint":1871,"Ġestablished":1872,"Ġradio":1873,"Ġhalf":1874,"Ġrecogn":1875,"Ġsignificant":1876,"Ġtoget":1877,"Ġsuggest":1878,"Ġpred":1879,"Ġgeorge":1880,"Ġconstitution":1881,"atures":1882,"Ġlou":1883,"Ġtelevision":1884,"Ġox":1885,"Ġpot":1886,"Ġinte":1887,"Ġtogether":1888,"ham":1889,"Ġexcept":1890,"Ġget":1891,"Ġmathemat":1892,"Ġcatholic":1893,"Ġcondition":1894,"Ġsept":1895,"Ġcharles":1896,"ows":1897,"Ġarab":1898,"Ġjuly":1899,"thern":1900,"Ġsubst":1901,"iron":1902,"ino":1903,"arily":1904,"Ġbur":1905,"Ġpaul":1906,"Ġneg":1907,"Ġviol":1908,"Ġparts":1909,"Ġchina":1910,"Ġinstead":1911,"ych":1912,"ining":1913,"utions":1914,"Ġlove":1915,"Ġunderst":1916,"Ġaccount":1917,"Ġaltern":1918,"Ġfail":1919,"Ġdeg":1920,"Ġbuilt":1921,"Ġbusiness":1922,"Ġheav":1923,"Ġcompet":1924,"Ġattack":1925,"Ġfootball":1926,"Ġur":1927,"Ġleast":1928,"Ġrevolution":1929,"Ġindia":1930,"lam":1931,"uel":1932,"ka":1933,"Ġindian":1934,"Ġbig":1935,"Ġstri":1936,"omb":1937,"Ġcapt":1938,"Ġtraditional":1939,"mon":1940,"Ġdut":1941,"Ġque":1942,"Ġnote":1943,"face":1944,"Ġstudy":1945,"Ġmodel":1946,"Ġcro":1947,"Ġincluded":1948,"Ġjune":1949,"Ġemperor":1950,"br":1951,"Ġdan":1952,"Ġcoast":1953,"edia":1954,"orts":1955,"Ġcit":1956,"Ġtrade":1957,"Ġyoung":1958,"ering":1959,"used":1960,"chan":1961,"Ġcommit":1962,"Ġfood":1963,"Ġnove":1964,"Ġenviron":1965,"Ġalways":1966,"Ġdeterm":1967,"Ġpen":1968,"rican":1969,"Ġrange":1970,"rote":1971,"to":1972,"Ġactor":1973,"apt":1974,"Ġlive":1975,"Ġcast":1976,"Ġsit":1977,"Ġentire":1978,"ipp":1979,"Ġos":1980,"Ġprime":1981,"inal":1982,"Ġpast":1983,"ray":1984,"Ġput":1985,"ched":1986,"Ġaud":1987,"Ġsan":1988,"Ġspir":1989,"uth":1990,"Ġtrib":1991,"Ġtaken":1992,"Ġsold":1993,"Ġnovember":1994,"ems":1995,"ban":1996,"Ġic":1997,"Ġsecret":1998,"Ġeconomy":1999,"Ġnature":2000,"Ġconstant":2001,"ama":2002,"ober":2003,"Ġlord":2004,"Ġaccess":2005,"icult":2006,"rary":2007,"ror":2008,"Ġself":2009,"Ġprevious":2010,"Ġoctober":2011,"Ġsouthern":2012,"Ġjour":2013,"Ġlost":2014,"Ġach":2015,"Ġour":2016,"Ġben":2017,"Ġfight":2018,"rie":2019,"Ġrelative":2020,"Ġapril":2021,"Ġtemper":2022,"Ġgal":2023,"Ġplayers":2024,"gor":2025,"Ġcreat":2026,"Ġcho":2027,"ffic":2028,"ront":2029,"Ġmart":2030,"Ġuses":2031,"Ġspanish":2032,"Ġtrue":2033,"ux":2034,"Ġproblem":2035,"com":2036,"Ġgrand":2037,"ental":2038,"ered":2039,"Ġvalue":2040,"Ġrecent":2041,"Ġdesp":2042,"Ġfig":2043,"selves":2044,"Ġitalian":2045,"Ġwrote":2046,"Ġinterp":2047,"Ġnetwork":2048,"isc":2049,"Ġlower":2050,"rica":2051,"Ġtechnology":2052,"Ġsen":2053,"burg":2054,"Ġhyd":2055,"Ġseptember":2056,"Ġevidence":2057,"Ġinvest":2058,"Ġrule":2059,"Ġcoll":2060,"Ġdone":2061,"ii":2062,"Ġsqu":2063,"Ġroyal":2064,"ked":2065,"Ġimpro":2066,"pr":2067,"Ġcolor":2068,"Ġmich":2069,"Ġreform":2070,"Ġfrank":2071,"Ġdistin":2072,"Ġhistorical":2073,"ara":2074,"Ġfund":2075,"Ġcommer":2076,"Ġafrica":2077,"ira":2078,"Ġsain":2079,"Ġcome":2080,"Ġprote":2081,"Ġhon":2082,"Ġdifficult":2083,"ien":2084,"Ġwhose":2085,"Ġsymbol":2086,"Ġadminist":2087,"Ġbud":2088,"eth":2089,"Ġnames":2090,"Ġec":2091,"Ġrespect":2092,"ery":2093,"ume":2094,"Ġaustralia":2095,"Ġever":2096,"Ġseason":2097,"Ġparticularly":2098,"Ġfeb":2099,"arn":2100,"Ġthemselves":2101,"Ġphilosophy":2102,"af":2103,"Ġcases":2104,"Ġfut":2105,"ption":2106,"Ġspecies":2107,"Ġpsych":2108,"Ġthom":2109,"Ġconvent":2110,"ceed":2111,"Ġinfluence":2112,"Ġreason":2113,"Ġrate":2114,"Ġstructure":2115,"ym":2116,"Ġphot":2117,"Ġdistrib":2118,"Ġnations":2119,"Ġrussian":2120,"Ġhop":2121,"acy":2122,"Ġsil":2123,"asc":2124,"Ġreferred":2125,"Ġfeature":2126,"gypt":2127,"Ġdam":2128,"Ġbelow":2129,"Ġvide":2130,"Ġminor":2131,"Ġegypt":2132,"Ġadop":2133,"Ġenvironment":2134,"ana":2135,"Ġthroughout":2136,"Ġhere":2137,"Ġafrican":2138,"Ġcolon":2139,"Ġcontinued":2140,"Ġtoo":2141,"ledge":2142,"Ġirish":2143,"ta":2144,"Ġrobert":2145,"Ġeducation":2146,"Ġwhether":2147,"Ġtherefore":2148,"Ġstep":2149,"Ġground":2150,"Ġlaws":2151,"Ġten":2152,"ky":2153,"Ġire":2154,"Ġnight":2155,"Ġtitle":2156,"Ġmechan":2157,"Ġdemocr":2158,"Ġdefinition":2159,"bon":2160,"Ġtravel":2161,"ucle":2162,"Ġcritic":2163,"uments":2164,"Ġwee":2165,"Ġclear":2166,"Ġbrother":2167,"Ġsam":2168,"Ġhost":2169,"Ġhigher":2170,"Ġfilms":2171,"Ġcommand":2172,"Ġaction":2173,"Ġamount":2174,"Ġjews":2175,"Ġfebru":2176,"Ġlegal":2177,"uf":2178,"Ġtechni":2179,"Ġoriginally":2180,"Ġfav":2181,"Ġfebruary":2182,"Ġtar":2183,"Ġelectron":2184,"Ġcities":2185,"Ġcry":2186,"itz":2187,"Ġelements":2188,"Ġsn":2189,"Ġpeace":2190,"rad":2191,"Ġspecific":2192,"ula":2193,"ney":2194,"Ġdiscuss":2195,"Ġindependent":2196,"Ġeventually":2197,"Ġvo":2198,"Ġinternet":2199,"Ġpark":2200,"Ġaward":2201,"Ġut":2202,"Ġinstr":2203,"Ġacad":2204,"Ġnecess":2205,"Ġdescribed":2206,"of":2207,"Ġbank":2208,"Ġsuccessful":2209,"istics":2210,"erous":2211,"oman":2212,"Ġdespite":2213,"bit":2214,"ached":2215,"oney":2216,"ael":2217,"Ġproblems":2218,"Ġchief":2219,"Ġcharacters":2220,"Ġfemale":2221,"Ġspeak":2222,"Ġagree":2223,"Ġnucle":2224,"ially":2225,"Ġrail":2226,"ming":2227,"Ġdiscover":2228,"Ġislam":2229,"Ġoffice":2230,"Ġable":2231,"Ġmultip":2232,"Ġdisp":2233,"Ġformed":2234,"Ġmur":2235,"Ġpractice":2236,"clus":2237,"Ġspeed":2238,"Ġschol":2239,"ateg":2240,"Ġmaint":2241,"Ġcontrib":2242,"Ġweb":2243,"Ġbelief":2244,"Ġcommonly":2245,"Ġfiction":2246,"Ġevents":2247,"ires":2248,"duct":2249,"Ġpurp":2250,"lands":2251,"ply":2252,"ari":2253,"lim":2254,"Ġmother":2255,"den":2256,"king":2257,"Ġmale":2258,"bal":2259,"ques":2260,"istan":2261,"Ġindic":2262,"Ġblood":2263,"Ġreceived":2264,"Ġbit":2265,"Ġord":2266,"Ġwriter":2267,"Ġpage":2268,"uation":2269,"Ġpersonal":2270,"Ġorth":2271,"Ġoutside":2272,"atives":2273,"asion":2274,"imately":2275,"Ġtypically":2276,"ste":2277,"Ġblue":2278,"ours":2279,"Ġbasic":2280,"Ġlook":2281,"Ġalph":2282,"Ġtypes":2283,"Ġlay":2284,"iding":2285,"ounced":2286,"ston":2287,"Ġfollowed":2288,"Ġrelationship":2289,"inary":2290,"Ġactually":2291,"Ġincludes":2292,"Ġaircraft":2293,"Ġdial":2294,"Ġze":2295,"rap":2296,"ards":2297,"rick":2298,"Ġconserv":2299,"aring":2300,"Ġcalif":2301,"Ġtex":2302,"ades":2303,"Ġpow":2304,"aged":2305,"aves":2306,"Ġmicro":2307,"Ġhenry":2308,"Ġcontrovers":2309,"Ġinde":2310,"Ġwidely":2311,"Ġscientific":2312,"Ġwent":2313,"Ġchamp":2314,"lement":2315,"Ġcaliforn":2316,"Ġintell":2317,"key":2318,"Ġbeginning":2319,"Ġphysical":2320,"Ġfac":2321,"Ġdyn":2322,"wor":2323,"urity":2324,"Ġdeaths":2325,"Ġacadem":2326,"Ġdefe":2327,"nal":2328,"Ġjes":2329,"itor":2330,"Ġdetail":2331,"Ġoccup":2332,"anted":2333,"Ġbuilding":2334,"ung":2335,"Ġoffer":2336,"isl":2337,"Ġclub":2338,"Ġfuture":2339,"ania":2340,"Ġletter":2341,"Ġsize":2342,"Ġspirit":2343,"Ġtransport":2344,"Ġhall":2345,"Ġflow":2346,"Ġcause":2347,"Ġleader":2348,"Ġleaders":2349,"Ġbul":2350,"Ġbritain":2351,"Ġcannot":2352,"oted":2353,"Ġdead":2354,"Ġemploy":2355,"Ġsurv":2356,"Ġireland":2357,"ression":2358,"Ġwood":2359,"Ġextreme":2360,"oll":2361,"Ġcompos":2362,"Ġsimply":2363,"Ġfront":2364,"utes":2365,"Ġib":2366,"Ġwall":2367,"Ġwebs":2368,"Ġdri":2369,"Ġindustry":2370,"Ġservices":2371,"onst":2372,"Ġapprox":2373,"Ġliberal":2374,"Ġelected":2375,"Ġven":2376,"Ġconsist":2377,"Ġknowledge":2378,"Ġhydro":2379,"oses":2380,"Ġcut":2381,"Ġcanadian":2382,"Ġdefined":2383,"Ġbelieve":2384,"Ġincreasing":2385,"Ġquant":2386,"bc":2387,"ify":2388,"Ġmax":2389,"ties":2390,"Ġedition":2391,"Ġexamples":2392,"Ġsoon":2393,"Ġrespons":2394,"Ġelectric":2395,"Ġstra":2396,"Ġwriting":2397,"Ġcalifornia":2398,"Ġemb":2399,"the":2400,"Ġcollect":2401,"Ġhealth":2402,"Ġpun":2403,"itect":2404,"Ġbirths":2405,"Ġfederal":2406,"rial":2407,"Ġyour":2408,"iers":2409,"Ġbran":2410,"ha":2411,"Ġintellig":2412,"Ġtim":2413,"Ġleng":2414,"Ġlouis":2415,"Ġvideo":2416,"Ġcam":2417,"odes":2418,"Ġsense":2419,"igh":2420,"Ġachie":2421,"ands":2422,"ago":2423,"Ġfranc":2424,"Ġarchitect":2425,"hib":2426,"Ġbirth":2427,"ump":2428,"Ġindependence":2429,"Ġidea":2430,"ises":2431,"Ġdeal":2432,"Ġpoints":2433,"Ġorganization":2434,"Ġyet":2435,"Ġfle":2436,"Ġassociated":2437,"Ġmess":2438,"atory":2439,"Ġroad":2440,"cript":2441,"Ġnob":2442,"ysis":2443,"Ġseparate":2444,"Ġmi":2445,"Ġexperim":2446,"Ġintegr":2447,"Ġclassical":2448,"Ġchemical":2449,"Ġintroduced":2450,"Ġmovie":2451,"Ġrequired":2452,"ement":2453,"Ġmeet":2454,"Ġmajority":2455,"Ġmix":2456,"Ġreb":2457,"Ġdesigned":2458,"Ġhung":2459,"iff":2460,"Ġdim":2461,"Ġham":2462,"Ġresour":2463,"Ġmagn":2464,"ole":2465,"Ġreligion":2466,"ufact":2467,"aut":2468,"Ġbab":2469,"Ġaway":2470,"Ġmanufact":2471,"ibility":2472,"Ġelement":2473,"Ġchanges":2474,"Ġlocated":2475,"Ġbelieved":2476,"Ġprivate":2477,"Ġwat":2478,"Ġcitiz":2479,"anding":2480,"Ġcounty":2481,"ols":2482,"Ġstudies":2483,"Ġfoc":2484,"Ġgas":2485,"Ġchann":2486,"wer":2487,"Ġassemb":2488,"Ġjose":2489,"Ġaver":2490,"uit":2491,"Ġprec":2492,"Ġrules":2493,"Ġnation":2494,"Ġcorpor":2495,"Ġfeatures":2496,"Ġworking":2497,"Ġstarted":2498,"Ġchap":2499,"Ġpolicy":2500,"Ġiv":2501,"Ġpoly":2502,"Ġcontinu":2503,"Ġcurrently":2504,"omp":2505,"Ġcongress":2506,"Ġmuse":2507,"action":2508,"Ġcorn":2509,"Ġban":2510,"Ġcub":2511,"Ġbrought":2512,"Ġdepart":2513,"Ġgun":2514,"istry":2515,"Ġpron":2516,"Ġrussia":2517,"Ġnar":2518,"Ġearlier":2519,"Ġelection":2520,"Ġrh":2521,"Ġthomas":2522,"Ġsem":2523,"Ġalle":2524,"Ġlabor":2525,"Ġdocument":2526,"Ġsequ":2527,"uk":2528,"Ġunit":2529,"ension":2530,"Ġdispl":2531,"Ġtax":2532,"vin":2533,"Ġsus":2534,"berg":2535,"Ġhyp":2536,"hel":2537,"Ġsources":2538,"rated":2539,"Ġprovide":2540,"Ġassociation":2541,"wh":2542,"Ġallowed":2543,"Ġemer":2544,"Ġthings":2545,"Ġgreater":2546,"Ġmyth":2547,"cies":2548,"Ġonline":2549,"Ġkind":2550,"Ġaustralian":2551,"Ġevolution":2552,"Ġoil":2553,"Ġpoet":2554,"cent":2555,"Ġadded":2556,"Ġmedia":2557,"Ġquestion":2558,"Ġglo":2559,"Ġacross":2560,"Ġdestro":2561,"ilities":2562,"Ġfounded":2563,"Ġaddress":2564,"Ġlimited":2565,"Ġmis":2566,"Ġrob":2567,"Ġmostly":2568,"Ġsimple":2569,"Ġeffects":2570,"Ġbound":2571,"Ġsup":2572,"Ġquick":2573,"Ġpit":2574,"Ġdise":2575,"Ġsaw":2576,"Ġsecurity":2577,"Ġrequire":2578,"Ġgar":2579,"Ġimper":2580,"Ġprobably":2581,"Ġreference":2582,"Ġdrug":2583,"Ġcareer":2584,"Ġstories":2585,"Ġbreak":2586,"Ġfreed":2587,"ened":2588,"Ġmind":2589,"Ġcart":2590,"ulf":2591,"Ġatl":2592,"Ġappoint":2593,"Ġmuseum":2594,"Ġbehav":2595,"Ġgave":2596,"Ġpict":2597,"Ġcounter":2598,"use":2599,"Ġid":2600,"Ġmel":2601,"ga":2602,"Ġremains":2603,"Ġautom":2604,"cast":2605,"Ġlonger":2606,"Ġmole":2607,"Ġholy":2608,"Ġconfl":2609,"Ġgrowth":2610,"Ġlegisl":2611,"Ġgive":2612,"bor":2613,"ishing":2614,"Ġswed":2615,"Ġkilled":2616,"Ġprevent":2617,"enced":2618,"cles":2619,"Ġkeep":2620,"Ġtheore":2621,"Ġfell":2622,"Ġhill":2623,"Ġcommercial":2624,"Ġlength":2625,"Ġletters":2626,"Ġprotest":2627,"Ġrichard":2628,"rest":2629,"Ġleading":2630,"Ġpie":2631,"Ġlibrary":2632,"ready":2633,"Ġwebsite":2634,"Ġbetter":2635,"Ġetc":2636,"stein":2637,"odox":2638,"Ġfamil":2639,"Ġcontains":2640,"Ġremained":2641,"Ġcalcul":2642,"Ġcorre":2643,"ij":2644,"Ġjer":2645,"ffer":2646,"Ġtom":2647,"ctr":2648,"Ġlargely":2649,"Ġkar":2650,"hab":2651,"ediate":2652,"Ġtor":2653,"Ġlake":2654,"Ġspain":2655,"isms":2656,"Ġmoved":2657,"Ġexpect":2658,"Ġmonths":2659,"Ġlarger":2660,"Ġdivision":2661,"Ġweap":2662,"Ġobser":2663,"ulated":2664,"Ġrout":2665,"ference":2666,"Ġbene":2667,"Ġgraph":2668,"Ġalready":2669,"haps":2670,"Ġperhaps":2671,"Ġcust":2672,"Ġprince":2673,"Ġepis":2674,"hest":2675,"ground":2676,"Ġsaint":2677,"Ġopt":2678,"Ġscott":2679,"iting":2680,"Ġterritory":2681,"antic":2682,"Ġdutch":2683,"isions":2684,"ights":2685,"Ġpolitics":2686,"gon":2687,"Ġparties":2688,"Ġcultural":2689,"Ġestablish":2690,"wood":2691,"Ġbond":2692,"Ġrat":2693,"ico":2694,"Ġlack":2695,"Ġfort":2696,"Ġmakes":2697,"Ġmatter":2698,"Ġcompanies":2699,"Ġvari":2700,"Ġwhole":2701,"Ġguit":2702,"ls":2703,"Ġwife":2704,"Ġagric":2705,"Ġbrown":2706,"Ġfair":2707,"Ġiii":2708,"Ġlines":2709,"Ġdouble":2710,"Ġloss":2711,"Ġwik":2712,"rast":2713,"Ġsubsequ":2714,"Ġappeared":2715,"Ġround":2716,"Ġpan":2717,"Ġdirectly":2718,"Ġera":2719,"Ġorthodox":2720,"onic":2721,"Ġey":2722,"Ġrap":2723,"Ġoce":2724,"Ġax":2725,"Ġproducts":2726,"Ġsubs":2727,"Ġresults":2728,"Ġfif":2729,"omin":2730,"Ġproduce":2731,"Ġitaly":2732,"aign":2733,"men":2734,"Ġbow":2735,"Ġasia":2736,"Ġhapp":2737,"Ġscot":2738,"aching":2739,"Ġsurface":2740,"Ġpay":2741,"Ġethn":2742,"itude":2743,"Ġconver":2744,"Ġhighly":2745,"ura":2746,"urs":2747,"Ġmuslim":2748,"Ġcaused":2749,"Ġalexander":2750,"win":2751,"Ġparticip":2752,"Ġstatus":2753,"Ġauthority":2754,"Ġjournal":2755,"ey":2756,"Ġanth":2757,"asons":2758,"Ġcreation":2759,"lying":2760,"Ġbeg":2761,"Ġlatter":2762,"Ġult":2763,"Ġinvent":2764,"Ġcampaign":2765,"Ġliterature":2766,"Ġwil":2767,"Ġconflict":2768,"Ġcd":2769,"Ġnative":2770,"Ġmap":2771,"resp":2772,"Ġtowards":2773,"otes":2774,"Ġheart":2775,"ris":2776,"Ġhot":2777,"Ġkh":2778,"Ġfaith":2779,"ya":2780,"Ġplaying":2781,"Ġregular":2782,"kn":2783,"Ġimplement":2784,"ithm":2785,"like":2786,"Ġww":2787,"Ġwhom":2788,"Ġconcern":2789,"Ġmetal":2790,"Ġsinger":2791,"Ġcand":2792,"ift":2793,"Ġtreaty":2794,"Ġprimary":2795,"Ġboard":2796,"Ġbecomes":2797,"Ġcarbon":2798,"Ġagricult":2799,"Ġdate":2800,"Ġfer":2801,"hol":2802,"Ġwashing":2803,"bb":2804,"Ġbasis":2805,"fl":2806,"Ġanalysis":2807,"Ġrare":2808,"ores":2809,"Ġenough":2810,"Ġmarried":2811,"Ġdigital":2812,"ician":2813,"Ġprize":2814,"Ġmagaz":2815,"Ġcamb":2816,"het":2817,"Ġdark":2818,"Ġdirector":2819,"Ġcele":2820,"onents":2821,"Ġlic":2822,"Ġlikely":2823,"Ġcourse":2824,"Ġissues":2825,"Ġvirt":2826,"Ġdistrict":2827,"Ġprogramming":2828,"Ġtv":2829,"Ġlaun":2830,"Ġproperty":2831,"Ġsha":2832,"ee":2833,"Ġsac":2834,"Ġflag":2835,"Ġthink":2836,"Ġrelease":2837,"Ġpeter":2838,"ables":2839,"Ġfal":2840,"ging":2841,"Ġmachine":2842,"Ġconsum":2843,"Ġjoseph":2844,"Ġmoney":2845,"uries":2846,"Ġalternative":2847,"Ġcolumb":2848,"Ġrome":2849,"for":2850,"Ġhero":2851,"Ġremain":2852,"ream":2853,"Ġna":2854,"Ġdraw":2855,"Ġprovided":2856,"icated":2857,"aff":2858,"Ġparis":2859,"Ġsmaller":2860,"Ġsmith":2861,"sh":2862,"Ġfunctions":2863,"Ġjesus":2864,"ini":2865,"Ġdivided":2866,"Ġaverage":2867,"view":2868,"Ġmemory":2869,"cycl":2870,"Ġreplaced":2871,"Ġsaf":2872,"Ġira":2873,"Ġdegree":2874,"bra":2875,"Ġlos":2876,"Ġmc":2877,"respond":2878,"ection":2879,"wise":2880,"Ġgradu":2881,"Ġdog":2882,"Ġslow":2883,"Ġcorrespond":2884,"Ġclaims":2885,"Ġwashington":2886,"Ġmeasure":2887,"Ġmary":2888,"Ġcommission":2889,"ously":2890,"Ġnearly":2891,"Ġvill":2892,"ivity":2893,"Ġqueen":2894,"Ġwars":2895,"Ġactress":2896,"Ġmedical":2897,"Ġdistinct":2898,"Ġpac":2899,"Ġkore":2900,"Ġprogress":2901,"Ġmas":2902,"oura":2903,"Ġmusical":2904,"va":2905,"Ġsection":2906,"Ġnotable":2907,"Ġgn":2908,"Ġquar":2909,"Ġtable":2910,"Ġreview":2911,"Ġbish":2912,"Ġclaimed":2913,"Ġcontem":2914,"Ġdestroy":2915,"edy":2916,"Ġindustrial":2917,"porary":2918,"Ġrecently":2919,"Ġrecords":2920,"can":2921,"col":2922,"Ġcontroll":2923,"Ġvan":2924,"da":2925,"fect":2926,"Ġcollection":2927,"Ġportug":2928,"Ġdaught":2929,"Ġsexual":2930,"Ġple":2931,"Ġanimals":2932,"Ġschools":2933,"Ġinvolved":2934,"Ġfinally":2935,"izations":2936,"Ġheb":2937,"Ġfinan":2938,"Ġperformance":2939,"Ġvariety":2940,"iles":2941,"Ġelections":2942,"Ġchanged":2943,"Ġpaper":2944,"Ġbay":2945,"Ġfrequently":2946,"Ġinn":2947,"oid":2948,"utive":2949,"Ġheavy":2950,"Ġbbc":2951,"Ġassum":2952,"Ġhighest":2953,"Ġthous":2954,"Ġsens":2955,"Ġencycl":2956,"Ġmethods":2957,"Ġice":2958,"Ġdemocratic":2959,"Ġideas":2960,"Ġalgor":2961,"Ġserved":2962,"Ġmichael":2963,"Ġprograms":2964,"ding":2965,"Ġcred":2966,"Ġstreet":2967,"Ġelectr":2968,"arent":2969,"ont":2970,"Ġdie":2971,"oe":2972,"thing":2973,"field":2974,"iant":2975,"Ġuser":2976,"izing":2977,"Ġstudents":2978,"Ġincreased":2979,"Ġmedic":2980,"Ġdeli":2981,"Ġborder":2982,"Ġstation":2983,"Ġobserv":2984,"Ġrelatively":2985,"Ġburn":2986,"Ġdiscovered":2987,"Ġintel":2988,"Ġastron":2989,"cks":2990,"ush":2991,"Ġincrease":2992,"Ġobjects":2993,"Ġconditions":2994,"ips":2995,"Ġangel":2996,"ech":2997,"Ġans":2998,"Ġdialect":2999,"olf":3000,"omy":3001,"Ġreturned":3002,"Ġexistence":3003,"Ġmention":3004,"Ġappears":3005,"Ġtakes":3006,"Ġguitar":3007,"Ġwit":3008,"Ġencyclop":3009,"Ġbaseball":3010,"Ġcommitte":3011,"Ġassembly":3012,"itation":3013,"Ġmad":3014,"Ġadopted":3015,"Ġnuclear":3016,"Ġdar":3017,"Ġoperation":3018,"Ġod":3019,"Ġperm":3020,"Ġpoor":3021,"Ġprior":3022,"ope":3023,"Ġdiss":3024,"uge":3025,"Ġpack":3026,"Ġamb":3027,"ields":3028,"iter":3029,"Ġweek":3030,"Ġactive":3031,"Ġincor":3032,"Ġuniverse":3033,"Ġconcent":3034,"Ġphilosop":3035,"Ġnormal":3036,"ridge":3037,"Ġinstitute":3038,"ners":3039,"hood":3040,"Ġtend":3041,"Ġhtt":3042,"Ġocean":3043,"Ġassist":3044,"Ġcel":3045,"Ġexperience":3046,"Ġprofessional":3047,"Ġtaking":3048,"Ġlad":3049,"Ġdeep":3050,"well":3051,"Ġnumerous":3052,"mar":3053,"Ġhebrew":3054,"Ġcreate":3055,"Ġros":3056,"ship":3057,"Ġplat":3058,"off":3059,"Ġpressure":3060,"Ġpowers":3061,"Ġimmediate":3062,"Ġbehind":3063,"ibly":3064,"Ġsin":3065,"Ġconte":3066,"Ġfile":3067,"Ġunlike":3068,"Ġnaz":3069,"Ġchic":3070,"pper":3071,"Ġconstruction":3072,"Ġcru":3073,"Ġalge":3074,"Ġaccepted":3075,"Ġsomething":3076,"Ġissue":3077,"Ġwa":3078,"cell":3079,"anced":3080,"Ġfrancis":3081,"Ġcitizens":3082,"Ġestim":3083,"Ġpotential":3084,"Ġdia":3085,"Ġiron":3086,"Ġreported":3087,"Ġfrac":3088,"Ġgro":3089,"Ġformal":3090,"Ġsett":3091,"Ġstage":3092,"Ġprimarily":3093,"Ġinsp":3094,"Ġbox":3095,"Ġresources":3096,"Ġcateg":3097,"Ġexch":3098,"wa":3099,"umn":3100,"Ġpattern":3101,"Ġprint":3102,"Ġcentre":3103,"Ġmaster":3104,"Ġhab":3105,"ately":3106,"Ġkil":3107,"Ġrecorded":3108,"Ġip":3109,"Ġdefense":3110,"Ġapplied":3111,"Ġbad":3112,"Ġscholars":3113,"Ġaspect":3114,"Ġmex":3115,"Ġboy":3116,"Ġmission":3117,"Ġhell":3118,"Ġresist":3119,"Ġtwent":3120,"Ġluc":3121,"Ġlived":3122,"Ġinstance":3123,"Ġdescript":3124,"Ġshows":3125,"Ġconqu":3126,"Ġderived":3127,"Ġtroops":3128,"Ġwoman":3129,"idents":3130,"igned":3131,"Ġgovernor":3132,"Ġbass":3133,"Ġcompar":3134,"Ġtarget":3135,"oting":3136,"Ġequival":3137,"Ġmathematics":3138,"round":3139,"iance":3140,"Ġscre":3141,"Ġorg":3142,"Ġplaced":3143,"Ġroll":3144,"Ġadditional":3145,"Ġens":3146,"usion":3147,"Ġscript":3148,"Ġacqu":3149,"Ġrunning":3150,"Ġengineering":3151,"Ġsquare":3152,"Ġfreedom":3153,"ba":3154,"Ġcos":3155,"Ġstop":3156,"Ġimpl":3157,"Ġequal":3158,"Ġessential":3159,"Ġserious":3160,"Ġcalend":3161,"Ġarticles":3162,"Ġchannel":3163,"ken":3164,"astic":3165,"Ġhttp":3166,"Ġtun":3167,"ios":3168,"Ġthreat":3169,"illa":3170,"Ġbible":3171,"Ġselect":3172,"Ġnotes":3173,"Ġrise":3174,"Ġtransform":3175,"Ġsettle":3176,"reg":3177,"onse":3178,"Ġunits":3179,"Ġsuffer":3180,"Ġdip":3181,"Ġneigh":3182,"Ġmainly":3183,"Ġchron":3184,"Ġairport":3185,"riage":3186,"Ġpope":3187,"Ġanimal":3188,"orial":3189,"Ġshown":3190,"Ġmagazine":3191,"ki":3192,"iences":3193,"Ġkings":3194,"Ġcontain":3195,"Ġwindows":3196,"Ġinterpret":3197,"Ġgall":3198,"Ġoperations":3199,"Ġconvention":3200,"Ġpurpose":3201,"orph":3202,"agement":3203,"Ġmun":3204,"Ġwriters":3205,"oon":3206,"Ġmars":3207,"Ġmoon":3208,"Ġseem":3209,"Ġlevels":3210,"Ġrace":3211,"Ġquite":3212,"Ġobt":3213,"Ġoperating":3214,"Ġcens":3215,"Ġbapt":3216,"Ġrand":3217,"Ġtemperature":3218,"imum":3219,"ching":3220,"Ġsongs":3221,"Ġbroadcast":3222,"Ġextra":3223,"Ġvolume":3224,"Ġplant":3225,"Ġacid":3226,"Ġpossess":3227,"Ġexact":3228,"Ġcells":3229,"Ġscotland":3230,"Ġhund":3231,"Ġsir":3232,"Ġfriends":3233,"Ġspread":3234,"Ġfundament":3235,"Ġbudd":3236,"Ġinstrument":3237,"tered":3238,"Ġcomment":3239,"Ġsurround":3240,"Ġproposed":3241,"Ġolder":3242,"med":3243,"Ġcra":3244,"Ġpra":3245,"att":3246,"Ġtry":3247,"Ġhous":3248,"Ġapparent":3249,"Ġris":3250,"Ġduke":3251,"ients":3252,"Ġways":3253,"Ġbib":3254,"Ġuns":3255,"Ġconsists":3256,"abet":3257,"back":3258,"Ġphen":3259,"xual":3260,"ads":3261,"Ġnavy":3262,"Ġapproximately":3263,"Ġjul":3264,"Ġfast":3265,"Ġbomb":3266,"Ġalbert":3267,"Ġindividuals":3268,"Ġlie":3269,"Ġjac":3270,"cher":3271,"ned":3272,"Ġwr":3273,"Ġregions":3274,"dp":3275,"Ġconstruct":3276,"rative":3277,"Ġplaces":3278,"Ġhundred":3279,"Ġmath":3280,"Ġclimate":3281,"Ġafg":3282,"Ġcommunist":3283,"Ġcas":3284,"Ġface":3285,"Ġforced":3286,"Ġconne":3287,"Ġmonarch":3288,"Ġarri":3289,"Ġcompl":3290,"ker":3291,"Ġcenturies":3292,"Ġpolice":3293,"Ġgramm":3294,"anian":3295,"Ġlearn":3296,"Ġresponse":3297,"Ġintroduction":3298,"ita":3299,"aches":3300,"Ġdistingu":3301,"Ġforest":3302,"Ġjack":3303,"Ġvalues":3304,"Ġcommittee":3305,"Ġdiam":3306,"Ġappointed":3307,"Ġpassed":3308,"isation":3309,"Ġvoc":3310,"Ġrank":3311,"rief":3312,"Ġchicago":3313,"Ġscale":3314,"Ġfriend":3315,"Ġquickly":3316,"elling":3317,"Ġpercent":3318,"Ġspeech":3319,"Ġrefers":3320,"Ġusa":3321,"Ġcontract":3322,"Ġproperties":3323,"Ġsearch":3324,"Ġrepe":3325,"Ġdat":3326,"hens":3327,"Ġprotect":3328,"Ġacts":3329,"Ġinternal":3330,"ager":3331,"Ġability":3332,"Ġvia":3333,"Ġlith":3334,"Ġalco":3335,"Ġsho":3336,"omm":3337,"erson":3338,"Ġrot":3339,"Ġnoted":3340,"Ġcold":3341,"Ġlingu":3342,"eter":3343,"Ġclos":3344,"rupt":3345,"Ġconsequ":3346,"Ġethnic":3347,"Ġtree":3348,"Ġimperial":3349,"Ġdaughter":3350,"Ġpath":3351,"hic":3352,"Ġwww":3353,"overy":3354,"Ġbey":3355,"gar":3356,"Ġcarry":3357,"Ġmotion":3358,"Ġnobel":3359,"igr":3360,"ola":3361,"Ġperformed":3362,"Ġchampions":3363,"anned":3364,"Ġsav":3365,"Ġcomes":3366,"Ġdisease":3367,"gers":3368,"Ġattrib":3369,"Ġversions":3370,"Ġnecessary":3371,"Ġfix":3372,"Ġdirection":3373,"Ġdepend":3374,"Ġlabour":3375,"Ġtechniques":3376,"Ġfocus":3377,"Ġpromin":3378,"Ġunique":3379,"Ġworked":3380,"Ġstars":3381,"Ġapplications":3382,"Ġvon":3383,"Ġcab":3384,"Ġenem":3385,"Ġreflect":3386,"Ġtreatment":3387,"Ġhaw":3388,"Ġcontent":3389,"Ġflu":3390,"Ġagreement":3391,"Ġbenef":3392,"Ġiraq":3393,"Ġcircum":3394,"Ġarth":3395,"Ġmonth":3396,"Ġsupported":3397,"onia":3398,"Ġalgebra":3399,"Ġafghan":3400,"tar":3401,"Ġinfin":3402,"Ġapple":3403,"Ġchristianity":3404,"mp":3405,"Ġflight":3406,"Ġtransfer":3407,"Ġdemonst":3408,"mark":3409,"Ġfel":3410,"Ġwrite":3411,"Ġshot":3412,"Ġremo":3413,"aled":3414,"Ġlands":3415,"Ġaffair":3416,"Ġsummer":3417,"onent":3418,"aker":3419,"Ġbraz":3420,"Ġreading":3421,"aur":3422,"Ġnd":3423,"Ġcritical":3424,"ville":3425,"Ġdance":3426,"Ġles":3427,"olved":3428,"Ġrapid":3429,"Ġcalendar":3430,"Ġintended":3431,"Ġspl":3432,"Ġcomputers":3433,"Ġregarded":3434,"Ġintelligence":3435,"eral":3436,"Ġrang":3437,"Ġmand":3438,"Ġprefer":3439,"Ġbrain":3440,"Ġfant":3441,"Ġconduct":3442,"Ġgene":3443,"hold":3444,"Ġcer":3445,"Ġfat":3446,"Ġmut":3447,"Ġcatal":3448,"Ġpil":3449,"Ġdisplay":3450,"Ġwild":3451,"Ġspok":3452,"Ġfan":3453,"ett":3454,"Ġconnect":3455,"Ġreject":3456,"anded":3457,"yd":3458,"Ġmit":3459,"Ġspeaking":3460,"Ġbeyond":3461,"yth":3462,"Ġil":3463,"Ġusers":3464,"Ġcoal":3465,"osh":3466,"ny":3467,"ona":3468,"Ġhumans":3469,"Ġjean":3470,"Ġsports":3471,"Ġful":3472,"Ġatom":3473,"Ġadm":3474,"rents":3475,"Ġbridge":3476,"Ġfigure":3477,"Ġmedicine":3478,"pap":3479,"Ġlocation":3480,"Ġcandid":3481,"itors":3482,"eria":3483,"phas":3484,"Ġlogic":3485,"Ġreached":3486,"Ġadministration":3487,"Ġbranch":3488,"Ġaim":3489,"Ġjur":3490,"zz":3491,"Ġrain":3492,"inian":3493,"Ġconservative":3494,"Ġbrief":3495,"Ġorient":3496,"Ġbillion":3497,"Ġarran":3498,"Ġcontrast":3499,"Ġnotably":3500,"Ġcorrect":3501,"gn":3502,"Ġwhy":3503,"Ġarts":3504,"Ġabb":3505,"Ġexport":3506,"Ġvehic":3507,"oration":3508,"Ġlif":3509,"Ġjoined":3510,"Ġell":3511,"icit":3512,"Ġsets":3513,"Ġbring":3514,"Ġskill":3515,"Ġapproach":3516,"Ġlu":3517,"pped":3518,"Ġfeel":3519,"Ġsigned":3520,"Ġberlin":3521,"Ġprovince":3522,"Ġpacific":3523,"Ġcontext":3524,"Ġbrazil":3525,"mas":3526,"Ġfinancial":3527,"Ġargument":3528,"Ġinfluenced":3529,"Ġmultiple":3530,"Ġblock":3531,"ws":3532,"Ġactual":3533,"Ġcomposer":3534,"Ġcelebr":3535,"Ġgir":3536,"ada":3537,"icted":3538,"Ġlegend":3539,"Ġrestrict":3540,"Ġinj":3541,"Ġdepartment":3542,"Ġprem":3543,"Ġmiles":3544,"Ġguide":3545,"Ġinvestig":3546,"Ġremaining":3547,"Ġprovides":3548,"Ġvirgin":3549,"ida":3550,"Ġmarriage":3551,"Ġneeded":3552,"oke":3553,"oca":3554,"Ġpolish":3555,"Ġvictor":3556,"Ġglobal":3557,"Ġdiction":3558,"outh":3559,"Ġcook":3560,"Ġphysics":3561,"Ġpreviously":3562,"Ġcustom":3563,"Ġinhab":3564,"Ġheat":3565,"ocol":3566,"Ġba":3567,"Ġbob":3568,"Ġuniversal":3569,"Ġopposition":3570,"Ġdoub":3571,"Ġmurder":3572,"where":3573,"ales":3574,"Ġga":3575,"Ġdistribution":3576,"Ġcup":3577,"Ġactivity":3578,"rison":3579,"uls":3580,"Ġsynt":3581,"Ġextremely":3582,"Ġshare":3583,"Ġdistance":3584,"Ġcoup":3585,"Ġko":3586,"Ġspecif":3587,"Ġhands":3588,"Ġtranslation":3589,"Ġstated":3590,"Ġsell":3591,"Ġpowerful":3592,"Ġadvanced":3593,"Ġnewspap":3594,"Ġtheories":3595,"Ġadvent":3596,"Ġstren":3597,"Ġfoundation":3598,"Ġcontemporary":3599,"tical":3600,"Ġign":3601,"enth":3602,"Ġstock":3603,"Ġshar":3604,"Ġdoctr":3605,"Ġcrim":3606,"ortun":3607,"Ġprison":3608,"ua":3609,"Ġallows":3610,"la":3611,"lor":3612,"Ġtrack":3613,"Ġmanagement":3614,"board":3615,"Ġvow":3616,"Ġgreatest":3617,"Ġvote":3618,"Ġquality":3619,"Ġmathematical":3620,"gian":3621,"Ġchur":3622,"ounds":3623,"Ġeffic":3624,"Ġnether":3625,"racy":3626,"isters":3627,"Ġregional":3628,"osis":3629,"Ġoxford":3630,"ias":3631,"usal":3632,"Ġanarch":3633,"asy":3634,"Ġdifference":3635,"Ġcrown":3636,"otic":3637,"Ġran":3638,"Ġcritics":3639,"Ġcompletely":3640,"Ġscreen":3641,"isp":3642,"Ġjim":3643,"Ġparal":3644,"Ġfourth":3645,"Ġstandards":3646,"Ġusage":3647,"Ġexecutive":3648,"Ġbehavior":3649,"head":3650,"Ġfans":3651,"ody":3652,"elled":3653,"Ġsand":3654,"Ġgives":3655,"Ġedward":3656,"Ġelse":3657,"Ġmartin":3658,"Ġtas":3659,"Ġpair":3660,"Ġships":3661,"fficient":3662,"Ġphenomen":3663,"Ġchurches":3664,"har":3665,"rane":3666,"cious":3667,"Ġdun":3668,"Ġkong":3669,"Ġmodels":3670,"Ġturned":3671,"Ġgreece":3672,"Ġinitial":3673,"Ġjustice":3674,"rm":3675,"Ġhours":3676,"mann":3677,"Ġbecoming":3678,"Ġfundamental":3679,"Ġguard":3680,"Ġded":3681,"Ġnegative":3682,"Ġhorse":3683,"Ġfavor":3684,"Ġmos":3685,"Ġnap":3686,"Ġtechnical":3687,"Ġmountain":3688,"Ġcontact":3689,"Ġnetherlands":3690,"Ġdomest":3691,"Ġfolk":3692,"Ġenter":3693,"Ġstreng":3694,"oo":3695,"ped":3696,"Ġuseful":3697,"Ġstring":3698,"Ġelectronic":3699,"Ġquarter":3700,"Ġreasons":3701,"Ġlinear":3702,"Ġhonor":3703,"Ġfest":3704,"Ġmoving":3705,"Ġpoland":3706,"Ġinside":3707,"Ġgard":3708,"Ġrough":3709,"Ġcompil":3710,"Ġplanet":3711,"Ġimpact":3712,"Ġslight":3713,"Ġperman":3714,"Ġgoing":3715,"Ġfeatured":3716,"Ġencyclopedia":3717,"Ġunf":3718,"Ġepisode":3719,"Ġcarried":3720,"azz":3721,"Ġlink":3722,"Ġoccasion":3723,"Ġpalest":3724,"Ġresponsible":3725,"Ġadvant":3726,"Ġprotection":3727,"Ġexchange":3728,"log":3729,"Ġpurch":3730,"Ġsuc":3731,"Ġspoken":3732,"Ġbeat":3733,"gal":3734,"Ġwing":3735,"Ġdescribe":3736,"Ġgh":3737,"ieties":3738,"Ġactivities":3739,"Ġones":3740,"Ġspring":3741,"Ġupper":3742,"Ġchristians":3743,"bour":3744,"Ġreve":3745,"Ġcambridge":3746,"Ġdro":3747,"Ġincorpor":3748,"Ġott":3749,"Ġmom":3750,"Ġku":3751,"Ġequip":3752,"erve":3753,"Ġdang":3754,"ests":3755,"Ġfailed":3756,"ml":3757,"Ġcontinue":3758,"Ġarthur":3759,"Ġweight":3760,"bi":3761,"sec":3762,"Ġapplication":3763,"Ġfamilies":3764,"Ġfields":3765,"Ġwinter":3766,"Ġurban":3767,"Ġalphabet":3768,"Ġindeed":3769,"what":3770,"rich":3771,"Ġemphas":3772,"Ġbiography":3773,"Ġdynast":3774,"Ġdecision":3775,"Ġviews":3776,"Ġsomewhat":3777,"Ġgoal":3778,"Ġfollows":3779,"nes":3780,"Ġcompetition":3781,"Ġseems":3782,"hesis":3783,"Ġopposed":3784,"Ġpossibly":3785,"Ġresulting":3786,"Ġjuda":3787,"Ġislamic":3788,"Ġswe":3789,"Ġformat":3790,"Ġoppos":3791,"Ġscottish":3792,"Ġdoctor":3793,"mitted":3794,"Ġsupreme":3795,"Ġstone":3796,"Ġnic":3797,"ulations":3798,"iah":3799,"Ġsignal":3800,"Ġvoice":3801,"Ġdna":3802,"rate":3803,"Ġbell":3804,"Ġarabic":3805,"lines":3806,"aving":3807,"Ġphr":3808,"Ġgeneration":3809,"ographic":3810,"Ġtheat":3811,"west":3812,"Ġdecided":3813,"Ġrepresented":3814,"ram":3815,"Ġcomposed":3816,"Ġstarting":3817,"Ġappearance":3818,"Ġcauses":3819,"encies":3820,"Ġrd":3821,"Ġcharge":3822,"Ġweapons":3823,"Ġtell":3824,"Ġdoll":3825,"Ġgeography":3826,"Ġattempts":3827,"Ġgrowing":3828,"Ġprinciple":3829,"Ġgolden":3830,"Ġplants":3831,"imal":3832,"Ġvary":3833,"Ġended":3834,"reed":3835,"Ġkenn":3836,"Ġpure":3837,"aph":3838,"Ġalf":3839,"Ġaustria":3840,"Ġpick":3841,"Ġgot":3842,"Ġterror":3843,"ils":3844,"Ġpositive":3845,"Ġgiving":3846,"Ġalt":3847,"Ġchall":3848,"eds":3849,"ressed":3850,"Ġsucceed":3851,"Ġoly":3852,"Ġdeclared":3853,"za":3854,"Ġfish":3855,"Ġund":3856,"Ġcapac":3857,"writ":3858,"Ġfuel":3859,"Ġtraining":3860,"Ġexpans":3861,"Ġadj":3862,"Ġgrav":3863,"Ġequipment":3864,"Ġcham":3865,"oper":3866,"lom":3867,"erc":3868,"vert":3869,"Ġcompared":3870,"Ġmarx":3871,"Ġincome":3872,"ati":3873,"Ġmm":3874,"Ġartist":3875,"Ġlincol":3876,"Ġolymp":3877,"Ġlincoln":3878,"Ġak":3879,"Ġreaction":3880,"Ġimprove":3881,"Ġring":3882,"Ġunkn":3883,"vey":3884,"Ġflo":3885,"sp":3886,"Ġpier":3887,"Ġcomic":3888,"Ġdrive":3889,"Ġarchitecture":3890,"Ġtou":3891,"Ġmr":3892,"Ġadvoc":3893,"Ġacademy":3894,"Ġzeal":3895,"pg":3896,"rees":3897,"Ġarmed":3898,"Ġmotor":3899,"Ġreign":3900,"Ġford":3901,"rier":3902,"Ġdiscip":3903,"Ġargued":3904,"Ġimag":3905,"book":3906,"Ġoccurs":3907,"Ġattacks":3908,"Ġvalley":3909,"Ġclassic":3910,"Ġextended":3911,"my":3912,"izes":3913,"Ġfinland":3914,"Ġdirected":3915,"Ġeasily":3916,"Ġperfect":3917,"Ġglass":3918,"nel":3919,"Ġpresence":3920,"Ġtraditionally":3921,"Ġtruth":3922,"Ġbelong":3923,"Ġequivalent":3924,"Ġexists":3925,"Ġidentity":3926,"Ġnothing":3927,"era":3928,"ador":3929,"agan":3930,"Ġdifferences":3931,"Ġorganizations":3932,"Ġillust":3933,"gment":3934,"met":3935,"Ġenj":3936,"Ġmentioned":3937,"Ġsolution":3938,"Ġcp":3939,"ordin":3940,"Ġextensive":3941,"Ġimmediately":3942,"Ġstan":3943,"Ġpoll":3944,"Ġefforts":3945,"Ġapart":3946,"Ġsimpl":3947,"Ġprovin":3948,"Ġencoura":3949,"och":3950,"Ġalone":3951,"Ġchance":3952,"Ġapol":3953,"Ġcommunities":3954,"ex":3955,"Ġcopyr":3956,"Ġchampionship":3957,"aded":3958,"inet":3959,"Ġachieve":3960,"Ġnick":3961,"Ġleban":3962,"Ġbackground":3963,"Ġannounced":3964,"Ġgeomet":3965,"Ġcombined":3966,"Ġproved":3967,"Ġserve":3968,"Ġunderstanding":3969,"icip":3970,"anta":3971,"Ġcla":3972,"Ġparalle":3973,"Ġdebate":3974,"Ġcards":3975,"Ġchoice":3976,"Ġneut":3977,"usalem":3978,"Ġtechnique":3979,"Ġcontrolled":3980,"Ġdevice":3981,"Ġenvironmental":3982,"Ġbatt":3983,"Ġcomposition":3984,"ava":3985,"Ġassass":3986,"Ġinitially":3987,"Ġjerusalem":3988,"Ġfit":3989,"Ġstudent":3990,"Ġmusician":3991,"Ġhus":3992,"Ġunc":3993,"iform":3994,"Ġfict":3995,"Ġsituation":3996,"Ġfeet":3997,"iar":3998,"Ġaz":3999,"Ġallowing":4000,"Ġmolec":4001,"Ġmeant":4002,"Ġsecretary":4003,"Ġmont":4004,"Ġfully":4005,"Ġteams":4006,"Ġconnected":4007,"Ġsport":4008,"Ġexpected":4009,"claim":4010,"Ġmaterials":4011,"Ġbarb":4012,"Ġruled":4013,"Ġcarl":4014,"aven":4015,"Ġhan":4016,"Ġconv":4017,"ulate":4018,"Ġprep":4019,"Ġalgorithm":4020,"Ġconvers":4021,"Ġtemple":4022,"Ġcombat":4023,"Ġvictory":4024,"Ġbishop":4025,"Ġmob":4026,"Ġturk":4027,"Ġjudaism":4028,"Ġunknown":4029,"ns":4030,"Ġactions":4031,"Ġgib":4032,"Ġwritings":4033,"Ġhin":4034,"teen":4035,"Ġoh":4036,"Ġclasses":4037,"Ġholid":4038,"kes":4039,"Ġoutput":4040,"Ġframe":4041,"Ġhug":4042,"Ġseat":4043,"Ġentirely":4044,"Ġath":4045,"Ġgained":4046,"Ġjun":4047,"Ġeg":4048,"Ġstor":4049,"Ġjacks":4050,"Ġdomestic":4051,"Ġcontaining":4052,"Ġearliest":4053,"Ġotherwise":4054,"Ġeffective":4055,"Ġintellect":4056,"lection":4057,"ensity":4058,"Ġht":4059,"Ġgosp":4060,"Ġworkers":4061,"Ġliterary":4062,"iro":4063,"Ġcod":4064,"anda":4065,"Ġlimit":4066,"Ġmathematic":4067,"Ġrecognized":4068,"wan":4069,"Ġwealth":4070,"Ġamericans":4071,"gra":4072,"Ġprinciples":4073,"Ġbon":4074,"Ġmere":4075,"Ġexclus":4076,"Ġprin":4077,"Ġartists":4078,"Ġreplace":4079,"Ġunp":4080,"Ġatm":4081,"Ġliqu":4082,"Ġsax":4083,"Ġaid":4084,"Ġsites":4085,"ologists":4086,"Ġesc":4087,"Ġscientists":4088,"Ġentry":4089,"Ġcurren":4090,"Ġcontroversy":4091,"Ġapollo":4092,"ubb":4093,"Ġdictionary":4094,"Ġhong":4095,"Ġconfeder":4096,"Ġtrial":4097,"vi":4098,"Ġfru":4099,"Ġpc":4100,"Ġasc":4101,"Ġvel":4102,"Ġharv":4103,"Ġsuggested":4104,"Ġdynasty":4105,"Ġsays":4106,"actions":4107,"nam":4108,"Ġdram":4109,"Ġstatement":4110,"Ġbush":4111,"Ġattract":4112,"Ġdomain":4113,"Ġargent":4114,"Ġreduced":4115,"Ġarms":4116,"Ġwikip":4117,"Ġprominent":4118,"Ġspecifically":4119,"Ġcu":4120,"Ġconference":4121,"Ġattention":4122,"Ġcompleted":4123,"rim":4124,"Ġsolid":4125,"Ġpu":4126,"cape":4127,"Ġcond":4128,"Ġcha":4129,"Ġflat":4130,"Ġdiscussion":4131,"Ġcopyright":4132,"Ġelev":4133,"Ġswit":4134,"mun":4135,"igan":4136,"igration":4137,"Ġrequires":4138,"Ġavoid":4139,"Ġfigures":4140,"Ġexpansion":4141,"wide":4142,"Ġlithu":4143,"Ġbah":4144,"inger":4145,"Ġstations":4146,"Ġcycle":4147,"Ġatlantic":4148,"Ġdisk":4149,"Ġqual":4150,"Ġdrum":4151,"Ġfill":4152,"Ġopin":4153,"Ġtypical":4154,"ule":4155,"Ġstructures":4156,"Ġtexts":4157,"Ġsort":4158,"Ġadult":4159,"Ġjackson":4160,"ih":4161,"Ġly":4162,"Ġchrom":4163,"Ġscene":4164,"Ġafghanistan":4165,"Ġwid":4166,"Ġcriticism":4167,"ieval":4168,"Ġprice":4169,"Ġmedieval":4170,"Ġdaily":4171,"Ġincreasingly":4172,"more":4173,"itable":4174,"Ġhydrogen":4175,"Ġanthrop":4176,"Ġinvasion":4177,"Ġaudio":4178,"Ġtexas":4179,"Ġdestroyed":4180,"Ġnom":4181,"unt":4182,"Ġrepublican":4183,"Ġgeorg":4184,"Ġsevere":4185,"Ġmarked":4186,"light":4187,"war":4188,"Ġbott":4189,"Ġisraeli":4190,"Ġwave":4191,"icate":4192,"Ġlives":4193,"Ġcooper":4194,"Ġbegins":4195,"Ġgdp":4196,"Ġimages":4197,"Ġclosely":4198,"Ġalcohol":4199,"Ġsplit":4200,"Ġlas":4201,"Ġpenn":4202,"Ġanne":4203,"Ġgenetic":4204,"Ġjuris":4205,"Ġinterview":4206,"Ġfrequency":4207,"iced":4208,"Ġmountains":4209,"Ġinspired":4210,"Ġdin":4211,"Ġtoward":4212,"Ġexc":4213,"ologist":4214,"Ġmexico":4215,"Ġdatab":4216,"Ġclosed":4217,"ception":4218,"Ġauthors":4219,"Ġanalog":4220,"Ġsequence":4221,"Ġdiplom":4222,"Ġbeaut":4223,"Ġexperiment":4224,"Ġbern":4225,"Ġoccurred":4226,"Ġsenate":4227,"Ġproced":4228,"andon":4229,"ogen":4230,"Ġkept":4231,"Ġofficially":4232,"Ġhence":4233,"Ġdetermined":4234,"ione":4235,"Ġdepending":4236,"Ġpopularity":4237,"Ġcorporation":4238,"Ġwikipedia":4239,"urt":4240,"Ġweak":4241,"antial":4242,"Ġboston":4243,"Ġhelped":4244,"Ġconcert":4245,"Ġdamage":4246,"Ġages":4247,"Ġft":4248,"Ġcrus":4249,"Ġslightly":4250,"Ġka":4251,"Ġflor":4252,"Ġattempted":4253,"ala":4254,"abor":4255,"Ġportugues":4256,"Ġremoved":4257,"Ġfu":4258,"iders":4259,"Ġlear":4260,"Ġsatell":4261,"Ġhungary":4262,"Ġzealand":4263,"Ġdiscovery":4264,"Ġruns":4265,"Ġpp":4266,"Ġentered":4267,"Ġgods":4268,"Ġabsol":4269,"Ġsweden":4270,"Ġdescription":4271,"Ġjones":4272,"umin":4273,"Ġplays":4274,"box":4275,"Ġtwenty":4276,"Ġfixed":4277,"atically":4278,"orter":4279,"ested":4280,"Ġmoral":4281,"Ġportuguese":4282,"Ġpresidential":4283,"onym":4284,"Ġzone":4285,"Ġimportance":4286,"Ġdiamond":4287,"Ġjazz":4288,"Ġbuildings":4289,"Ġnovels":4290,"Ġcant":4291,"Ġlaure":4292,"ansas":4293,"Ġterritories":4294,"Ġcryst":4295,"gs":4296,"ano":4297,"Ġshall":4298,"ounder":4299,"Ġpurs":4300,"Ġphysic":4301,"Ġcosm":4302,"Ġconnection":4303,"Ġts":4304,"Ġbol":4305,"Ġlut":4306,"Ġstaff":4307,"active":4308,"zech":4309,"Ġdynam":4310,"works":4311,"inn":4312,"igen":4313,"Ġkl":4314,"Ġformation":4315,"Ġwinning":4316,"ening":4317,"arc":4318,"Ġjudge":4319,"Ġcomics":4320,"Ġunderstand":4321,"Ġbuddh":4322,"imb":4323,"Ġcool":4324,"Ġalexand":4325,"Ġinstruments":4326,"Ġagriculture":4327,"Ġconscious":4328,"Ġgovernments":4329,"Ġfactor":4330,"Ġdevices":4331,"Ġestimated":4332,"Ġexisting":4333,"Ġdimens":4334,"hal":4335,"Ġgoth":4336,"Ġevil":4337,"Ġcontroversial":4338,"Ġagreed":4339,"Ġresulted":4340,"Ġargue":4341,"Ġoffered":4342,"Ġnone":4343,"erved":4344,"Ġorigins":4345,"Ġchristmas":4346,"Ġtraditions":4347,"ella":4348,"cules":4349,"Ġtheorem":4350,"Ġfictional":4351,"don":4352,"ropri":4353,"Ġtestament":4354,"Ġspiritual":4355,"Ġcars":4356,"aging":4357,"Ġasked":4358,"rence":4359,"Ġfactors":4360,"rig":4361,"Ġczech":4362,"onian":4363,"Ġwithd":4364,"Ġcombination":4365,"Ġancest":4366,"Ġroom":4367,"Ġcommunications":4368,"Ġcaes":4369,"Ġthousands":4370,"ancy":4371,"Ġschem":4372,"Ġexplos":4373,"Ġtopics":4374,"Ġaffairs":4375,"Ġlee":4376,"Ġol":4377,"Ġheavily":4378,"Ġlun":4379,"Ġger":4380,"Ġstal":4381,"orders":4382,"Ġphase":4383,"via":4384,"Ġbact":4385,"omorph":4386,"iana":4387,"Ġdesert":4388,"Ġdefeated":4389,"Ġpak":4390,"Ġpermanent":4391,"soft":4392,"Ġabst":4393,"Ġcommunication":4394,"Ġtowns":4395,"Ġconstitutional":4396,"Ġash":4397,"Ġholds":4398,"iny":4399,"Ġprotocol":4400,"Ġannual":4401,"Ġpronounced":4402,"Ġfalse":4403,"vant":4404,"vere":4405,"Ġleaving":4406,"Ġbrand":4407,"Ġaustrian":4408,"Ġprotestant":4409,"Ġheaven":4410,"Ġfighting":4411,"rix":4412,"Ġmanif":4413,"Ġrecip":4414,"Ġviolence":4415,"oud":4416,"Ġstay":4417,"Ġviet":4418,"Ġactors":4419,"Ġiran":4420,"Ġdrink":4421,"Ġtribes":4422,"Ġmaintain":4423,"Ġindo":4424,"Ġcrime":4425,"Ġidentified":4426,"Ġlists":4427,"Ġarist":4428,"Ġleadership":4429,"Ġtold":4430,"Ġcanon":4431,"Ġpolitician":4432,"Ġcrypt":4433,"Ġmoment":4434,"hamm":4435,"Ġcrick":4436,"Ġpray":4437,"aming":4438,"Ġhyper":4439,"Ġdemocracy":4440,"Ġhypot":4441,"Ġsubsequent":4442,"Ġenjoy":4443,"hi":4444,"Ġchos":4445,"Ġquantum":4446,"Ġaspects":4447,"Ġforward":4448,"Ġchair":4449,"Ġmovies":4450,"ault":4451,"arm":4452,"Ġnormally":4453,"Ġram":4454,"Ġabandon":4455,"Ġmail":4456,"Ġcensus":4457,"Ġthing":4458,"Ġsitu":4459,"Ġsoldiers":4460,"acher":4461,"Ġconcepts":4462,"Ġinput":4463,"ado":4464,"Ġrisk":4465,"roll":4466,"Ġangeles":4467,"Ġpages":4468,"eland":4469,"Ġinstitutions":4470,"Ġcolumbia":4471,"Ġspent":4472,"rugg":4473,"iber":4474,"Ġparad":4475,"Ġextin":4476,"Ġeffort":4477,"Ġdoctrine":4478,"ato":4479,"ctors":4480,"Ġgoes":4481,"Ġreality":4482,"Ġveget":4483,"Ġinvolve":4484,"Ġstrip":4485,"Ġbeliefs":4486,"Ġfame":4487,"Ġreports":4488,"Ġibm":4489,"Ġcategory":4490,"Ġintellectual":4491,"Ġformula":4492,"Ġstatistics":4493,"Ġproof":4494,"Ġshap":4495,"Ġsacr":4496,"las":4497,"Ġari":4498,"Ġtried":4499,"Ġgoods":4500,"Ġquestions":4501,"Ġdefeat":4502,"Ġatmosp":4503,"Ġmanner":4504,"Ġinfant":4505,"Ġdecades":4506,"Ġsides":4507,"Ġdry":4508,"Ġfantasy":4509,"Ġforum":4510,"Ġowners":4511,"Ġnegot":4512,"Ġmicrosoft":4513,"Ġdetails":4514,"Ġsupply":4515,"Ġstrugg":4516,"Ġmatch":4517,"Ġpresented":4518,"Ġmeeting":4519,"Ġnazi":4520,"Ġmessage":4521,"Ġlearning":4522,"Ġvac":4523,"Ġarc":4524,"Ġleave":4525,"Ġeliz":4526,"Ġexpressed":4527,"quar":4528,"Ġmovements":4529,"Ġadvantage":4530,"Ġfash":4531,"Ġspect":4532,"Ġpositions":4533,"inated":4534,"heast":4535,"Ġwanted":4536,"Ġlinux":4537,"Ġchapter":4538,"Ġsemi":4539,"Ġexpression":4540,"Ġprofessor":4541,"uts":4542,"Ġlew":4543,"Ġkilling":4544,"Ġcreating":4545,"band":4546,"zy":4547,"Ġbear":4548,"Ġeditor":4549,"Ġvice":4550,"Ġsubsequently":4551,"Ġbw":4552,"Ġhay":4553,"char":4554,"Ġsky":4555,"Ġreceive":4556,"Ġeye":4557,"Ġreach":4558,"Ġextent":4559,"Ġcontinues":4560,"Ġgrew":4561,"ety":4562,"Ġplot":4563,"Ġcrew":4564,"kins":4565,"Ġfounder":4566,"Ġbang":4567,"Ġclock":4568,"Ġpiece":4569,"iations":4570,"Ġproceed":4571,"Ġopened":4572,"Ġhistorians":4573,"Ġmachines":4574,"Ġbil":4575,"Ġarchae":4576,"Ġinhabit":4577,"Ġdv":4578,"Ġcurrency":4579,"ique":4580,"bury":4581,"Ġbos":4582,"Ġbru":4583,"Ġwant":4584,"orters":4585,"Ġvast":4586,"Ġclar":4587,"Ġraised":4588,"Ġparents":4589,"Ġopening":4590,"Ġanaly":4591,"Ġpolicies":4592,"Ġroughly":4593,"Ġabsolute":4594,"isf":4595,"Ġmcc":4596,"uses":4597,"unc":4598,"Ġsty":4599,"Ġconsiderable":4600,"Ġcultures":4601,"Ġpicture":4602,"Ġinterpretation":4603,"Ġray":4604,"Ġconfir":4605,"Ġpakistan":4606,"Ġcommod":4607,"osexual":4608,"Ġsteel":4609,"Ġchronic":4610,"ees":4611,"Ġdivine":4612,"Ġtranslated":4613,"Ġastronom":4614,"iary":4615,"zo":4616,"Ġpersian":4617,"Ġparallel":4618,"ping":4619,"inton":4620,"Ġbodies":4621,"Ġsle":4622,"ishes":4623,"oren":4624,"Ġtower":4625,"Ġchosen":4626,"Ġpros":4627,"ession":4628,"Ġgreatly":4629,"Ġteleph":4630,"Ġfemin":4631,"itan":4632,"Ġatoms":4633,"Ġshortly":4634,"Ġfailure":4635,"Ġfasc":4636,"Ġnoun":4637,"Ġprocesses":4638,"Ġfarm":4639,"Ġcaptain":4640,"Ġalleged":4641,"Ġlen":4642,"Ġgain":4643,"Ġindones":4644,"Ġsab":4645,"Ġcine":4646,"Ġcore":4647,"Ġsud":4648,"Ġfinn":4649,"Ġcourts":4650,"Ġcharacteristics":4651,"ev":4652,"Ġcow":4653,"Ġfried":4654,"Ġbron":4655,"Ġsuff":4656,"Ġelectro":4657,"Ġequation":4658,"Ġadministrative":4659,"Ġbabyl":4660,"Ġadapt":4661,"ologies":4662,"Ġphilosophical":4663,"Ġdarwin":4664,"Ġserver":4665,"Ġhomosexual":4666,"Ġsymbols":4667,"Ġshape":4668,"Ġproport":4669,"ocks":4670,"Ġmythology":4671,"Ġkilomet":4672,"Ġtan":4673,"icial":4674,"Ġorganized":4675,"Ġformerly":4676,"Ġhardware":4677,"Ġobserved":4678,"Ġrespectively":4679,"Ġkorea":4680,"ograp":4681,"Ġapost":4682,"Ġpeoples":4683,"Ġregarding":4684,"car":4685,"Ġnas":4686,"Ġbattles":4687,"Ġmort":4688,"icks":4689,"Ġelim":4690,"Ġswedish":4691,"house":4692,"Ġchain":4693,"Ġion":4694,"inity":4695,"Ġjpg":4696,"Ġplate":4697,"Ġtrad":4698,"Ġeconomics":4699,"Ġphilosopher":4700,"iring":4701,"Ġrepresentation":4702,"Ġfashion":4703,"Ġfro":4704,"lem":4705,"Ġblues":4706,"greg":4707,"oral":4708,"Ġdj":4709,"ube":4710,"Ġstrict":4711,"Ġworship":4712,"Ġderiv":4713,"itzer":4714,"Ġneither":4715,"Ġordered":4716,"Ġpractical":4717,"Ġwales":4718,"Ġresistance":4719,"Ġorbit":4720,"Ġstudied":4721,"fully":4722,"Ġharmon":4723,"Ġcris":4724,"Ġrivers":4725,"Ġstraight":4726,"Ġtenn":4727,"rey":4728,"Ġchemistry":4729,"stream":4730,"oty":4731,"Ġexhib":4732,"Ġsusp":4733,"Ġeld":4734,"cts":4735,"abeth":4736,"Ġrod":4737,"Ġcovered":4738,"Ġenemy":4739,"Ġconcer":4740,"Ġneeds":4741,"Ġrevolutionary":4742,"Ġpieces":4743,"Ġanton":4744,"Ġein":4745,"lywood":4746,"cont":4747,"Ġspeakers":4748,"Ġelectrical":4749,"Ġcriminal":4750,"Ġstad":4751,"Ġasian":4752,"Ġrum":4753,"Ġaccur":4754,"Ġprincipal":4755,"anning":4756,"Ġsettlement":4757,"Ġmist":4758,"Ġandrew":4759,"Ġwhereas":4760,"Ġnaval":4761,"Ġfeat":4762,"ompan":4763,"Ġnarrow":4764,"Ġdoug":4765,"ceived":4766,"agn":4767,"Ġnewton":4768,"Ġpatri":4769,"Ġprojects":4770,"ras":4771,"Ġcm":4772,"Ġjohnson":4773,"Ġisa":4774,"Ġken":4775,"sey":4776,"Ġbwv":4777,"Ġsail":4778,"Ġleon":4779,"Ġphon":4780,"Ġkg":4781,"Ġaccompan":4782,"Ġfiles":4783,"Ġsupposed":4784,"Ġtransportation":4785,"ket":4786,"Ġcompr":4787,"Ġharm":4788,"Ġmir":4789,"ifying":4790,"Ġradical":4791,"Ġbinary":4792,"Ġreven":4793,"Ġsufficient":4794,"Ġcarol":4795,"oured":4796,"Ġminutes":4797,"Ġowned":4798,"Ġmode":4799,"Ġstorage":4800,"Ġgospel":4801,"Ġjurisd":4802,"Ġdatabase":4803,"Ġcou":4804,"Ġwides":4805,"Ġsovere":4806,"Ġrepeated":4807,"Ġoccasionally":4808,"Ġsovereign":4809,"akh":4810,"Ġanything":4811,"Ġrailway":4812,"Ġhosp":4813,"Ġinterpre":4814,"Ġpurposes":4815,"Ġceltic":4816,"gu":4817,"Ġille":4818,"Ġpersons":4819,"Ġdescribes":4820,"uous":4821,"itarian":4822,"Ġdict":4823,"Ġmyster":4824,"Ġeasy":4825,"rel":4826,"Ġrates":4827,"Ġcoming":4828,"thy":4829,"ellow":4830,"Ġartific":4831,"Ġdegrees":4832,"Ġacademic":4833,"Ġsister":4834,"Ġtermin":4835,"Ġawarded":4836,"utation":4837,"add":4838,"Ġgenes":4839,"Ġprocessing":4840,"Ġsalv":4841,"Ġoccupied":4842,"yan":4843,"Ġinfluential":4844,"Ġnfl":4845,"tery":4846,"Ġunus":4847,"Ġplane":4848,"Ġdefend":4849,"Ġsolar":4850,"Ġdrugs":4851,"isher":4852,"Ġscand":4853,"Ġfreder":4854,"Ġinfinite":4855,"Ġathe":4856,"Ġmichigan":4857,"Ġnewspaper":4858,"Ġll":4859,"Ġgay":4860,"Ġcommonwe":4861,"Ġhouses":4862,"Ġawards":4863,"Ġjon":4864,"Ġrelation":4865,"Ġends":4866,"Ġdetect":4867,"Ġdialects":4868,"ading":4869,"Ġtransition":4870,"Ġcommonwealth":4871,"ims":4872,"Ġsomeone":4873,"Ġpublication":4874,"Ġexplan":4875,"Ġsaying":4876,"Ġorders":4877,"Ġmixed":4878,"Ġcommander":4879,"Ġcoordin":4880,"Ġrefused":4881,"Ġrandom":4882,"Ġkent":4883,"Ġconson":4884,"Ġsimilarly":4885,"ami":4886,"Ġplans":4887,"Ġgranted":4888,"Ġinstall":4889,"Ġisol":4890,"Ġarrest":4891,"Ġfear":4892,"Ġjoint":4893,"Ġdescend":4894,"Ġweeks":4895,"Ġindex":4896,"Ġlaunched":4897,"Ġvillage":4898,"agon":4899,"Ġteaching":4900,"Ġguine":4901,"Ġfestival":4902,"Ġsatellite":4903,"Ġie":4904,"Ġdanish":4905,"Ġhoc":4906,"ache":4907,"Ġcrow":4908,"iment":4909,"Ġgrant":4910,"Ġmedium":4911,"Ġcircle":4912,"Ġfleet":4913,"ogue":4914,"Ġfelt":4915,"Ġhindu":4916,"Ġah":4917,"oring":4918,"order":4919,"Ġpeak":4920,"eless":4921,"Ġtraffic":4922,"Ġachieved":4923,"Ġselected":4924,"Ġrational":4925,"Ġcomedy":4926,"Ġcheck":4927,"Ġchallen":4928,"Ġpian":4929,"Ġappropri":4930,"Ġideal":4931,"Ġstrength":4932,"zant":4933,"ena":4934,"Ġhat":4935,"ota":4936,"Ġrabb":4937,"Ġentertain":4938,"Ġclassification":4939,"Ġportra":4940,"Ġfifth":4941,"iop":4942,"Ġfine":4943,"Ġcolumn":4944,"Ġjoh":4945,"Ġsumm":4946,"Ġcolonial":4947,"Ġbrothers":4948,"Ġcav":4949,"Ġchart":4950,"Ġimposs":4951,"Ġclearly":4952,"Ġliquid":4953,"Ġtel":4954,"Ġdor":4955,"Ġlot":4956,"Ġparticles":4957,"Ġhur":4958,"stone":4959,"Ġhungarian":4960,"Ġow":4961,"iga":4962,"Ġbyzant":4963,"Ġsafety":4964,"Ġsurrounding":4965,"rates":4966,"Ġdenmark":4967,"Ġdispute":4968,"rete":4969,"raction":4970,"Ġcontained":4971,"pread":4972,"enh":4973,"Ġpi":4974,"icism":4975,"Ġdiet":4976,"Ġdensity":4977,"Ġhair":4978,"Ġstrateg":4979,"Ġdetermine":4980,"Ġinhabitants":4981,"icide":4982,"Ġsevent":4983,"Ġprohib":4984,"Ġagricultural":4985,"Ġwidespread":4986,"tes":4987,"Ġsector":4988,"Ġteach":4989,"Ġlabel":4990,"Ġaffect":4991,"Ġabsor":4992,"Ġdeliver":4993,"cers":4994,"Ġkid":4995,"Ġpictures":4996,"Ġenfor":4997,"Ġopportun":4998,"Ġsnow":4999,"gi":5000,"Ġalliance":5001,"Ġpruss":5002,"Ġrecomm":5003,"Ġworldwide":5004,"Ġcrisis":5005,"Ġadam":5006,"Ġuniversities":5007,"Ġseats":5008,"Ġdoing":5009,"Ġproducer":5010,"Ġproviding":5011,"Ġvalid":5012,"Ġissued":5013,"Ġbed":5014,"Ġhuge":5015,"Ġgulf":5016,"eros":5017,"uration":5018,"Ġshared":5019,"Ġroot":5020,"Ġministers":5021,"Ġshowing":5022,"iable":5023,"Ġcable":5024,"Ġexerc":5025,"Ġfox":5026,"Ġultimately":5027,"Ġapparently":5028,"Ġsons":5029,"ani":5030,"aling":5031,"Ġinduct":5032,"Ġdistinction":5033,"Ġhind":5034,"Ġlyn":5035,"Ġrub":5036,"theless":5037,"lers":5038,"lete":5039,"Ġplus":5040,"Ġoxy":5041,"Ġmaximum":5042,"Ġsuffered":5043,"Ġstanding":5044,"Ġnevertheless":5045,"Ġdaniel":5046,"Ġtherm":5047,"Ġbac":5048,"urally":5049,"Ġbottom":5050,"Ġgenre":5051,"Ġlies":5052,"etics":5053,"iants":5054,"Ġtransm":5055,"Ġopposite":5056,"vis":5057,"Ġslo":5058,"Ġobl":5059,"Ġsecondary":5060,"Ġangl":5061,"Ġlayer":5062,"Ġjord":5063,"Ġchile":5064,"Ġreduce":5065,"Ġelectricity":5066,"Ġvirginia":5067,"Ġfres":5068,"idden":5069,"Ġadvert":5070,"Ġagency":5071,"Ġtrain":5072,"Ġfeed":5073,"Ġprecise":5074,"Ġmunicip":5075,"Ġped":5076,"ette":5077,"Ġkir":5078,"Ġkab":5079,"Ġcharl":5080,"Ġadvance":5081,"Ġpractices":5082,"Ġvisual":5083,"Ġmeasures":5084,"acing":5085,"Ġthrone":5086,"Ġcomputing":5087,"Ġsword":5088,"Ġsought":5089,"Ġproducing":5090,"Ġtrees":5091,"Ġcontinuous":5092,"uro":5093,"rec":5094,"Ġhour":5095,"Ġlinked":5096,"Ġluther":5097,"Ġelizabeth":5098,"iat":5099,"Ġsupporters":5100,"Ġsetting":5101,"Ġoldest":5102,"Ġshowed":5103,"iti":5104,"Ġyellow":5105,"Ġunable":5106,"Ġabol":5107,"Ġtaught":5108,"Ġtitles":5109,"Ġexception":5110,"Ġemerg":5111,"Ġlegislative":5112,"Ġom":5113,"Ġuss":5114,"Ġsynd":5115,"Ġmanufactur":5116,"tion":5117,"amin":5118,"Ġpione":5119,"Ġrein":5120,"Ġconclud":5121,"Ġegyptian":5122,"Ġdetailed":5123,"Ġrarely":5124,"Ġphrase":5125,"Ġmes":5126,"enses":5127,"Ġrespond":5128,"Ġstrongly":5129,"Ġinvented":5130,"inth":5131,"Ġstore":5132,"Ġuniform":5133,"Ġending":5134,"Ġsilver":5135,"Ġplatform":5136,"Ġale":5137,"Ġengines":5138,"ropol":5139,"Ġdeclar":5140,"Ġmolecules":5141,"Ġharvard":5142,"Ġcalvin":5143,"Ġalpha":5144,"cription":5145,"Ġscen":5146,"Ġeverything":5147,"Ġhitler":5148,"Ġlebanon":5149,"Ġkaz":5150,"Ġrepresents":5151,"Ġfrancisco":5152,"Ġmassive":5153,"Ġdocuments":5154,"Ġbes":5155,"Ġdates":5156,"Ġrose":5157,"Ġsciences":5158,"Ġgodd":5159,"Ġcontinental":5160,"Ġcivilization":5161,"chest":5162,"rain":5163,"Ġarbit":5164,"Ġjob":5165,"Ġconstructed":5166,"Ġplanned":5167,"Ġcapable":5168,"Ġunderstood":5169,"Ġtact":5170,"Ġbure":5171,"Ġcomponents":5172,"Ġedge":5173,"Ġrecording":5174,"Ġhousehold":5175,"inois":5176,"Ġstephen":5177,"Ġmanager":5178,"Ġbiological":5179,"Ġinteresting":5180,"Ġcapacity":5181,"Ġimpossible":5182,"Ġgerm":5183,"Ġmulti":5184,"Ġpalace":5185,"Ġrejected":5186,"Ġlewis":5187,"bf":5188,"kh":5189,"sen":5190,"Ġarrange":5191,"Ġdream":5192,"Ġsuppl":5193,"Ġrevol":5194,"Ġcroat":5195,"Ġsafe":5196,"ements":5197,"Ġinvolves":5198,"Ġjacob":5199,"Ġgirl":5200,"ek":5201,"uing":5202,"Ġsar":5203,"Ġradiation":5204,"Ġhistorically":5205,"Ġguinea":5206,"angel":5207,"Ġliver":5208,"Ġcaesar":5209,"Ġabd":5210,"Ġbelg":5211,"Ġgermanic":5212,"Ġrender":5213,"Ġpd":5214,"Ġorchest":5215,"Ġtheme":5216,"Ġshell":5217,"Ġdepression":5218,"rid":5219,"Ġjr":5220,"Ġclinton":5221,"Ġabra":5222,"Ġconsp":5223,"Ġcircuit":5224,"Ġhollywood":5225,"Ġindicate":5226,"Ġexpanded":5227,"Ġillinois":5228,"Ġdestruction":5229,"Ġcaptured":5230,"Ġlicense":5231,"Ġatomic":5232,"avia":5233,"Ġaccounts":5234,"Ġchamber":5235,"set":5236,"iled":5237,"Ġmanaged":5238,"Ġmarine":5239,"Ġjeff":5240,"Ġgalax":5241,"Ġpoetry":5242,"wal":5243,"Ġrit":5244,"Ġdism":5245,"Ġcolonies":5246,"Ġpermit":5247,"Ġneighbor":5248,"rations":5249,"unk":5250,"Ġvector":5251,"Ġpenal":5252,"Ġsucceeded":5253,"Ġske":5254,"Ġeug":5255,"Ġtwel":5256,"Ġemot":5257,"Ġcerem":5258,"Ġoxygen":5259,"rem":5260,"Ġches":5261,"Ġbag":5262,"Ġresolution":5263,"Ġdecre":5264,"Ġturkey":5265,"Ġbudget":5266,"Ġwrong":5267,"fc":5268,"Ġhem":5269,"Ġinterface":5270,"Ġpaid":5271,"Ġlogical":5272,"Ġinterests":5273,"Ġhtml":5274,"Ġpul":5275,"Ġnig":5276,"Ġdc":5277,"Ġnetworks":5278,"Ġessentially":5279,"Ġalfred":5280,"Ġprovinces":5281,"Ġfly":5282,"itled":5283,"Ġindu":5284,"Ġviewed":5285,"Ġsuperior":5286,"Ġinstitution":5287,"Ġassumed":5288,"Ġmental":5289,"road":5290,"Ġsocieties":5291,"Ġcastle":5292,"Ġexactly":5293,"cop":5294,"Ġruth":5295,"Ġprophe":5296,"Ġauthorities":5297,"Ġgrammar":5298,"Ġtools":5299,"Ġiso":5300,"Ġdemand":5301,"Ġroute":5302,"Ġmuslims":5303,"Ġadmir":5304,"ez":5305,"Ġfought":5306,"Ġsla":5307,"ictions":5308,"Ġyouth":5309,"Ġtrust":5310,"ois":5311,"Ġdual":5312,"Ġplain":5313,"Ġpublishing":5314,"Ġsoul":5315,"Ġpriest":5316,"Ġvisit":5317,"Ġcandidate":5318,"Ġartificial":5319,"Ġtwelve":5320,"dule":5321,"Ġsole":5322,"Ġauton":5323,"Ġbiology":5324,"Ġlady":5325,"Ġturkish":5326,"Ġmerely":5327,"Ġbind":5328,"Ġhamm":5329,"oles":5330,"Ġjava":5331,"Ġregister":5332,"Ġreligions":5333,"Ġcycl":5334,"clusion":5335,"Ġjohann":5336,"uits":5337,"Ġstran":5338,"ante":5339,"achus":5340,"Ġdeveloping":5341,"Ġweapon":5342,"ares":5343,"Ġcia":5344,"Ġparam":5345,"Ġportion":5346,"Ġsettled":5347,"Ġcogn":5348,"Ġjers":5349,"Ġobv":5350,"Ġstalin":5351,"ivers":5352,"Ġtu":5353,"Ġnit":5354,"Ġexplicit":5355,"Ġratio":5356,"Ġtheatre":5357,"Ġeat":5358,"Ġphilip":5359,"Ġchampion":5360,"icon":5361,"Ġassert":5362,"Ġgate":5363,"Ġreally":5364,"etary":5365,"Ġaw":5366,"Ġhorn":5367,"Ġali":5368,"Ġpreced":5369,"Ġrepresentatives":5370,"Ġwitness":5371,"Ġgoddess":5372,"Ġkorean":5373,"Ġcoalition":5374,"Ġstadium":5375,"Ġinvestment":5376,"Ġobtained":5377,"Ġwithdra":5378,"Ġcancer":5379,"Ġphilosophers":5380,"Ġtall":5381,"Ġtrop":5382,"Ġheight":5383,"Ġamaz":5384,"Ġsurpr":5385,"Ġverb":5386,"ja":5387,"Ġbright":5388,"Ġacting":5389,"Ġcarib":5390,"Ġdirectory":5391,"Ġhistoric":5392,"Ġcuba":5393,"Ġflorida":5394,"come":5395,"Ġpin":5396,"Ġnomin":5397,"Ġserb":5398,"Ġmembership":5399,"Ġdrawn":5400,"Ġhu":5401,"Ġadams":5402,"Ġinnov":5403,"Ġobvious":5404,"time":5405,"Ġsie":5406,"iful":5407,"Ġmerc":5408,"Ġsignificantly":5409,"Ġmaintained":5410,"Ġampl":5411,"Ġcape":5412,"aria":5413,"Ġlect":5414,"Ġsocialist":5415,"Ġimproved":5416,"ilbert":5417,"Ġark":5418,"Ġfinite":5419,"Ġexplo":5420,"Ġrapidly":5421,"Ġreprodu":5422,"Ġstrate":5423,"Ġtrig":5424,"Ġexperien":5425,"Ġmerch":5426,"Ġoccupation":5427,"Ġeyes":5428,"Ġcausing":5429,"Ġfeaturing":5430,"Ġflying":5431,"Ġreact":5432,"Ġtwice":5433,"Ġkick":5434,"akers":5435,"Ġblind":5436,"Ġexports":5437,"Ġdedicated":5438,"Ġbom":5439,"xide":5440,"yst":5441,"Ġcs":5442,"Ġoverall":5443,"Ġdefence":5444,"pective":5445,"teenth":5446,"Ġlisted":5447,"Ġskin":5448,"Ġstrategy":5449,"Ġsi":5450,"Ġsemit":5451,"anto":5452,"Ġscore":5453,"Ġequations":5454,"Ġthousand":5455,"Ġopinion":5456,"pa":5457,"Ġtam":5458,"Ġapply":5459,"Ġminority":5460,"Ġrevealed":5461,"rehens":5462,"onso":5463,"antly":5464,"Ġethiop":5465,"Ġmechanics":5466,"Ġjordan":5467,"fall":5468,"Ġstable":5469,"uten":5470,"Ġliterally":5471,"iency":5472,"etts":5473,"Ġromans":5474,"Ġsuggests":5475,"Ġdistributed":5476,"Ġss":5477,"Ġbibl":5478,"Ġnapole":5479,"Ġae":5480,"Ġmaps":5481,"Ġstudio":5482,"Ġpropos":5483,"Ġaxi":5484,"Ġefficient":5485,"Ġmamm":5486,"Ġkos":5487,"Ġagent":5488,"Ġdefine":5489,"ographical":5490,"Ġvisible":5491,"Ġpenins":5492,"Ġemployed":5493,"Ġitems":5494,"Ġclus":5495,"Ġarrived":5496,"Ġdrop":5497,"Ġlakes":5498,"Ġaccident":5499,"Ġcalls":5500,"Ġextens":5501,"Ġrefuge":5502,"Ġholding":5503,"Ġroots":5504,"Ġmusicians":5505,"Ġattributed":5506,"Ġvietnam":5507,"Ġmagic":5508,"Ġvision":5509,"Ġgender":5510,"Ġtrou":5511,"Ġsounds":5512,"Ġthrow":5513,"Ġfirm":5514,"Ġcolony":5515,"Ġmodified":5516,"Ġfruit":5517,"Ġcoca":5518,"Ġbands":5519,"Ġsatisf":5520,"Ġstorm":5521,"Ġpublications":5522,"Ġsubjects":5523,"Ġtalk":5524,"right":5525,"Ġkansas":5526,"asts":5527,"Ġreputation":5528,"Ġdominated":5529,"Ġcontributed":5530,"Ġlooking":5531,"Ġconcerning":5532,"Ġjersey":5533,"Ġsout":5534,"Ġpse":5535,"Ġlyr":5536,"Ġtai":5537,"hammad":5538,"Ġsom":5539,"Ġfab":5540,"Ġlind":5541,"Ġalc":5542,"Ġerror":5543,"aneous":5544,"Ġyounger":5545,"Ġdominant":5546,"Ġtemperatures":5547,"Ġnecessarily":5548,"Ġanat":5549,"Ġlex":5550,"appe":5551,"Ġofficer":5552,"Ġepist":5553,"Ġhope":5554,"Ġportugal":5555,"claimed":5556,"Ġbeer":5557,"Ġrussell":5558,"Ġmassachus":5559,"Ġcabinet":5560,"Ġfoss":5561,"Ġmoore":5562,"Ġkennedy":5563,"yer":5564,"Ġgor":5565,"Ġselection":5566,"Ġpetro":5567,"Ġprotein":5568,"Ġrebell":5569,"Ġdies":5570,"Ġlan":5571,"urb":5572,"Ġrow":5573,"Ġago":5574,"Ġvariations":5575,"Ġpseud":5576,"Ġmassachusetts":5577,"enger":5578,"Ġpartners":5579,"Ġministry":5580,"Ġexisted":5581,"Ġrecognition":5582,"Ġpsychology":5583,"Ġabraham":5584,"ho":5585,"Ġrig":5586,"ople":5587,"Ġhoward":5588,"Ġeffectively":5589,"Ġsamuel":5590,"Ġhockey":5591,"heim":5592,"Ġbot":5593,"Ġspin":5594,"Ġperiods":5595,"Ġdecline":5596,"Ġindiana":5597,"Ġstrike":5598,"down":5599,"Ġbic":5600,"ito":5601,"Ġnumer":5602,"Ġextension":5603,"Ġstands":5604,"Ġsaints":5605,"Ġcompounds":5606,"Ġfranklin":5607,"Ġcircumst":5608,"oen":5609,"Ġcomed":5610,"town":5611,"aska":5612,"Ġbrig":5613,"Ġentitled":5614,"Ġexpensive":5615,"Ġfederation":5616,"rapy":5617,"Ġhawai":5618,"Ġdangerous":5619,"Ġgeorgia":5620,"hard":5621,"Ġinher":5622,"ithms":5623,"Ġcompat":5624,"Ġallied":5625,"Ġremark":5626,"Ġmainstream":5627,"Ġclean":5628,"Ġseparated":5629,"Ġencoun":5630,"Ġmechanical":5631,"Ġgraphics":5632,"Ġbits":5633,"Ġexcess":5634,"Ġcoach":5635,"Ġpoem":5636,"Ġchoose":5637,"Ġalleg":5638,"Ġwilliams":5639,"Ġaudience":5640,"Ġnickn":5641,"Ġfert":5642,"Ġasp":5643,"Ġchanging":5644,"Ġmales":5645,"ef":5646,"Ġul":5647,"Ġmouth":5648,"Ġron":5649,"Ġhoriz":5650,"Ġbelgium":5651,"Ġreconst":5652,"Ġattend":5653,"Ġmetaph":5654,"Ġshel":5655,"Ġofficials":5656,"Ġaffected":5657,"Ġcommitted":5658,"Ġvirtual":5659,"Ġneutral":5660,"Ġaqu":5661,"leg":5662,"Ġalbums":5663,"burgh":5664,"Ġconcerned":5665,"ko":5666,"Ġtig":5667,"Ġheard":5668,"Ġbroken":5669,"Ġmatters":5670,"Ġoccas":5671,"Ġsales":5672,"Ġbanks":5673,"Ġtrying":5674,"Ġwed":5675,"Ġhet":5676,"Ġdesigns":5677,"Ġsalt":5678,"Ġhusband":5679,"Ġhors":5680,"Ġrelat":5681,"Ġdvd":5682,"Ġgent":5683,"Ġupd":5684,"Ġkit":5685,"Ġbirds":5686,"crib":5687,"rat":5688,"Ġastro":5689,"Ġtreated":5690,"eing":5691,"pan":5692,"oter":5693,"Ġbroke":5694,"Ġopera":5695,"Ġnavig":5696,"Ġexecuted":5697,"Ġrelationships":5698,"Ġhundreds":5699,"fare":5700,"sd":5701,"Ġton":5702,"Ġacce":5703,"Ġappeal":5704,"Ġnearby":5705,"Ġdraft":5706,"Ġscholar":5707,"Ġbehavi":5708,"Ġric":5709,"Ġformally":5710,"Ġknight":5711,"Ġjoin":5712,"Ġleads":5713,"Ġrequest":5714,"Ġcosts":5715,"Ġintelligent":5716,"Ġment":5717,"ented":5718,"Ġvs":5719,"Ġpartly":5720,"Ġanglo":5721,"Ġlegislation":5722,"Ġbiblical":5723,"jo":5724,"Ġwel":5725,"bean":5726,"Ġestablishment":5727,"iology":5728,"Ġinner":5729,"Ġlux":5730,"Ġvic":5731,"Ġconcentration":5732,"Ġdol":5733,"rose":5734,"Ġrival":5735,"Ġevolved":5736,"Ġsigns":5737,"Ġpatterns":5738,"Ġtool":5739,"olar":5740,"uting":5741,"Ġmetropol":5742,"vak":5743,"Ġcodes":5744,"Ġhip":5745,"adel":5746,"Ġuncle":5747,"Ġprices":5748,"ylv":5749,"Ġeducational":5750,"Ġvehicles":5751,"arus":5752,"Ġkal":5753,"Ġloyal":5754,"Ġremember":5755,"Ġfavour":5756,"Ġanswer":5757,"Ġacceler":5758,"Ġbce":5759,"oul":5760,"rome":5761,"Ġatari":5762,"Ġhistorian":5763,"Ġethics":5764,"Ġrenamed":5765,"iser":5766,"Ġoverse":5767,"Ġinvolving":5768,"Ġamounts":5769,"Ġunusual":5770,"ew":5771,"water":5772,"Ġvess":5773,"Ġrecon":5774,"Ġdonald":5775,"Ġincorporated":5776,"Ġtren":5777,"Ġdistinguished":5778,"Ġvehicle":5779,"unciation":5780,"Ġdeclaration":5781,"ooth":5782,"Ġsed":5783,"Ġthin":5784,"Ġcopy":5785,"Ġpainter":5786,"Ġbibli":5787,"ng":5788,"Ġgab":5789,"Ġparliamentary":5790,"Ġordinary":5791,"Ġstyles":5792,"Ġwolf":5793,"Ġserving":5794,"Ġunderground":5795,"Ġrulers":5796,"Ġtourism":5797,"Ġpredomin":5798,"Ġmathematician":5799,"Ġatmosphere":5800,"rus":5801,"Ġwire":5802,"Ġunless":5803,"Ġleaves":5804,"Ġofficers":5805,"Ġheads":5806,"Ġpaint":5807,"Ġabbre":5808,"Ġgarden":5809,"Ġtail":5810,"ilton":5811,"Ġprepar":5812,"Ġerr":5813,"Ġhospital":5814,"agu":5815,"Ġmanus":5816,"Ġparticle":5817,"Ġharry":5818,"Ġsupporting":5819,"Ġbalance":5820,"Ġsubstance":5821,"Ġepisodes":5822,"Ġconsciousness":5823,"Ġconj":5824,"Ġker":5825,"Ġaccom":5826,"Ġregime":5827,"Ġsympt":5828,"Ġvowel":5829,"Ġhang":5830,"Ġforth":5831,"Ġspaces":5832,"Ġanyone":5833,"Ġern":5834,"Ġsubstit":5835,"Ġmolecular":5836,"Ġfinnish":5837,"Ġtab":5838,"inations":5839,"ctic":5840,"Ġeinstein":5841,"Ġlem":5842,"eline":5843,"Ġlords":5844,"commun":5845,"Ġfaster":5846,"Ġfinished":5847,"Ġnorway":5848,"Ġpropag":5849,"Ġidentical":5850,"Ġcollected":5851,"Ġbyzantine":5852,"Ġaccompl":5853,"Ġlt":5854,"ructions":5855,"Ġbreed":5856,"Ġalternate":5857,"Ġpunish":5858,"Ġgradually":5859,"Ġtask":5860,"Ġmobile":5861,"Ġveloc":5862,"Ġcuis":5863,"Ġvul":5864,"Ġsuicide":5865,"keley":5866,"Ġknights":5867,"Ġfunctional":5868,"Ġcorresponding":5869,"ranean":5870,"Ġphysicist":5871,"do":5872,"Ġhier":5873,"othe":5874,"Ġnotion":5875,"Ġgang":5876,"Ġhera":5877,"Ġexclud":5878,"Ġnewly":5879,"Ġinstruction":5880,"Ġmeters":5881,"Ġexped":5882,"Ġconventional":5883,"Ġgeometry":5884,"Ġcinema":5885,"umes":5886,"Ġtrading":5887,"Ġjump":5888,"Ġscul":5889,"Ġresidents":5890,"Ġpatients":5891,"Ġinflation":5892,"Ġsuccessor":5893,"Ġmathbf":5894,"Ġchess":5895,"Ġcalc":5896,"enna":5897,"ipped":5898,"Ġpeninsula":5899,"Ġherit":5900,"Ġrural":5901,"Ġorb":5902,"Ġcomprehens":5903,"Ġsave":5904,"Ġinsur":5905,"Ġmarkets":5906,"Ġexplor":5907,"Ġcharacteristic":5908,"Ġadding":5909,"Ġabstract":5910,"Ġmt":5911,"Ġemperors":5912,"Ġwalls":5913,"Ġconverted":5914,"ylvania":5915,"Ġmanuscript":5916,"sis":5917,"Ġhack":5918,"Ġsections":5919,"Ġboys":5920,"Ġlogo":5921,"Ġvariable":5922,"Ġalan":5923,"Ġrecover":5924,"Ġbatman":5925,"Ġsuccession":5926,"Ġalk":5927,"Ġearl":5928,"Ġdecade":5929,"Ġconsisting":5930,"Ġcategories":5931,"ded":5932,"ss":5933,"Ġaber":5934,"Ġshad":5935,"Ġadap":5936,"inson":5937,"Ġheadquar":5938,"Ġberkeley":5939,"chen":5940,"iling":5941,"cel":5942,"Ġweather":5943,"Ġbird":5944,"hu":5945,"under":5946,"Ġmemorial":5947,"Ġsurvey":5948,"Ġdrawing":5949,"Ġacquired":5950,"Ġcaribbean":5951,"ture":5952,"Ġkat":5953,"Ġallies":5954,"Ġdimensional":5955,"jection":5956,"Ġpent":5957,"Ġdod":5958,"Ġspectr":5959,"Ġsimon":5960,"Ġhumor":5961,"Ġmagnetic":5962,"Ġconversion":5963,"Ġprayer":5964,"Ġabandoned":5965,"Ġplural":5966,"Ġopponents":5967,"Ġlibr":5968,"Ġindonesia":5969,"Ġdick":5970,"ela":5971,"Ġguy":5972,"Ġslav":5973,"Ġparent":5974,"Ġfrequent":5975,"Ġconstantin":5976,"Ġcartoon":5977,"Ġappropriate":5978,"opp":5979,"oked":5980,"Ġwarfare":5981,"Ġreforms":5982,"Ġottoman":5983,"Ġspectrum":5984,"Ġpig":5985,"Ġgiant":5986,"udes":5987,"Ġconsult":5988,"Ġincident":5989,"Ġmeasured":5990,"Ġsuccessfully":5991,"Ġmike":5992,"mo":5993,"Ġgenus":5994,"Ġfacts":5995,"Ġgnu":5996,"Ġstored":5997,"Ġforb":5998,"Ġcolour":5999,"Ġoffensive":6000,"Ġedited":6001,"Ġgreg":6002,"Ġjudicial":6003,"Ġconcerns":6004,"Ġore":6005,"stan":6006,"Ġstress":6007,"Ġkra":6008,"Ġcomponent":6009,"Ġresemb":6010,"Ġcomplexity":6011,"Ġphenomenon":6012,"Ġolympic":6013,"Ġmorn":6014,"Ġminimum":6015,"Ġescape":6016,"Ġpassing":6017,"Ġlowest":6018,"Ġsubstantial":6019,"Ġcomparison":6020,"Ġalexandria":6021,"Ġexperienced":6022,"ipher":6023,"Ġbrun":6024,"Ġclassified":6025,"Ġsolo":6026,"Ġcapitalism":6027,"Ġdoubt":6028,"uch":6029,"ilit":6030,"opher":6031,"Ġcolors":6032,"Ġattended":6033,"Ġstrings":6034,"Ġswitzer":6035,"Ġpossibility":6036,"Ġessay":6037,"Ġkarl":6038,"Ġlearned":6039,"Ġghost":6040,"equ":6041,"Ġtank":6042,"Ġinterior":6043,"Ġiceland":6044,"Ġconsumption":6045,"jan":6046,"aved":6047,"Ġmeat":6048,"Ġdemograph":6049,"Ġarguments":6050,"Ġcapture":6051,"Ġlunar":6052,"Ġtheology":6053,"Ġinqu":6054,"Ġstim":6055,"Ġhear":6056,"Ġrif":6057,"itions":6058,"Ġaccurate":6059,"Ġbaltic":6060,"Ġsculpt":6061,"Ġlev":6062,"Ġcompact":6063,"Ġclin":6064,"Ġempt":6065,"Ġjoe":6066,"Ġprofit":6067,"Ġimmigr":6068,"Ġmultipl":6069,"Ġbranches":6070,"Ġaxis":6071,"Ġdollar":6072,"Ġvent":6073,"Ġquad":6074,"Ġmayor":6075,"Ġbasket":6076,"Ġmanufacturing":6077,"Ġselling":6078,"alo":6079,"Ġonto":6080,"ji":6081,"Ġwheel":6082,"Ġeval":6083,"Ġflav":6084,"Ġfurthermore":6085,"Ġmong":6086,"Ġexcell":6087,"Ġmediter":6088,"Ġcolleges":6089,"Ġdemographics":6090,"sm":6091,"Ġbeng":6092,"ethe":6093,"Ġracing":6094,"Ġlimits":6095,"ni":6096,"Ġspot":6097,"issance":6098,"Ġimplementation":6099,"igenous":6100,"Ġswitzerland":6101,"Ġprobability":6102,"Ġutil":6103,"oly":6104,"lets":6105,"osa":6106,"Ġworth":6107,"Ġsyll":6108,"Ġconstantine":6109,"Ġconducted":6110,"Ġtelephone":6111,"Ġmediterranean":6112,"Ġvoy":6113,"Ġcoff":6114,"Ġvolcan":6115,"Ġsteve":6116,"Ġsoph":6117,"ila":6118,"Ġcompression":6119,"Ġdisappe":6120,"velt":6121,"Ġperceived":6122,"Ġmedal":6123,"oir":6124,"Ġindigenous":6125,"athan":6126,"Ġthemes":6127,"Ġnorwe":6128,"Ġorganic":6129,"Ġpainting":6130,"Ġoblig":6131,"hus":6132,"Ġnode":6133,"Ġdale":6134,"Ġesper":6135,"Ġbruce":6136,"Ġanglican":6137,"gel":6138,"Ġaids":6139,"Ġalien":6140,"Ġvoting":6141,"pton":6142,"Ġmissile":6143,"Ġwatch":6144,"Ġanch":6145,"Ġkr":6146,"Ġroose":6147,"Ġinsert":6148,"Ġexplained":6149,"naissance":6150,"Ġmechanism":6151,"Ġdropped":6152,"nia":6153,"Ġsyria":6154,"Ġexplain":6155,"Ġwalk":6156,"Ġburied":6157,"Ġhamilton":6158,"Ġcolumbus":6159,"Ġholiday":6160,"hire":6161,"apse":6162,"Ġevangel":6163,"Ġbuff":6164,"Ġfinding":6165,"Ġviolent":6166,"Ġfresh":6167,"Ġbin":6168,"Ġlisp":6169,"ulating":6170,"Ġkur":6171,"ugos":6172,"Ġcarrier":6173,"Ġdavis":6174,"apping":6175,"Ġfellow":6176,"Ġpreferred":6177,"bell":6178,"oa":6179,"Ġoperated":6180,"Ġpleas":6181,"hr":6182,"ublin":6183,"ifications":6184,"Ġairlines":6185,"Ġbonds":6186,"Ġohio":6187,"Ġbeings":6188,"Ġstu":6189,"Ġsoil":6190,"Ġphoen":6191,"Ġpref":6192,"Ġassigned":6193,"Ġtrip":6194,"Ġcoastal":6195,"Ġintegrated":6196,"Ġlaunch":6197,"Ġdiagn":6198,"Ġdependent":6199,"Ġbrian":6200,"Ġgran":6201,"oto":6202,"agen":6203,"Ġstatements":6204,"ucky":6205,"Ġbacteria":6206,"fo":6207,"roit":6208,"Ġcharged":6209,"Ġmuhammad":6210,"Ġorganisms":6211,"Ġhole":6212,"Ġroosevelt":6213,"icians":6214,"Ġcorporate":6215,"Ġexplanation":6216,"zen":6217,"going":6218,"Ġdiseases":6219,"Ġfamiliar":6220,"Ġmarsh":6221,"point":6222,"wick":6223,"Ġcul":6224,"Ġlamb":6225,"Ġgary":6226,"uras":6227,"acc":6228,"Ġcalling":6229,"Ġstatist":6230,"Ġdefinitions":6231,"Ġdouglas":6232,"Ġnut":6233,"ingly":6234,"Ġmonster":6235,"ylan":6236,"archers":6237,"Ġcircumstances":6238,"dy":6239,"Ġleap":6240,"Ġaccused":6241,"Ġgrey":6242,"pson":6243,"Ġpdf":6244,"Ġsid":6245,"Ġdio":6246,"Ġgem":6247,"Ġbears":6248,"Ġstro":6249,"Ġhaz":6250,"Ġfled":6251,"Ġfairly":6252,"Ġpenns":6253,"Ġpus":6254,"Ġsche":6255,"Ġgalile":6256,"Ġargentina":6257,"Ġstruggle":6258,"Ġpiano":6259,"Ġcrop":6260,"Ġdre":6261,"Ġvotes":6262,"Ġkeyboard":6263,"Ġcloser":6264,"Ġoriented":6265,"Ġtouch":6266,"aly":6267,"Ġdivisions":6268,"Ġapproved":6269,"Ġdocumentary":6270,"Ġwilson":6271,"Ġtropical":6272,"illes":6273,"Ġgenerated":6274,"Ġswiss":6275,"Ġalgorithms":6276,"Ġhierarch":6277,"Ġhans":6278,"Ġgy":6279,"Ġflood":6280,"Ġfounding":6281,"Ġphilipp":6282,"Ġamongst":6283,"Ġcampus":6284,"Ġscientist":6285,"Ġproteins":6286,"Ġheritage":6287,"athe":6288,"Ġlud":6289,"Ġrid":6290,"Ġdetroit":6291,"Ġcharacterized":6292,"Ġwalter":6293,"Ġboundaries":6294,"Ġvirtually":6295,"Ġjar":6296,"ortion":6297,"Ġspelling":6298,"Ġagents":6299,"Ġexecution":6300,"Ġelsewhere":6301,"Ġinducted":6302,"Ġrising":6303,"Ġmoves":6304,"Ġshock":6305,"Ġcloth":6306,"Ġmarc":6307,"hedral":6308,"Ġexperiments":6309,"Ġcalculus":6310,"Ġbishops":6311,"Ġlyrics":6312,"Ġcuisine":6313,"Ġnorwegian":6314,"Ġtag":6315,"Ġdisorder":6316,"Ġdesire":6317,"Ġsteps":6318,"Ġillegal":6319,"any":6320,"Ġgather":6321,"Ġincreases":6322,"Ġdelta":6323,"Ġindustries":6324,"Ġresearchers":6325,"Ġthinking":6326,"Ġskills":6327,"Ġfloor":6328,"Ġpennsylvania":6329,"bl":6330,"Ġtone":6331,"Ġny":6332,"Ġchlor":6333,"Ġcontinent":6334,"Ġensure":6335,"Ġsymptoms":6336,"je":6337,"kt":6338,"alism":6339,"Ġyes":6340,"Ġexperimental":6341,"Ġroles":6342,"Ġteacher":6343,"Ġarmen":6344,"Ġpalestinian":6345,"Ġdylan":6346,"Ġorange":6347,"Ġshut":6348,"Ġlibert":6349,"Ġinfluences":6350,"Ġfalls":6351,"Ġpilot":6352,"Ġbeautiful":6353,"Ġdublin":6354,"Ġforming":6355,"Ġhills":6356,"Ġbenefit":6357,"Ġwaves":6358,"ima":6359,"Ġretired":6360,"Ġgreeks":6361,"Ġrequirements":6362,"Ġbegun":6363,"gments":6364,"Ġprove":6365,"Ġseek":6366,"Ġcharges":6367,"Ġacids":6368,"Ġdivers":6369,"Ġfinalist":6370,"Ġgravity":6371,"Ġprepared":6372,"Ġadmiral":6373,"bed":6374,"tz":6375,"Ġaero":6376,"Ġmorm":6377,"Ġhond":6378,"Ġcanal":6379,"Ġpartner":6380,"Ġguns":6381,"inus":6382,"ali":6383,"Ġkim":6384,"osing":6385,"Ġsingular":6386,"Ġpassage":6387,"Ġwinner":6388,"ambig":6389,"Ġassistance":6390,"Ġsleep":6391,"Ġtast":6392,"Ġhits":6393,"Ġsurf":6394,"Ġdepends":6395,"Ġangels":6396,"Ġgibral":6397,"Ġhypothesis":6398,"Ġmol":6399,"rance":6400,"Ġesp":6401,"Ġportray":6402,"Ġlithuania":6403,"Ġgermans":6404,"Ġconstantinople":6405,"herent":6406,"Ġborders":6407,"Ġathens":6408,"Ġjoy":6409,"hips":6410,"Ġdescent":6411,"Ġresource":6412,"Ġtheoretical":6413,"Ġgrown":6414,"Ġmorning":6415,"Ġace":6416,"Ġecl":6417,"chy":6418,"oters":6419,"Ġrice":6420,"Ġsignals":6421,"Ġtales":6422,"Ġemerged":6423,"Ġtransmission":6424,"Ġvelocity":6425,"Ġum":6426,"Ġsight":6427,"Ġfen":6428,"Ġhiv":6429,"omer":6430,"Ġrud":6431,"Ġyah":6432,"Ġamend":6433,"ords":6434,"Ġagave":6435,"Ġglac":6436,"Ġadditionally":6437,"Ġvisited":6438,"Ġidentify":6439,"Ġmotiv":6440,"awa":6441,"Ġinfantry":6442,"Ġintent":6443,"Ġreserve":6444,"Ġpoems":6445,"Ġdecisions":6446,"Ġnorthwest":6447,"Ġtesting":6448,"Ġross":6449,"Ġbaptism":6450,"Ġfluid":6451,"Ġfrederick":6452,"een":6453,"Ġcert":6454,"Ġhou":6455,"iration":6456,"Ġdoor":6457,"Ġproduces":6458,"Ġdepth":6459,"Ġpronunciation":6460,"Ġelectrons":6461,"Ġgibraltar":6462,"wers":6463,"Ġmainland":6464,"Ġtreas":6465,"Ġinse":6466,"Ġrene":6467,"Ġpartial":6468,"Ġprofile":6469,"Ġpierre":6470,"Ġaristot":6471,"Ġentertainment":6472,"Ġng":6473,"aya":6474,"Ġcontrad":6475,"Ġtests":6476,"Ġfacilities":6477,"Ġdriven":6478,"Ġintegral":6479,"Ġdistinguish":6480,"Ġannex":6481,"Ġchairman":6482,"Ġtens":6483,"Ġsig":6484,"Ġcash":6485,"Ġpopulations":6486,"Ġbasque":6487,"Ġrevel":6488,"Ġpresid":6489,"Ġvariant":6490,"Ġmillenn":6491,"Ġopponent":6492,"Ġsolutions":6493,"Ġruler":6494,"Ġevolutionary":6495,"bish":6496,"hum":6497,"Ġgif":6498,"ogy":6499,"Ġbowl":6500,"Ġconquest":6501,"Ġbull":6502,"Ġing":6503,"Ġstret":6504,"Ġshift":6505,"Ġlaid":6506,"Ġpreserved":6507,"Ġcrimes":6508,"Ġlaboratory":6509,"Ġprinted":6510,"bre":6511,"Ġburg":6512,"Ġwine":6513,"osph":6514,"abilities":6515,"Ġperspective":6516,"Ġritual":6517,"Ġpel":6518,"omial":6519,"Ġperp":6520,"Ġpolar":6521,"Ġshaped":6522,"contin":6523,"Ġhorizon":6524,"Ġnotation":6525,"Ġcompound":6526,"Ġcharter":6527,"Ġannoun":6528,"Ġattacked":6529,"Ġhabit":6530,"Ġscheme":6531,"Ġnapoleon":6532,"Ġok":6533,"Ġsad":6534,"Ġthor":6535,"omes":6536,"eters":6537,"Ġexile":6538,"Ġattached":6539,"Ġtriang":6540,"inate":6541,"Ġbug":6542,"Ġcolomb":6543,"Ġdepos":6544,"Ġretrie":6545,"Ġchannels":6546,"Ġkeeping":6547,"Ġextinct":6548,"idae":6549,"Ġheli":6550,"Ġprol":6551,"Ġwaters":6552,"sa":6553,"Ġbog":6554,"aka":6555,"Ġtracks":6556,"Ġdragon":6557,"Ġgrounds":6558,"Ġclubs":6559,"Ġemphasis":6560,"Ġprocedure":6561,"Ġkilometers":6562,"Ġrebellion":6563,"Ġresidence":6564,"Ġfranch":6565,"Ġlegacy":6566,"Ġpredict":6567,"Ġmunicipal":6568,"bar":6569,"Ġpas":6570,"Ġmouse":6571,"Ġdating":6572,"Ġalg":6573,"Ġabuse":6574,"Ġlocations":6575,"Ġgregor":6576,"Ġmeanings":6577,"Ġjourney":6578,"Ġdiplomatic":6579,"Ġontar":6580,"Ġusual":6581,"Ġroy":6582,"Ġgoals":6583,"Ġmaria":6584,"Ġvolt":6585,"Ġboundary":6586,"Ġcass":6587,"isted":6588,"Ġplanning":6589,"ruption":6590,"Ġoverview":6591,"ployment":6592,"Ġsuspect":6593,"fort":6594,"lan":6595,"Ġdirectors":6596,"Ġjudges":6597,"Ġcomprehensive":6598,"Ġnan":6599,"Ġdur":6600,"Ġpartially":6601,"Ġreferring":6602,"Ġcorps":6603,"Ġnaturally":6604,"Ġrestaur":6605,"Ġsugar":6606,"Ġontario":6607,"cal":6608,"Ġcited":6609,"Ġbach":6610,"ieth":6611,"Ġsimult":6612,"Ġarchbish":6613,"Ġcitizen":6614,"Ġconsumer":6615,"Ġvocal":6616,"di":6617,"hl":6618,"tering":6619,"Ġsched":6620,"Ġangle":6621,"Ġcertainly":6622,"Ġclaud":6623,"Ġjurisdiction":6624,"arians":6625,"Ġrepresenting":6626,"Ġliberty":6627,"Ġfilled":6628,"Ġdisney":6629,"Ġrepresentative":6630,"Ġvowels":6631,"Ġdescendants":6632,"Ġesperanto":6633,"net":6634,"Ġtheod":6635,"Ġtheolog":6636,"Ġhes":6637,"Ġnotice":6638,"Ġpover":6639,"Ġwear":6640,"Ġpapers":6641,"Ġcontributions":6642,"wald":6643,"enstein":6644,"Ġvaries":6645,"Ġpatent":6646,"Ġprotected":6647,"Ġsoldier":6648,"Ġroads":6649,"Ġcondem":6650,"Ġfug":6651,"Ġexceed":6652,"Ġexpert":6653,"Ġcypr":6654,"Ġcleve":6655,"Ġengineer":6656,"Ġstarring":6657,"Ġresponsibility":6658,"Ġmanifest":6659,"Ġpoverty":6660,"iac":6661,"Ġbeach":6662,"Ġequator":6663,"Ġultimate":6664,"Ġenforce":6665,"rog":6666,"Ġkel":6667,"Ġroger":6668,"play":6669,"Ġcovers":6670,"Ġknew":6671,"Ġinteraction":6672,"Ġimports":6673,"Ġrhyth":6674,"Ġcarrying":6675,"Ġenemies":6676,"rep":6677,"Ġtox":6678,"romagn":6679,"Ġdefensive":6680,"issions":6681,"Ġremove":6682,"Ġlongest":6683,"Ġheaded":6684,"know":6685,"Ġcommentary":6686,"Ġdal":6687,"Ġkhan":6688,"emble":6689,"Ġcamps":6690,"Ġopportunity":6691,"Ġhorses":6692,"iative":6693,"Ġliv":6694,"Ġthro":6695,"Ġvienna":6696,"Ġphotograph":6697,"Ġdistricts":6698,"Ġky":6699,"iph":6700,"Ġgoog":6701,"Ġslave":6702,"oys":6703,"olis":6704,"ourse":6705,"pping":6706,"Ġboat":6707,"Ġconstitu":6708,"Ġobtain":6709,"Ġenterpr":6710,"Ġlam":6711,"Ġprosec":6712,"Ġxx":6713,"Ġlegit":6714,"Ġlanding":6715,"Ġeasier":6716,"Ġsenator":6717,"life":6718,"rint":6719,"Ġaar":6720,"Ġtol":6721,"riers":6722,"Ġshop":6723,"Ġtechnologies":6724,"Ġconfused":6725,"Ġperforming":6726,"Ġukra":6727,"Ġsurvived":6728,"Ġpercentage":6729,"Ġcaval":6730,"Ġau":6731,"Ġvit":6732,"Ġwarm":6733,"Ġvariation":6734,"Ġfollowers":6735,"Ġsurren":6736,"ropy":6737,"Ġhorror":6738,"Ġdifficulty":6739,"world":6740,"Ġsharp":6741,"Ġdismiss":6742,"Ġheadquarters":6743,"Ġtut":6744,"Ġsod":6745,"oric":6746,"phal":6747,"Ġmetall":6748,"Ġmatrix":6749,"Ġowner":6750,"Ġorganisation":6751,"Ġeric":6752,"Ġbriefly":6753,"cs":6754,"mat":6755,"Ġfaced":6756,"Ġbuck":6757,"Ġhann":6758,"Ġreactions":6759,"Ġarn":6760,"Ġearn":6761,"Ġpresidents":6762,"aneously":6763,"Ġstructural":6764,"Ġcollapse":6765,"Ġkinds":6766,"Ġcelebrated":6767,"Ġkuwa":6768,"writer":6769,"Ġtaiwan":6770,"Ġrelativity":6771,"Ġschedul":6772,"kin":6773,"Ġchad":6774,"Ġmah":6775,"Ġoperate":6776,"ynam":6777,"Ġbenj":6778,"Ġindicates":6779,"Ġbulgar":6780,"Ġcomposers":6781,"Ġmetropolitan":6782,"Ġcleveland":6783,"Ġsend":6784,"Ġety":6785,"Ġtot":6786,"Ġarithm":6787,"Ġvariants":6788,"Ġbrows":6789,"Ġcommunism":6790,"Ġconfig":6791,"Ġdidn":6792,"Ġgetting":6793,"Ġinterpreted":6794,"iot":6795,"Ġtong":6796,"Ġwels":6797,"Ġoriginated":6798,"Ġdebt":6799,"Ġdy":6800,"Ġdowntown":6801,"Ġcopies":6802,"Ġbibliography":6803,"fe":6804,"Ġcongreg":6805,"Ġunic":6806,"Ġacknow":6807,"Ġphotos":6808,"Ġmonarchy":6809,"Ġlaureate":6810,"icas":6811,"Ġalign":6812,"Ġsox":6813,"Ġabsence":6814,"Ġsenior":6815,"Ġseemed":6816,"Ġcrystal":6817,"erves":6818,"Ġms":6819,"Ġstages":6820,"ifer":6821,"Ġafterwards":6822,"Ġminute":6823,"Ġdeput":6824,"Ġsunday":6825,"Ġpossession":6826,"Ġforests":6827,"Ġvictoria":6828,"Ġetym":6829,"Ġtiss":6830,"Ġfm":6831,"Ġwound":6832,"Ġgone":6833,"Ġrib":6834,"irect":6835,"Ġblow":6836,"Ġhumanity":6837,"Ġprophet":6838,"Ġthirty":6839,"Ġencod":6840,"Ġfriedrich":6841,"Ġemergency":6842,"Ġpresidency":6843,"Ġaven":6844,"Ġdos":6845,"sters":6846,"idel":6847,"athy":6848,"Ġconstell":6849,"ructure":6850,"Ġconfirmed":6851,"Ġnasa":6852,"Ġabbrev":6853,"anth":6854,"Ġlis":6855,"Ġcontest":6856,"Ġsymp":6857,"Ġearthqu":6858,"Ġvictims":6859,"Ġpitch":6860,"shire":6861,"Ġcredited":6862,"Ġdeliber":6863,"ographer":6864,"Ġbun":6865,"Ġpyth":6866,"Ġinch":6867,"Ġunix":6868,"Ġeleph":6869,"Ġcarter":6870,"Ġkeys":6871,"Ġtranslations":6872,"Ġpromote":6873,"Ġencouraged":6874,"inder":6875,"Ġjama":6876,"Ġchristopher":6877,"Ġmyst":6878,"zilla":6879,"Ġbart":6880,"Ġconven":6881,"Ġwhit":6882,"Ġjet":6883,"Ġbelarus":6884,"Ġsouthwest":6885,"Ġsubstances":6886,"Ġlenin":6887,"mond":6888,"wart":6889,"Ġtay":6890,"Ġcave":6891,"osure":6892,"aga":6893,"Ġoffers":6894,"Ġinstructions":6895,"Ġports":6896,"Ġanimated":6897,"Ġprofession":6898,"Ġcandidates":6899,"Ġbronze":6900,"Ġlibraries":6901,"Ġsanta":6902,"Ġmp":6903,"unct":6904,"Ġconsec":6905,"Ġassault":6906,"Ġmemb":6907,"Ġarmies":6908,"Ġantiqu":6909,"Ġreduction":6910,"Ġcolorado":6911,"Ġhappened":6912,"Ġtransferred":6913,"Ġbenjamin":6914,"dor":6915,"Ġfib":6916,"Ġbav":6917,"Ġapoc":6918,"Ġbases":6919,"Ġbuy":6920,"ikh":6921,"Ġantar":6922,"Ġpassenger":6923,"Ġeveryone":6924,"Ġcopper":6925,"iracy":6926,"Ġfocused":6927,"Ġmexican":6928,"pool":6929,"unction":6930,"Ġhex":6931,"kee":6932,"Ġromantic":6933,"Ġnato":6934,"Ġdiscussed":6935,"worth":6936,"Ġpremier":6937,"Ġbehaviour":6938,"pes":6939,"owa":6940,"Ġchal":6941,"Ġchose":6942,"Ġarrow":6943,"Ġamate":6944,"Ġclient":6945,"Ġrelief":6946,"Ġepic":6947,"Ġlesser":6948,"chester":6949,"Ġcredit":6950,"Ġsust":6951,"Ġpir":6952,"Ġmarg":6953,"Ġwarri":6954,"Ġintervent":6955,"Ġmatthe":6956,"Ġcurt":6957,"Ġhunting":6958,"Ġtitled":6959,"Ġlinguistic":6960,"Ġchromos":6961,"Ġbernard":6962,"Ġsoutheast":6963,"rator":6964,"Ġlisting":6965,"load":6966,"Ġcontinuing":6967,"gue":6968,"ivals":6969,"Ġfunds":6970,"Ġpersonality":6971,"Ġdisputed":6972,"Ġsudden":6973,"Ġsyndrome":6974,"ratic":6975,"Ġsq":6976,"Ġmile":6977,"Ġgly":6978,"Ġsuit":6979,"Ġflash":6980,"Ġartistic":6981,"Ġprovision":6982,"Ġpatient":6983,"Ġborrow":6984,"Ġphenomena":6985,"Ġpng":6986,"ora":6987,"Ġreaching":6988,"Ġmanip":6989,"Ġguar":6990,"Ġregardless":6991,"Ġicon":6992,"Ġautomob":6993,"Ġdiagr":6994,"onymous":6995,"Ġbasketball":6996,"Ġhouston":6997,"Ġwelsh":6998,"Ġdir":6999,"ifies":7000,"Ġspeaker":7001,"Ġtwentieth":7002,"Ġrestricted":7003,"Ġrestrictions":7004,"ocaust":7005,"Ġassassination":7006,"Ġholidays":7007,"Ġcyprus":7008,"eur":7009,"Ġcot":7010,"Ġthick":7011,"unte":7012,"Ġproven":7013,"opes":7014,"aked":7015,"Ġarchive":7016,"Ġholocaust":7017,"Ġplanets":7018,"Ġconsistent":7019,"Ġcarolina":7020,"ystem":7021,"rect":7022,"Ġdd":7023,"Ġlion":7024,"oma":7025,"Ġhash":7026,"Ġresident":7027,"Ġpoison":7028,"Ġcampbell":7029,"Ġethical":7030,"Ġlosing":7031,"Ġcomparative":7032,"Ġisaac":7033,"Ġempty":7034,"ugosl":7035,"Ġreverse":7036,"Ġyugosl":7037,"Ġengaged":7038,"Ġsecure":7039,"Ġstead":7040,"Ġsurvive":7041,"Ġunsu":7042,"Ġcommodore":7043,"Ġsor":7044,"Ġmira":7045,"Ġcommons":7046,"Ġsecular":7047,"ika":7048,"elson":7049,"Ġbreaking":7050,"Ġengineers":7051,"Ġbald":7052,"Ġrebu":7053,"Ġbaptist":7054,"Ġlaser":7055,"Ġownership":7056,"Ġtony":7057,"Ġtoler":7058,"Ġgord":7059,"Ġisot":7060,"Ġunity":7061,"abil":7062,"Ġpersec":7063,"Ġoperator":7064,"Ġsentence":7065,"Ġsquad":7066,"Ġstatistical":7067,"Ġhoney":7068,"ido":7069,"Ġrug":7070,"Ġleo":7071,"Ġdisput":7072,"Ġpresum":7073,"Ġeccles":7074,"Ġchancell":7075,"Ġuncertain":7076,"Ġneck":7077,"Ġshah":7078,"Ġdisambig":7079,"Ġboeing":7080,"Ġgrass":7081,"Ġsubmar":7082,"Ġvolunte":7083,"Ġvirus":7084,"Ġpsychological":7085,"Ġsacred":7086,"Ġprogressive":7087,"Ġranked":7088,"oh":7089,"Ġbh":7090,"Ġduck":7091,"ilst":7092,"Ġcongo":7093,"Ġaggress":7094,"Ġloose":7095,"Ġavo":7096,"Ġlicens":7097,"Ġgallery":7098,"Ġslavery":7099,"Ġcontrary":7100,"Ġserves":7101,"Ġinsul":7102,"Ġdiverse":7103,"Ġmorph":7104,"Ġcathedral":7105,"Ġadminister":7106,"Ġdemocrats":7107,"Ġimplemented":7108,"Ġgothic":7109,"wall":7110,"Ġrevers":7111,"Ġhein":7112,"Ġherbert":7113,"ovo":7114,"Ġhomer":7115,"Ġterritorial":7116,"Ġreducing":7117,"Ġhotel":7118,"Ġdistinctive":7119,"Ġchallenge":7120,"Ġcf":7121,"Ġwish":7122,"Ġrenaissance":7123,"Ġmarks":7124,"Ġmonop":7125,"Ġelectoral":7126,"Ġoffices":7127,"Ġdrag":7128,"Ġcouple":7129,"Ġadapted":7130,"Ġdioxide":7131,"bolic":7132,"Ġsher":7133,"Ġwy":7134,"ili":7135,"acent":7136,"Ġinsurance":7137,"Ġtap":7138,"Ġcad":7139,"Ġnich":7140,"Ġrear":7141,"Ġseasons":7142,"Ġunem":7143,"Ġclark":7144,"Ġresol":7145,"Ġcole":7146,"Ġouter":7147,"Ġbeta":7148,"Ġanthony":7149,"Ġhetero":7150,"Ġsurrender":7151,"zer":7152,"Ġtang":7153,"organ":7154,"Ġinfrast":7155,"Ġremov":7156,"Ġsteam":7157,"Ġcivilian":7158,"Ġruling":7159,"Ġfemales":7160,"Ġswitch":7161,"Ġmormon":7162,"standing":7163,"Ġalaska":7164,"iry":7165,"Ġarray":7166,"Ġestate":7167,"Ġslaves":7168,"Ġmacint":7169,"Ġduty":7170,"Ġcriticized":7171,"Ġinvestigation":7172,"Ġdress":7173,"leum":7174,"Ġconquered":7175,"Ġpollution":7176,"Ġbureau":7177,"Ġenl":7178,"Ġexperiences":7179,"Ġdelay":7180,"Ġdescribing":7181,"Ġdimension":7182,"Ġadjust":7183,"Ġescap":7184,"Ġcum":7185,"Ġeli":7186,"Ġnoble":7187,"Ġcoin":7188,"tsky":7189,"Ġcarn":7190,"Ġhighway":7191,"Ġspecialized":7192,"Ġcathol":7193,"Ġbiggest":7194,"Ġadvertising":7195,"Ġkazakh":7196,"Ġpenalty":7197,"wig":7198,"Ġdot":7199,"Ġenorm":7200,"Ġdisag":7201,"Ġseconds":7202,"Ġdriver":7203,"Ġdemonstrated":7204,"Ġtrigger":7205,"Ġexpedition":7206,"Ġkern":7207,"Ġsubt":7208,"Ġbalt":7209,"Ġcavalry":7210,"uable":7211,"Ġsic":7212,"Ġlose":7213,"cho":7214,"Ġchip":7215,"Ġcontra":7216,"Ġmarit":7217,"Ġstarts":7218,"Ġmassac":7219,"Ġapproxim":7220,"Ġobservations":7221,"Ġcircumc":7222,"Ġbanned":7223,"Ġni":7224,"Ġjos":7225,"Ġshr":7226,"Ġshif":7227,"Ġresc":7228,"Ġfeud":7229,"Ġblade":7230,"obi":7231,"Ġwinds":7232,"Ġmaxim":7233,"Ġpetroleum":7234,"Ġbulgaria":7235,"din":7236,"Ġkash":7237,"Ġrocks":7238,"Ġmeg":7239,"aret":7240,"Ġdepicted":7241,"Ġretained":7242,"Ġreceiving":7243,"Ġinteger":7244,"Ġcoffee":7245,"Ġdisambiguation":7246,"cow":7247,"nament":7248,"Ġenab":7249,"Ġloop":7250,"Ġelectromagn":7251,"Ġdifferential":7252,"Ġconfusion":7253,"Ġsymph":7254,"Ġdrew":7255,"Ġconclusion":7256,"Ġjok":7257,"Ġspecified":7258,"Ġcorner":7259,"Ġlifet":7260,"Ġrecipient":7261,"Ġstrategic":7262,"aug":7263,"Ġtight":7264,"Ġaus":7265,"Ġhipp":7266,"Ġtrained":7267,"Ġherself":7268,"aza":7269,"Ġlatvia":7270,"Ġtribe":7271,"Ġregularly":7272,"Ġisolated":7273,"adelph":7274,"sch":7275,"Ġgamm":7276,"Ġdeck":7277,"Ġgeographic":7278,"Ġturning":7279,"Ġdeclined":7280,"Ġessays":7281,"Ġelectronics":7282,"Ġexclusively":7283,"dam":7284,"Ġaccus":7285,"group":7286,"Ġinvention":7287,"Ġirre":7288,"Ġdivor":7289,"Ġdoesn":7290,"Ġcamera":7291,"Ġbaby":7292,"Ġprisoners":7293,"Ġtells":7294,"uter":7295,"Ġalumin":7296,"Ġbrid":7297,"Ġimprison":7298,"Ġsteven":7299,"Ġveter":7300,"Ġsuperman":7301,"Ġsweet":7302,"Ġbicy":7303,"bec":7304,"fish":7305,"Ġpars":7306,"Ġinfer":7307,"Ġster":7308,"Ġsure":7309,"Ġshore":7310,"Ġturns":7311,"Ġeducated":7312,"Ġceleb":7313,"Ġcpu":7314,"born":7315,"fel":7316,"Ġrecept":7317,"olas":7318,"Ġchick":7319,"Ġbenefits":7320,"Ġcooperation":7321,"Ġaccompanied":7322,"Ġscenes":7323,"Ġethiopia":7324,"Ġpy":7325,"oust":7326,"ington":7327,"iang":7328,"Ġamiga":7329,"ello":7330,"Ġguer":7331,"Ġcorp":7332,"Ġstatue":7333,"Ġinterested":7334,"Ġseparation":7335,"Ġvarying":7336,"Ġcatholics":7337,"Ġflex":7338,"veness":7339,"Ġmood":7340,"aca":7341,"Ġraces":7342,"Ġassign":7343,"Ġclaiming":7344,"Ġliberation":7345,"Ġduties":7346,"Ġintegration":7347,"Ġsituations":7348,"cill":7349,"cope":7350,"wes":7351,"Ġgau":7352,"Ġtwin":7353,"Ġwhate":7354,"Ġdisaster":7355,"Ġindians":7356,"Ġmoreover":7357,"Ġextract":7358,"Ġfalling":7359,"Ġslowly":7360,"Ġariz":7361,"Ġpatriarch":7362,"Ġgalaxy":7363,"Ġwhatever":7364,"mouth":7365,"Ġmigration":7366,"Ġisle":7367,"Ġask":7368,"ductor":7369,"Ġphosph":7370,"Ġeucl":7371,"Ġjulian":7372,"Ġmolecule":7373,"Ġgregorian":7374,"oque":7375,"tra":7376,"Ġturing":7377,"Ġdru":7378,"Ġpublicly":7379,"Ġpersonnel":7380,"Ġwiki":7381,"Ġestimates":7382,"Ġarrangement":7383,"Ġaristotle":7384,"Ġsample":7385,"Ġnep":7386,"Ġcapit":7387,"Ġgluc":7388,"Ġsymmet":7389,"Ġatlanta":7390,"Ġconnections":7391,"ea":7392,"rical":7393,"Ġnam":7394,"rot":7395,"oli":7396,"Ġadject":7397,"Ġcheap":7398,"while":7399,"Ġinvolvement":7400,"Ġelder":7401,"bu":7402,"po":7403,"Ġtale":7404,"Ġsans":7405,"Ġsale":7406,"Ġhart":7407,"Ġgates":7408,"Ġammon":7409,"Ġabc":7410,"Ġallen":7411,"Ġvarieties":7412,"ostic":7413,"Ġgrace":7414,"Ġwonder":7415,"Ġstream":7416,"Ġcreator":7417,"Ġsynthesis":7418,"Ġunfortun":7419,"Ġplastic":7420,"Ġiranian":7421,"Ġhanded":7422,"Ġdiver":7423,"Ġverse":7424,"Ġquantity":7425,"Ġautomatic":7426,"Ġexclusive":7427,"uv":7428,"Ġtet":7429,"Ġay":7430,"Ġcous":7431,"omon":7432,"Ġathen":7433,"Ġintention":7434,"place":7435,"Ġvolumes":7436,"Ġconfederate":7437,"Ġdramatic":7438,"Ġcricket":7439,"Ġsovereignty":7440,"Ġmanufacturers":7441,"Ġinfrastructure":7442,"Ġmacintosh":7443,"Ġtheor":7444,"Ġwhilst":7445,"Ġjane":7446,"Ġcollabor":7447,"Ġsurviving":7448,"Ġsupers":7449,"Ġairports":7450,"Ġmoscow":7451,"Ġoverseas":7452,"Ġarchbishop":7453,"Ġsult":7454,"Ġpip":7455,"Ġduc":7456,"asm":7457,"Ġpasses":7458,"Ġdevil":7459,"Ġanimation":7460,"Ġillness":7461,"Ġprompt":7462,"Ġcommerce":7463,"Ġobservation":7464,"Ġcitizenship":7465,"kan":7466,"Ġpagan":7467,"owed":7468,"Ġuno":7469,"Ġspell":7470,"Ġcoven":7471,"Ġobso":7472,"Ġsupports":7473,"Ġibn":7474,"Ġalgebraic":7475,"Ġefficiency":7476,"Ġprincess":7477,"Ġstrictly":7478,"Ġpunishment":7479,"Ġoption":7480,"Ġunre":7481,"Ġuncom":7482,"Ġmanual":7483,"Ġearned":7484,"Ġenjoyed":7485,"Ġkuwait":7486,"Ġunsuccess":7487,"kel":7488,"iner":7489,"Ġcate":7490,"atus":7491,"Ġwings":7492,"Ġkam":7493,"Ġassess":7494,"Ġprocessor":7495,"Ġastero":7496,"Ġtrotsky":7497,"Ġbabylon":7498,"Ġportrait":7499,"Ġpermitted":7500,"Ġvern":7501,"Ġcord":7502,"Ġsixth":7503,"ardo":7504,"Ġclim":7505,"Ġraw":7506,"Ġterminal":7507,"Ġteachings":7508,"Ġdelivered":7509,"Ġintervention":7510,"Ġlifetime":7511,"Ġarizona":7512,"cht":7513,"page":7514,"ses":7515,"wing":7516,"Ġfloren":7517,"Ġpoliticians":7518,"Ġdesignated":7519,"Ġmissiles":7520,"Ġlegendary":7521,"Ġpairs":7522,"Ġere":7523,"Ġfred":7524,"Ġheir":7525,"Ġvoted":7526,"illed":7527,"Ġyan":7528,"Ġserial":7529,"Ġcounties":7530,"Ġmillions":7531,"Ġtape":7532,"Ġproperly":7533,"Ġcovering":7534,"Ġmixture":7535,"Ġreplacement":7536,"Ġcompatible":7537,"Ġtort":7538,"itudes":7539,"esian":7540,"Ġjam":7541,"ubst":7542,"ressive":7543,"Ġconsiderably":7544,"Ġtempor":7545,"Ġdevoted":7546,"Ġfighter":7547,"Ġtorah":7548,"Ġinventor":7549,"Ġnewspapers":7550,"bus":7551,"rant":7552,"uct":7553,"Ġcyl":7554,"atra":7555,"Ġwet":7556,"icity":7557,"Ġlod":7558,"eman":7559,"Ġracial":7560,"Ġmargin":7561,"Ġrecordings":7562,"Ġwinners":7563,"Ġtunnel":7564,"Ġarranged":7565,"Ġbuddhism":7566,"Ġorchestra":7567,"Ġgoogle":7568,"phy":7569,"Ġcurve":7570,"Ġrevised":7571,"uracy":7572,"Ġparadox":7573,"Ġconsonant":7574,"Ġarrested":7575,"Ġsiege":7576,"Ġpale":7577,"Ġmigr":7578,"Ġeve":7579,"str":7580,"Ġnov":7581,"Ġmaur":7582,"Ġapproval":7583,"Ġmissions":7584,"Ġbroadcasting":7585,"Ġgenesis":7586,"Ġconspiracy":7587,"die":7588,"sk":7589,"Ġgren":7590,"ista":7591,"Ġelabor":7592,"Ġimmigration":7593,"Ġstreets":7594,"Ġlinguistics":7595,"Ġpull":7596,"Ġdoom":7597,"Ġlawrence":7598,"Ġoxid":7599,"Ġranges":7600,"Ġamateur":7601,"Ġfold":7602,"Ġdart":7603,"Ġstick":7604,"Ġspr":7605,"Ġpeer":7606,"Ġpeas":7607,"Ġseeking":7608,"Ġcrash":7609,"Ġchildhood":7610,"Ġphoto":7611,"helm":7612,"Ġdiscipline":7613,"Ġframework":7614,"Ġmatthew":7615,"bul":7616,"cock":7617,"Ġtheological":7618,"una":7619,"Ġadmitted":7620,"ruck":7621,"Ġoverl":7622,"Ġenthus":7623,"Ġcultiv":7624,"Ġdrives":7625,"Ġvariables":7626,"Ġpurchase":7627,"Ġprussia":7628,"Ġexplicitly":7629,"Ġremoval":7630,"Ġobsolete":7631,"Ġanime":7632,"Ġgets":7633,"adi":7634,"Ġsuitable":7635,"achers":7636,"udi":7637,"Ġscat":7638,"Ġconsens":7639,"Ġdevelopments":7640,"Ġrestored":7641,"Ġdisputes":7642,"iest":7643,"part":7644,"itative":7645,"icus":7646,"rogen":7647,"Ġneo":7648,"orship":7649,"Ġtermed":7650,"cessor":7651,"Ġaffil":7652,"Ġnortheast":7653,"Ġmalays":7654,"Ġcardinal":7655,"Ġmystery":7656,"Ġprefix":7657,"Ġvoltage":7658,"Ġarithmetic":7659,"Ġgamma":7660,"hyd":7661,"mes":7662,"Ġtub":7663,"Ġfulf":7664,"ochem":7665,"endo":7666,"Ġresign":7667,"Ġentropy":7668,"Ġretire":7669,"Ġtemporary":7670,"Ġpronoun":7671,"Ġestablishing":7672,"Ġconsequently":7673,"Ġexcellent":7674,"Ġanchor":7675,"Ġpock":7676,"esty":7677,"see":7678,"Ġneuro":7679,"Ġassume":7680,"Ġwayne":7681,"Ġroutes":7682,"Ġparticipation":7683,"Ġconsequences":7684,"Ġjup":7685,"agues":7686,"Ġshorter":7687,"Ġpear":7688,"Ġharrison":7689,"Ġcircuits":7690,"Ġimplies":7691,"inals":7692,"Ġfishing":7693,"Ġdh":7694,"Ġlac":7695,"lyn":7696,"Ġstability":7697,"Ġscar":7698,"Ġrecall":7699,"Ġinfo":7700,"Ġautobi":7701,"Ġsignif":7702,"roscop":7703,"Ġbaroque":7704,"Ġmiller":7705,"Ġhypn":7706,"Ġtaylor":7707,"Ġchancellor":7708,"Ġot":7709,"Ġfusion":7710,"Ġhub":7711,"Ġstere":7712,"ouri":7713,"Ġworst":7714,"Ġincom":7715,"Ġequally":7716,"Ġcyber":7717,"Ġspacecraft":7718,"Ġmississ":7719,"Ġburning":7720,"Ġpurchased":7721,"Ġgordon":7722,"Ġfisc":7723,"Ġbak":7724,"Ġdepict":7725,"Ġjohnny":7726,"Ġhend":7727,"Ġbenz":7728,"Ġindicated":7729,"Ġdynamic":7730,"Ġconcluded":7731,"cribed":7732,"Ġrevelation":7733,"Ġmississipp":7734,"Ġmaced":7735,"Ġhi":7736,"imore":7737,"Ġcenters":7738,"gery":7739,"Ġproto":7740,"Ġempir":7741,"Ġappearances":7742,"Ġsettlements":7743,"Ġbeauty":7744,"Ġsituated":7745,"Ġimmigrants":7746,"Ġrhythm":7747,"Ġtube":7748,"Ġgest":7749,"rage":7750,"Ġalger":7751,"Ġbless":7752,"Ġmonetary":7753,"Ġfinance":7754,"Ġfinds":7755,"Ġwidth":7756,"omorphism":7757,"Ġscandin":7758,"Ġliverpool":7759,"enburg":7760,"Ġbip":7761,"Ġvl":7762,"Ġclergy":7763,"Ġmilk":7764,"Ġcontrols":7765,"Ġreturns":7766,"Ġpromoted":7767,"Ġcollective":7768,"Ġneighbour":7769,"Ġnegotiations":7770,"Ġhawaii":7771,"Ġbuffalo":7772,"iast":7773,"wed":7774,"Ġcn":7775,"onto":7776,"Ġwins":7777,"Ġdave":7778,"Ġreich":7779,"Ġsmooth":7780,"Ġexposed":7781,"Ġvii":7782,"Ġcaught":7783,"Ġreturning":7784,"Ġcreative":7785,"Ġmessages":7786,"Ġterminology":7787,"ders":7788,"erb":7789,"Ġtherapy":7790,"Ġbone":7791,"Ġvinc":7792,"Ġconcrete":7793,"Ġsket":7794,"Ġvertical":7795,"Ġstopped":7796,"Ġdollars":7797,"Ġbuddhist":7798,"Ġphoenix":7799,"Ġfranchise":7800,"sche":7801,"Ġbm":7802,"Ġgamb":7803,"Ġnova":7804,"Ġmonaster":7805,"minster":7806,"aux":7807,"Ġtopic":7808,"Ġprede":7809,"Ġastronomy":7810,"Ġarrival":7811,"Ġproposal":7812,"lah":7813,"power":7814,"Ġoak":7815,"Ġgri":7816,"rium":7817,"illing":7818,"Ġintense":7819,"Ġcoinc":7820,"Ġsubur":7821,"Ġvaried":7822,"Ġmedian":7823,"Ġhandle":7824,"Ġwindow":7825,"Ġfunding":7826,"Ġdifficulties":7827,"Ġluke":7828,"Ġfossil":7829,"Ġjupiter":7830,"rating":7831,"Ġaware":7832,"anes":7833,"Ġdee":7834,"Ġvib":7835,"emen":7836,"Ġquot":7837,"Ġvaluable":7838,"Ġphiladelph":7839,"Ġquebec":7840,"Ġcustoms":7841,"Ġbringing":7842,"Ġadventure":7843,"Ġadjacent":7844,"Ġvacu":7845,"Ġmoses":7846,"Ġhidden":7847,"Ġanderson":7848,"Ġvik":7849,"icance":7850,"Ġrecre":7851,"Ġseeing":7852,"Ġremote":7853,"Ġborough":7854,"Ġmissouri":7855,"iscop":7856,"Ġagreements":7857,"Ġmathematicians":7858,"Ġcroatia":7859,"Ġportrayed":7860,"Ġwis":7861,"Ġdated":7862,"Ġstamp":7863,"Ġenlight":7864,"Ġjobs":7865,"Ġinterm":7866,"Ġmining":7867,"Ġfranco":7868,"oster":7869,"Ġdenomin":7870,"Ġthompson":7871,"Ġoptical":7872,"Ġsurrounded":7873,"Ġcomplicated":7874,"Ġsession":7875,"Ġtheater":7876,"Ġbert":7877,"eda":7878,"Ġeis":7879,"Ġlig":7880,"Ġtob":7881,"odia":7882,"aceae":7883,"Ġpowered":7884,"Ġgrain":7885,"Ġbread":7886,"Ġrocket":7887,"Ġprivile":7888,"Ġqueens":7889,"Ġtransformation":7890,"Ġconsequence":7891,"Ġsummary":7892,"oons":7893,"Ġbund":7894,"Ġdeleg":7895,"agle":7896,"Ġbrad":7897,"Ġjournalist":7898,"Ġconcentrated":7899,"Ġastrolog":7900,"cp":7901,"Ġai":7902,"itre":7903,"Ġsemin":7904,"Ġiowa":7905,"Ġreleases":7906,"Ġmerged":7907,"Ġplease":7908,"Ġinstrumental":7909,"Ġprosper":7910,"Ġproportion":7911,"sky":7912,"Ġauthen":7913,"ijing":7914,"Ġsubsid":7915,"Ġted":7916,"Ġbare":7917,"Ġandre":7918,"eller":7919,"Ġaccuracy":7920,"Ġlock":7921,"Ġcollections":7922,"Ġobsc":7923,"Ġliberalism":7924,"Ġhousing":7925,"Ġadventures":7926,"Ġpist":7927,"Ġpill":7928,"Ġnik":7929,"Ġinteractive":7930,"Ġbelt":7931,"Ġfewer":7932,"Ġgeneva":7933,"Ġsalvador":7934,"Ġphiladelphia":7935,"Ġtends":7936,"Ġbought":7937,"orious":7938,"Ġinhib":7939,"Ġongoing":7940,"Ġleib":7941,"ibilities":7942,"Ġrecovery":7943,"Ġhunt":7944,"Ġmagnitude":7945,"Ġsubset":7946,"Ġmongol":7947,"Ġunoffic":7948,"Ġcort":7949,"acts":7950,"Ġaccum":7951,"Ġsinging":7952,"Ġbaron":7953,"Ġtriple":7954,"Ġreaders":7955,"Ġnorman":7956,"Ġaugustus":7957,"Ġconservation":7958,"Ġlouisiana":7959,"Ġdealing":7960,"Ġjacques":7961,"Ġsynthes":7962,"Ġpalestine":7963,"Ġautonom":7964,"erals":7965,"Ġpm":7966,"Ġnelson":7967,"Ġsymbolic":7968,"Ġcuban":7969,"Ġrotation":7970,"Ġskept":7971,"Ġaxiom":7972,"Ġkosovo":7973,"pass":7974,"Ġsant":7975,"Ġdys":7976,"Ġgur":7977,"Ġrus":7978,"Ġoverth":7979,"Ġgoverning":7980,"Ġinches":7981,"Ġmoderate":7982,"Ġfactory":7983,"Ġrecognize":7984,"Ġexceptions":7985,"Ġecu":7986,"Ġemployment":7987,"Ġbeck":7988,"Ġthanks":7989,"cover":7990,"Ġready":7991,"Ġeditions":7992,"Ġmillennium":7993,"Ġbaltimore":7994,"Ġmississippi":7995,"Ġawa":7996,"erts":7997,"Ġcoat":7998,"Ġmonitor":7999,"Ġluxemb":8000,"Ġsignificance":8001,"Ġbub":8002,"Ġward":8003,"Ġgust":8004,"Ġbeijing":8005,"Ġabund":8006,"Ġepiscop":8007,"Ġcyp":8008,"Ġattempting":8009,"Ġsatur":8010,"Ġguitarist":8011,"Ġexplorer":8012,"Ġauthentic":8013,"Ġig":8014,"Ġtat":8015,"Ġbour":8016,"Ġbry":8017,"Ġauto":8018,"Ġextend":8019,"Ġsingles":8020,"Ġmeanwhile":8021,"Ġprinting":8022,"Ġsuffering":8023,"Ġreflected":8024,"Ġbosnia":8025,"Ġieee":8026,"Ġcognitive":8027,"Ġmaritime":8028,"dish":8029,"Ġpant":8030,"Ġeating":8031,"Ġoral":8032,"Ġcoins":8033,"Ġeuropeans":8034,"Ġadvis":8035,"Ġdenied":8036,"Ġtaxes":8037,"Ġlieuten":8038,"wich":8039,"Ġbath":8040,"itis":8041,"eded":8042,"esh":8043,"omot":8044,"ether":8045,"osaur":8046,"Ġagencies":8047,"Ġcapita":8048,"Ġpointed":8049,"Ġadvice":8050,"Ġberg":8051,"Ġnarrative":8052,"Ġoptim":8053,"Ġseventh":8054,"Ġenormous":8055,"western":8056,"Ġost":8057,"station":8058,"Ġalp":8059,"Ġkiss":8060,"Ġproclaimed":8061,"Ġchi":8062,"Ġshield":8063,"Ġcompare":8064,"Ġraise":8065,"Ġconsol":8066,"Ġlooks":8067,"Ġdecimal":8068,"Ġversus":8069,"Ġrelevant":8070,"Ġreader":8071,"Ġindependently":8072,"Ġthreatened":8073,"erial":8074,"Ġcoc":8075,"aki":8076,"Ġoutl":8077,"Ġmineral":8078,"Ġbritann":8079,"Ġbarry":8080,"ova":8081,"Ġconvert":8082,"Ġweekly":8083,"Ġgregory":8084,"iver":8085,"Ġfinger":8086,"itt":8087,"Ġstores":8088,"Ġkant":8089,"ifier":8090,"abul":8091,"Ġperception":8092,"Ġplayoff":8093,"Ġentity":8094,"Ġdriving":8095,"Ġparticipate":8096,"Ġsaxon":8097,"vakia":8098,"Ġcolombia":8099,"aware":8100,"bow":8101,"kind":8102,"Ġfbi":8103,"Ġvoters":8104,"Ġclay":8105,"Ġpregn":8106,"Ġcoron":8107,"Ġanthem":8108,"Ġdesigner":8109,"Ġphysician":8110,"Ġcasual":8111,"lon":8112,"zh":8113,"Ġconce":8114,"Ġkan":8115,"Ġarsen":8116,"Ġinterrupt":8117,"Ġcorruption":8118,"Ġholes":8119,"Ġacceptance":8120,"Ġaimed":8121,"ulsion":8122,"Ġlithuanian":8123,"Ġbinding":8124,"Ġaest":8125,"Ġrfc":8126,"Ġbutt":8127,"Ġscots":8128,"Ġthereby":8129,"Ġmounted":8130,"Ġfallen":8131,"Ġadoption":8132,"Ġstrange":8133,"Ġshadow":8134,"Ġvoyage":8135,"cd":8136,"Ġfisher":8137,"Ġmig":8138,"Ġpoets":8139,"Ġblu":8140,"Ġmetals":8141,"Ġhomes":8142,"Ġcoverage":8143,"Ġviolin":8144,"Ġrobinson":8145,"Ġsensitive":8146,"Ġcompiler":8147,"Ġgauge":8148,"div":8149,"rill":8150,"Ġjay":8151,"Ġunions":8152,"iva":8153,"Ġinfection":8154,"Ġhoover":8155,"Ġcosta":8156,"Ġconventions":8157,"Ġattracted":8158,"Ġdrinking":8159,"krit":8160,"Ġwider":8161,"amine":8162,"Ġalive":8163,"Ġindirect":8164,"Ġphi":8165,"Ġexpend":8166,"Ġaustin":8167,"Ġtrivia":8168,"Ġapproaches":8169,"Ġcatch":8170,"Ġtribute":8171,"Ġtoronto":8172,"Ġaaron":8173,"Ġleibn":8174,"Ġbid":8175,"aman":8176,"ocation":8177,"agers":8178,"Ġboot":8179,"Ġmonument":8180,"Ġguest":8181,"Ġbelgian":8182,"Ġoperators":8183,"Ġpriests":8184,"Ġvert":8185,"Ġcattle":8186,"Ġquantities":8187,"Ġgraduate":8188,"Ġexercise":8189,"Ġneighborhood":8190,"Ġbn":8191,"Ġkurt":8192,"Ġsphere":8193,"izer":8194,"Ġcomplement":8195,"Ġmichel":8196,"Ġemployees":8197,"Ġmeasurement":8198,"Ġreviews":8199,"Ġmutual":8200,"Ġnickname":8201,"Ġreconstruction":8202,"Ġble":8203,"Ġpyr":8204,"Ġmine":8205,"Ġdb":8206,"using":8207,"Ġchris":8208,"Ġresur":8209,"Ġquoted":8210,"Ġwilling":8211,"Ġedin":8212,"Ġcommunists":8213,"Ġdefining":8214,"Ġfootballer":8215,"Ġmaintains":8216,"Ġbulg":8217,"Ġmaryland":8218,"Ġhellen":8219,"Ġascii":8220,"Ġcomedian":8221,"Ġhelium":8222,"Ġdisagree":8223,"lock":8224,"Ġlamp":8225,"Ġbever":8226,"Ġstruck":8227,"Ġyield":8228,"Ġdisorders":8229,"Ġmetab":8230,"Ġtroll":8231,"Ġtrem":8232,"Ġbullet":8233,"Ġchampionships":8234,"mund":8235,"Ġfaces":8236,"alia":8237,"Ġreun":8238,"Ġcomments":8239,"Ġpainted":8240,"Ġprogramme":8241,"Ġellip":8242,"Ġterrorist":8243,"Ġerrors":8244,"Ġtaste":8245,"Ġleibniz":8246,"iy":8247,"Ġdian":8248,"Ġchop":8249,"Ġarama":8250,"Ġteen":8251,"Ġromance":8252,"Ġdecor":8253,"Ġeaster":8254,"Ġtelecommun":8255,"Ġdigit":8256,"Ġdiamonds":8257,"Ġconsensus":8258,"Ġfet":8259,"eness":8260,"ishers":8261,"room":8262,"ologically":8263,"Ġinterst":8264,"Ġentering":8265,"neg":8266,"Ġmilan":8267,"Ġdecay":8268,"Ġdogs":8269,"Ġgravit":8270,"Ġhomosexuality":8271,"Ġpaintings":8272,"Ġsimultaneously":8273,"Ġvacuum":8274,"Ġaramaic":8275,"Ġcree":8276,"Ġmbox":8277,"Ġlor":8278,"Ġgolf":8279,"Ġcommem":8280,"pled":8281,"Ġcoined":8282,"Ġmetres":8283,"Ġdemon":8284,"Ġbarn":8285,"Ġdiego":8286,"Ġsettlers":8287,"Ġstanley":8288,"Ġcocaine":8289,"cos":8290,"yll":8291,"Ġfired":8292,"Ġeternal":8293,"Ġargu":8294,"Ġreceives":8295,"Ġhonour":8296,"Ġaddresses":8297,"Ġwilhelm":8298,"Ġrolling":8299,"Ġfriendly":8300,"otype":8301,"Ġschedule":8302,"Ġsultan":8303,"Ġbent":8304,"Ġpad":8305,"Ġhorm":8306,"imm":8307,"Ġrings":8308,"agne":8309,"Ġclimb":8310,"Ġresigned":8311,"Ġphill":8312,"Ġdesired":8313,"Ġregulations":8314,"Ġlibya":8315,"Ġbulk":8316,"Ġautomatically":8317,"Ġelevation":8318,"Ġkentucky":8319,"Ġbesides":8320,"Ġceremony":8321,"Ġclinical":8322,"Ġmarshall":8323,"Ġunemployment":8324,"Ġtables":8325,"ifice":8326,"emic":8327,"Ġrab":8328,"Ġstudying":8329,"Ġgodzilla":8330,"Ġslang":8331,"Ġnatives":8332,"Ġkingdoms":8333,"apped":8334,"Ġfragment":8335,"Ġtourist":8336,"Ġoffering":8337,"Ġmanufactured":8338,"Ġobserver":8339,"Ġshares":8340,"Ġtendency":8341,"untary":8342,"cia":8343,"pie":8344,"Ġcraft":8345,"orous":8346,"Ġket":8347,"Ġsharing":8348,"Ġcomprom":8349,"Ġabbe":8350,"Ġabortion":8351,"Ġload":8352,"olds":8353,"Ġexposure":8354,"Ġdiscrim":8355,"Ġnationality":8356,"Ġhunter":8357,"Ġalbania":8358,"Ġpeters":8359,"hana":8360,"Ġinjury":8361,"feld":8362,"eg":8363,"mel":8364,"ourg":8365,"Ġshir":8366,"Ġmanga":8367,"Ġservers":8368,"Ġlarry":8369,"Ġgovernors":8370,"Ġfuneral":8371,"engers":8372,"Ġhitch":8373,"Ġoscar":8374,"Ġalcoh":8375,"Ġclothing":8376,"abulary":8377,"ci":8378,"Ġoz":8379,"erg":8380,"icut":8381,"Ġgore":8382,"Ġgross":8383,"illery":8384,"Ġshakes":8385,"Ġclown":8386,"enders":8387,"outs":8388,"Ġconsent":8389,"iki":8390,"Ġdrama":8391,"Ġlegislature":8392,"Ġremainder":8393,"Ġconsonants":8394,"Ġceremon":8395,"Ġalchem":8396,"Ġties":8397,"Ġtip":8398,"heas":8399,"isations":8400,"Ġzo":8401,"Ġry":8402,"Ġplague":8403,"Ġassy":8404,"Ġrequiring":8405,"Ġtrinity":8406,"Ġviii":8407,"Ġcompetitive":8408,"Ġrailroad":8409,"Ġhappy":8410,"Ġadaptation":8411,"Ġextensively":8412,"Ġlieutenant":8413,"oven":8414,"atem":8415,"Ġmh":8416,"Ġgol":8417,"illy":8418,"Ġalumn":8419,"Ġconform":8420,"apore":8421,"Ġplains":8422,"Ġtrains":8423,"Ġoverw":8424,"Ġgenerate":8425,"Ġlocomot":8426,"Ġproposition":8427,"Ġlasted":8428,"Ġsubstant":8429,"Ġcutting":8430,"Ġwright":8431,"Ġprocedures":8432,"Ġabolished":8433,"Ġmetaphys":8434,"Ġaj":8435,"Ġcats":8436,"Ġnm":8437,"Ġdub":8438,"Ġstones":8439,"ustion":8440,"Ġnorse":8441,"Ġliberals":8442,"Ġcellular":8443,"Ġnouns":8444,"Ġsemitic":8445,"Ġglucose":8446,"Ġarguably":8447,"Ġtick":8448,"Ġcem":8449,"Ġcinc":8450,"Ġbou":8451,"Ġniet":8452,"Ġgenres":8453,"Ġgoverned":8454,"Ġinstant":8455,"Ġguil":8456,"Ġcommunion":8457,"Ġsingapore":8458,"Ġbattery":8459,"Ġeritre":8460,"Ġjudah":8461,"Ġtruly":8462,"Ġtrek":8463,"mont":8464,"after":8465,"Ġreasoning":8466,"Ġoccasions":8467,"Ġmembrane":8468,"iates":8469,"itary":8470,"Ġinherent":8471,"Ġleaf":8472,"Ġsyd":8473,"Ġimpression":8474,"Ġbills":8475,"Ġtimeline":8476,"Ġinspiration":8477,"Ġinsulin":8478,"no":8479,"anol":8480,"Ġgig":8481,"Ġgael":8482,"Ġconan":8483,"ulu":8484,"Ġcomet":8485,"allas":8486,"Ġbohem":8487,"Ġirc":8488,"Ġpatron":8489,"Ġtrials":8490,"Ġapplies":8491,"Ġmarketing":8492,"Ġcounterpart":8493,"Ġincorrect":8494,"Ġedinburgh":8495,"Ġian":8496,"aro":8497,"Ġgel":8498,"Ġforg":8499,"Ġkry":8500,"Ġvital":8501,"emed":8502,"Ġnationalist":8503,"Ġretain":8504,"Ġgrave":8505,"Ġlatest":8506,"Ġargues":8507,"Ġsolve":8508,"Ġbrazilian":8509,"Ġprovincial":8510,"Ġjonathan":8511,"Ġcrops":8512,"Ġamendment":8513,"Ġaluminium":8514,"Ġfern":8515,"ocent":8516,"Ġworlds":8517,"Ġestonia":8518,"Ġrevival":8519,"Ġmechanisms":8520,"Ġrefugees":8521,"ubstantial":8522,"eration":8523,"orus":8524,"ird":8525,"Ġbrass":8526,"Ġpolitically":8527,"Ġdominican":8528,"Ġassistant":8529,"Ġrevenue":8530,"Ġussr":8531,"Ġgalileo":8532,"Ġflorence":8533,"phem":8534,"Ġsurn":8535,"essions":8536,"oga":8537,"Ġtea":8538,"avian":8539,"Ġpool":8540,"Ġconsidering":8541,"Ġequil":8542,"Ġexploration":8543,"Ġsocialism":8544,"Ġsequences":8545,"Ġhappen":8546,"Ġtargets":8547,"Ġmccar":8548,"zsche":8549,"Ġtied":8550,"Ġaa":8551,"Ġhd":8552,"Ġstack":8553,"Ġenhan":8554,"oking":8555,"Ġobst":8556,"const":8557,"Ġswing":8558,"Ġromania":8559,"Ġbrah":8560,"Ġmorris":8561,"Ġstronger":8562,"Ġmartial":8563,"Ġcamero":8564,"Ġcrack":8565,"Ġbombing":8566,"Ġcomplain":8567,"Ġdanger":8568,"Ġunfortunately":8569,"Ġexpendit":8570,"Ġcincinn":8571,"Ġtill":8572,"rell":8573,"Ġgam":8574,"imir":8575,"Ġrou":8576,"aks":8577,"Ġpret":8578,"ugh":8579,"Ġmemor":8580,"Ġfranz":8581,"Ġantib":8582,"Ġgray":8583,"Ġlights":8584,"Ġcircular":8585,"Ġqur":8586,"Ġtomb":8587,"Ġadvocates":8588,"Ġanthropology":8589,"Ġrepeatedly":8590,"Ġmammals":8591,"Ġperpet":8592,"Ġautonomous":8593,"bro":8594,"Ġwisc":8595,"Ġafc":8596,"Ġcoe":8597,"Ġflour":8598,"Ġdecide":8599,"Ġembra":8600,"Ġseriously":8601,"Ġinterpretations":8602,"Ġfeeling":8603,"Ġopposing":8604,"Ġetymology":8605,"Ġnietzsche":8606,"sburg":8607,"Ġdust":8608,"Ġexha":8609,"Ġamino":8610,"Ġgenerations":8611,"Ġflopp":8612,"Ġpublisher":8613,"Ġmatches":8614,"Ġinsubstantial":8615,"Ġodd":8616,"Ġderivative":8617,"Ġacknowled":8618,"Ġsanskrit":8619,"Ġshakespe":8620,"father":8621,"Ġsap":8622,"Ġcock":8623,"Ġmud":8624,"elle":8625,"Ġblocks":8626,"Ġundert":8627,"Ġguatem":8628,"atherine":8629,"Ġharp":8630,"Ġalongside":8631,"Ġadopt":8632,"Ġencourage":8633,"Ġdimensions":8634,"Ġtradem":8635,"Ġecuador":8636,"Ġdenn":8637,"Ġgm":8638,"Ġstood":8639,"Ġboom":8640,"Ġfarming":8641,"Ġobjective":8642,"Ġchemist":8643,"Ġappearing":8644,"Ġbroadway":8645,"Ġmissing":8646,"Ġsurvival":8647,"Ġrequirement":8648,"Ġshooting":8649,"Ġjimmy":8650,"Ġevangelical":8651,"Ġhierarchy":8652,"Ġluxembourg":8653,"bage":8654,"isition":8655,"Ġwrest":8656,"rac":8657,"Ġspar":8658,"Ġspending":8659,"Ġapprec":8660,"Ġterrain":8661,"Ġbreath":8662,"Ġsolomon":8663,"Ġperformances":8664,"Ġannivers":8665,"Ġlooked":8666,"Ġchapters":8667,"Ġfifty":8668,"Ġheroes":8669,"Ġunlikely":8670,"Ġchaos":8671,"Ġrecommend":8672,"Ġmerchant":8673,"Ġclaudius":8674,"aine":8675,"gl":8676,"Ġrect":8677,"Ġsegment":8678,"Ġhearing":8679,"Ġprose":8680,"Ġcanter":8681,"ibal":8682,"Ġwrites":8683,"Ġdefinite":8684,"Ġbusinesses":8685,"Ġeugen":8686,"Ġadministered":8687,"Ġshakespeare":8688,"uated":8689,"Ġaka":8690,"Ġarose":8691,"Ġbols":8692,"Ġlag":8693,"Ġlip":8694,"Ġreaches":8695,"Ġmodule":8696,"othy":8697,"Ġsupplement":8698,"Ġgeographical":8699,"Ġmatt":8700,"Ġeconomies":8701,"Ġvisitors":8702,"Ġimmun":8703,"Ġarabs":8704,"Ġballs":8705,"Ġstriking":8706,"ymes":8707,"Ġgraphic":8708,"Ġdiameter":8709,"Ġvocabulary":8710,"Ġranging":8711,"Ġtroub":8712,"then":8713,"Ġcay":8714,"ender":8715,"Ġrever":8716,"Ġalab":8717,"Ġunw":8718,"acht":8719,"Ġmarry":8720,"Ġwearing":8721,"Ġrecur":8722,"Ġknock":8723,"Ġcarth":8724,"Ġstudios":8725,"Ġfreely":8726,"Ġsilent":8727,"Ġconflicts":8728,"Ġmasters":8729,"Ġpurely":8730,"Ġrecommended":8731,"Ġunofficial":8732,"Ġcincinnati":8733,"rous":8734,"Ġsulf":8735,"Ġaside":8736,"anni":8737,"Ġski":8738,"Ġactivist":8739,"Ġcreatures":8740,"Ġfacilit":8741,"Ġprecip":8742,"Ġshoot":8743,"Ġconnecticut":8744,"Ġexplosion":8745,"Ġastronomical":8746,"Ġthorough":8747,"case":8748,"ean":8749,"Ġpasc":8750,"Ġmild":8751,"Ġnag":8752,"ationally":8753,"uda":8754,"Ġteachers":8755,"Ġwarming":8756,"Ġevident":8757,"Ġdamaged":8758,"Ġferdin":8759,"Ġamazon":8760,"Ġfurn":8761,"Ġsees":8762,"ules":8763,"Ġrecru":8764,"Ġwarner":8765,"Ġtransmit":8766,"Ġcreates":8767,"anner":8768,"Ġmeetings":8769,"Ġsaved":8770,"Ġlesb":8771,"Ġtasks":8772,"Ġsuffix":8773,"Ġtennis":8774,"Ġsupplies":8775,"Ġwithdrawal":8776,"Ġnominated":8777,"Ġferdinand":8778,"Ġstem":8779,"berts":8780,"Ġspoke":8781,"izz":8782,"Ġquotes":8783,"Ġfeast":8784,"Ġsubdiv":8785,"Ġminimal":8786,"Ġbrook":8787,"Ġdiscrete":8788,"Ġevening":8789,"Ġperiodic":8790,"Ġidentification":8791,"Ġreplacing":8792,"Ġcentered":8793,"Ġambig":8794,"Ġslavic":8795,"Ġsubmarine":8796,"Ġmccarthy":8797,"Ġfi":8798,"Ġpump":8799,"Ġinaug":8800,"imon":8801,"Ġalice":8802,"Ġkle":8803,"estone":8804,"Ġhaiti":8805,"ateral":8806,"Ġengage":8807,"Ġattorn":8808,"onsin":8809,"Ġbasin":8810,"Ġextrem":8811,"Ġmainten":8812,"Ġpassion":8813,"Ġproponents":8814,"Ġillustrated":8815,"ubbed":8816,"Ġinstalled":8817,"Ġteles":8818,"Ġdiesel":8819,"aic":8820,"boy":8821,"Ġome":8822,"Ġsas":8823,"Ġsick":8824,"Ġbj":8825,"Ġwats":8826,"Ġloren":8827,"Ġunderlying":8828,"Ġregulation":8829,"Ġartillery":8830,"Ġdemands":8831,"Ġelite":8832,"Ġconfuc":8833,"Ġrealm":8834,"ervation":8835,"Ġencry":8836,"Ġphilippines":8837,"Ġcircumcision":8838,"Ġwisdom":8839,"mud":8840,"rough":8841,"Ġkon":8842,"Ġnoise":8843,"Ġprest":8844,"Ġcarries":8845,"Ġoperates":8846,"Ġantio":8847,"Ġaviation":8848,"Ġderives":8849,"Ġfacult":8850,"Ġexchang":8851,"Ġhughes":8852,"Ġadults":8853,"Ġatheism":8854,"Ġarbitrary":8855,"Ġeclip":8856,"Ġequilib":8857,"rons":8858,"Ġtib":8859,"Ġsri":8860,"orate":8861,"alf":8862,"Ġheret":8863,"Ġmarvel":8864,"Ġinterf":8865,"Ġeuph":8866,"Ġrunner":8867,"Ġfraction":8868,"Ġtournament":8869,"Ġmaintaining":8870,"Ġwavel":8871,"Ġneighb":8872,"Ġstanford":8873,"Ġarchaeological":8874,"Ġwisconsin":8875,"auc":8876,"Ġfate":8877,"Ġfract":8878,"igible":8879,"chron":8880,"irm":8881,"Ġcompens":8882,"Ġbrut":8883,"Ġharbor":8884,"Ġorganism":8885,"Ġhenri":8886,"Ġoccurring":8887,"Ġpreval":8888,"Ġsacrifice":8889,"Ġdiagram":8890,"Ġelectromagnetic":8891,"bes":8892,"oes":8893,"Ġsib":8894,"chi":8895,"istent":8896,"Ġjury":8897,"Ġras":8898,"Ġscope":8899,"Ġnewer":8900,"Ġincomp":8901,"Ġkevin":8902,"Ġcriteria":8903,"Ġfoods":8904,"Ġhosts":8905,"Ġconsisted":8906,"Ġphrases":8907,"Ġvessels":8908,"Ġoregon":8909,"Ġconstellation":8910,"Ġnaming":8911,"Ġreed":8912,"Ġalter":8913,"Ġconfer":8914,"Ġitem":8915,"Ġreprint":8916,"Ġinvaded":8917,"Ġrevision":8918,"Ġhob":8919,"Ġcrossing":8920,"Ġintegers":8921,"Ġarabia":8922,"restrial":8923,"Ġpermission":8924,"Ġdisplayed":8925,"Ġhindi":8926,"Ġrevolt":8927,"Ġkazakhstan":8928,"heastern":8929,"Ġwatson":8930,"Ġbore":8931,"icing":8932,"Ġlap":8933,"Ġgon":8934,"Ġbearing":8935,"Ġcler":8936,"Ġabroad":8937,"Ġminerals":8938,"Ġextends":8939,"Ġdistant":8940,"Ġorientation":8941,"Ġgirls":8942,"Ġlutheran":8943,"Ġpioneer":8944,"Ġrifle":8945,"Ġbulgarian":8946,"Ġsydney":8947,"Ġmaintenance":8948,"db":8949,"uin":8950,"van":8951,"inter":8952,"oning":8953,"ulates":8954,"Ġencl":8955,"agg":8956,"Ġscored":8957,"Ġcargo":8958,"Ġtransmitted":8959,"Ġentities":8960,"Ġlegs":8961,"Ġpatrick":8962,"Ġimmort":8963,"Ġencomp":8964,"Ġchemicals":8965,"Ġvillages":8966,"Ġsolely":8967,"Ġtissue":8968,"Ġbolshe":8969,"Ġencompass":8970,"Ġine":8971,"Ġdil":8972,"olk":8973,"Ġjung":8974,"Ġrac":8975,"Ġpharm":8976,"Ġpersu":8977,"Ġelvis":8978,"Ġbatter":8979,"Ġexplains":8980,"Ġdupl":8981,"Ġfacing":8982,"Ġlosses":8983,"Ġclosest":8984,"Ġexplosive":8985,"omorphic":8986,"Ġunsuccessful":8987,"iveness":8988,"Ġnord":8989,"Ġlung":8990,"Ġdeals":8991,"Ġunified":8992,"Ġspark":8993,"Ġmarie":8994,"Ġdefines":8995,"Ġirreg":8996,"Ġconfidence":8997,"Ġradar":8998,"Ġrestoration":8999,"appa":9000,"Ġfrontier":9001,"Ġlebanese":9002,"Ġconfederation":9003,"Ġpropaganda":9004,"Ġoverwhel":9005,"Ġcran":9006,"atical":9007,"Ġkb":9008,"Ġdeploy":9009,"Ġdoctors":9010,"Ġswim":9011,"Ġgrade":9012,"uthor":9013,"Ġvocals":9014,"Ġsyntax":9015,"Ġproportional":9016,"rection":9017,"Ġkay":9018,"Ġjosh":9019,"Ġwaste":9020,"Ġscores":9021,"Ġdeskt":9022,"Ġpresents":9023,"Ġmuscle":9024,"Ġestimate":9025,"Ġsurgery":9026,"Ġcircles":9027,"Ġimmune":9028,"Ġcatholicism":9029,"Ġcorporations":9030,"Ġpredominantly":9031,"zig":9032,"otion":9033,"adic":9034,"Ġinfra":9035,"Ġjoan":9036,"Ġsaudi":9037,"Ġlikewise":9038,"Ġjudgment":9039,"iii":9040,"Ġpolyn":9041,"Ġferment":9042,"Ġtennes":9043,"Ġtactics":9044,"Ġserbia":9045,"Ġsophistic":9046,"Ġpython":9047,"Ġjamaica":9048,"Ġcanterbury":9049,"Ġwaveleng":9050,"eus":9051,"hetic":9052,"Ġovers":9053,"Ġbones":9054,"Ġinuit":9055,"imony":9056,"umps":9057,"Ġmetro":9058,"Ġpracticed":9059,"Ġconception":9060,"Ġexpressions":9061,"Ġoswald":9062,"Ġpunk":9063,"Ġmanufacturer":9064,"Ġremarkable":9065,"Ġmassacre":9066,"rising":9067,"zing":9068,"Ġgand":9069,"idal":9070,"Ġcancell":9071,"Ġsurve":9072,"Ġtechnically":9073,"Ġhym":9074,"Ġcorrespondence":9075,"Ġjulius":9076,"Ġgaul":9077,"Ġanarchist":9078,"Ġbangl":9079,"Ġstroke":9080,"Ġukraine":9081,"Ġpocket":9082,"gun":9083,"graph":9084,"Ġferm":9085,"Ġinert":9086,"Ġdw":9087,"Ġdense":9088,"Ġhilbert":9089,"Ġlb":9090,"Ġforty":9091,"Ġjed":9092,"Ġperu":9093,"auss":9094,"Ġstewart":9095,"Ġcouncils":9096,"Ġgreenland":9097,"Ġextinction":9098,"Ġcovenant":9099,"Ġepiscopal":9100,"Ġanniversary":9101,"matic":9102,"ivism":9103,"sole":9104,"Ġovert":9105,"Ġinterse":9106,"Ġpublishers":9107,"Ġjuan":9108,"Ġnovelist":9109,"Ġastronaut":9110,"Ġargentine":9111,"Ġstuart":9112,"Ġautomobile":9113,"Ġalumni":9114,"Ġtennessee":9115,"Ġbanglades":9116,"fts":9117,"hd":9118,"mir":9119,"Ġfing":9120,"Ġmond":9121,"Ġnu":9122,"Ġhars":9123,"Ġld":9124,"Ġkas":9125,"Ġcounts":9126,"Ġfoundations":9127,"Ġhybr":9128,"Ġcauc":9129,"Ġdebut":9130,"Ġbitter":9131,"Ġlayers":9132,"iji":9133,"Ġassumption":9134,"Ġpotentially":9135,"Ġcluster":9136,"Ġrecovered":9137,"Ġculmin":9138,"Ġconsolid":9139,"Ġfitz":9140,"Ġnineteenth":9141,"amation":9142,"Ġraj":9143,"eping":9144,"Ġsheep":9145,"Ġportions":9146,"Ġembed":9147,"Ġcamer":9148,"Ġreportedly":9149,"Ġguardian":9150,"Ġjunior":9151,"Ġenlighten":9152,"Ġintermediate":9153,"gary":9154,"rin":9155,"Ġpush":9156,"Ġdallas":9157,"Ġlens":9158,"olith":9159,"Ġyards":9160,"Ġphone":9161,"text":9162,"Ġevol":9163,"Ġassociate":9164,"Ġcivilizations":9165,"Ġmalay":9166,"Ġpsychiat":9167,"Ġopinions":9168,"Ġvulner":9169,"Ġmtv":9170,"Ġia":9171,"rol":9172,"elin":9173,"Ġconsole":9174,"agger":9175,"Ġpoe":9176,"achment":9177,"Ġeman":9178,"Ġeleven":9179,"Ġcarp":9180,"Ġequipped":9181,"Ġnonethe":9182,"Ġalbanian":9183,"Ġbankrupt":9184,"Ġmirror":9185,"Ġsalvation":9186,"Ġemotional":9187,"Ġupdated":9188,"Ġretrieved":9189,"Ġcotton":9190,"Ġguilty":9191,"Ġnonetheless":9192,"Ġmd":9193,"roe":9194,"Ġadhe":9195,"Ġgriff":9196,"Ġreliable":9197,"Ġmetric":9198,"Ġposit":9199,"Ġconstra":9200,"Ġfris":9201,"Ġqa":9202,"Ġvictim":9203,"Ġdialogue":9204,"Ġzeus":9205,"Ġatlas":9206,"Ġambass":9207,"Ġsloven":9208,"Ġprecisely":9209,"Ġtrend":9210,"Ġomega":9211,"Ġtense":9212,"Ġsang":9213,"Ġpound":9214,"heric":9215,"Ġva":9216,"Ġthereafter":9217,"Ġamericas":9218,"Ġemit":9219,"Ġpopul":9220,"Ġmini":9221,"Ġoperational":9222,"Ġeru":9223,"Ġwestminster":9224,"Ġdioc":9225,"Ġcreature":9226,"Ġcontribution":9227,"Ġpowder":9228,"Ġcorresponds":9229,"Ġchalleng":9230,"Ġdeputy":9231,"Ġsymphony":9232,"Ġcameroon":9233,"gate":9234,"ti":9235,"enet":9236,"Ġhegel":9237,"Ġabu":9238,"Ġdefect":9239,"Ġsignature":9240,"Ġdivide":9241,"Ġangles":9242,"Ġspeeds":9243,"Ġmascul":9244,"Ġfavorite":9245,"Ġwealthy":9246,"Ġeros":9247,"Ġhubb":9248,"Ġgott":9249,"idad":9250,"achi":9251,"Ġeds":9252,"Ġnamely":9253,"Ġcourses":9254,"Ġconcord":9255,"Ġbiochem":9256,"Ġfuller":9257,"Ġexamination":9258,"Ġbened":9259,"Ġrainfall":9260,"bourne":9261,"Ġbilly":9262,"Ġconfiguration":9263,"Ġyugoslavia":9264,"Ġecclesiast":9265,"Ġpascal":9266,"fs":9267,"hist":9268,"zed":9269,"Ġpeng":9270,"Ġconvin":9271,"Ġplut":9272,"Ġiq":9273,"Ġpole":9274,"Ġproducers":9275,"loqu":9276,"oba":9277,"Ġprevail":9278,"Ġbirthday":9279,"Ġcampaigns":9280,"Ġlandscape":9281,"Ġcatalan":9282,"Ġegg":9283,"Ġfascist":9284,"Ġdolph":9285,"Ġfloppy":9286,"Ġenlightenment":9287,"Ġnt":9288,"Ġlav":9289,"Ġja":9290,"Ġdeuts":9291,"uma":9292,"Ġamster":9293,"Ġabilities":9294,"Ġgenome":9295,"Ġdoors":9296,"Ġtransit":9297,"Ġtril":9298,"Ġcompanion":9299,"Ġmasses":9300,"chel":9301,"Ġprimitive":9302,"Ġrecognised":9303,"Ġfloating":9304,"Ġautonomy":9305,"Ġhonduras":9306,"Ġphotographs":9307,"Ġkernel":9308,"Ġov":9309,"Ġinverse":9310,"Ġnodes":9311,"rod":9312,"Ġseal":9313,"Ġunex":9314,"Ġworn":9315,"ormal":9316,"Ġuprising":9317,"Ġdirections":9318,"Ġphysiology":9319,"Ġexperts":9320,"Ġcornwall":9321,"Ġjerry":9322,"Ġprinceton":9323,"Ġdeeply":9324,"Ġipa":9325,"Ġcanton":9326,"Ġantonio":9327,"Ġeugene":9328,"Ġgravitational":9329,"Ġmhz":9330,"Ġequilibrium":9331,"bel":9332,"math":9333,"uan":9334,"Ġhamp":9335,"Ġeighth":9336,"Ġwhale":9337,"umber":9338,"Ġexter":9339,"acs":9340,"Ġug":9341,"Ġgenetics":9342,"Ġrelating":9343,"Ġjoke":9344,"Ġcarriers":9345,"Ġinvited":9346,"Ġimposed":9347,"Ġspecification":9348,"Ġgrad":9349,"Ġcapitalist":9350,"Ġelementary":9351,"Ġotto":9352,"Ġinherit":9353,"Ġunicode":9354,"Ġvlad":9355,"Ġpic":9356,"Ġlane":9357,"ipel":9358,"Ġacoust":9359,"Ġtransc":9360,"Ġloan":9361,"Ġfilter":9362,"Ġdevelopers":9363,"Ġcaliph":9364,"Ġpropri":9365,"aws":9366,"Ġaccessed":9367,"Ġnucleus":9368,"Ġflows":9369,"Ġembass":9370,"Ġcornell":9371,"Ġfalk":9372,"Ġlambda":9373,"Ġcategor":9374,"ben":9375,"zes":9376,"inery":9377,"isers":9378,"rians":9379,"Ġrelatives":9380,"Ġpoles":9381,"Ġgeneric":9382,"Ġgraham":9383,"Ġlasting":9384,"Ġcantor":9385,"Ġhemisp":9386,"Ġscheduled":9387,"nat":9388,"Ġchord":9389,"Ġchocol":9390,"acular":9391,"Ġspend":9392,"Ġinstruct":9393,"Ġmete":9394,"Ġmines":9395,"Ġlegends":9396,"Ġterry":9397,"Ġtrium":9398,"Ġpractition":9399,"Ġdawn":9400,"Ġcollins":9401,"Ġprecision":9402,"Ġadvocate":9403,"Ġlauren":9404,"Ġdictators":9405,"Ġincomple":9406,"Ġpolynomial":9407,"Ġhubbard":9408,"Ġwool":9409,"Ġpup":9410,"Ġdune":9411,"Ġhamb":9412,"Ġgift":9413,"estyle":9414,"Ġarctic":9415,"Ġdisapp":9416,"Ġreserves":9417,"Ġformats":9418,"Ġgenius":9419,"Ġtransp":9420,"Ġcapabilities":9421,"Ġorganisations":9422,"Ġversa":9423,"Ġrealized":9424,"Ġeveryday":9425,"coming":9426,"Ġflowers":9427,"Ġattributes":9428,"Ġiraqi":9429,"Ġgeometric":9430,"Ġtoxic":9431,"Ġtongue":9432,"Ġdesktop":9433,"gger":9434,"Ġero":9435,"Ġtiny":9436,"Ġahead":9437,"Ġsz":9438,"real":9439,"Ġhij":9440,"Ġvig":9441,"Ġsyrian":9442,"Ġblo":9443,"Ġmemoir":9444,"iov":9445,"Ġfilmm":9446,"Ġbelieves":9447,"Ġmartyr":9448,"Ġrespective":9449,"Ġallegedly":9450,"Ġvolcanic":9451,"Ġmargaret":9452,"Ġretirement":9453,"Ġamsterdam":9454,"grad":9455,"Ġfier":9456,"Ġnint":9457,"ashed":9458,"aders":9459,"Ġyale":9460,"Ġtrace":9461,"Ġexpand":9462,"Ġcalgary":9463,"Ġcomputational":9464,"Ġchest":9465,"Ġreformation":9466,"Ġdealt":9467,"Ġalberta":9468,"Ġfarmers":9469,"Ġreinfor":9470,"Ġerect":9471,"Ġirregular":9472,"Ġfed":9473,"Ġnash":9474,"Ġrely":9475,"etery":9476,"Ġenact":9477,"Ġamph":9478,"Ġquart":9479,"Ġparks":9480,"Ġsmallest":9481,"ennon":9482,"Ġhomepage":9483,"Ġtested":9484,"Ġcdot":9485,"Ġbuddha":9486,"Ġranks":9487,"Ġbavaria":9488,"Ġcemetery":9489,"Ġaux":9490,"roc":9491,"Ġghana":9492,"cha":9493,"Ġvat":9494,"pler":9495,"Ġtrail":9496,"Ġschwar":9497,"Ġentrance":9498,"Ġantip":9499,"Ġdevast":9500,"Ġannually":9501,"Ġmorgan":9502,"Ġsongwriter":9503,"Ġfathers":9504,"Ġsatan":9505,"Ġwooden":9506,"Ġjurisdictions":9507,"Ġpreparation":9508,"Ġpix":9509,"Ġforcing":9510,"Ġorle":9511,"Ġroberts":9512,"Ġgenoc":9513,"Ġactively":9514,"Ġmuss":9515,"Ġstatesman":9516,"Ġhighland":9517,"Ġnationalism":9518,"Ġbacked":9519,"Ġlogar":9520,"Ġcannon":9521,"Ġhosted":9522,"Ġbanking":9523,"Ġdimin":9524,"Ġburned":9525,"Ġodys":9526,"ommod":9527,"Ġinhabited":9528,"Ġboliv":9529,"Ġbabylonian":9530,"Ġcroatian":9531,"Ġsurfaces":9532,"fin":9533,"rh":9534,"Ġtension":9535,"ancing":9536,"Ġkin":9537,"Ġrick":9538,"Ġamd":9539,"Ġbruss":9540,"Ġcompletion":9541,"Ġspeculation":9542,"Ġtechnological":9543,"Ġverbs":9544,"Ġcheese":9545,"Ġburial":9546,"Ġcompeting":9547,"iffs":9548,"Ġdisplays":9549,"Ġcalculations":9550,"Ġnazis":9551,"Ġprussian":9552,"Ġdiversity":9553,"Ġthrown":9554,"Ġmonopoly":9555,"Ġbangladesh":9556,"Ġconvinced":9557,"cience":9558,"Ġcere":9559,"ilia":9560,"Ġseed":9561,"otten":9562,"aboration":9563,"Ġpreserve":9564,"Ġinterch":9565,"Ġdancing":9566,"Ġvenez":9567,"Ġrhine":9568,"Ġduncan":9569,"Ġcompiled":9570,"Ġcrusade":9571,"Ġplateau":9572,"hardt":9573,"Ġjargon":9574,"Ġhorizontal":9575,"Ġdenominations":9576,"dn":9577,"pro":9578,"Ġbaker":9579,"Ġinteract":9580,"Ġreferend":9581,"Ġsigning":9582,"Ġlegally":9583,"Ġfactbook":9584,"Ġfaq":9585,"Ġarchipel":9586,"Ġwesley":9587,"Ġoscill":9588,"thetic":9589,"harma":9590,"Ġimprovements":9591,"Ġaccomplished":9592,"Ġtum":9593,"Ġfires":9594,"anians":9595,"Ġwake":9596,"Ġpink":9597,"Ġgases":9598,"thood":9599,"Ġpersia":9600,"Ġdemanded":9601,"Ġanticip":9602,"Ġconservatives":9603,"Ġmeasurements":9604,"Ġanarchism":9605,"Ġpleasure":9606,"Ġequatorial":9607,"Ġearthquake":9608,"Ġconsecutive":9609,"Ġprestig":9610,"fast":9611,"Ġions":9612,"aton":9613,"oria":9614,"Ġprox":9615,"orted":9616,"cca":9617,"Ġagn":9618,"Ġaccommod":9619,"Ġcirca":9620,"Ġfacility":9621,"Ġrobot":9622,"Ġdescriptions":9623,"Ġremembered":9624,"Ġvessel":9625,"Ġenforcement":9626,"Ġelephant":9627,"Ġelaborate":9628,"gas":9629,"esis":9630,"Ġmason":9631,"ando":9632,"ianism":9633,"Ġamber":9634,"Ġsystematic":9635,"Ġfinish":9636,"Ġcombustion":9637,"Ġdenver":9638,"Ġkills":9639,"Ġliteracy":9640,"Ġfrequencies":9641,"Ġwallace":9642,"Ġcorrel":9643,"Ġfifteen":9644,"Ġrendered":9645,"Ġsemitism":9646,"Ġnicholas":9647,"Ġtrademark":9648,"iating":9649,"Ġaur":9650,"Ġbio":9651,"Ġwise":9652,"ader":9653,"Ġrica":9654,"sex":9655,"Ġafl":9656,"Ġafri":9657,"Ġharbour":9658,"Ġstatute":9659,"Ġadvances":9660,"Ġsamples":9661,"Ġdocumentation":9662,"attan":9663,"Ġhugo":9664,"donald":9665,"Ġapostles":9666,"Ġdeposits":9667,"Ġenabled":9668,"Ġkrypton":9669,"ashes":9670,"vet":9671,"ulum":9672,"Ġdischar":9673,"Ġraven":9674,"Ġquiet":9675,"hedron":9676,"Ġretreat":9677,"Ġlisten":9678,"Ġlatitude":9679,"Ġcharts":9680,"Ġarkansas":9681,"Ġludwig":9682,"aters":9683,"Ġwer":9684,"Ġstall":9685,"Ġstating":9686,"advant":9687,"Ġhered":9688,"ixon":9689,"Ġchains":9690,"Ġunst":9691,"emann":9692,"usted":9693,"Ġattitude":9694,"Ġsheet":9695,"Ġprotoc":9696,"Ġprofound":9697,"Ġtao":9698,"Ġtreaties":9699,"Ġdiffers":9700,"Ġacceptable":9701,"Ġpenet":9702,"Ġglobe":9703,"Ġstayed":9704,"Ġjefferson":9705,"Ġserbian":9706,"Ġbridges":9707,"Ġorleans":9708,"flow":9709,"word":9710,"Ġeul":9711,"Ġisles":9712,"Ġheres":9713,"Ġadolf":9714,"Ġknife":9715,"Ġinstances":9716,"Ġdisco":9717,"Ġretail":9718,"Ġopens":9719,"Ġharold":9720,"Ġbias":9721,"Ġlovecraft":9722,"Ġvoices":9723,"Ġscandal":9724,"Ġcoordinates":9725,"Ġinherited":9726,"Ġoccasional":9727,"Ġenterprise":9728,"Ġmalaysia":9729,"Ġattorney":9730,"Ġbast":9731,"Ġdying":9732,"imov":9733,"Ġheights":9734,"Ġunde":9735,"Ġplas":9736,"Ġamp":9737,"Ġediting":9738,"Ġprovisions":9739,"Ġcompete":9740,"Ġenvironments":9741,"Ġfighters":9742,"Ġcontribute":9743,"Ġnobility":9744,"Ġwait":9745,"Ġmurdered":9746,"Ġmarxist":9747,"Ġsupposedly":9748,"Ġnitrogen":9749,"Ġaberde":9750,"Ġautobiography":9751,"Ġanx":9752,"Ġandr":9753,"ulus":9754,"ayer":9755,"Ġprost":9756,"Ġedu":9757,"Ġdefault":9758,"Ġlegion":9759,"Ġcritique":9760,"Ġarchives":9761,"zek":9762,"Ġpromised":9763,"kyo":9764,"Ġcommands":9765,"Ġmiscell":9766,"Ġexcav":9767,"Ġmomentum":9768,"Ġconjug":9769,"Ġfiscal":9770,"Ġschwarz":9771,"oni":9772,"anal":9773,"Ġmg":9774,"Ġmug":9775,"Ġbeam":9776,"Ġshots":9777,"Ġada":9778,"Ġdisadvant":9779,"kees":9780,"Ġedgar":9781,"Ġproductions":9782,"Ġminim":9783,"Ġgeology":9784,"Ġbrooks":9785,"Ġpassengers":9786,"Ġtribun":9787,"Ġcriticisms":9788,"Ġrailways":9789,"Ġfellows":9790,"Ġcalculated":9791,"Ġultra":9792,"Ġrabbi":9793,"Ġregistered":9794,"Ġclusters":9795,"Ġantiquity":9796,"Ġtric":9797,"Ġaph":9798,"Ġthesis":9799,"enberg":9800,"Ġwelf":9801,"ori":9802,"arks":9803,"Ġdubbed":9804,"Ġeb":9805,"Ġhut":9806,"Ġgap":9807,"Ġgps":9808,"Ġjenn":9809,"Ġherald":9810,"Ġxi":9811,"cula":9812,"Ġavailability":9813,"Ġdiscussions":9814,"Ġsurviv":9815,"Ġkhaz":9816,"Ġpackage":9817,"Ġdramatically":9818,"Ġconfirm":9819,"Ġprophets":9820,"Ġhammer":9821,"Ġsurprising":9822,"Ġronald":9823,"dot":9824,"gov":9825,"oi":9826,"Ġcc":9827,"itus":9828,"icop":9829,"Ġhate":9830,"Ġzen":9831,"omed":9832,"iments":9833,"Ġmoz":9834,"Ġshi":9835,"Ġminnes":9836,"Ġsingers":9837,"Ġmodification":9838,"auer":9839,"Ġmoroc":9840,"Ġtalks":9841,"Ġrobin":9842,"Ġklan":9843,"Ġcanonical":9844,"Ġproceedings":9845,"Ġastronomer":9846,"Ġsuspended":9847,"Ġgentle":9848,"Ġforbidden":9849,"Ġtelecommunications":9850,"Ġabbey":9851,"Ġnintendo":9852,"night":9853,"uce":9854,"Ġtus":9855,"Ġhud":9856,"roph":9857,"Ġmanh":9858,"idean":9859,"weight":9860,"Ġgovernmental":9861,"Ġdesignation":9862,"Ġinformal":9863,"Ġforever":9864,"Ġideology":9865,"Ġholland":9866,"Ġinitiated":9867,"Ġtalmud":9868,"Ġtransformed":9869,"Ġvegetables":9870,"Ġgalaxies":9871,"Ġsaturday":9872,"card":9873,"Ġix":9874,"Ġhast":9875,"Ġhed":9876,"Ġjak":9877,"odies":9878,"arta":9879,"Ġmanchester":9880,"izers":9881,"Ġcola":9882,"Ġreluct":9883,"Ġblog":9884,"Ġinterval":9885,"Ġaccent":9886,"Ġpopulated":9887,"Ġdecis":9888,"Ġcambodia":9889,"Ġcoding":9890,"ihad":9891,"Ġhurrican":9892,"Ġepistle":9893,"Ġpushed":9894,"Ġbrowser":9895,"xts":9896,"Ġtons":9897,"inians":9898,"atics":9899,"Ġdice":9900,"Ġgt":9901,"ados":9902,"Ġjav":9903,"Ġdeemed":9904,"Ġneil":9905,"Ġphyl":9906,"Ġentrep":9907,"Ġdistances":9908,"Ġdescended":9909,"Ġafford":9910,"Ġstarred":9911,"Ġpredicted":9912,"Ġaddressed":9913,"Ġdaughters":9914,"Ġterrorism":9915,"Ġharmonic":9916,"Ġingred":9917,"Ġwounded":9918,"Ġavenue":9919,"ike":9920,"Ġdm":9921,"Ġtoll":9922,"Ġaltered":9923,"adder":9924,"Ġride":9925,"oslo":9926,"Ġchry":9927,"apolis":9928,"Ġscoring":9929,"Ġdeter":9930,"Ġdownload":9931,"Ġphysically":9932,"Ġcarefully":9933,"Ġdemocrat":9934,"Ġvoiced":9935,"Ġcooking":9936,"Ġolympics":9937,"Ġlibertarian":9938,"Ġtolk":9939,"Ġtotally":9940,"Ġbmw":9941,"Ġalcoholic":9942,"Ġguatemala":9943,"si":9944,"Ġcatherine":9945,"umen":9946,"Ġenh":9947,"Ġplates":9948,"Ġcontents":9949,"Ġspa":9950,"Ġspo":9951,"Ġinteractions":9952,"Ġlocally":9953,"Ġcombinations":9954,"Ġconstantly":9955,"Ġimprovement":9956,"Ġeggs":9957,"Ġfeminist":9958,"Ġfascism":9959,"Ġwarrior":9960,"Ġcelebration":9961,"Ġenhanced":9962,"Ġbrussels":9963,"Ġarchipelago":9964,"aver":9965,"Ġud":9966,"Ġpod":9967,"Ġrhet":9968,"sexual":9969,"Ġclause":9970,"Ġraf":9971,"Ġrays":9972,"Ġweaken":9973,"Ġcapability":9974,"books":9975,"Ġsatir":9976,"Ġfamously":9977,"Ġembry":9978,"Ġcontinuity":9979,"Ġfatal":9980,"Ġhugh":9981,"Ġweakness":9982,"Ġkashmir":9983,"Ġchocolate":9984,"Ġez":9985,"Ġbeeth":9986,"Ġchips":9987,"Ġmonk":9988,"Ġanywhere":9989,"Ġdisturb":9990,"Ġstrat":9991,"Ġequality":9992,"Ġreceiver":9993,"Ġclaude":9994,"Ġlimitations":9995,"Ġsacrific":9996,"Ġexhibit":9997,"Ġsuspected":9998,"Ġalabama":9999,"Ġprotocols":10000,"Ġminnesota":10001,"Ġbeethoven":10002,"fr":10003,"pace":10004,"Ġtie":10005,"Ġcros":10006,"atch":10007,"Ġsectors":10008,"olo":10009,"Ġcomfort":10010,"ensis":10011,"Ġacted":10012,"Ġinterc":10013,"Ġcharlem":10014,"Ġbasil":10015,"Ġbattal":10016,"Ġsimilarities":10017,"Ġpresentation":10018,"Ġindicating":10019,"Ġdelivery":10020,"Ġcousin":10021,"Ġpyram":10022,"Ġcharlemagne":10023,"rine":10024,"anas":10025,"Ġjero":10026,"Ġarche":10027,"ogne":10028,"ellar":10029,"weh":10030,"Ġcarb":10031,"Ġextending":10032,"Ġstein":10033,"Ġclement":10034,"Ġplanes":10035,"Ġmachinery":10036,"Ġsitting":10037,"Ġinterpol":10038,"Ġpanel":10039,"Ġwitt":10040,"Ġcrucial":10041,"Ġmonarchs":10042,"Ġremoving":10043,"gradu":10044,"Ġkabbal":10045,"Ġaxioms":10046,"Ġmanuscripts":10047,"Ġhannibal":10048,"Ġpersecution":10049,"Ġwelfare":10050,"bach":10051,"burn":10052,"Ġsr":10053,"Ġpub":10054,"itic":10055,"alus":10056,"Ġstyl":10057,"Ġenig":10058,"Ġcloud":10059,"Ġspont":10060,"phi":10061,"oker":10062,"Ġedmund":10063,"ails":10064,"Ġnumbered":10065,"ledon":10066,"Ġpassages":10067,"chell":10068,"Ġseparately":10069,"Ġhappens":10070,"Ġdissolved":10071,"Ġsacrament":10072,"Ġharmony":10073,"Ġtrouble":10074,"Ġlegitimate":10075,"Ġrugby":10076,"Ġpearl":10077,"Ġgenocide":10078,"Ġana":10079,"arin":10080,"Ġdish":10081,"Ġtokyo":10082,"Ġgaining":10083,"iden":10084,"Ġrio":10085,"Ġune":10086,"ffe":10087,"Ġbrill":10088,"Ġlanded":10089,"Ġpotato":10090,"Ġsemicon":10091,"Ġhabsburg":10092,"Ġcustomer":10093,"Ġcoordinate":10094,"Ġcharlie":10095,"Ġresponded":10096,"Ġfabric":10097,"Ġgathering":10098,"Ġinsects":10099,"Ġguarant":10100,"Ġeuclidean":10101,"Ġcypri":10102,"uine":10103,"Ġpaved":10104,"Ġmice":10105,"Ġthread":10106,"Ġrede":10107,"olini":10108,"odynam":10109,"Ġenz":10110,"Ġboats":10111,"Ġdefic":10112,"Ġcreed":10113,"Ġcorinth":10114,"Ġhelping":10115,"Ġdetermining":10116,"Ġcelest":10117,"Ġcrystall":10118,"Ġorbital":10119,"Ġbicycle":10120,"Ġhybrid":10121,"Ġsending":10122,"Ġdwar":10123,"letic":10124,"imp":10125,"elian":10126,"Ġconverse":10127,"oka":10128,"Ġinterference":10129,"Ġacute":10130,"Ġfreem":10131,"Ġchurchill":10132,"Ġkiller":10133,"Ġbowie":10134,"Ġfruits":10135,"Ġcryptography":10136,"Ġcrowd":10137,"furt":10138,"gence":10139,"Ġcipher":10140,"Ġmb":10141,"Ġnest":10142,"Ġstabil":10143,"Ġjihad":10144,"Ġrecurs":10145,"Ġinfect":10146,"Ġoutcome":10147,"liver":10148,"Ġarmour":10149,"boards":10150,"Ġdelaware":10151,"osphere":10152,"Ġdetermin":10153,"Ġtribal":10154,"Ġaccessible":10155,"Ġcollaboration":10156,"irable":10157,"Ġreasonable":10158,"Ġdocumented":10159,"Ġdarkness":10160,"Ġvirtue":10161,"Ġboxing":10162,"Ġorgans":10163,"Ġconnecting":10164,"Ġadvantages":10165,"Ġsurprise":10166,"Ġadjective":10167,"Ġhemisphere":10168,"mia":10169,"rt":10170,"vo":10171,"isk":10172,"Ġnp":10173,"Ġanger":10174,"Ġreagan":10175,"olin":10176,"ractions":10177,"Ġimf":10178,"Ġraising":10179,"Ġguild":10180,"Ġlawyer":10181,"Ġportal":10182,"Ġmorality":10183,"Ġfragments":10184,"Ġaccounting":10185,"Ġspirits":10186,"Ġdamasc":10187,"Ġassassinated":10188,"Ġthermal":10189,"Ġencountered":10190,"Ġencoding":10191,"Ġtolkien":10192,"Ġpounds":10193,"Ġnile":10194,"Ġdwell":10195,"Ġlions":10196,"Ġzion":10197,"Ġist":10198,"Ġvas":10199,"Ġads":10200,"Ġgeoff":10201,"Ġharris":10202,"ennial":10203,"Ġlighting":10204,"Ġreadily":10205,"Ġfraud":10206,"Ġputting":10207,"Ġmanufacture":10208,"Ġmagazines":10209,"Ġcorrectly":10210,"Ġathletic":10211,"Ġczechoslo":10212,"Ġsudan":10213,"Ġentrepren":10214,"chers":10215,"oned":10216,"Ġnab":10217,"Ġzh":10218,"umer":10219,"Ġbutton":10220,"actic":10221,"Ġconsiders":10222,"Ġarguing":10223,"Ġknowing":10224,"Ġecology":10225,"Ġmagnet":10226,"Ġratified":10227,"Ġplato":10228,"Ġpilgr":10229,"Ġpuert":10230,"Ġancestors":10231,"Ġdecrease":10232,"Ġfaculty":10233,"Ġnerv":10234,"Ġnotorious":10235,"Ġresid":10236,"Ġinternationally":10237,"anna":10238,"Ġpersonally":10239,"Ġlatv":10240,"Ġconstitute":10241,"Ġdigest":10242,"ascar":10243,"Ġcommanded":10244,"Ġimplementations":10245,"Ġcomparable":10246,"Ġgrammatical":10247,"Ġanarcho":10248,"Ġcosmic":10249,"Ġtanks":10250,"Ġhinduism":10251,"Ġtiger":10252,"Ġernest":10253,"Ġyahweh":10254,"Ġdismissed":10255,"Ġembedded":10256,"Ġbenedict":10257,"body":10258,"rand":10259,"Ġinex":10260,"Ġmott":10261,"Ġdt":10262,"Ġasimov":10263,"utor":10264,"Ġcondom":10265,"Ġchat":10266,"Ġchand":10267,"Ġplacing":10268,"Ġadequ":10269,"Ġsoccer":10270,"Ġthirteen":10271,"Ġbehalf":10272,"Ġwalker":10273,"Ġcease":10274,"Ġfindings":10275,"Ġessence":10276,"Ġmurray":10277,"Ġparticipated":10278,"Ġabsorbed":10279,"Ġltd":10280,"Ġsyllable":10281,"Ġcondemned":10282,"Ġmonastery":10283,"Ġbubble":10284,"Ġsubstantially":10285,"fri":10286,"rive":10287,"rams":10288,"Ġwage":10289,"Ġinland":10290,"Ġnun":10291,"Ġhired":10292,"Ġgilbert":10293,"Ġneu":10294,"reness":10295,"Ġreserved":10296,"Ġwhenever":10297,"Ġexpelled":10298,"Ġharps":10299,"Ġportable":10300,"Ġposts":10301,"Ġmicrow":10302,"Ġsanct":10303,"ymond":10304,"Ġbelonging":10305,"Ġsupplied":10306,"athered":10307,"Ġguerr":10308,"track":10309,"Ġexpenditures":10310,"Ġvenezuel":10311,"Ġtrick":10312,"anium":10313,"Ġwick":10314,"Ġthunder":10315,"istence":10316,"Ġconclus":10317,"Ġved":10318,"acle":10319,"occ":10320,"Ġleather":10321,"Ġmeets":10322,"Ġeditors":10323,"Ġguided":10324,"Ġendang":10325,"Ġposthum":10326,"Ġceased":10327,"Ġderivatives":10328,"Ġmultiplication":10329,"Ġarmenian":10330,"Ġsodium":10331,"Ġarnold":10332,"Ġlicensed":10333,"Ġdivorce":10334,"Ġmetabol":10335,"Ġsut":10336,"encing":10337,"oro":10338,"orum":10339,"arms":10340,"Ġrut":10341,"Ġvamp":10342,"quet":10343,"Ġadela":10344,"Ġpride":10345,"Ġoutbre":10346,"Ġjoining":10347,"Ġassets":10348,"Ġentries":10349,"Ġexpanding":10350,"Ġkeyn":10351,"Ġeconomist":10352,"Ġmodes":10353,"Ġangola":10354,"Ġreformed":10355,"Ġprevented":10356,"Ġcontempor":10357,"Ġsettings":10358,"Ġfriendship":10359,"Ġilleg":10360,"Ġwedding":10361,"Ġfugue":10362,"uff":10363,"vals":10364,"Ġtent":10365,"atism":10366,"ede":10367,"Ġmant":10368,"asters":10369,"Ġzones":10370,"ilian":10371,"Ġstir":10372,"Ġki":10373,"Ġbyte":10374,"Ġworse":10375,"Ġmans":10376,"enda":10377,"Ġresolved":10378,"ugg":10379,"Ġloved":10380,"Ġfrig":10381,"Ġrenown":10382,"Ġcoastline":10383,"Ġivan":10384,"Ġobservers":10385,"Ġcommissioned":10386,"Ġcontrolling":10387,"Ġanswers":10388,"Ġchronicles":10389,"Ġbengal":10390,"Ġtriangle":10391,"Ġsophisticated":10392,"Ġhamburg":10393,"Ġreferendum":10394,"vised":10395,"yers":10396,"Ġcache":10397,"Ġseas":10398,"Ġdisks":10399,"Ġquote":10400,"ported":10401,"Ġwarning":10402,"Ġdenote":10403,"Ġethanol":10404,"Ġmicrop":10405,"Ġpromise":10406,"Ġcolonel":10407,"Ġtimber":10408,"Ġseverely":10409,"Ġancestry":10410,"Ġnavigation":10411,"Ġrestaurants":10412,"Ġtriumph":10413,"Ġtin":10414,"Ġpont":10415,"Ġlomb":10416,"ipper":10417,"Ġspons":10418,"Ġcolored":10419,"Ġaged":10420,"iley":10421,"Ġworker":10422,"Ġmonsters":10423,"Ġcommunicate":10424,"Ġfreight":10425,"Ġfault":10426,"Ġsung":10427,"Ġsoviets":10428,"Ġcollaps":10429,"Ġdrivers":10430,"Ġprecurs":10431,"Ġpilots":10432,"Ġeliminated":10433,"Ġmentions":10434,"Ġunclear":10435,"Ġdeliberately":10436,"Ġrescue":10437,"Ġpuerto":10438,"Ġadelaide":10439,"lore":10440,"lass":10441,"mill":10442,"Ġpom":10443,"arded":10444,"Ġpert":10445,"Ġsubgroup":10446,"Ġmonks":10447,"Ġuniversally":10448,"aho":10449,"Ġbarcel":10450,"Ġdracula":10451,"Ġhelen":10452,"Ġhelicop":10453,"Ġcycles":10454,"Ġsynthetic":10455,"Ġcrossed":10456,"Ġcommitment":10457,"Ġutc":10458,"criptions":10459,"Ġpitts":10460,"Ġjerem":10461,"Ġburns":10462,"Ġmortality":10463,"Ġomn":10464,"Ġwitnesses":10465,"Ġbreeding":10466,"Ġdreams":10467,"Ġantioch":10468,"Ġharsh":10469,"Ġinterchange":10470,"Ġtended":10471,"Ġois":10472,"Ġnull":10473,"Ġkor":10474,"Ġphases":10475,"Ġtraits":10476,"Ġpeir":10477,"Ġregist":10478,"Ġhume":10479,"Ġdemons":10480,"Ġwalking":10481,"Ġdiscoveries":10482,"Ġreflects":10483,"Ġancestor":10484,"Ġextensions":10485,"Ġyankees":10486,"Ġcylinder":10487,"Ġalgeria":10488,"Ġawareness":10489,"Ġhampshire":10490,"natural":10491,"caster":10492,"eous":10493,"hy":10494,"ipe":10495,"kary":10496,"Ġith":10497,"Ġsizes":10498,"Ġsessions":10499,"icable":10500,"idian":10501,"otte":10502,"Ġperf":10503,"Ġprehist":10504,"Ġhandling":10505,"Ġemerging":10506,"Ġscholarship":10507,"Ġinjured":10508,"Ġaltitude":10509,"Ġadvocated":10510,"Ġbelongs":10511,"Ġuncommon":10512,"Ġasteroid":10513,"Ġoverwhelming":10514,"Ġinfrared":10515,"Ġtrilogy":10516,"hew":10517,"enz":10518,"isons":10519,"Ġbant":10520,"Ġpact":10521,"Ġninth":10522,"asi":10523,"Ġdean":10524,"Ġspy":10525,"Ġscroll":10526,"Ġdishes":10527,"Ġfiring":10528,"Ġrepair":10529,"Ġhighways":10530,"Ġairpl":10531,"Ġeconomists":10532,"Ġsuccessive":10533,"Ġgloss":10534,"Ġcivilians":10535,"Ġgrandson":10536,"Ġtravels":10537,"Ġwebsites":10538,"Ġmiami":10539,"Ġparticipants":10540,"Ġconquer":10541,"Ġscripture":10542,"Ġvictorian":10543,"Ġconvicted":10544,"Ġfeedback":10545,"Ġlectures":10546,"Ġanatomy":10547,"Ġbotan":10548,"Ġcaucas":10549,"olithic":10550,"Ġaberdeen":10551,"Ġcher":10552,"onics":10553,"Ġwimb":10554,"Ġincl":10555,"Ġlank":10556,"Ġgains":10557,"Ġreds":10558,"Ġrous":10559,"Ġrush":10560,"aco":10561,"berry":10562,"Ġplug":10563,"Ġhaus":10564,"Ġreson":10565,"Ġcoerc":10566,"Ġgrid":10567,"Ġrelax":10568,"Ġsecre":10569,"Ġcomputation":10570,"Ġtrump":10571,"Ġfolklore":10572,"Ġdiscrimination":10573,"gart":10574,"Ġtert":10575,"Ġsided":10576,"onium":10577,"isible":10578,"Ġgut":10579,"Ġral":10580,"Ġgram":10581,"Ġprefect":10582,"Ġcream":10583,"Ġesoter":10584,"Ġverte":10585,"Ġknows":10586,"Ġpalat":10587,"Ġprogrammers":10588,"Ġoptions":10589,"Ġlucas":10590,"Ġinterviews":10591,"Ġaccomplish":10592,"Ġmiscellaneous":10593,"Ġdamascus":10594,"Ġinev":10595,"arrow":10596,"peg":10597,"Ġraymond":10598,"Ġcologne":10599,"Ġherb":10600,"Ġcorrupt":10601,"ughter":10602,"Ġmeasuring":10603,"Ġutility":10604,"Ġmitchell":10605,"Ġbeatles":10606,"Ġmercury":10607,"osaurs":10608,"Ġdisappeared":10609,"Ġpresumably":10610,"Ġincomplete":10611,"inks":10612,"Ġpam":10613,"Ġmall":10614,"asia":10615,"inem":10616,"andy":10617,"Ġbutter":10618,"avier":10619,"Ġwarren":10620,"Ġcarneg":10621,"Ġartif":10622,"Ġimported":10623,"Ġhollow":10624,"Ġtalking":10625,"Ġhostile":10626,"Ġhamlet":10627,"Ġcornish":10628,"Ġslower":10629,"Ġcensorship":10630,"Ġcustomers":10631,"Ġaristoc":10632,"ographers":10633,"Ġrendering":10634,"Ġborrowed":10635,"Ġeritrea":10636,"Ġmeteor":10637,"eu":10638,"Ġdag":10639,"Ġgiov":10640,"Ġstatic":10641,"Ġdeuter":10642,"clamation":10643,"Ġreserv":10644,"Ġboas":10645,"Ġpublish":10646,"Ġgear":10647,"ahl":10648,"Ġglas":10649,"Ġtemples":10650,"Ġsaturn":10651,"Ġinitiative":10652,"Ġdigits":10653,"Ġthoughts":10654,"Ġradioactive":10655,"Ġsuggesting":10656,"Ġvenice":10657,"Ġgeneal":10658,"Ġignored":10659,"Ġpicked":10660,"Ġsabb":10661,"Ġchallenged":10662,"Ġthermodynam":10663,"Ġparameters":10664,"Ġmanhattan":10665,"Ġbarcelona":10666,"nie":10667,"Ġtack":10668,"Ġfiber":10669,"Ġwag":10670,"Ġink":10671,"Ġmend":10672,"Ġmck":10673,"Ġkara":10674,"ocene":10675,"Ġdisrupt":10676,"iously":10677,"Ġautumn":10678,"Ġsuppose":10679,"Ġgarfield":10680,"Ġpreventing":10681,"Ġbrandenburg":10682,"Ġhouseholds":10683,"Ġinduced":10684,"foot":10685,"Ġantarctic":10686,"Ġescaped":10687,"Ġtibet":10688,"Ġvladimir":10689,"Ġwimbledon":10690,"Ġcarnegie":10691,"Ġoliver":10692,"Ġbenn":10693,"itch":10694,"arr":10695,"Ġllo":10696,"Ġgym":10697,"Ġasking":10698,"Ġkang":10699,"Ġarise":10700,"Ġteeth":10701,"Ġgenuine":10702,"Ġundergo":10703,"Ġflame":10704,"Ġfunk":10705,"Ġbats":10706,"ovich":10707,"Ġhobb":10708,"Ġtreatise":10709,"Ġshipping":10710,"Ġdispers":10711,"Ġmaxwell":10712,"Ġcubic":10713,"Ġcontracts":10714,"Ġqualities":10715,"Ġatmospheric":10716,"Ġrevenues":10717,"Ġnumerical":10718,"Ġtheologian":10719,"Ġheinrich":10720,"Ġjokes":10721,"Ġchicken":10722,"lic":10723,"Ġoath":10724,"Ġdock":10725,"Ġhms":10726,"Ġgpl":10727,"idity":10728,"Ġammun":10729,"Ġclick":10730,"Ġallah":10731,"Ġtract":10732,"Ġaftermath":10733,"Ġcyan":10734,"Ġachievement":10735,"Ġbachel":10736,"Ġscholarly":10737,"Ġplasma":10738,"Ġpeirce":10739,"Ġammunition":10740,"ui":10741,"leys":10742,"Ġgil":10743,"Ġgiants":10744,"Ġreward":10745,"Ġmankind":10746,"Ġtraced":10747,"Ġflights":10748,"Ġmilton":10749,"anny":10750,"Ġrequests":10751,"Ġinformed":10752,"Ġtopology":10753,"Ġfriction":10754,"Ġhomo":10755,"Ġpromoting":10756,"Ġstrips":10757,"Ġbloody":10758,"worthy":10759,"Ġdeparture":10760,"Ġpoorly":10761,"Ġassisted":10762,"Ġkenneth":10763,"piece":10764,"Ġambassador":10765,"iological":10766,"uz":10767,"Ġpace":10768,"Ġnice":10769,"rah":10770,"utors":10771,"ifiers":10772,"Ġyard":10773,"Ġperc":10774,"ilding":10775,"Ġbarrel":10776,"Ġlighter":10777,"Ġviruses":10778,"Ġpsi":10779,"Ġsequel":10780,"Ġgraphical":10781,"Ġlacking":10782,"Ġhearts":10783,"Ġwildlife":10784,"Ġbarbara":10785,"ogenic":10786,"Ġclarke":10787,"Ġaccurately":10788,"Ġlynch":10789,"Ġneighboring":10790,"Ġjedi":10791,"Ġmussolini":10792,"Ġenhance":10793,"Ġarom":10794,"Ġsard":10795,"Ġboss":10796,"Ġming":10797,"Ġmack":10798,"Ġeagle":10799,"Ġbytes":10800,"Ġrn":10801,"Ġarena":10802,"Ġspur":10803,"Ġtraged":10804,"cessors":10805,"Ġpassive":10806,"Ġepit":10807,"Ġfrid":10808,"Ġcommercially":10809,"Ġipv":10810,"Ġextraord":10811,"Ġfestivals":10812,"Ġexcessive":10813,"Ġernst":10814,"Ġacknowledged":10815,"Ġguerrilla":10816,"gh":10817,"sc":10818,"Ġaquar":10819,"Ġsink":10820,"Ġhide":10821,"Ġseiz":10822,"olph":10823,"Ġwasn":10824,"Ġriding":10825,"Ġamal":10826,"Ġcounting":10827,"Ġeta":10828,"Ġturb":10829,"Ġprivat":10830,"Ġindonesian":10831,"Ġrabbin":10832,"Ġrubber":10833,"Ġbombs":10834,"Ġcontradict":10835,"Ġkelly":10836,"Ġabbreviation":10837,"strong":10838,"Ġgaelic":10839,"graduate":10840,"bius":10841,"wana":10842,"Ġtac":10843,"ische":10844,"Ġmapping":10845,"Ġhp":10846,"Ġgathered":10847,"ocy":10848,"Ġyam":10849,"Ġclot":10850,"Ġdiscontin":10851,"Ġautoc":10852,"Ġexpense":10853,"Ġfacto":10854,"Ġdrain":10855,"Ġtopological":10856,"Ġvisiting":10857,"Ġsummit":10858,"Ġdanube":10859,"Ġpeaceful":10860,"iffe":10861,"Ġflags":10862,"Ġcompositions":10863,"Ġprinces":10864,"Ġbureauc":10865,"Ġkrak":10866,"Ġbritannica":10867,"jah":10868,"kk":10869,"zi":10870,"Ġog":10871,"Ġsull":10872,"Ġsaga":10873,"Ġfles":10874,"Ġpor":10875,"uri":10876,"Ġves":10877,"ifiable":10878,"quer":10879,"Ġende":10880,"Ġairline":10881,"Ġvoluntary":10882,"Ġhels":10883,"Ġdenoted":10884,"Ġintroducing":10885,"Ġillumin":10886,"Ġpsy":10887,"Ġrounds":10888,"enhagen":10889,"Ġopportunities":10890,"Ġcalculation":10891,"Ġdiagnosis":10892,"Ġhendrix":10893,"Ġsuburbs":10894,"Ġcreek":10895,"Ġlesbian":10896,"inating":10897,"Ġff":10898,"Ġfas":10899,"Ġbt":10900,"Ġwo":10901,"Ġduration":10902,"Ġseized":10903,"ocated":10904,"ogan":10905,"ptions":10906,"Ġwheat":10907,"pling":10908,"Ġprel":10909,"Ġoutstanding":10910,"Ġplayw":10911,"Ġgeological":10912,"osticism":10913,"Ġbarrier":10914,"Ġdiab":10915,"Ġdrake":10916,"Ġsenators":10917,"Ġfunded":10918,"Ġhoped":10919,"Ġpowell":10920,"Ġroutine":10921,"Ġfocuses":10922,"Ġsimplest":10923,"Ġconcerto":10924,"Ġpursued":10925,"Ġsuspic":10926,"Ġprohibited":10927,"Ġacceleration":10928,"Ġrestaurant":10929,"Ġeisenh":10930,"Ġextraordinary":10931,"uer":10932,"wid":10933,"Ġbars":10934,"Ġisn":10935,"chs":10936,"Ġconve":10937,"apor":10938,"Ġacron":10939,"amese":10940,"Ġhighlands":10941,"iko":10942,"Ġaccordance":10943,"Ġflower":10944,"Ġprotests":10945,"Ġferr":10946,"zzle":10947,"Ġmotorcy":10948,"Ġdrums":10949,"itarianism":10950,"Ġexcluded":10951,"Ġvolunteers":10952,"Ġsicily":10953,"Ġdennis":10954,"Ġmicropro":10955,"iad":10956,"rators":10957,"Ġsized":10958,"onomy":10959,"Ġpto":10960,"Ġmul":10961,"Ġconceived":10962,"Ġjason":10963,"Ġboost":10964,"Ġproud":10965,"Ġapplying":10966,"Ġpresley":10967,"Ġgenerals":10968,"Ġfrances":10969,"Ġfamine":10970,"Ġkeith":10971,"Ġnowad":10972,"rett":10973,"Ġtelegraph":10974,"ashi":10975,"Ġaccordingly":10976,"Ġliberia":10977,"Ġdestination":10978,"Ġturks":10979,"Ġpapal":10980,"Ġdetermination":10981,"Ġnecessity":10982,"Ġspeaks":10983,"Ġassuming":10984,"Ġlithium":10985,"Ġcarlos":10986,"Ġabolition":10987,"Ġpreceding":10988,"Ġobviously":10989,"Ġpredecessor":10990,"Ġembassy":10991,"Ġenzymes":10992,"Ġeisenhower":10993,"bin":10994,"pin":10995,"atin":10996,"osystem":10997,"Ġreli":10998,"Ġinterven":10999,"Ġclassics":11000,"Ġdetected":11001,"Ġdominance":11002,"Ġstrikes":11003,"Ġtravelled":11004,"Ġchapel":11005,"Ġpitcher":11006,"Ġdoctrines":11007,"Ġstrengthen":11008,"Ġparadise":11009,"Ġkenya":11010,"Ġdictator":11011,"Ġbacon":11012,"Ġlecture":11013,"Ġwireless":11014,"Ġjoshua":11015,"Ġnowadays":11016,"Ġecho":11017,"Ġreef":11018,"lysis":11019,"Ġkw":11020,"Ġspan":11021,"Ġrogers":11022,"Ġouts":11023,"ierra":11024,"Ġmyths":11025,"Ġpointing":11026,"Ġfactions":11027,"Ġrestore":11028,"Ġcopenhagen":11029,"Ġicons":11030,"Ġrespected":11031,"Ġfortune":11032,"Ġscotia":11033,"Ġmadison":11034,"Ġwaiting":11035,"Ġalfonso":11036,"Ġsaxony":11037,"Ġnomination":11038,"Ġcooling":11039,"Ġsquadron":11040,"Ġempirical":11041,"nings":11042,"nik":11043,"Ġbold":11044,"Ġmn":11045,"Ġlsd":11046,"Ġkath":11047,"Ġsuite":11048,"Ġpartition":11049,"Ġpreservation":11050,"Ġguid":11051,"Ġarmstrong":11052,"Ġromanian":11053,"Ġmotors":11054,"Ġresear":11055,"otechn":11056,"Ġachilles":11057,"Ġcartridge":11058,"Ġbeneath":11059,"Ġcontexts":11060,"Ġcompetitions":11061,"Ġcondens":11062,"Ġtsar":11063,"zyme":11064,"Ġchronicle":11065,"Ġreproduction":11066,"Ġannounce":11067,"Ġprofessionals":11068,"Ġsprings":11069,"Ġscattered":11070,"dale":11071,"hara":11072,"Ġsv":11073,"Ġsadd":11074,"itated":11075,"lements":11076,"Ġseeds":11077,"amous":11078,"Ġdeconst":11079,"umann":11080,"Ġscales":11081,"Ġcolours":11082,"Ġremn":11083,"Ġdecomp":11084,"Ġtrin":11085,"Ġthirds":11086,"Ġpurple":11087,"Ġimmense":11088,"Ġpalm":11089,"Ġaugustine":11090,"Ġcollecting":11091,"Ġbreaks":11092,"Ġcommissioner":11093,"Ġmathrm":11094,"Ġpurchasing":11095,"Ġwithdrew":11096,"Ġcomprised":11097,"Ġmerchants":11098,"Ġresembles":11099,"Ġevaluation":11100,"Ġdartmouth":11101,"Ġeclipse":11102,"Ġtranscend":11103,"Ġmicrowave":11104,"Ġgiovanni":11105,"Ġthy":11106,"Ġsect":11107,"Ġdeity":11108,"Ġdeities":11109,"ods":11110,"izard":11111,"Ġboards":11112,"Ġcounted":11113,"zegov":11114,"Ġassociations":11115,"Ġrocky":11116,"Ġcolumns":11117,"Ġjohannes":11118,"Ġsuddenly":11119,"Ġcompromise":11120,"Ġlloyd":11121,"Ġtelling":11122,"eries":11123,"Ġdances":11124,"Ġrejection":11125,"omal":11126,"imo":11127,"Ġcong":11128,"Ġdele":11129,"Ġchol":11130,"Ġbutler":11131,"Ġroof":11132,"Ġscal":11133,"Ġresort":11134,"Ġmarqu":11135,"Ġherzegov":11136,"Ġprocessors":11137,"Ġbreton":11138,"Ġwoods":11139,"Ġflem":11140,"Ġimplications":11141,"Ġoriental":11142,"Ġpupp":11143,"Ġmunicipality":11144,"Ġemotion":11145,"Ġcalcium":11146,"Ġenlar":11147,"Ġbnp":11148,"Ġinheritance":11149,"Ġnervous":11150,"Ġrenowned":11151,"hous":11152,"vol":11153,"Ġnixon":11154,"Ġdas":11155,"Ġlying":11156,"Ġya":11157,"uba":11158,"Ġwells":11159,"Ġelf":11160,"Ġbreast":11161,"Ġsolving":11162,"Ġbuses":11163,"Ġsynchron":11164,"Ġchiefs":11165,"Ġwitch":11166,"Ġconcentrations":11167,"Ġdemonstrate":11168,"Ġprisoner":11169,"Ġgardens":11170,"Ġcorpus":11171,"cott":11172,"eenth":11173,"mi":11174,"held":11175,"Ġfool":11176,"Ġns":11177,"Ġease":11178,"Ġbeast":11179,"olly":11180,"Ġkine":11181,"Ġleop":11182,"Ġindies":11183,"Ġperipher":11184,"Ġguam":11185,"Ġfilmed":11186,"Ġtestimony":11187,"Ġdenotes":11188,"Ġtroy":11189,"Ġreduces":11190,"Ġgrandfather":11191,"Ġfrankfurt":11192,"Ġbobby":11193,"Ġnominal":11194,"Ġreconcil":11195,"Ġbruns":11196,"Ġimprisoned":11197,"Ġbipolar":11198,"Ġbohemia":11199,"bat":11200,"backs":11201,"Ġora":11202,"Ġsul":11203,"Ġnem":11204,"Ġdak":11205,"Ġluck":11206,"oline":11207,"wned":11208,"Ġsubm":11209,"Ġguards":11210,"ahu":11211,"Ġarmor":11212,"Ġconsideration":11213,"Ġfaction":11214,"Ġglory":11215,"lected":11216,"Ġaudiences":11217,"Ġchiefly":11218,"Ġconsistently":11219,"Ġarchitectural":11220,"Ġfleming":11221,"Ġconsumers":11222,"Ġsenses":11223,"Ġimplied":11224,"Ġdynamics":11225,"Ġisaiah":11226,"Ġprovisional":11227,"Ġhitchcock":11228,"Ġproprietary":11229,"Ġhijack":11230,"lie":11231,"uity":11232,"Ġfals":11233,"Ġgd":11234,"Ġrooms":11235,"Ġcolloqu":11236,"Ġposter":11237,"Ġconsort":11238,"Ġloaded":11239,"Ġdifferently":11240,"Ġleto":11241,"Ġprofits":11242,"Ġoccurrence":11243,"Ġsoundtrack":11244,"Ġdancers":11245,"Ġrebel":11246,"Ġdinosaurs":11247,"Ġcommodities":11248,"Ġicelandic":11249,"Ġshuttle":11250,"Ġabbreviated":11251,"Ġresurrection":11252,"imen":11253,"ulative":11254,"Ġcob":11255,"Ġemissions":11256,"ugu":11257,"Ġparody":11258,"Ġsurge":11259,"Ġretro":11260,"Ġrevived":11261,"Ġyoungest":11262,"Ġfortun":11263,"Ġfeminism":11264,"Ġarrangements":11265,"Ġorbits":11266,"Ġannexed":11267,"Ġmunicipalities":11268,"Ġapocaly":11269,"Ġtelescope":11270,"Ġpittsburgh":11271,"fa":11272,"fire":11273,"haus":11274,"Ġcors":11275,"Ġtoy":11276,"stad":11277,"Ġheming":11278,"aint":11279,"Ġarra":11280,"Ġamar":11281,"Ġintu":11282,"Ġattraction":11283,"Ġparish":11284,"Ġmeter":11285,"Ġdiac":11286,"Ġpractically":11287,"Ġattacking":11288,"ymph":11289,"Ġtravelling":11290,"Ġfavored":11291,"Ġappointment":11292,"Ġcredits":11293,"Ġsufficiently":11294,"Ġgabri":11295,"Ġconvenient":11296,"Ġsustain":11297,"Ġforgotten":11298,"Ġptole":11299,"hart":11300,"erian":11301,"Ġfiji":11302,"iture":11303,"itution":11304,"Ġnad":11305,"Ġguten":11306,"sts":11307,"Ġbooth":11308,"Ġperce":11309,"Ġpreference":11310,"Ġsubmitted":11311,"Ġmonte":11312,"Ġestonian":11313,"Ġintroduce":11314,"Ġduchy":11315,"Ġframes":11316,"Ġhamas":11317,"borg":11318,"Ġranking":11319,"Ġpermanently":11320,"Ġmrs":11321,"Ġathlet":11322,"Ġhtm":11323,"Ġemergence":11324,"Ġinnovation":11325,"onsored":11326,"Ġconjunction":11327,"Ġantarct":11328,"Ġenthusi":11329,"Ġbrooklyn":11330,"Ġenigma":11331,"Ġendangered":11332,"witz":11333,"Ġtorn":11334,"Ġfon":11335,"Ġfid":11336,"Ġwol":11337,"ario":11338,"Ġonwards":11339,"lev":11340,"urd":11341,"Ġkap":11342,"Ġjab":11343,"ogether":11344,"outi":11345,"Ġprey":11346,"Ġregul":11347,"Ġtransactions":11348,"Ġapproached":11349,"Ġsentences":11350,"Ġidaho":11351,"Ġguitars":11352,"Ġjulia":11353,"Ġwidow":11354,"Ġdetective":11355,"Ġstrategies":11356,"Ġrenewed":11357,"Ġshifted":11358,"Ġfingers":11359,"Ġurg":11360,"Ġgad":11361,"erog":11362,"omic":11363,"Ġjain":11364,"iev":11365,"Ġsponsored":11366,"Ġimply":11367,"Ġorganised":11368,"Ġhelps":11369,"Ġexistential":11370,"Ġbroadly":11371,"Ġtalent":11372,"Ġpsycho":11373,"Ġphotography":11374,"Ġhopes":11375,"Ġhealthy":11376,"Ġorthodoxy":11377,"Ġsexuality":11378,"Ġdisciplines":11379,"Ġvincent":11380,"Ġodyssey":11381,"Ġhereditary":11382,"Ġeuler":11383,"Ġherzegovina":11384,"Ġantarctica":11385,"Ġtries":11386,"Ġlift":11387,"Ġkde":11388,"izable":11389,"Ġcentres":11390,"Ġpresby":11391,"Ġregulated":11392,"Ġsmoke":11393,"Ġgeh":11394,"pected":11395,"Ġrealism":11396,"Ġlessons":11397,"lectric":11398,"Ġdefinitive":11399,"Ġactivists":11400,"Ġaudi":11401,"Ġfrankenstein":11402,"Ġtraveled":11403,"Ġdepartments":11404,"Ġinfinity":11405,"Ġmandate":11406,"Ġinjuries":11407,"Ġcompilation":11408,"Ġazerb":11409,"Ġdrummer":11410,"Ġgerald":11411,"Ġnutrit":11412,"Ġavoided":11413,"Ġvatican":11414,"Ġhemingway":11415,"yon":11416,"onential":11417,"Ġmak":11418,"Ġhm":11419,"leton":11420,"aments":11421,"otrop":11422,"Ġheath":11423,"umed":11424,"Ġwhereby":11425,"Ġcret":11426,"annon":11427,"ographies":11428,"Ġdiving":11429,"Ġterra":11430,"Ġradi":11431,"Ġstreams":11432,"Ġvideos":11433,"Ġnobles":11434,"Ġansw":11435,"Ġaltogether":11436,"Ġconversation":11437,"Ġphonetic":11438,"Ġevalu":11439,"jections":11440,"Ġapocry":11441,"Ġmarginal":11442,"Ġecclesiastical":11443,"Ġmorocco":11444,"Ġcelestial":11445,"hra":11446,"icht":11447,"icating":11448,"ilation":11449,"Ġridge":11450,"Ġcompuls":11451,"Ġscrat":11452,"Ġtech":11453,"Ġdefended":11454,"Ġincarn":11455,"Ġenters":11456,"Ġconfess":11457,"Ġbelieving":11458,"ophone":11459,"Ġmorrison":11460,"Ġspecifications":11461,"Ġordin":11462,"Ġwwii":11463,"Ġcruc":11464,"Ġmissionary":11465,"Ġfeelings":11466,"Ġsimpler":11467,"Ġescal":11468,"related":11469,"Ġowing":11470,"Ġfertility":11471,"Ġreconstruct":11472,"Ġshopping":11473,"Ġclimbing":11474,"Ġencryption":11475,"Ġpenguin":11476,"Ġjerome":11477,"Ġgutenberg":11478,"Ġazerbai":11479,"core":11480,"chem":11481,"Ġsina":11482,"Ġandy":11483,"Ġthail":11484,"Ġsear":11485,"Ġbee":11486,"Ġrt":11487,"Ġarcher":11488,"Ġleagues":11489,"Ġclients":11490,"Ġspelled":11491,"Ġformul":11492,"Ġfeared":11493,"Ġirrig":11494,"Ġsuccesses":11495,"Ġepid":11496,"Ġeventual":11497,"owski":11498,"Ġimproving":11499,"Ġmuseums":11500,"Ġironically":11501,"Ġcrowned":11502,"Ġnumerals":11503,"Ġencounter":11504,"Ġisotopes":11505,"Ġthailand":11506,"cular":11507,"eit":11508,"how":11509,"Ġfart":11510,"Ġfoster":11511,"Ġpon":11512,"Ġethern":11513,"tha":11514,"Ġworm":11515,"Ġintensity":11516,"Ġrelay":11517,"Ġfever":11518,"Ġfiled":11519,"Ġexponential":11520,"Ġvalued":11521,"Ġappeals":11522,"Ġpatents":11523,"Ġaddiction":11524,"Ġskull":11525,"Ġsolved":11526,"Ġtours":11527,"Ġfirearms":11528,"Ġflew":11529,"Ġgraduated":11530,"Ġcatalog":11531,"Ġinvestigations":11532,"Ġignor":11533,"Ġnicar":11534,"Ġpursuit":11535,"Ġrevenge":11536,"Ġvalidity":11537,"Ġfossils":11538,"Ġdisappear":11539,"Ġwittgen":11540,"Ġflemish":11541,"tically":11542,"hero":11543,"asis":11544,"Ġrs":11545,"Ġchan":11546,"arte":11547,"Ġhaven":11548,"ibus":11549,"Ġscr":11550,"atern":11551,"Ġserge":11552,"Ġsubc":11553,"Ġoffsh":11554,"Ġharb":11555,"Ġdesigners":11556,"Ġverses":11557,"Ġmerit":11558,"Ġtraveling":11559,"Ġutah":11560,"Ġlayout":11561,"Ġcollectively":11562,"Ġrebels":11563,"Ġassembled":11564,"Ġsinatra":11565,"Ġfantastic":11566,"Ġaims":11567,"Ġsharon":11568,"Ġhonorary":11569,"Ġdisciples":11570,"Ġattractive":11571,"Ġdaleks":11572,"Ġaggressive":11573,"Ġloosely":11574,"Ġdeployed":11575,"Ġacoustic":11576,"Ġbattalion":11577,"Ġgymn":11578,"Ġethernet":11579,"Ġwittgenstein":11580,"cr":11581,"vas":11582,"encer":11583,"Ġwants":11584,"Ġza":11585,"Ġstol":11586,"ripp":11587,"sea":11588,"Ġmanage":11589,"Ġintercept":11590,"Ġupgrad":11591,"Ġoffense":11592,"Ġherm":11593,"Ġjeh":11594,"Ġrussians":11595,"eches":11596,"Ġcombining":11597,"Ġpossessed":11598,"Ġheracles":11599,"Ġsteady":11600,"Ġmaurice":11601,"Ġsketch":11602,"Ġastrology":11603,"Ġabundant":11604,"Ġhurricane":11605,"ections":11606,"rics":11607,"Ġti":11608,"Ġaq":11609,"rels":11610,"Ġbri":11611,"Ġluthor":11612,"Ġblitz":11613,"Ġincons":11614,"Ġslot":11615,"Ġprototype":11616,"Ġprotestants":11617,"Ġcruel":11618,"Ġmunich":11619,"Ġskilled":11620,"Ġcookies":11621,"Ġimaginary":11622,"Ġswitched":11623,"Ġshapes":11624,"Ġabsorb":11625,"Ġkabul":11626,"Ġpractitioners":11627,"Ġkryptonite":11628,"Ġoutbreak":11629,"found":11630,"Ġcet":11631,"Ġpine":11632,"Ġdop":11633,"Ġhood":11634,"Ġbyron":11635,"Ġrating":11636,"Ġclo":11637,"class":11638,"landers":11639,"Ġcentaur":11640,"Ġemir":11641,"Ġblank":11642,"Ġoverlo":11643,"Ġseeks":11644,"Ġsubtle":11645,"Ġbrune":11646,"Ġharper":11647,"psy":11648,"Ġcyt":11649,"Ġanna":11650,"Ġderive":11651,"Ġmorse":11652,"Ġsummar":11653,"Ġcontributing":11654,"Ġpacket":11655,"Ġcelebrity":11656,"Ġhaydn":11657,"Ġisolation":11658,"Ġkidn":11659,"Ġpartnership":11660,"Ġburgund":11661,"Ġammonia":11662,"Ġarsenal":11663,"Ġqaeda":11664,"Ġsemiconductor":11665,"Ġbrunswick":11666,"ku":11667,"notes":11668,"inum":11669,"Ġserm":11670,"Ġsisters":11671,"Ġfont":11672,"Ġecc":11673,"Ġhr":11674,"Ġlennon":11675,"roads":11676,"Ġgauss":11677,"Ġashes":11678,"Ġconject":11679,"Ġexcommun":11680,"odus":11681,"Ġenzyme":11682,"Ġshaw":11683,"Ġclan":11684,"cliffe":11685,"ucer":11686,"otho":11687,"Ġxp":11688,"Ġmonty":11689,"Ġdiscourse":11690,"Ġopenly":11691,"naeus":11692,"Ġfrust":11693,"Ġarabian":11694,"Ġmelbourne":11695,"Ġhello":11696,"Ġattribute":11697,"Ġmandatory":11698,"Ġdefendant":11699,"Ġabsorption":11700,"aan":11701,"mic":11702,"atist":11703,"Ġbots":11704,"Ġpes":11705,"Ġnose":11706,"Ġdns":11707,"etically":11708,"Ġheated":11709,"Ġexiled":11710,"Ġpled":11711,"Ġintr":11712,"Ġresemble":11713,"Ġblacks":11714,"Ġevac":11715,"cker":11716,"Ġchoosing":11717,"Ġparker":11718,"Ġminds":11719,"ourage":11720,"Ġcelebrate":11721,"Ġmistaken":11722,"Ġcoupled":11723,"Ġloyalty":11724,"Ġsculpture":11725,"Ġtensions":11726,"borne":11727,"Ġduplicate":11728,"Ġheresy":11729,"Ġsabbath":11730,"Ġcron":11731,"Ġbam":11732,"Ġwishes":11733,"Ġgul":11734,"Ġasks":11735,"Ġheating":11736,"Ġadds":11737,"Ġspeeches":11738,"Ġfee":11739,"Ġoutdo":11740,"Ġattractions":11741,"Ġincest":11742,"Ġhermann":11743,"Ġextr":11744,"Ġlawyers":11745,"Ġdayton":11746,"Ġharder":11747,"Ġdancer":11748,"iffel":11749,"Ġfortress":11750,"Ġpaperback":11751,"Ġdependence":11752,"Ġsimplified":11753,"Ġprophecy":11754,"Ġhawaiian":11755,"Ġfertil":11756,"Ġmetallica":11757,"Ġtemporarily":11758,"Ġvulnerable":11759,"dynam":11760,"ozo":11761,"zan":11762,"Ġsack":11763,"Ġcic":11764,"anor":11765,"icia":11766,"lections":11767,"Ġproc":11768,"opot":11769,"agua":11770,"pha":11771,"Ġregiment":11772,"Ġflute":11773,"isexual":11774,"ructive":11775,"Ġcounsel":11776,"Ġeverywhere":11777,"Ġruins":11778,"Ġtownship":11779,"Ġcompetitors":11780,"Ġsnake":11781,"Ġcube":11782,"Ġprevention":11783,"Ġmask":11784,"Ġequivalence":11785,"Ġfeudal":11786,"Ġbluet":11787,"Ġcancelled":11788,"Ġmasculine":11789,"analysis":11790,"Ġdecisive":11791,"Ġithaca":11792,"Ġralph":11793,"Ġtune":11794,"hea":11795,"Ġsends":11796,"Ġdump":11797,"Ġlp":11798,"amer":11799,"Ġally":11800,"Ġjagu":11801,"Ġmoor":11802,"arson":11803,"Ġappar":11804,"Ġappend":11805,"Ġeden":11806,"Ġsaul":11807,"Ġbuffer":11808,"Ġrequested":11809,"Ġjewel":11810,"Ġjustification":11811,"Ġdias":11812,"enegger":11813,"Ġlightning":11814,"Ġcombine":11815,"Ġsupernatural":11816,"Ġstrongest":11817,"Ġmerger":11818,"Ġtouring":11819,"Ġcontinuously":11820,"uki":11821,"Ġrepeat":11822,"Ġlinguists":11823,"Ġachievements":11824,"Ġprepare":11825,"Ġanalogous":11826,"Ġkilometres":11827,"Ġallegations":11828,"Ġaspir":11829,"Ġhacker":11830,"Ġchromosome":11831,"Ġoverthrow":11832,"Ġcommemor":11833,"Ġcypriot":11834,"nals":11835,"Ġtz":11836,"Ġml":11837,"Ġanonymous":11838,"Ġdent":11839,"roid":11840,"lett":11841,"iliary":11842,"Ġhealing":11843,"Ġpla":11844,"Ġeleanor":11845,"Ġintervals":11846,"Ġexplored":11847,"Ġconcur":11848,"Ġglad":11849,"Ġchel":11850,"Ġthreats":11851,"Ġmonthly":11852,"Ġcatalyst":11853,"Ġforums":11854,"Ġinquiry":11855,"Ġneighbouring":11856,"Ġcarthage":11857,"Ġschwarzenegger":11858,"Ġhudson":11859,"Ġczechoslovakia":11860,"mers":11861,"namese":11862,"oire":11863,"Ġct":11864,"Ġcue":11865,"Ġcaves":11866,"Ġbiz":11867,"Ġseb":11868,"Ġald":11869,"Ġrip":11870,"Ġchim":11871,"ogram":11872,"Ġshang":11873,"Ġrah":11874,"Ġundergraduate":11875,"Ġcaps":11876,"ups":11877,"Ġalbeit":11878,"Ġoxide":11879,"Ġviolation":11880,"Ġtemperate":11881,"Ġhopkins":11882,"Ġcomposite":11883,"Ġpayment":11884,"Ġobservances":11885,"Ġmarshal":11886,"Ġpraise":11887,"Ġperfectly":11888,"Ġvietnamese":11889,"Ġtactical":11890,"Ġattendance":11891,"Ġbachelor":11892,"Ġbrunei":11893,"oard":11894,"Ġinclusion":11895,"Ġnfc":11896,"Ġds":11897,"Ġgill":11898,"Ġzappa":11899,"stand":11900,"Ġalps":11901,"etta":11902,"Ġconrad":11903,"Ġunch":11904,"acco":11905,"iae":11906,"pted":11907,"Ġmanuel":11908,"ffman":11909,"Ġguin":11910,"Ġperformers":11911,"Ġwinters":11912,"Ġempress":11913,"Ġfras":11914,"Ġdebated":11915,"Ġdominion":11916,"Ġdetermines":11917,"Ġvend":11918,"Ġscreens":11919,"Ġvacc":11920,"Ġclarinet":11921,"Ġprospect":11922,"Ġtelephones":11923,"Ġeliminate":11924,"Ġplatforms":11925,"Ġtrends":11926,"Ġdickens":11927,"Ġcapitol":11928,"Ġassessment":11929,"Ġgustav":11930,"Ġprecipitation":11931,"Ġerosion":11932,"Ġbolivia":11933,"Ġdiacrit":11934,"aa":11935,"gom":11936,"had":11937,"Ġtenth":11938,"Ġcen":11939,"Ġnl":11940,"Ġhank":11941,"Ġgb":11942,"Ġgaza":11943,"ctive":11944,"utable":11945,"opl":11946,"Ġusd":11947,"ivan":11948,"iper":11949,"ulture":11950,"Ġcharity":11951,"lli":11952,"Ġviewers":11953,"Ġlimestone":11954,"Ġvictories":11955,"Ġprogrammer":11956,"Ġfaithful":11957,"Ġgnostic":11958,"Ġodds":11959,"Ġfeminine":11960,"Ġmysterious":11961,"Ġchromosomes":11962,"atories":11963,"Ġmast":11964,"Ġlub":11965,"Ġthorn":11966,"ilis":11967,"urus":11968,"iano":11969,"Ġspite":11970,"Ġteut":11971,"Ġmarble":11972,"Ġtransist":11973,"Ġlob":11974,"Ġharvey":11975,"Ġbelievers":11976,"Ġradius":11977,"Ġsimilarity":11978,"Ġsuperst":11979,"Ġfails":11980,"Ġimperfect":11981,"Ġkhmer":11982,"Ġferry":11983,"Ġdraws":11984,"Ġboxer":11985,"Ġapartment":11986,"Ġnigeria":11987,"Ġinnovations":11988,"Ġthrowing":11989,"Ġinserted":11990,"Ġcasualties":11991,"Ġprevalent":11992,"Ġchallenges":11993,"Ġauxiliary":11994,"master":11995,"Ġaided":11996,"Ġbia":11997,"esco":11998,"Ġinject":11999,"Ġeuse":12000,"Ġgaming":12001,"Ġbeth":12002,"Ġmock":12003,"Ġexodus":12004,"Ġneur":12005,"Ġtraces":12006,"Ġpeel":12007,"Ġinfected":12008,"Ġxiv":12009,"Ġeconomically":12010,"Ġdomination":12011,"Ġliteral":12012,"Ġpetition":12013,"Ġdukes":12014,"Ġaston":12015,"Ġpromotion":12016,"Ġtourists":12017,"Ġvenus":12018,"Ġcamel":12019,"Ġbrowns":12020,"Ġdissol":12021,"Ġsaving":12022,"grade":12023,"Ġpursue":12024,"Ġparadig":12025,"Ġprohibition":12026,"Ġinduction":12027,"Ġhumorous":12028,"Ġmotivated":12029,"Ġchrys":12030,"width":12031,"Ġbord":12032,"Ġbrick":12033,"Ġmakers":12034,"Ġnaked":12035,"Ġeiffel":12036,"Ġlil":12037,"Ġconductor":12038,"ums":12039,"Ġspat":12040,"arest":12041,"Ġxavier":12042,"Ġmemories":12043,"Ġbench":12044,"Ġapproximate":12045,"Ġdestroying":12046,"Ġprague":12047,"Ġlifestyle":12048,"Ġdoubled":12049,"Ġchambers":12050,"Ġgospels":12051,"Ġnomine":12052,"recht":12053,"Ġbaghd":12054,"Ġtheorists":12055,"Ġdisappoint":12056,"Ġfierce":12057,"Ġlogarithm":12058,"Ġanxiety":12059,"Ġcontemporaries":12060,"Ġflesh":12061,"gus":12062,"hs":12063,"Ġsins":12064,"Ġpand":12065,"Ġmold":12066,"Ġhale":12067,"Ġhull":12068,"Ġstops":12069,"Ġalam":12070,"Ġvand":12071,"Ġexempt":12072,"Ġsuited":12073,"Ġsomewhere":12074,"Ġphant":12075,"Ġhighlight":12076,"Ġkepler":12077,"Ġhandled":12078,"Ġdiat":12079,"Ġconnot":12080,"Ġsilicon":12081,"borough":12082,"Ġcalculate":12083,"Ġexpectancy":12084,"Ġwilder":12085,"Ġdemonstration":12086,"Ġluis":12087,"Ġgibson":12088,"Ġarchaeology":12089,"Ġexhibition":12090,"Ġaege":12091,"Ġdodgers":12092,"Ġarmenia":12093,"Ġprompted":12094,"Ġaesthetic":12095,"Ġmetaphysics":12096,"Ġexhaust":12097,"Ġrectang":12098,"Ġwavelength":12099,"Ġtribunal":12100,"Ġdwarf":12101,"Ġendeav":12102,"Ġazerbaijan":12103,"Ġsoup":12104,"Ġwore":12105,"Ġmim":12106,"Ġmate":12107,"Ġnih":12108,"Ġkol":12109,"Ġrg":12110,"Ġrite":12111,"Ġfourier":12112,"riages":12113,"aby":12114,"agi":12115,"Ġemission":12116,"Ġfees":12117,"Ġthrust":12118,"Ġdetection":12119,"Ġdiary":12120,"boys":12121,"Ġvectors":12122,"Ġkeyboards":12123,"Ġecosystem":12124,"Ġtraded":12125,"Ġflexible":12126,"Ġtobacco":12127,"Ġsurname":12128,"roughs":12129,"Ġerected":12130,"dd":12131,"lance":12132,"Ġtak":12133,"Ġisab":12134,"amas":12135,"Ġkyr":12136,"Ġrises":12137,"uman":12138,"Ġarrive":12139,"Ġmanagers":12140,"Ġaggreg":12141,"Ġovercome":12142,"Ġcontinuation":12143,"Ġfores":12144,"Ġcareful":12145,"Ġtransliter":12146,"awed":12147,"Ġfailing":12148,"Ġhydra":12149,"Ġmiscon":12150,"Ġmadrid":12151,"Ġpriority":12152,"Ġemphasized":12153,"space":12154,"Ġschemes":12155,"Ġmanifold":12156,"Ġharmonica":12157,"Ġcomprises":12158,"Ġexercised":12159,"Ġmacedonia":12160,"Ġplayoffs":12161,"Ġinterstate":12162,"Ġrecurring":12163,"Ġingredients":12164,"otechnology":12165,"Ġbluetooth":12166,"gg":12167,"lu":12168,"rational":12169,"Ġaerial":12170,"erving":12171,"onal":12172,"Ġware":12173,"Ġpis":12174,"Ġdante":12175,"Ġlus":12176,"Ġgw":12177,"Ġree":12178,"acles":12179,"ogly":12180,"Ġclap":12181,"elli":12182,"Ġupl":12183,"plus":12184,"Ġnewfound":12185,"Ġpecul":12186,"Ġparity":12187,"erton":12188,"Ġsmart":12189,"Ġdiffering":12190,"Ġimpressive":12191,"Ġconfront":12192,"Ġeffectiveness":12193,"Ġoppose":12194,"Ġmagical":12195,"Ġbios":12196,"Ġassociates":12197,"Ġborne":12198,"Ġpainters":12199,"Ġjournals":12200,"Ġminorities":12201,"Ġpunch":12202,"Ġestablishments":12203,"Ġpaying":12204,"Ġheroin":12205,"Ġcontroller":12206,"Ġdictionaries":12207,"Ġapostolic":12208,"Ġallegiance":12209,"Ġfertile":12210,"Ġkyoto":12211,"Ġveterans":12212,"Ġinferior":12213,"Ġcoronation":12214,"Ġfriday":12215,"Ġpeculiar":12216,"oge":12217,"Ġacl":12218,"heres":12219,"Ġbisexual":12220,"omination":12221,"iri":12222,"Ġhistories":12223,"Ġacres":12224,"Ġdiscography":12225,"Ġswift":12226,"Ġdrinks":12227,"Ġdomains":12228,"Ġangular":12229,"Ġjudic":12230,"Ġcoptic":12231,"Ġreporting":12232,"Ġdebates":12233,"ipping":12234,"Ġsilence":12235,"Ġtheatrical":12236,"Ġtamil":12237,"Ġhazard":12238,"Ġalgae":12239,"Ġheterosexual":12240,"Ġpeasants":12241,"Ġafrika":12242,"Ġbrilliant":12243,"Ġartifacts":12244,"cou":12245,"mod":12246,"pher":12247,"Ġfrit":12248,"Ġmint":12249,"Ġeph":12250,"Ġsects":12251,"Ġbeef":12252,"Ġasym":12253,"Ġhez":12254,"Ġitu":12255,"Ġrally":12256,"abas":12257,"Ġneh":12258,"Ġleip":12259,"Ġboiling":12260,"Ġconscription":12261,"Ġengra":12262,"Ġendors":12263,"Ġmature":12264,"Ġarmoured":12265,"Ġvalve":12266,"Ġesa":12267,"Ġoccult":12268,"Ġhandbook":12269,"Ġjustified":12270,"Ġmicros":12271,"Ġceo":12272,"ucker":12273,"Ġtimor":12274,"holm":12275,"Ġconsumed":12276,"Ġalternatively":12277,"Ġfastest":12278,"Ġastronomers":12279,"Ġchilean":12280,"otherapy":12281,"Ġrifles":12282,"Ġprosecution":12283,"Ġneighbors":12284,"Ġbankruptcy":12285,"Ġintercourse":12286,"Ġvenezuela":12287,"Ġgehrig":12288,"opotam":12289,"away":12290,"far":12291,"fra":12292,"gam":12293,"hand":12294,"Ġsierra":12295,"Ġbust":12296,"Ġpour":12297,"Ġporn":12298,"Ġbeads":12299,"Ġunrest":12300,"abad":12301,"Ġenroll":12302,"Ġlean":12303,"Ġfirms":12304,"Ġconsul":12305,"Ġdefending":12306,"Ġartem":12307,"Ġmetre":12308,"Ġfranks":12309,"Ġtram":12310,"Ġpressures":12311,"Ġpostal":12312,"Ġaccession":12313,"Ġecological":12314,"Ġdistributions":12315,"Ġtiming":12316,"Ġcartoons":12317,"Ġgnome":12318,"marks":12319,"Ġscripts":12320,"Ġdoubles":12321,"Ġmontgom":12322,"Ġrepublicans":12323,"Ġanalytic":12324,"Ġpeaks":12325,"Ġkirk":12326,"Ġtheologians":12327,"roscopic":12328,"Ġlatvian":12329,"Ġmontgomery":12330,"lings":12331,"pat":12332,"Ġgast":12333,"urgy":12334,"Ġchiang":12335,"Ġabn":12336,"rup":12337,"Ġsoap":12338,"Ġpercept":12339,"Ġgrouped":12340,"Ġtriv":12341,"Ġangry":12342,"Ġrepublics":12343,"Ġcircus":12344,"Ġdiscusses":12345,"Ġoccupy":12346,"Ġtaxation":12347,"Ġquestioned":12348,"Ġwarsaw":12349,"Ġfocusing":12350,"Ġvegetation":12351,"Ġelimination":12352,"Ġleonard":12353,"Ġswords":12354,"Ġamplifier":12355,"Ġnicknamed":12356,"Ġgabon":12357,"Ġexcluding":12358,"Ġventure":12359,"Ġarrows":12360,"Ġwarriors":12361,"Ġbloom":12362,"Ġesoteric":12363,"Ġpresbyter":12364,"Ġleipzig":12365,"oese":12366,"pow":12367,"inas":12368,"Ġcres":12369,"Ġwander":12370,"Ġnerve":12371,"icular":12372,"Ġgin":12373,"hth":12374,"eta":12375,"Ġkeral":12376,"Ġrw":12377,"ogens":12378,"Ġrelie":12379,"Ġattain":12380,"Ġcarved":12381,"Ġflip":12382,"Ġbelize":12383,"Ġrealistic":12384,"Ġfarms":12385,"Ġspecially":12386,"Ġsexually":12387,"Ġgreenhouse":12388,"Ġresponses":12389,"Ġcongressional":12390,"Ġrotating":12391,"Ġpalestinians":12392,"Ġseattle":12393,"Ġelevator":12394,"Ġcosmology":12395,"Ġhypothes":12396,"Ġbogart":12397,"Ġcoercion":12398,"Ġpercuss":12399,"couver":12400,"bone":12401,"Ġaol":12402,"inos":12403,"Ġthera":12404,"Ġcau":12405,"Ġfric":12406,"enes":12407,"Ġbb":12408,"Ġbism":12409,"Ġpose":12410,"Ġhuss":12411,"Ġviv":12412,"Ġnev":12413,"Ġambit":12414,"version":12415,"Ġboole":12416,"Ġblast":12417,"conn":12418,"Ġdeposed":12419,"Ġdevon":12420,"Ġcairo":12421,"Ġwalt":12422,"Ġmacdonald":12423,"Ġabsent":12424,"Ġspiral":12425,"Ġstrait":12426,"Ġflee":12427,"Ġsusan":12428,"Ġcdots":12429,"Ġinnocent":12430,"Ġprominence":12431,"Ġanarchists":12432,"Ġcrystals":12433,"Ġcomprising":12434,"Ġbrigade":12435,"Ġmetaphor":12436,"Ġwelcome":12437,"Ġoklah":12438,"Ġenterprises":12439,"Ġsymmetry":12440,"Ġscandinavia":12441,"Ġdianetics":12442,"Ġadequate":12443,"Ġkinetic":12444,"Ġdiaspor":12445,"Ġoklahoma":12446,"hop":12447,"Ġumb":12448,"Ġci":12449,"Ġwages":12450,"alan":12451,"alid":12452,"Ġmam":12453,"Ġnons":12454,"icul":12455,"ingham":12456,"Ġreorgan":12457,"Ġstance":12458,"Ġunrelated":12459,"quest":12460,"duc":12461,"Ġagenda":12462,"Ġmarl":12463,"Ġpoetic":12464,"Ġcrude":12465,"Ġprotagon":12466,"Ġcirculation":12467,"Ġisraelites":12468,"Ġhitting":12469,"Ġcuts":12470,"Ġarchitects":12471,"autical":12472,"Ġrhodes":12473,"urable":12474,"Ġvancouver":12475,"Ġtuning":12476,"Ġclosing":12477,"Ġproposals":12478,"athetic":12479,"Ġticket":12480,"Ġfreemason":12481,"des":12482,"Ġtt":12483,"Ġtiber":12484,"Ġsene":12485,"Ġbsd":12486,"Ġpero":12487,"Ġmik":12488,"Ġdared":12489,"ceae":12490,"ersen":12491,"rible":12492,"Ġconfined":12493,"Ġmarking":12494,"Ġsuccessors":12495,"Ġhelm":12496,"Ġsuperf":12497,"Ġcardinals":12498,"Ġpotter":12499,"Ġscriptures":12500,"Ġpossessions":12501,"Ġplanetary":12502,"Ġdinosaur":12503,"Ġdjib":12504,"Ġcomprise":12505,"Ġlabeled":12506,"Ġasserted":12507,"Ġtolerance":12508,"Ġhypnosis":12509,"Ġscandinavian":12510,"Ġobscure":12511,"Ġfitzger":12512,"Ġconversely":12513,"Ġacronym":12514,"Ġcobain":12515,"obe":12516,"pent":12517,"tv":12518,"vik":12519,"Ġain":12520,"Ġtheft":12521,"Ġcement":12522,"Ġfond":12523,"anim":12524,"eding":12525,"Ġnomen":12526,"uta":12527,"ulator":12528,"Ġvil":12529,"emon":12530,"alling":12531,"Ġamn":12532,"Ġhasid":12533,"Ġdoz":12534,"Ġdozen":12535,"Ġsubordin":12536,"Ġattitudes":12537,"Ġairways":12538,"Ġcurves":12539,"Ġmodest":12540,"Ġbrew":12541,"Ġfunctioning":12542,"Ġaddressing":12543,"Ġacquire":12544,"Ġbombard":12545,"Ġrangle":12546,"Ġquarterback":12547,"Ġchaucer":12548,"Ġexplosives":12549,"Ġcouples":12550,"Ġtigers":12551,"Ġinsect":12552,"Ġcongregation":12553,"Ġtubes":12554,"Ġimmortal":12555,"Ġunexpected":12556,"Ġgabriel":12557,"py":12558,"Ġmk":12559,"Ġsegments":12560,"urer":12561,"Ġjail":12562,"opular":12563,"soon":12564,"Ġclou":12565,"Ġallan":12566,"Ġformulated":12567,"Ġacclaimed":12568,"Ġloch":12569,"Ġbrings":12570,"Ġrunways":12571,"Ġglen":12572,"Ġhardly":12573,"Ġfallacy":12574,"Ġdegrad":12575,"Ġcastile":12576,"Ġnetworking":12577,"Ġmixing":12578,"Ġcalculator":12579,"Ġcorrection":12580,"Ġlicenses":12581,"Ġreveal":12582,"Ġjudgement":12583,"Ġexplanations":12584,"Ġsummers":12585,"Ġpipe":12586,"Ġeaten":12587,"Ġpreceded":12588,"Ġjoyce":12589,"dorff":12590,"Ġreversed":12591,"Ġstereoty":12592,"Ġprosperity":12593,"Ġreprinted":12594,"Ġfitzgerald":12595,"beth":12596,"iam":12597,"jud":12598,"Ġwart":12599,"Ġdum":12600,"Ġhod":12601,"Ġgaz":12602,"Ġsep":12603,"child":12604,"Ġdewe":12605,"Ġramp":12606,"Ġfourteen":12607,"Ġintensive":12608,"oku":12609,"Ġattending":12610,"Ġeddie":12611,"Ġproviders":12612,"Ġreleasing":12613,"bollah":12614,"Ġsentenced":12615,"Ġconditional":12616,"Ġboxes":12617,"Ġacquisition":12618,"Ġillustration":12619,"Ġphonem":12620,"ridges":12621,"Ġlegitim":12622,"Ġearthquakes":12623,"Ġrebuilt":12624,"Ġresignation":12625,"Ġaphrod":12626,"Ġpyramid":12627,"Ġmotto":12628,"Ġeusebius":12629,"jor":12630,"mad":12631,"mail":12632,"ye":12633,"isch":12634,"Ġmish":12635,"Ġnie":12636,"Ġego":12637,"Ġrivals":12638,"Ġvass":12639,"odic":12640,"Ġshannon":12641,"Ġspider":12642,"Ġnoir":12643,"Ġregent":12644,"Ġrepet":12645,"Ġincidents":12646,"Ġinvas":12647,"Ġsuppressed":12648,"Ġdrunk":12649,"Ġreads":12650,"inki":12651,"Ġdeclare":12652,"Ġpsal":12653,"Ġimplicit":12654,"holders":12655,"writing":12656,"Ġelephants":12657,"Ġapproximation":12658,"Ġunstable":12659,"Ġbaghdad":12660,"Ġkyrgy":12661,"rum":12662,"ski":12663,"wi":12664,"words":12665,"Ġmaker":12666,"Ġness":12667,"utt":12668,"Ġmoist":12669,"acon":12670,"Ġarises":12671,"illo":12672,"Ġyel":12673,"agh":12674,"Ġspra":12675,"Ġdisgu":12676,"Ġsof":12677,"Ġgrants":12678,"Ġpeers":12679,"Ġquint":12680,"Ġsouls":12681,"Ġdecree":12682,"Ġvalleys":12683,"Ġskating":12684,"Ġvolta":12685,"Ġdevised":12686,"Ġempires":12687,"Ġblackadder":12688,"Ġstructured":12689,"Ġalternatives":12690,"Ġtribut":12691,"Ġmessiah":12692,"Ġoptional":12693,"Ġconverts":12694,"Ġimperialism":12695,"Ġmontreal":12696,"Ġunpopular":12697,"Ġdecreased":12698,"Ġnephew":12699,"Ġtetra":12700,"Ġweakened":12701,"Ġguarantee":12702,"Ġharpsich":12703,"Ġbotswana":12704,"Ġkyrgyz":12705,"gent":12706,"Ġaster":12707,"reated":12708,"atche":12709,"Ġwra":12710,"esia":12711,"Ġinequ":12712,"arre":12713,"Ġlone":12714,"leading":12715,"omach":12716,"Ġhey":12717,"Ġmaneu":12718,"Ġadmit":12719,"keeping":12720,"Ġeminem":12721,"Ġbasically":12722,"Ġherman":12723,"Ġcurric":12724,"Ġgraff":12725,"Ġpossibilities":12726,"Ġtempl":12727,"Ġalbat":12728,"Ġconstitutes":12729,"Ġsynag":12730,"Ġcostume":12731,"Ġburk":12732,"Ġhonored":12733,"Ġecumen":12734,"Ġcreationism":12735,"Ġcontainer":12736,"Ġcommentators":12737,"Ġprotective":12738,"Ġqualified":12739,"Ġeldest":12740,"Ġepistem":12741,"Ġsubstitute":12742,"Ġguyana":12743,"Ġkurdish":12744,"Ġgifts":12745,"Ġconstituent":12746,"Ġresolve":12747,"Ġalchemy":12748,"Ġmonday":12749,"Ġextermin":12750,"Ġhobbes":12751,"Ġguidance":12752,"Ġsony":12753,"Ġmund":12754,"unning":12755,"Ġexert":12756,"Ġneb":12757,"Ġmanit":12758,"pert":12759,"Ġrows":12760,"Ġcoloured":12761,"Ġapolog":12762,"onscious":12763,"Ġcarroll":12764,"Ġuniversit":12765,"Ġbrist":12766,"Ġcrater":12767,"Ġriots":12768,"Ġetrus":12769,"Ġbroader":12770,"Ġsanction":12771,"Ġchoices":12772,"Ġthinkers":12773,"Ġcruise":12774,"Ġchronology":12775,"Ġsearching":12776,"Ġelevated":12777,"Ġadaptations":12778,"Ġinnovative":12779,"Ġmercen":12780,"Ġexploitation":12781,"Ġobligations":12782,"Ġtreasury":12783,"Ġsqrt":12784,"Ġpetersburg":12785,"Ġdictatorship":12786,"Ġgeoffrey":12787,"Ġplaywright":12788,"Ġthumb":12789,"storm":12790,"imeters":12791,"Ġenable":12792,"Ġcommut":12793,"phone":12794,"Ġparade":12795,"Ġbelo":12796,"Ġcurs":12797,"Ġinsisted":12798,"Ġswamp":12799,"Ġideological":12800,"Ġbalk":12801,"Ġaragon":12802,"Ġdeclares":12803,"Ġtalib":12804,"Ġsilk":12805,"Ġcolonization":12806,"Ġflowing":12807,"Ġseemingly":12808,"Ġincorporate":12809,"written":12810,"Ġpierce":12811,"Ġprinter":12812,"Ġswitching":12813,"Ġphysicists":12814,"Ġenforced":12815,"Ġvolunteer":12816,"Ġpeasant":12817,"Ġviking":12818,"Ġmozart":12819,"Ġpilgrim":12820,"Ġcompulsory":12821,"Ġaegean":12822,"Ġhezbollah":12823,"cat":12824,"hai":12825,"lia":12826,"itian":12827,"Ġinver":12828,"Ġmikh":12829,"Ġdose":12830,"Ġlon":12831,"olia":12832,"Ġsue":12833,"ogene":12834,"Ġrelates":12835,"Ġfears":12836,"Ġcarm":12837,"Ġsecured":12838,"Ġincred":12839,"Ġeuchar":12840,"neys":12841,"Ġfreud":12842,"Ġaffection":12843,"Ġdominate":12844,"Ġputs":12845,"Ġmisunder":12846,"Ġbounded":12847,"Ġbreakdown":12848,"Ġwikis":12849,"Ġbowling":12850,"Ġtargeted":12851,"Ġreflecting":12852,"Ġadmission":12853,"Ġbombers":12854,"Ġbinomial":12855,"acci":12856,"Ġanchorage":12857,"Ġceremonial":12858,"Ġtroubles":12859,"Ġprehistoric":12860,"Ġtragedy":12861,"Ġextrater":12862,"Ġguinness":12863,"Ġambitious":12864,"Ġdewey":12865,"Ġalbatross":12866,"cro":12867,"vana":12868,"Ġcv":12869,"Ġcbs":12870,"Ġwip":12871,"arity":12872,"Ġseld":12873,"chat":12874,"Ġchase":12875,"Ġunification":12876,"Ġexagger":12877,"ardi":12878,"Ġimpe":12879,"Ġformulation":12880,"Ġlinking":12881,"lier":12882,"Ġdiscord":12883,"Ġlateral":12884,"Ġmodifications":12885,"Ġbacking":12886,"Ġservant":12887,"Ġdeny":12888,"Ġproductive":12889,"Ġtruck":12890,"Ġfutur":12891,"Ġcriticised":12892,"Ġivory":12893,"Ġconnects":12894,"Ġabbot":12895,"Ġmountainous":12896,"Ġsporting":12897,"Ġmammal":12898,"Ġnutri":12899,"Ġsurvivors":12900,"Ġartemis":12901,"Ġdiaspora":12902,"jab":12903,"wind":12904,"Ġfy":12905,"Ġbess":12906,"Ġwax":12907,"Ġanab":12908,"Ġhew":12909,"Ġkub":12910,"Ġproclamation":12911,"Ġvag":12912,"Ġneumann":12913,"Ġmanpower":12914,"Ġadvers":12915,"Ġbloc":12916,"Ġinterd":12917,"Ġxv":12918,"Ġsuppress":12919,"Ġpublicity":12920,"Ġpopularized":12921,"Ġarchaic":12922,"Ġannot":12923,"Ġsuperhero":12924,"Ġcello":12925,"Ġbalanced":12926,"Ġheavier":12927,"Ġglob":12928,"Ġlacked":12929,"Ġdrawings":12930,"Ġquarters":12931,"Ġdissolution":12932,"Ġmarxism":12933,"Ġbarbados":12934,"Ġathlete":12935,"Ġcharlotte":12936,"Ġmesopotam":12937,"Ġpulled":12938,"Ġcompatibility":12939,"Ġprivileges":12940,"Ġbeverages":12941,"Ġslovenia":12942,"finite":12943,"Ġlanka":12944,"cin":12945,"mal":12946,"Ġfda":12947,"isan":12948,"eses":12949,"Ġether":12950,"Ġlm":12951,"Ġbeet":12952,"Ġsta":12953,"Ġaligned":12954,"aku":12955,"Ġrachel":12956,"Ġdesper":12957,"Ġinvisible":12958,"archus":12959,"Ġdeton":12960,"Ġsometime":12961,"Ġterrestrial":12962,"Ġmilitia":12963,"Ġcanadians":12964,"Ġsteep":12965,"Ġfootage":12966,"Ġmacbeth":12967,"Ġloud":12968,"Ġcubs":12969,"Ġmadag":12970,"Ġpaths":12971,"Ġreveals":12972,"Ġgateway":12973,"Ġjungle":12974,"Ġhelsinki":12975,"Ġsebast":12976,"Ġdjibouti":12977,"Ġclouds":12978,"Ġmikhail":12979,"gia":12980,"nell":12981,"Ġou":12982,"Ġsart":12983,"Ġwan":12984,"Ġwives":12985,"esthood":12986,"Ġnurs":12987,"Ġdx":12988,"Ġdah":12989,"Ġdharma":12990,"igo":12991,"Ġaltar":12992,"Ġrk":12993,"Ġcomets":12994,"empl":12995,"Ġhispan":12996,"Ġclone":12997,"Ġafro":12998,"Ġregisters":12999,"Ġpriesthood":13000,"Ġviewing":13001,"Ġpressed":13002,"Ġverde":13003,"Ġsummon":13004,"Ġbalkan":13005,"Ġsquares":13006,"Ġfreedoms":13007,"Ġmelody":13008,"Ġanalytical":13009,"Ġaffects":13010,"Ġruby":13011,"Ġsarah":13012,"Ġresidential":13013,"Ġdelayed":13014,"Ġtemporal":13015,"Ġswimming":13016,"Ġhausdorff":13017,"Ġreservoir":13018,"Ġnehru":13019,"cence":13020,"Ġape":13021,"Ġfare":13022,"Ġbacks":13023,"Ġinability":13024,"Ġkai":13025,"Ġwhales":13026,"Ġunesco":13027,"Ġcompress":13028,"Ġmann":13029,"Ġadrian":13030,"Ġrelies":13031,"ensen":13032,"Ġfinest":13033,"Ġcontinents":13034,"Ġordering":13035,"ullah":13036,"Ġauthorized":13037,"Ġdiffusion":13038,"Ġaccepting":13039,"bras":13040,"Ġshaft":13041,"Ġdrove":13042,"Ġhanover":13043,"Ġjunction":13044,"Ġapostle":13045,"Ġleonardo":13046,"Ġtutorial":13047,"Ġlodge":13048,"Ġdeterior":13049,"Ġconclusions":13050,"cot":13051,"gang":13052,"kov":13053,"mans":13054,"rc":13055,"Ġaik":13056,"reck":13057,"Ġfc":13058,"enos":13059,"Ġmys":13060,"Ġnathan":13061,"arth":13062,"Ġek":13063,"asa":13064,"entric":13065,"Ġbeans":13066,"istically":13067,"Ġwholly":13068,"Ġsixteen":13069,"aba":13070,"Ġcompass":13071,"ptic":13072,"Ġprone":13073,"Ġafterlife":13074,"Ġinterim":13075,"Ġedwin":13076,"Ġwellington":13077,"Ġsurpass":13078,"Ġinscription":13079,"Ġlimiting":13080,"Ġholder":13081,"Ġpalmer":13082,"Ġburden":13083,"Ġsanctions":13084,"Ġfrankish":13085,"Ġcontinuum":13086,"Ġobserve":13087,"Ġfitted":13088,"naments":13089,"Ġmarcus":13090,"Ġfencing":13091,"Ġyahoo":13092,"Ġtheodore":13093,"Ġcounterparts":13094,"Ġenacted":13095,"Ġcollapsed":13096,"Ġregistration":13097,"cz":13098,"cip":13099,"gow":13100,"hett":13101,"reen":13102,"Ġcrom":13103,"anus":13104,"Ġbiod":13105,"itivity":13106,"Ġdign":13107,"Ġling":13108,"isting":13109,"Ġconvey":13110,"Ġrna":13111,"Ġuna":13112,"emia":13113,"Ġaboard":13114,"Ġreporter":13115,"Ġinca":13116,"neum":13117,"Ġlocke":13118,"iker":13119,"Ġreflection":13120,"Ġdiabet":13121,"Ġbirming":13122,"Ġbraille":13123,"Ġsocially":13124,"Ġcaffe":13125,"Ġanalys":13126,"Ġsunni":13127,"Ġsuggestion":13128,"Ġnights":13129,"Ġalphab":13130,"Ġstrain":13131,"Ġassumes":13132,"Ġcommittees":13133,"Ġbadly":13134,"Ġflavor":13135,"Ġprolong":13136,"Ġlicensing":13137,"Ġimprisonment":13138,"Ġpregnancy":13139,"Ġsulfur":13140,"Ġincompat":13141,"Ġnicaragua":13142,"Ġnewfoundland":13143,"Ġdozens":13144,"Ġbirmingham":13145,"ju":13146,"Ġaired":13147,"Ġsd":13148,"Ġcure":13149,"Ġmour":13150,"Ġnac":13151,"Ġears":13152,"Ġtowers":13153,"amic":13154,"Ġexempl":13155,"Ġleeds":13156,"ogues":13157,"Ġmanned":13158,"perm":13159,"Ġspher":13160,"Ġmeal":13161,"Ġeleg":13162,"Ġremarks":13163,"Ġfinals":13164,"Ġcurrents":13165,"Ġcrete":13166,"terson":13167,"Ġantig":13168,"Ġinsight":13169,"Ġepile":13170,"Ġrepresentations":13171,"Ġprincipally":13172,"Ġburroughs":13173,"Ġjournalism":13174,"Ġiliad":13175,"Ġabsolutely":13176,"Ġbomber":13177,"Ġbruno":13178,"Ġstuff":13179,"Ġtorture":13180,"Ġdeeper":13181,"Ġeugenics":13182,"Ġcauchy":13183,"haw":13184,"wave":13185,"Ġnin":13186,"Ġdots":13187,"Ġges":13188,"Ġzinc":13189,"Ġalm":13190,"Ġaryan":13191,"ochet":13192,"oglo":13193,"ounded":13194,"Ġremix":13195,"Ġextant":13196,"Ġretains":13197,"Ġgeneralized":13198,"Ġeligible":13199,"Ġsouthwestern":13200,"Ġprocessed":13201,"Ġcopied":13202,"Ġbandwidth":13203,"Ġprogrammes":13204,"ascript":13205,"Ġutter":13206,"Ġexpectations":13207,"ourable":13208,"Ġtunis":13209,"Ġcompilers":13210,"logy":13211,"spring":13212,"Ġharvest":13213,"Ġspectacular":13214,"Ġeditorial":13215,"Ġproceeded":13216,"Ġsuspension":13217,"Ġrivalry":13218,"Ġbengals":13219,"Ġdalek":13220,"Ġmotivation":13221,"Ġgrip":13222,"Ġrecreational":13223,"Ġrouge":13224,"Ġkabbalah":13225,"Ġptolemy":13226,"bur":13227,"mus":13228,"Ġpt":13229,"Ġeuras":13230,"Ġhurt":13231,"Ġzoo":13232,"sted":13233,"Ġsto":13234,"Ġstake":13235,"Ġprobe":13236,"Ġvor":13237,"Ġvest":13238,"Ġexit":13239,"Ġyang":13240,"Ġhadrian":13241,"Ġperl":13242,"Ġinfamous":13243,"Ġtransf":13244,"Ġinvarian":13245,"iolet":13246,"Ġautism":13247,"Ġdeveloper":13248,"Ġnumbering":13249,"loid":13250,"Ġmodulation":13251,"Ġpopularly":13252,"Ġbodh":13253,"Ġverbal":13254,"yleft":13255,"Ġaugment":13256,"Ġgrows":13257,"Ġsubjective":13258,"Ġseasonal":13259,"Ġcontroversies":13260,"Ġjesuit":13261,"Ġrolls":13262,"Ġcowboys":13263,"Ġshells":13264,"Ġearnhardt":13265,"Ġcheaper":13266,"Ġoxidation":13267,"Ġgambling":13268,"Ġassyrian":13269,"Ġcayman":13270,"Ġairplane":13271,"Ġsullivan":13272,"Ġnomencl":13273,"Ġmadagascar":13274,"yg":13275,"Ġtis":13276,"Ġcip":13277,"origin":13278,"aric":13279,"Ġkom":13280,"Ġkau":13281,"Ġriel":13282,"Ġrites":13283,"ema":13284,"Ġarbor":13285,"Ġspencer":13286,"Ġformations":13287,"Ġlois":13288,"Ġlover":13289,"Ġelector":13290,"ometric":13291,"Ġrightarrow":13292,"Ġsolids":13293,"Ġbrack":13294,"Ġtreatments":13295,"Ġcopyleft":13296,"Ġlowlands":13297,"Ġprobable":13298,"Ġburton":13299,"Ġpolynes":13300,"Ġkeeps":13301,"Ġkarate":13302,"Ġgradual":13303,"Ġresistant":13304,"Ġbahrain":13305,"Ġbattleships":13306,"Ġfeeding":13307,"Ġethiopian":13308,"Ġfavourite":13309,"Ġannexation":13310,"Ġukrainian":13311,"Ġpirates":13312,"Ġcomplementary":13313,"Ġmemoirs":13314,"Ġprecursor":13315,"pers":13316,"pical":13317,"hered":13318,"Ġought":13319,"Ġsake":13320,"Ġchen":13321,"edes":13322,"Ġinacc":13323,"icom":13324,"Ġdl":13325,"Ġdere":13326,"ouch":13327,"Ġstup":13328,"Ġvin":13329,"Ġunne":13330,"Ġyor":13331,"Ġshops":13332,"Ġamos":13333,"sover":13334,"Ġmanch":13335,"Ġrover":13336,"Ġioc":13337,"Ġweig":13338,"Ġspear":13339,"Ġpeg":13340,"ologic":13341,"Ġlaos":13342,"Ġwarhol":13343,"Ġbasel":13344,"Ġdemol":13345,"Ġrighteous":13346,"Ġgreet":13347,"Ġlandmark":13348,"Ġshortened":13349,"Ġlabels":13350,"Ġchecks":13351,"Ġhomeland":13352,"Ġgett":13353,"Ġbigger":13354,"Ġdefeats":13355,"Ġhalluc":13356,"Ġdisplaced":13357,"Ġtheoretically":13358,"Ġpanama":13359,"Ġrisks":13360,"Ġshoes":13361,"Ġcriminals":13362,"Ġdescendant":13363,"Ġowen":13364,"Ġalike":13365,"Ġsustained":13366,"Ġcultivation":13367,"Ġambiguous":13368,"Ġhymn":13369,"Ġcicero":13370,"Ġaphrodite":13371,"lies":13372,"rust":13373,"Ġsg":13374,"Ġsag":13375,"Ġeut":13376,"ilder":13377,"Ġchin":13378,"iances":13379,"Ġenerg":13380,"ills":13381,"Ġuz":13382,"Ġblan":13383,"Ġprejud":13384,"Ġeva":13385,"Ġreply":13386,"Ġmonastic":13387,"racted":13388,"Ġirrational":13389,"Ġconfident":13390,"Ġstandardized":13391,"Ġalbanians":13392,"Ġtitan":13393,"Ġgeorgian":13394,"Ġconceptual":13395,"Ġprevents":13396,"Ġprivately":13397,"Ġprotecting":13398,"Ġmoments":13399,"Ġpiercing":13400,"Ġgoths":13401,"achev":13402,"Ġwithdraw":13403,"Ġaeg":13404,"Ġjumping":13405,"Ġreceptor":13406,"Ġtremend":13407,"Ġfernando":13408,"Ġadherents":13409,"Ġvampire":13410,"Ġdeconstruction":13411,"Ġclapton":13412,"Ġboolean":13413,"ais":13414,"bic":13415,"cus":13416,"dan":13417,"Ġtran":13418,"erated":13419,"Ġsiber":13420,"Ġbing":13421,"Ġech":13422,"Ġlys":13423,"Ġbees":13424,"Ġbeow":13425,"imet":13426,"Ġkaf":13427,"Ġusenet":13428,"Ġemble":13429,"Ġrelied":13430,"Ġoverd":13431,"Ġedges":13432,"Ġdeficit":13433,"Ġfounders":13434,"Ġspeculated":13435,"Ġinspect":13436,"Ġmidnight":13437,"Ġbraves":13438,"Ġdelhi":13439,"Ġbattlefield":13440,"Ġcameo":13441,"Ġshipped":13442,"Ġfatty":13443,"Ġcustomary":13444,"Ġconfederacy":13445,"Ġfuels":13446,"Ġproceeds":13447,"Ġfrost":13448,"Ġconcerts":13449,"Ġatheist":13450,"Ġpseudo":13451,"Ġpredominant":13452,"Ġobligation":13453,"Ġrudolf":13454,"Ġprolific":13455,"covered":13456,"Ġcomplaints":13457,"Ġpompe":13458,"Ġstolen":13459,"Ġapparatus":13460,"Ġbeowulf":13461,"punk":13462,"Ġtcp":13463,"Ġtheta":13464,"Ġberm":13465,"Ġwu":13466,"itals":13467,"Ġthames":13468,"lee":13469,"ameral":13470,"urated":13471,"Ġcomor":13472,"avis":13473,"ordination":13474,"Ġagass":13475,"oki":13476,"Ġpopper":13477,"Ġxii":13478,"Ġendoc":13479,"Ġslope":13480,"Ġgrail":13481,"Ġdividing":13482,"Ġpatch":13483,"Ġpatric":13484,"Ġtreating":13485,"Ġdenomination":13486,"Ġregards":13487,"Ġtreason":13488,"Ġmeaningful":13489,"Ġabsurd":13490,"Ġadministrator":13491,"Ġdiscussing":13492,"Ġgarrison":13493,"Ġcricketer":13494,"Ġnegotiated":13495,"Ġlindy":13496,"Ġbaldwin":13497,"Ġaccusations":13498,"zhou":13499,"Ġlocomotives":13500,"Ġhobby":13501,"Ġfalkland":13502,"Ġarrays":13503,"Ġbristol":13504,"non":13505,"press":13506,"isse":13507,"Ġwished":13508,"Ġinference":13509,"Ġnbc":13510,"Ġdome":13511,"rock":13512,"Ġcone":13513,"Ġunlim":13514,"Ġyields":13515,"Ġnoting":13516,"Ġspears":13517,"Ġblades":13518,"Ġinfty":13519,"Ġevans":13520,"Ġlovers":13521,"Ġparan":13522,"Ġparas":13523,"Ġfilming":13524,"Ġslash":13525,"Ġlatt":13526,"Ġexplore":13527,"Ġmagist":13528,"Ġimportantly":13529,"Ġshoulder":13530,"Ġidentifying":13531,"Ġturbo":13532,"Ġmelan":13533,"Ġplatinum":13534,"Ġlucy":13535,"Ġspreading":13536,"Ġliecht":13537,"iformes":13538,"Ġatheists":13539,"Ġslovakia":13540,"Ġpedro":13541,"Ġrigid":13542,"Ġcartoonist":13543,"Ġmanifesto":13544,"Ġxxx":13545,"Ġmystical":13546,"asmus":13547,"Ġindirectly":13548,"Ġhellenistic":13549,"Ġfurniture":13550,"Ġkaspar":13551,"Ġproxim":13552,"Ġperceive":13553,"Ġdaredev":13554,"Ġunlimited":13555,"Ġliechtenstein":13556,"mith":13557,"rors":13558,"Ġfries":13559,"Ġflanders":13560,"Ġbanner":13561,"roy":13562,"Ġreception":13563,"estock":13564,"Ġnec":13565,"Ġnebr":13566,"icals":13567,"Ġcompressed":13568,"Ġcontam":13569,"Ġgras":13570,"Ġoffspring":13571,"Ġmao":13572,"Ġmeta":13573,"Ġxml":13574,"Ġeukary":13575,"Ġelves":13576,"Ġnorthwestern":13577,"Ġperforms":13578,"Ġhomeop":13579,"Ġberry":13580,"beck":13581,"Ġlawsuit":13582,"Ġpitched":13583,"Ġlengthy":13584,"Ġrounded":13585,"hetics":13586,"Ġinfinitive":13587,"Ġpremiers":13588,"Ġterrorists":13589,"grave":13590,"Ġanalogy":13591,"Ġsuffrage":13592,"Ġhabitat":13593,"Ġmetallic":13594,"Ġaffiliated":13595,"Ġbreathing":13596,"Ġklein":13597,"Ġamphib":13598,"Ġkerala":13599,"Ġpercussion":13600,"Ġgraffiti":13601,"Ġcaffeine":13602,"Ġnebraska":13603,"bir":13604,"base":13605,"front":13606,"yard":13607,"Ġsop":13608,"Ġsak":13609,"Ġcyn":13610,"Ġpest":13611,"alon":13612,"Ġmv":13613,"arck":13614,"icates":13615,"erol":13616,"seau":13617,"Ġplag":13618,"Ġwheels":13619,"Ġroc":13620,"Ġiod":13621,"Ġiber":13622,"Ġraid":13623,"Ġcoloss":13624,"Ġprc":13625,"atha":13626,"Ġblamed":13627,"Ġinfections":13628,"Ġbetting":13629,"Ġgenera":13630,"Ġgenerating":13631,
[...]
